{
  "version": "1.0",
  "truncation": null,
  "padding": null,
  "added_tokens": [
    {
      "id": 0,
      "content": "<PAD>",
      "single_word": false,
      "lstrip": false,
      "rstrip": false,
      "normalized": false,
      "special": true
    },
    {
      "id": 1,
      "content": "<UNK>",
      "single_word": false,
      "lstrip": false,
      "rstrip": false,
      "normalized": false,
      "special": true
    }
  ],
  "normalizer": {
    "type": "Sequence",
    "normalizers": [
      {
        "type": "NFKC"
      },
      {
        "type": "Lowercase"
      }
    ]
  },
  "pre_tokenizer": {
    "type": "ByteLevel",
    "add_prefix_space": true,
    "trim_offsets": true,
    "use_regex": true
  },
  "post_processor": null,
  "decoder": {
    "type": "ByteLevel",
    "add_prefix_space": true,
    "trim_offsets": true,
    "use_regex": true
  },
  "model": {
    "type": "BPE",
    "dropout": null,
    "unk_token": "<UNK>",
    "continuing_subword_prefix": null,
    "end_of_word_suffix": null,
    "fuse_unk": false,
    "byte_fallback": false,
    "ignore_merges": false,
    "vocab": {
      "<PAD>": 0,
      "<UNK>": 1,
      "!": 2,
      "\"": 3,
      "#": 4,
      "$": 5,
      "%": 6,
      "&": 7,
      "'": 8,
      "(": 9,
      ")": 10,
      "*": 11,
      "+": 12,
      ",": 13,
      "-": 14,
      ".": 15,
      "/": 16,
      "0": 17,
      "1": 18,
      "2": 19,
      "3": 20,
      "4": 21,
      "5": 22,
      "6": 23,
      "7": 24,
      "8": 25,
      "9": 26,
      ":": 27,
      ";": 28,
      "<": 29,
      "=": 30,
      ">": 31,
      "?": 32,
      "@": 33,
      "A": 34,
      "B": 35,
      "C": 36,
      "D": 37,
      "E": 38,
      "F": 39,
      "G": 40,
      "H": 41,
      "I": 42,
      "J": 43,
      "K": 44,
      "L": 45,
      "M": 46,
      "N": 47,
      "O": 48,
      "P": 49,
      "Q": 50,
      "R": 51,
      "S": 52,
      "T": 53,
      "U": 54,
      "V": 55,
      "W": 56,
      "X": 57,
      "Y": 58,
      "Z": 59,
      "[": 60,
      "\\": 61,
      "]": 62,
      "^": 63,
      "_": 64,
      "`": 65,
      "a": 66,
      "b": 67,
      "c": 68,
      "d": 69,
      "e": 70,
      "f": 71,
      "g": 72,
      "h": 73,
      "i": 74,
      "j": 75,
      "k": 76,
      "l": 77,
      "m": 78,
      "n": 79,
      "o": 80,
      "p": 81,
      "q": 82,
      "r": 83,
      "s": 84,
      "t": 85,
      "u": 86,
      "v": 87,
      "w": 88,
      "x": 89,
      "y": 90,
      "z": 91,
      "{": 92,
      "|": 93,
      "}": 94,
      "~": 95,
      "¡": 96,
      "¢": 97,
      "£": 98,
      "¤": 99,
      "¥": 100,
      "¦": 101,
      "§": 102,
      "¨": 103,
      "©": 104,
      "ª": 105,
      "«": 106,
      "¬": 107,
      "®": 108,
      "¯": 109,
      "°": 110,
      "±": 111,
      "²": 112,
      "³": 113,
      "´": 114,
      "µ": 115,
      "¶": 116,
      "·": 117,
      "¸": 118,
      "¹": 119,
      "º": 120,
      "»": 121,
      "¼": 122,
      "½": 123,
      "¾": 124,
      "¿": 125,
      "À": 126,
      "Á": 127,
      "Â": 128,
      "Ã": 129,
      "Ä": 130,
      "Å": 131,
      "Æ": 132,
      "Ç": 133,
      "È": 134,
      "É": 135,
      "Ê": 136,
      "Ë": 137,
      "Ì": 138,
      "Í": 139,
      "Î": 140,
      "Ï": 141,
      "Ð": 142,
      "Ñ": 143,
      "Ò": 144,
      "Ó": 145,
      "Ô": 146,
      "Õ": 147,
      "Ö": 148,
      "×": 149,
      "Ø": 150,
      "Ù": 151,
      "Ú": 152,
      "Û": 153,
      "Ü": 154,
      "Ý": 155,
      "Þ": 156,
      "ß": 157,
      "à": 158,
      "á": 159,
      "â": 160,
      "ã": 161,
      "ä": 162,
      "å": 163,
      "æ": 164,
      "ç": 165,
      "è": 166,
      "é": 167,
      "ê": 168,
      "ë": 169,
      "ì": 170,
      "í": 171,
      "î": 172,
      "ï": 173,
      "ð": 174,
      "ñ": 175,
      "ò": 176,
      "ó": 177,
      "ô": 178,
      "õ": 179,
      "ö": 180,
      "÷": 181,
      "ø": 182,
      "ù": 183,
      "ú": 184,
      "û": 185,
      "ü": 186,
      "ý": 187,
      "þ": 188,
      "ÿ": 189,
      "Ā": 190,
      "ā": 191,
      "Ă": 192,
      "ă": 193,
      "Ą": 194,
      "ą": 195,
      "Ć": 196,
      "ć": 197,
      "Ĉ": 198,
      "ĉ": 199,
      "Ċ": 200,
      "ċ": 201,
      "Č": 202,
      "č": 203,
      "Ď": 204,
      "ď": 205,
      "Đ": 206,
      "đ": 207,
      "Ē": 208,
      "ē": 209,
      "Ĕ": 210,
      "ĕ": 211,
      "Ė": 212,
      "ė": 213,
      "Ę": 214,
      "ę": 215,
      "Ě": 216,
      "ě": 217,
      "Ĝ": 218,
      "ĝ": 219,
      "Ğ": 220,
      "ğ": 221,
      "Ġ": 222,
      "ġ": 223,
      "Ģ": 224,
      "ģ": 225,
      "Ĥ": 226,
      "ĥ": 227,
      "Ħ": 228,
      "ħ": 229,
      "Ĩ": 230,
      "ĩ": 231,
      "Ī": 232,
      "ī": 233,
      "Ĭ": 234,
      "ĭ": 235,
      "Į": 236,
      "į": 237,
      "İ": 238,
      "ı": 239,
      "Ĳ": 240,
      "ĳ": 241,
      "Ĵ": 242,
      "ĵ": 243,
      "Ķ": 244,
      "ķ": 245,
      "ĸ": 246,
      "Ĺ": 247,
      "ĺ": 248,
      "Ļ": 249,
      "ļ": 250,
      "Ľ": 251,
      "ľ": 252,
      "Ŀ": 253,
      "ŀ": 254,
      "Ł": 255,
      "ł": 256,
      "Ń": 257,
      "Ġs": 258,
      "an": 259,
      "th": 260,
      "me": 261,
      "in": 262,
      "Ġw": 263,
      "or": 264,
      "Ġan": 265,
      "Ġi": 266,
      "er": 267,
      "Ġth": 268,
      "ar": 269,
      "Ġl": 270,
      "Ġn": 271,
      "Ġb": 272,
      "Ġa": 273,
      "Ġm": 274,
      "ing": 275,
      "Ġf": 276,
      "Ġand": 277,
      "Ġno": 278,
      "re": 279,
      "ut": 280,
      "Ġc": 281,
      "ke": 282,
      "on": 283,
      "Ġd": 284,
      "Ġthe": 285,
      "at": 286,
      "Ġg": 287,
      "en": 288,
      "ant": 289,
      "Ġli": 290,
      "as": 291,
      "Ġp": 292,
      "al": 293,
      "Ġh": 294,
      "Ġt": 295,
      "Ġlike": 296,
      "ho": 297,
      "ome": 298,
      "Ġbut": 299,
      "ts": 300,
      "Ġwi": 301,
      "ou": 302,
      "Ġwith": 303,
      "Ġme": 304,
      "Ġo": 305,
      "st": 306,
      "om": 307,
      "Ġwant": 308,
      "Ġre": 309,
      "ic": 310,
      "thing": 311,
      "Ġnot": 312,
      "ow": 313,
      "Ġst": 314,
      "es": 315,
      "Ġsome": 316,
      "Ġr": 317,
      "se": 318,
      "il": 319,
      "ime": 320,
      "Ġsomething": 321,
      "Ġk": 322,
      "ve": 323,
      "id": 324,
      "Ġanime": 325,
      "Ġgi": 326,
      "Ġto": 327,
      "Ġse": 328,
      "Ġor": 329,
      "gh": 330,
      "Ġof": 331,
      "Ġsu": 332,
      "nd": 333,
      "Ġsc": 334,
      "ld": 335,
      "Ġliked": 336,
      "ion": 337,
      "ch": 338,
      "am": 339,
      "Ġe": 340,
      "Ġma": 341,
      "le": 342,
      "oo": 343,
      "ct": 344,
      "ly": 345,
      "Ġfor": 346,
      "ol": 347,
      "Ġsho": 348,
      "im": 349,
      "igh": 350,
      "bo": 351,
      "ore": 352,
      "Ġj": 353,
      "Ġgive": 354,
      "Ġthat": 355,
      "un": 356,
      "Ġdr": 357,
      "Ġrec": 358,
      "vi": 359,
      "Ġsp": 360,
      "it": 361,
      "ers": 362,
      "ad": 363,
      "ind": 364,
      "mend": 365,
      "ommend": 366,
      "Ġrecommend": 367,
      "ce": 368,
      "per": 369,
      "ical": 370,
      "Ġsuper": 371,
      "Ġin": 372,
      "Ġpow": 373,
      "ure": 374,
      "Ġch": 375,
      "ur": 376,
      "is": 377,
      "em": 378,
      "Ġstu": 379,
      "Ġro": 380,
      "ast": 381,
      "ff": 382,
      "ven": 383,
      "Ġad": 384,
      "Ġbe": 385,
      "hool": 386,
      "vo": 387,
      "Ġschool": 388,
      "ary": 389,
      "out": 390,
      "Ġavo": 391,
      "Ġavoid": 392,
      "Ġlo": 393,
      "Ġsim": 394,
      "ilar": 395,
      "Ġsimilar": 396,
      "Ġdo": 397,
      "Ġwithout": 398,
      "ting": 399,
      "Ġmore": 400,
      "Ġrobo": 401,
      "ara": 402,
      "Ġy": 403,
      "Ġcast": 404,
      "Ġshow": 405,
      "ama": 406,
      "ed": 407,
      "Ġvi": 408,
      "Ġis": 409,
      "ai": 410,
      "ame": 411,
      "Ġstuff": 412,
      "hi": 413,
      "dy": 414,
      "ial": 415,
      "Ġcome": 416,
      "ould": 417,
      "Ġchara": 418,
      "Ġdrama": 419,
      "Ġcharact": 420,
      "Ġpowers": 421,
      "low": 422,
      "hol": 423,
      "Ġfigh": 424,
      "Ġju": 425,
      "antas": 426,
      "ki": 427,
      "Ġfantas": 428,
      "Ġfantasy": 429,
      "ason": 430,
      "Ġset": 431,
      "Ġjust": 432,
      "Ġhar": 433,
      "Ġslow": 434,
      "Ġkid": 435,
      "Ġvib": 436,
      "ense": 437,
      "Ġvibes": 438,
      "Ġharem": 439,
      "art": 440,
      "Ġwould": 441,
      "king": 442,
      "Ġkids": 443,
      "ku": 444,
      "ist": 445,
      "ul": 446,
      "ark": 447,
      "ec": 448,
      "Ġrom": 449,
      "Ġcomedy": 450,
      "Ġsetting": 451,
      "Ġdark": 452,
      "ep": 453,
      "gical": 454,
      "Ġrobots": 455,
      "use": 456,
      "Ġwor": 457,
      "Ġcan": 458,
      "Ġcharacter": 459,
      "ir": 460,
      "ver": 461,
      "ation": 462,
      "ther": 463,
      "one": 464,
      "Ġmech": 465,
      "Ġas": 466,
      "ot": 467,
      "Ġlove": 468,
      "ea": 469,
      "Ġmy": 470,
      "Ġwh": 471,
      "Ġyou": 472,
      "Ġmat": 473,
      "el": 474,
      "Ġ2": 475,
      "ood": 476,
      "arts": 477,
      "ase": 478,
      "ay": 479,
      "ction": 480,
      "Ġbl": 481,
      "Ġit": 482,
      "and": 483,
      "Ġal": 484,
      "Ġgame": 485,
      "vent": 486,
      "Ġadvent": 487,
      "Ġseason": 488,
      "Ġadventure": 489,
      "Ġloo": 490,
      "Ġlooking": 491,
      "sy": 492,
      "Ġfr": 493,
      "Ġne": 494,
      "Ġpsy": 495,
      "ory": 496,
      "ult": 497,
      "Ġspor": 498,
      "Ġsports": 499,
      "Ġpsyc": 500,
      "Ġmil": 501,
      "Ġint": 502,
      "unn": 503,
      "ance": 504,
      "Ġgiant": 505,
      "Ġscary": 506,
      "ything": 507,
      "nat": 508,
      "Ġfind": 509,
      "Ġmature": 510,
      "Ġmo": 511,
      "Ġam": 512,
      "itary": 513,
      "Ġmilitary": 514,
      "unny": 515,
      "ecial": 516,
      "Ġanything": 517,
      "Ġhist": 518,
      "orical": 519,
      "Ġhistorical": 520,
      "us": 521,
      "Ġple": 522,
      "Ġplease": 523,
      "Ġfunny": 524,
      "Ġadult": 525,
      "Ġsupernat": 526,
      "ural": 527,
      "Ġsupernatural": 528,
      "chi": 529,
      "Ġcl": 530,
      "Ġgames": 531,
      "ogical": 532,
      "hological": 533,
      "Ġpsychological": 534,
      "Ġmind": 535,
      "fer": 536,
      "Ġaction": 537,
      "Ġu": 538,
      "ord": 539,
      "ag": 540,
      "Ġreal": 541,
      "Ġworld": 542,
      "Ġfrom": 543,
      "Ġke": 544,
      "Ġstory": 545,
      "ac": 546,
      "ster": 547,
      "its": 548,
      "shi": 549,
      "Ġmag": 550,
      "Ġpre": 551,
      "ab": 552,
      "Ġdat": 553,
      "Ġold": 554,
      "Ġski": 555,
      "ence": 556,
      "Ġskip": 557,
      "Ġsh": 558,
      "Ġhor": 559,
      "Ġsw": 560,
      "Ġtoo": 561,
      "Ġhigh": 562,
      "Ġex": 563,
      "cchi": 564,
      "Ġsword": 565,
      "Ġthin": 566,
      "tle": 567,
      "ess": 568,
      "Ġmagic": 569,
      "ss": 570,
      "ror": 571,
      "ak": 572,
      "su": 573,
      "Ġhea": 574,
      "ter": 575,
      "Ġcom": 576,
      "Ġecchi": 577,
      "Ġromant": 578,
      "Ġhorror": 579,
      "oc": 580,
      "de": 581,
      "verse": 582,
      "Ġromantic": 583,
      "ough": 584,
      "Ġen": 585,
      "Ġreverse": 586,
      "Ġsad": 587,
      "be": 588,
      "Ġmyster": 589,
      "sp": 590,
      "Ġdating": 591,
      "qu": 592,
      "jo": 593,
      "Ġmay": 594,
      "bout": 595,
      "Ġrobot": 596,
      "Ġgore": 597,
      "other": 598,
      "vy": 599,
      "Ġheavy": 600,
      "Ġem": 601,
      "Ġshows": 602,
      "Ġpo": 603,
      "Ġhas": 604,
      "Ġsusp": 605,
      "Ġsuspense": 606,
      "Ġmecha": 607,
      "Ġabout": 608,
      "Ġfighting": 609,
      "Ġfoc": 610,
      "used": 611,
      "Ġfocused": 612,
      "Ġanother": 613,
      "Ġarts": 614,
      "Ġmart": 615,
      "otion": 616,
      "Ġintense": 617,
      "Ġmartial": 618,
      "Ġdri": 619,
      "inen": 620,
      "Ġseinen": 621,
      "Ġmystery": 622,
      "Ġmaybe": 623,
      "Ġemotion": 624,
      "Ġemotional": 625,
      "Ġwhol": 626,
      "esome": 627,
      "Ġwholesome": 628,
      "ro": 629,
      "unen": 630,
      "Ġolder": 631,
      "Ġromance": 632,
      "so": 633,
      "ent": 634,
      "Ġfights": 635,
      "Ġshounen": 636,
      "Ġpower": 637,
      "ri": 638,
      "est": 639,
      "Ġdriven": 640,
      "Ġprefer": 641,
      "Ġqu": 642,
      "Ġon": 643,
      "Ġwas": 644,
      "Ġthink": 645,
      "Ġif": 646,
      "Ġkeep": 647,
      "ne": 648,
      "eel": 649,
      "Ġgen": 650,
      "Ġfeel": 651,
      "Ġspir": 652,
      "et": 653,
      "Ġalso": 654,
      "aku": 655,
      "ably": 656,
      "Ġpreferably": 657,
      "own": 658,
      "Ġes": 659,
      "pecial": 660,
      "Ġespecial": 661,
      "Ġespecially": 662,
      "Ġreally": 663,
      "Ġthing": 664,
      "Ġmain": 665,
      "ere": 666,
      "Ġac": 667,
      "fe": 668,
      "Ġfin": 669,
      "Ġclo": 670,
      "our": 671,
      "ang": 672,
      "Ġbec": 673,
      "Ġde": 674,
      "Ġless": 675,
      "'s": 676,
      "Ġcomb": 677,
      "uu": 678,
      "Ġaf": 679,
      "Ġgr": 680,
      "Ġpart": 681,
      "Ġthan": 682,
      "Ġafter": 683,
      "Ġclose": 684,
      "vie": 685,
      "adem": 686,
      "Ġacadem": 687,
      "ass": 688,
      "stly": 689,
      "Ġgenre": 690,
      "Ġone": 691,
      "led": 692,
      "ko": 693,
      "Ġspecial": 694,
      "Ġsame": 695,
      "tal": 696,
      "Ġte": 697,
      "kai": 698,
      "Ġreason": 699,
      "Ġjo": 700,
      "od": 701,
      "ill": 702,
      "Ġmovie": 703,
      "Ġthough": 704,
      "ong": 705,
      "Ġlife": 706,
      "Ġz": 707,
      "Ġcar": 708,
      "Ġwhat": 709,
      "Ġbal": 710,
      "Ġmood": 711,
      "Ġrecommendation": 712,
      "mon": 713,
      "op": 714,
      "ice": 715,
      "Ġblood": 716,
      "Ġar": 717,
      "Ġle": 718,
      "Ġwa": 719,
      "Ġgho": 720,
      "ate": 721,
      "li": 722,
      "Ġbat": 723,
      "Ġtw": 724,
      "nts": 725,
      "you": 726,
      "Ġni": 727,
      "Ġund": 728,
      "pl": 729,
      "Ġbattle": 730,
      "Ġra": 731,
      "ile": 732,
      "Ġmome": 733,
      "ght": 734,
      "Ġtone": 735,
      "Ġgir": 736,
      "Ġfeels": 737,
      "um": 738,
      "ress": 739,
      "erk": 740,
      "ero": 741,
      "Ġlit": 742,
      "Ġtri": 743,
      "ond": 744,
      "Ġmoments": 745,
      "Ġlight": 746,
      "Ġgirl": 747,
      "Ġthis": 748,
      "room": 749,
      "Ġmagical": 750,
      "Ġmu": 751,
      "ney": 752,
      "Ġjour": 753,
      "Ġquest": 754,
      "Ġinto": 755,
      "Ġmen": 756,
      "Ġclass": 757,
      "Ġlittle": 758,
      "les": 759,
      "Ġjourney": 760,
      "Ġnice": 761,
      "Ġgre": 762,
      "Ġ3": 763,
      "Ġspirits": 764,
      "dent": 765,
      "Ġstudent": 766,
      "Ġacademy": 767,
      "lation": 768,
      "Ġclassroom": 769,
      "Ġdi": 770,
      "irst": 771,
      "ists": 772,
      "Ġup": 773,
      "Ġdep": 774,
      "Ġstill": 775,
      "oody": 776,
      "olence": 777,
      "Ġviolence": 778,
      "Ġbloody": 779,
      "kes": 780,
      "Ġjokes": 781,
      "Ġparts": 782,
      "fy": 783,
      "Ġgoo": 784,
      "Ġgoofy": 785,
      "Ġfirst": 786,
      "Ġtwists": 787,
      "Ġcharacters": 788,
      "ship": 789,
      "Ġmental": 790,
      "oku": 791,
      "ari": 792,
      "Ġcombat": 793,
      "Ġtear": 794,
      "oration": 795,
      "Ġexpl": 796,
      "Ġexploration": 797,
      "ire": 798,
      "Ġswords": 799,
      "Ġrelation": 800,
      "Ġrelationship": 801,
      "epy": 802,
      "jerk": 803,
      "Ġtearjerk": 804,
      "Ġtearjerker": 805,
      "sts": 806,
      "tsu": 807,
      "Ġghosts": 808,
      "Ġcre": 809,
      "dic": 810,
      "Ġcomedic": 811,
      "Ġpac": 812,
      "Ġpacing": 813,
      "Ġfight": 814,
      "iz": 815,
      "yed": 816,
      "Ġcreepy": 817,
      "Ġlean": 818,
      "Ġdis": 819,
      "ressing": 820,
      "Ġdepressing": 821,
      "ard": 822,
      "ands": 823,
      "Ġgrown": 824,
      "Ġthere": 825,
      "Ġid": 826,
      "very": 827,
      "enes": 828,
      "Ġscenes": 829,
      "Ġgreat": 830,
      "Ġenjo": 831,
      "Ġenjoyed": 832,
      "Ġuse": 833,
      "Ġunder": 834,
      "Ġother": 835,
      "Ġworlds": 836,
      "angles": 837,
      "Ġtriangles": 838,
      "Ġout": 839,
      "ints": 840,
      "atsu": 841,
      "Ġmostly": 842,
      "Ġpl": 843,
      "Ġpoints": 844,
      "Ġlots": 845,
      "Ġits": 846,
      "Ġhad": 847,
      "Ġunderst": 848,
      "Ġsuits": 849,
      "ause": 850,
      "Ġhand": 851,
      "Ġbecause": 852,
      "Ġstr": 853,
      "ish": 854,
      "Ġmuch": 855,
      "Ġide": 856,
      "Ġideal": 857,
      "Ġunderstands": 858,
      "ia": 859,
      "ked": 860,
      "Ġworked": 861,
      "ka": 862,
      "ort": 863,
      "Ġga": 864,
      "Ġbalance": 865,
      "ous": 866,
      "Ġreasons": 867,
      "ry": 868,
      "Ġwhile": 869,
      "Ġmainly": 870,
      "Ġthings": 871,
      "Ġhandled": 872,
      "Ġsin": 873,
      "amp": 874,
      "like": 875,
      "Ġdislike": 876,
      "Ġrefer": 877,
      "Ġii": 878,
      "ack": 879,
      "ell": 880,
      "ky": 881,
      "up": 882,
      "ashi": 883,
      "ide": 884,
      "Ġrather": 885,
      "bor": 886,
      "Ġhero": 887,
      "ib": 888,
      "erg": 889,
      "Ġgood": 890,
      "mo": 891,
      "Ġsen": 892,
      "Ġbas": 893,
      "Ġshi": 894,
      "ig": 895,
      "hood": 896,
      "Ġcould": 897,
      "Ġenerg": 898,
      "Ġenergy": 899,
      "Ġv": 900,
      "ound": 901,
      "Ġko": 902,
      "tch": 903,
      "ity": 904,
      "Ġreference": 905,
      "!!": 906,
      "ighbor": 907,
      "Ġneighbor": 908,
      "ji": 909,
      "Ġlost": 910,
      "Ġsince": 911,
      "way": 912,
      "Ġnear": 913,
      "ise": 914,
      "Ġneighborhood": 915,
      "Ġlea": 916,
      "key": 917,
      "Ġsec": 918,
      "if": 919,
      "ono": 920,
      "Ġlong": 921,
      "though": 922,
      "Ġalthough": 923,
      "Ġlow": 924,
      "Ġlowkey": 925,
      "ect": 926,
      "Ġfine": 927,
      "Ġkind": 928,
      "Ġx": 929,
      "ha": 930,
      "Ġsecond": 931,
      "oun": 932,
      "Ġfam": 933,
      "Ġleave": 934,
      "Ġcare": 935,
      "end": 936,
      "san": 937,
      "Ġim": 938,
      "ge": 939,
      "Ġshou": 940,
      "Ġnew": 941,
      "ura": 942,
      "Ġaway": 943,
      "Ġtsu": 944,
      "hou": 945,
      "ik": 946,
      "Ġfamil": 947,
      "ano": 948,
      "Ġoff": 949,
      "Ġ(": 950,
      "asing": 951,
      "Ġspirit": 952,
      "va": 953,
      "Ġtime": 954,
      "Ġcon": 955,
      "Ġfeeling": 956,
      "aru": 957,
      "ami": 958,
      "Ġdrag": 959,
      "Ġdragon": 960,
      "aw": 961,
      "ode": 962,
      "uro": 963,
      "Ġton": 964,
      "Ġdown": 965,
      "urn": 966,
      "ap": 967,
      "ori": 968,
      "Ġget": 969,
      "tr": 970,
      "Ġleaning": 971,
      "Ġpr": 972,
      "Ġstrong": 973,
      "gg": 974,
      "arn": 975,
      "Ġsa": 976,
      "Ġova": 977,
      "Ġmade": 978,
      "Ġ1": 979,
      "Ġgu": 980,
      "Ġwat": 981,
      "sing": 982,
      "Ġhow": 983,
      "ible": 984,
      "Ġposs": 985,
      "Ġok": 986,
      "Ġwho": 987,
      "Ġstand": 988,
      "Ġfinish": 989,
      "'t": 990,
      "'m": 991,
      "Ġonly": 992,
      "iy": 993,
      "Ġare": 994,
      "Ġwo": 995,
      "Ġsound": 996,
      "Ġchasing": 997,
      "Ġpossible": 998,
      "Ġpat": 999,
      "iar": 1000,
      "Ġfamiliar": 1001,
      "Ġbecome": 1002,
      "ters": 1003,
      "Ġbon": 1004,
      "ine": 1005,
      "ict": 1006,
      "Ġcop": 1007,
      "Ġten": 1008,
      "ta": 1009,
      "Ġyu": 1010,
      "ounc": 1011,
      "ific": 1012,
      "Ġgot": 1013,
      "Ġturn": 1014,
      "Ġstarts": 1015,
      "Ġbecomes": 1016,
      "not": 1017,
      "Ġwhere": 1018,
      "Ġfar": 1019,
      "te": 1020,
      "Ġru": 1021,
      "Ġidk": 1022,
      "Ġside": 1023,
      "Ġcommon": 1024,
      "Ġbonus": 1025,
      "off": 1026,
      "tw": 1027,
      "Ġdist": 1028,
      "ution": 1029,
      "Ġpul": 1030,
      "Ġsetup": 1031,
      "ecution": 1032,
      "Ġcannot": 1033,
      "Ġexecution": 1034,
      "Ġpulled": 1035,
      "read": 1036,
      "Ġep": 1037,
      "ired": 1038,
      "ience": 1039,
      "kun": 1040,
      "Ġstop": 1041,
      "Ġeven": 1042,
      "Ġspect": 1043,
      "Ġmatters": 1044,
      "age": 1045,
      "acle": 1046,
      "Ġnearly": 1047,
      "Ġspectacle": 1048,
      "ana": 1049,
      "Ġblack": 1050,
      "Ġhone": 1051,
      "Ġspec": 1052,
      "Ġqual": 1053,
      "Ġda": 1054,
      "een": 1055,
      "Ġwanted": 1056,
      "Ġsomeone": 1057,
      "vious": 1058,
      "Ġstre": 1059,
      "Ġking": 1060,
      "Ġwhy": 1061,
      "Ġstay": 1062,
      "Ġvery": 1063,
      "Ġab": 1064,
      "Ġkuro": 1065,
      "Ġob": 1066,
      "Ġsounds": 1067,
      "ite": 1068,
      "ictory": 1069,
      "Ġneed": 1070,
      "Ġkeeps": 1071,
      "Ġruin": 1072,
      "Ġquality": 1073,
      "inction": 1074,
      "Ġbo": 1075,
      "Ġdistinction": 1076,
      "Ġstayed": 1077,
      "ken": 1078,
      "Ġhonestly": 1079,
      "Ġspecific": 1080,
      "hen": 1081,
      "Ġat": 1082,
      "Ġlosing": 1083,
      "Ġalmo": 1084,
      "Ġalmost": 1085,
      "Ġthread": 1086,
      "Ġlate": 1087,
      "Ġbounc": 1088,
      "Ġtired": 1089,
      "Ġbeen": 1090,
      "Ġbetw": 1091,
      "Ġlately": 1092,
      "Ġbouncing": 1093,
      "Ġbetween": 1094,
      "Ġbit": 1095,
      "ward": 1096,
      "Ġ&": 1097,
      "Ġby": 1098,
      "Ġafterward": 1099,
      "Ġnone": 1100,
      "ines": 1101,
      "Ġdid": 1102,
      "Ġcombines": 1103,
      "Ġtoned": 1104,
      "Ġcopy": 1105,
      "Ġobvious": 1106,
      "Ġcame": 1107,
      "adictory": 1108,
      "isode": 1109,
      "Ġcontr": 1110,
      "Ġepisode": 1111,
      "Ġcontradictory": 1112,
      "Ġha": 1113,
      "ick": 1114,
      "Ġka": 1115,
      "Ġshort": 1116,
      "utsu": 1117,
      "Ġevery": 1118,
      "erent": 1119,
      "fferent": 1120,
      "Ġdeal": 1121,
      "Ġdifferent": 1122,
      "!,": 1123,
      "inc": 1124,
      "port": 1125,
      "Ġasking": 1126,
      "Ġthinking": 1127,
      "Ġimport": 1128,
      "Ġimportant": 1129,
      "Ġpay": 1130,
      "Ġearn": 1131,
      "tched": 1132,
      "Ġokay": 1133,
      "Ġpatience": 1134,
      "Ġstretched": 1135,
      "Ġpayoff": 1136,
      "Ġearned": 1137,
      "Ġwell": 1138,
      "Ġball": 1139,
      "ue": 1140,
      "jou": 1141,
      "aki": 1142,
      "ample": 1143,
      "ush": 1144,
      "mise": 1145,
      "Ġrealiz": 1146,
      "Ġpremise": 1147,
      "Ġcared": 1148,
      "Ġbasic": 1149,
      "Ġfinishing": 1150,
      "Ġrealized": 1151,
      "ight": 1152,
      "hind": 1153,
      "Ġbehind": 1154,
      "Ġleans": 1155,
      "Ġidea": 1156,
      "Ġdon": 1157,
      "sekai": 1158,
      "Ġhai": 1159,
      "ra": 1160,
      "Ġexample": 1161,
      "Ġclosest": 1162,
      "Ġbalanced": 1163,
      "Ġshin": 1164,
      "Ġken": 1165,
      "os": 1166,
      "Ġisekai": 1167,
      "ute": 1168,
      "ie": 1169,
      "ichi": 1170,
      "ora": 1171,
      "Ġkim": 1172,
      "gat": 1173,
      "Ġboku": 1174,
      "Ġmon": 1175,
      "Ġhun": 1176,
      "ma": 1177,
      "Ġgod": 1178,
      "Ġhan": 1179,
      "ensei": 1180,
      "jin": 1181,
      "chan": 1182,
      "Ġhunter": 1183,
      "gatari": 1184,
      "Ġacademia": 1185,
      "Ġgirls": 1186,
      "Ġkou": 1187,
      "Ġkam": 1188,
      "oto": 1189,
      "Ġsak": 1190,
      "iss": 1191,
      "yo": 1192,
      "sei": 1193,
      "Ġkyou": 1194,
      "Ġdead": 1195,
      "kou": 1196,
      "Ġot": 1197,
      "Ġfri": 1198,
      "aga": 1199,
      "Ġna": 1200,
      "Ġsai": 1201,
      "Ġwar": 1202,
      "Ġmus": 1203,
      "Ġ-": 1204,
      "Ġanim": 1205,
      "Ġdem": 1206,
      "int": 1207,
      "Ġser": 1208,
      "Ġhe": 1209,
      "Ġwork": 1210,
      "oro": 1211,
      "go": 1212,
      "zu": 1213,
      "ian": 1214,
      "Ġbase": 1215,
      "Ġpick": 1216,
      "Ġwatch": 1217,
      "Ġseven": 1218,
      "ndam": 1219,
      "Ġgundam": 1220,
      "sol": 1221,
      "Ġkano": 1222,
      "Ġabsol": 1223,
      "Ġabsolute": 1224,
      "Ġao": 1225,
      "aka": 1226,
      "Ġtow": 1227,
      "Ġkai": 1228,
      "Ġcr": 1229,
      "Ġblue": 1230,
      "Ġfinal": 1231,
      "gi": 1232,
      "ive": 1233,
      "Ġgo": 1234,
      "Ġmake": 1235,
      "man": 1236,
      "Ġanimation": 1237,
      "âĺ": 1238,
      "Ġabsolutely": 1239,
      "ket": 1240,
      "Ġdan": 1241,
      "Ġplus": 1242,
      "pp": 1243,
      "ata": 1244,
      "Ġkn": 1245,
      "uy": 1246,
      "Ġou": 1247,
      "Ġkimi": 1248,
      "vil": 1249,
      "Ġwitch": 1250,
      "eki": 1251,
      "Ġtak": 1252,
      "ade": 1253,
      "Ġboo": 1254,
      "Ġkanojo": 1255,
      "00": 1256,
      "bu": 1257,
      "kyou": 1258,
      "ru": 1259,
      "Ġmahou": 1260,
      "bl": 1261,
      "ron": 1262,
      "itsu": 1263,
      "iya": 1264,
      "Ġworks": 1265,
      "Ġsei": 1266,
      "Ġkara": 1267,
      "sh": 1268,
      "Ġsugg": 1269,
      "Ġsuggest": 1270,
      "Ġfriend": 1271,
      "Ġman": 1272,
      "Ġprinc": 1273,
      "Ġstar": 1274,
      "agi": 1275,
      "Ġdog": 1276,
      "ace": 1277,
      "Ġspecials": 1278,
      "Ġsekai": 1279,
      "Ġmaid": 1280,
      "Ġ4": 1281,
      "Ġtry": 1282,
      "urai": 1283,
      "Ġbasket": 1284,
      "Ġshoujo": 1285,
      "Ġprincess": 1286,
      "ita": 1287,
      "rd": 1288,
      "Ġdes": 1289,
      "Ġday": 1290,
      "Ġlive": 1291,
      "Ġstart": 1292,
      "Ġhaiky": 1293,
      "Ġpush": 1294,
      "Ġtoward": 1295,
      "Ġtensei": 1296,
      "uru": 1297,
      "âĺĨ": 1298,
      "Ġover": 1299,
      "Ã©": 1300,
      "omo": 1301,
      "gim": 1302,
      "Ġnan": 1303,
      "Ġpok": 1304,
      "Ġsl": 1305,
      "all": 1306,
      "ild": 1307,
      "Ġyuu": 1308,
      "Ġmoon": 1309,
      "Ġkoi": 1310,
      "mono": 1311,
      "Ġmast": 1312,
      "Ġfriends": 1313,
      "Ġun": 1314,
      "'d": 1315,
      "Ġbun": 1316,
      "Ġsaga": 1317,
      "kan": 1318,
      "uto": 1319,
      "Ġnatsu": 1320,
      "asu": 1321,
      "zai": 1322,
      "nt": 1323,
      "ren": 1324,
      "itan": 1325,
      "koku": 1326,
      "ies": 1327,
      "bi": 1328,
      "Ġsam": 1329,
      "Ġbr": 1330,
      "Ġsamurai": 1331,
      "ishi": 1332,
      "Ġmob": 1333,
      "Ġmaster": 1334,
      "ash": 1335,
      "ampire": 1336,
      "Ġvampire": 1337,
      "Ġatt": 1338,
      "Ġdogs": 1339,
      "Ġyo": 1340,
      "kyo": 1341,
      "ull": 1342,
      "Ġcard": 1343,
      "Ġreven": 1344,
      "ushi": 1345,
      "Ġbook": 1346,
      "usha": 1347,
      "onogatari": 1348,
      "Ġyour": 1349,
      "Ġstone": 1350,
      "Ġdemon": 1351,
      "ty": 1352,
      "Ġchi": 1353,
      "uma": 1354,
      "na": 1355,
      "Ġdevil": 1356,
      "Ġhit": 1357,
      "uri": 1358,
      "oshi": 1359,
      "Ġmin": 1360,
      "fu": 1361,
      "Ġ0": 1362,
      "Ġlast": 1363,
      "Ġtokyo": 1364,
      "Ġzero": 1365,
      "Ġstray": 1366,
      "Ġang": 1367,
      "Ġore": 1368,
      "ume": 1369,
      "Ġyuusha": 1370,
      "Ġattack": 1371,
      "Ġchron": 1372,
      "Ġchronic": 1373,
      "orc": 1374,
      "shitsu": 1375,
      "sou": 1376,
      "Ġfull": 1377,
      "Ġut": 1378,
      "Ġshing": 1379,
      "Ġangel": 1380,
      "kk": 1381,
      "Ġred": 1382,
      "Ġpls": 1383,
      "Ġkyo": 1384,
      "Ġel": 1385,
      "ub": 1386,
      "Ġfut": 1387,
      "ba": 1388,
      "Ġboy": 1389,
      "Ã©mon": 1390,
      "ĠpokÃ©mon": 1391,
      "Ġrn": 1392,
      "Ġsuit": 1393,
      "Ġkinda": 1394,
      "Ġdesu": 1395,
      "Ġdigim": 1396,
      "Ġdigimon": 1397,
      "Ġharu": 1398,
      "ck": 1399,
      "lord": 1400,
      "Ġhou": 1401,
      "isen": 1402,
      "Ġoverlord": 1403,
      "Ġshingeki": 1404,
      "ilor": 1405,
      "Ġsailor": 1406,
      "yuu": 1407,
      "Ġnar": 1408,
      "Ġren": 1409,
      "der": 1410,
      "Ġâ": 1411,
      "reak": 1412,
      "Ġpro": 1413,
      "Ġshit": 1414,
      "Ġzom": 1415,
      "den": 1416,
      "Ġsora": 1417,
      "Ġta": 1418,
      "Ġtitan": 1419,
      "ain": 1420,
      "Ġart": 1421,
      "Ġmaou": 1422,
      "Ġexorc": 1423,
      "ll": 1424,
      "land": 1425,
      "Ġkan": 1426,
      "Ġiii": 1427,
      "Ġadd": 1428,
      "Ġmonster": 1429,
      "Ġ5": 1430,
      "let": 1431,
      "gan": 1432,
      "Ġdays": 1433,
      "Ġtr": 1434,
      "Ġnatsume": 1435,
      "Ġmobile": 1436,
      "ier": 1437,
      "Ġmar": 1438,
      "Ġgint": 1439,
      "Ġgintama": 1440,
      "Ġcol": 1441,
      "kemon": 1442,
      "Ġpie": 1443,
      "Ġpokemon": 1444,
      "Ġpiece": 1445,
      "jutsu": 1446,
      "Ġsum": 1447,
      "ima": 1448,
      "Ġjun": 1449,
      "Ġwhen": 1450,
      "eru": 1451,
      "Ġkono": 1452,
      "Ġchild": 1453,
      "elion": 1454,
      "Ġgold": 1455,
      "Ġsenshi": 1456,
      "20": 1457,
      "ces": 1458,
      "Ġminus": 1459,
      "ok": 1460,
      "Ġak": 1461,
      "Ġdea": 1462,
      "Ġsou": 1463,
      "Ġbaki": 1464,
      "une": 1465,
      "Ġbey": 1466,
      "unch": 1467,
      "Ġexorcist": 1468,
      "Ġfai": 1469,
      "Ġfairy": 1470,
      "are": 1471,
      "Ġcry": 1472,
      "line": 1473,
      "ei": 1474,
      "zum": 1475,
      "Ġbou": 1476,
      "Ġjojo": 1477,
      "Ġtrying": 1478,
      "Ġsakura": 1479,
      "urashi": 1480,
      "dom": 1481,
      "Ġlord": 1482,
      "Ġfl": 1483,
      "Ġku": 1484,
      "aby": 1485,
      "Ġplan": 1486,
      "Ġwatashi": 1487,
      "Ġkingdom": 1488,
      "ves": 1489,
      "Ġla": 1490,
      "achi": 1491,
      "Ġson": 1492,
      "Ġfate": 1493,
      "Ġflow": 1494,
      "ree": 1495,
      "chem": 1496,
      "ister": 1497,
      "Ġalchem": 1498,
      "Ġchildren": 1499,
      "juu": 1500,
      "Ġ)": 1501,
      "koi": 1502,
      "Ġkyojin": 1503,
      "Ġpsycho": 1504,
      "Ġso": 1505,
      "Ġkuroko": 1506,
      "Ġchronicle": 1507,
      "Ġstage": 1508,
      "iri": 1509,
      "iru": 1510,
      "Ġdate": 1511,
      "Ġheaven": 1512,
      "Ġmusume": 1513,
      "Ġrevenge": 1514,
      "Ġtai": 1515,
      "Ġkami": 1516,
      "Ġev": 1517,
      "Ġend": 1518,
      "Ġbu": 1519,
      "Ġhave": 1520,
      "goto": 1521,
      "Ġmiss": 1522,
      "Ġgal": 1523,
      "Ġher": 1524,
      "Ġonline": 1525,
      "!:": 1526,
      "Ġarc": 1527,
      "Ġval": 1528,
      "ze": 1529,
      "Ġaround": 1530,
      "asha": 1531,
      "Ġseries": 1532,
      "Ġdeath": 1533,
      "Ġfuture": 1534,
      "gun": 1535,
      "Ġtom": 1536,
      "Ġkuma": 1537,
      "Ġyaku": 1538,
      "hon": 1539,
      "Ġmir": 1540,
      "ool": 1541,
      "ble": 1542,
      "ona": 1543,
      "Ġnaruto": 1544,
      "Ġalchemist": 1545,
      "oll": 1546,
      "ito": 1547,
      "ada": 1548,
      "app": 1549,
      "Ġtakagi": 1550,
      "Ġplanet": 1551,
      "Ġhig": 1552,
      "ows": 1553,
      "Ġkag": 1554,
      "chuu": 1555,
      "Ġkidou": 1556,
      "Ġdance": 1557,
      "akus": 1558,
      "Ġhaikyuu": 1559,
      "Ġnanatsu": 1560,
      "Ġtaizai": 1561,
      "ah": 1562,
      "ber": 1563,
      "aret": 1564,
      "Ġkill": 1565,
      "Ġkiz": 1566,
      "Ġwhite": 1567,
      "monogatari": 1568,
      "Ġph": 1569,
      "orm": 1570,
      "Ġgolden": 1571,
      "ach": 1572,
      "fri": 1573,
      "Ġble": 1574,
      "Ġcamp": 1575,
      "angelion": 1576,
      "Ġevangelion": 1577,
      "friend": 1578,
      "Ġbleach": 1579,
      "!?": 1580,
      "hime": 1581,
      "Ġtan": 1582,
      "han": 1583,
      "arre": 1584,
      "Ġbiz": 1585,
      "Ġinuy": 1586,
      "Ġ100": 1587,
      "Ġbizarre": 1588,
      "bou": 1589,
      "tv": 1590,
      "Ġpar": 1591,
      "Ġshu": 1592,
      "Ġshould": 1593,
      "Ġtest": 1594,
      "Ġnex": 1595,
      "Ġmirai": 1596,
      "kin": 1597,
      "vers": 1598,
      "Ġge": 1599,
      "Ġkyoukai": 1600,
      "Ġry": 1601,
      "Ġkiss": 1602,
      "Ġghost": 1603,
      "orn": 1604,
      "Ġnow": 1605,
      "ream": 1606,
      "Ġdream": 1607,
      "Ġseire": 1608,
      "Ġclub": 1609,
      "ike": 1610,
      "ler": 1611,
      "Ġir": 1612,
      "ats": 1613,
      "Ġfru": 1614,
      "wa": 1615,
      "Ġkoukou": 1616,
      "Ġmad": 1617,
      "iro": 1618,
      "ross": 1619,
      "bie": 1620,
      "Ġsun": 1621,
      "ako": 1622,
      "Ġbungo": 1623,
      "Ġzombie": 1624,
      "ja": 1625,
      "Ġfree": 1626,
      "Ġter": 1627,
      "ars": 1628,
      "Ġtou": 1629,
      "Ġblade": 1630,
      "Ġhaj": 1631,
      "ead": 1632,
      "Ġhigurashi": 1633,
      "Ġhell": 1634,
      "Ġoto": 1635,
      "yaku": 1636,
      "Ġmonogatari": 1637,
      "Ġdun": 1638,
      "Ġjujutsu": 1639,
      "Ġheroes": 1640,
      "Ġkaisen": 1641,
      "ane": 1642,
      "Ġwind": 1643,
      "isama": 1644,
      "ament": 1645,
      "Ġsaikyou": 1646,
      "Ġdet": 1647,
      "Ġwars": 1648,
      "ĠâĢ": 1649,
      "areta": 1650,
      "oh": 1651,
      "war": 1652,
      "Ġplay": 1653,
      "Ġpunch": 1654,
      "ale": 1655,
      "Ġmagi": 1656,
      "Ġshad": 1657,
      "Ġhaikyu": 1658,
      "gou": 1659,
      "Ġret": 1660,
      "Ġkuroshitsu": 1661,
      "Ġkuroshitsuji": 1662,
      "ple": 1663,
      "ya": 1664,
      "Ġthey": 1665,
      "Ġhon": 1666,
      "Ġever": 1667,
      "emo": 1668,
      "Ġsenki": 1669,
      "Ġtail": 1670,
      "Ġur": 1671,
      "ences": 1672,
      "Ġmem": 1673,
      "Ġdatta": 1674,
      "Ġreferences": 1675,
      "tachi": 1676,
      "ĠâĢĵ": 1677,
      "af": 1678,
      "satsu": 1679,
      "arl": 1680,
      "Ġbaku": 1681,
      "Ġagg": 1682,
      "Ġhoriz": 1683,
      "Ġgirlfriend": 1684,
      "tsuko": 1685,
      "Ġhorizon": 1686,
      "ann": 1687,
      "Ġran": 1688,
      "Ġnever": 1689,
      "cap": 1690,
      "sama": 1691,
      "tor": 1692,
      "Ġden": 1693,
      "Ġcardcap": 1694,
      "Ġcardcaptor": 1695,
      "bun": 1696,
      "Ġfu": 1697,
      "Ġbutler": 1698,
      "Ġ20": 1699,
      "Ġtsuki": 1700,
      "Ġcode": 1701,
      "Ġeter": 1702,
      "Ġetern": 1703,
      "pai": 1704,
      "Ġnag": 1705,
      "Ġfil": 1706,
      "Ġmetal": 1707,
      "imo": 1708,
      "geon": 1709,
      "Ġdungeon": 1710,
      "kaku": 1711,
      "val": 1712,
      "Ġaster": 1713,
      "Ġsuzum": 1714,
      "rior": 1715,
      "Ġsakam": 1716,
      "Ġserv": 1717,
      "Ġharuhi": 1718,
      "Ġsuzumiya": 1719,
      ".,": 1720,
      "Ġmori": 1721,
      "Ġhi": 1722,
      "Ġkamisama": 1723,
      "Ġnext": 1724,
      "Ġfruits": 1725,
      "bas": 1726,
      "ness": 1727,
      "mer": 1728,
      "Ġwe": 1729,
      "Ġfol": 1730,
      "Ġhoshi": 1731,
      "Ġstri": 1732,
      "Ġchain": 1733,
      "Ġtsubas": 1734,
      "ikaku": 1735,
      "Ġfinished": 1736,
      "Ġsummer": 1737,
      "Ġhajime": 1738,
      "Ġfollow": 1739,
      "Ġstrike": 1740,
      "Ġtsubasa": 1741,
      "),": 1742,
      "now": 1743,
      "Ġult": 1744,
      "Ġsnow": 1745,
      "Ġfuu": 1746,
      "Ġdou": 1747,
      "hoku": 1748,
      "Ġmew": 1749,
      "Ġkishi": 1750,
      "oke": 1751,
      "umonogatari": 1752,
      "Ġsay": 1753,
      "Ġsister": 1754,
      "Ġpan": 1755,
      "Ġkin": 1756,
      "amat": 1757,
      "Ġdail": 1758,
      "Ġbeyond": 1759,
      "Ġkizumonogatari": 1760,
      "ein": 1761,
      "ious": 1762,
      "ited": 1763,
      "artet": 1764,
      "abol": 1765,
      "Ġquartet": 1766,
      "Ġdiabol": 1767,
      "metal": 1768,
      "Ġlu": 1769,
      "Ġmary": 1770,
      "Ġcool": 1771,
      "Ġtomo": 1772,
      "isk": 1773,
      "Ġneko": 1774,
      "tain": 1775,
      "Ġfullmetal": 1776,
      "Ġinuyasha": 1777,
      "gai": 1778,
      "Ġ8": 1779,
      "anai": 1780,
      "Ġcer": 1781,
      "Ġhat": 1782,
      "Ġhak": 1783,
      "Ġts": 1784,
      "Ġseik": 1785,
      "Ġhitori": 1786,
      "Ġelse": 1787,
      "ball": 1788,
      "pass": 1789,
      "Ġgun": 1790,
      "Ġtal": 1791,
      "imasu": 1792,
      "aria": 1793,
      "Ġkok": 1794,
      "ective": 1795,
      "Ġdanshi": 1796,
      "Ġknight": 1797,
      "Ġdetective": 1798,
      "ium": 1799,
      "Ġgl": 1800,
      "Ġrei": 1801,
      "Ġmajo": 1802,
      "Ġlovers": 1803,
      "Ġwond": 1804,
      "Ġbaby": 1805,
      "Ġact": 1806,
      "houtsu": 1807,
      "Ġmahoutsu": 1808,
      "Ġshoku": 1809,
      "each": 1810,
      "Ġzoku": 1811,
      "Ġfilm": 1812,
      "Ġwonder": 1813,
      "Ġmahoutsukai": 1814,
      "Ġbers": 1815,
      "Ġbro": 1816,
      "Ġgaku": 1817,
      "usei": 1818,
      "Ġberserk": 1819,
      "Ġmichi": 1820,
      "Ġdaw": 1821,
      "Ġkak": 1822,
      "Ġknows": 1823,
      "Ġdawn": 1824,
      "fin": 1825,
      "tou": 1826,
      "Ġhis": 1827,
      "Ġdarker": 1828,
      "Ġwand": 1829,
      "ortal": 1830,
      "Ġbra": 1831,
      "antei": 1832,
      "Ġrum": 1833,
      "Ġorder": 1834,
      "Ġele": 1835,
      "Ġgrand": 1836,
      "Ġhouse": 1837,
      "oru": 1838,
      "ouzu": 1839,
      "Ġspace": 1840,
      "201": 1841,
      "cal": 1842,
      "Ġapp": 1843,
      "ketsu": 1844,
      "Ġoshi": 1845,
      "Ġres": 1846,
      "Ġtoaru": 1847,
      "arden": 1848,
      "ashii": 1849,
      "bit": 1850,
      "Ġfamily": 1851,
      "cre": 1852,
      "zaki": 1853,
      "Ġq": 1854,
      "Ġsky": 1855,
      "Ġsensei": 1856,
      "thers": 1857,
      "amond": 1858,
      "Ġundead": 1859,
      "Ġdiamond": 1860,
      "Ġtenshi": 1861,
      "Ġslime": 1862,
      "gin": 1863,
      "Ġreinc": 1864,
      "Ġras": 1865,
      "Ġvs": 1866,
      "Ġkamuy": 1867,
      "lu": 1868,
      "Ġnichi": 1869,
      "Ġfire": 1870,
      "imate": 1871,
      "imono": 1872,
      "Ġlog": 1873,
      "lip": 1874,
      "Ġimm": 1875,
      "Ġsaint": 1876,
      "Ġterra": 1877,
      "Ġultimate": 1878,
      "Ġnichijou": 1879,
      "no": 1880,
      "Ġsqu": 1881,
      "ories": 1882,
      "Ġotome": 1883,
      "Ġshitara": 1884,
      "Ġsakamoto": 1885,
      "Ġnight": 1886,
      "Ġmas": 1887,
      "amune": 1888,
      "Ġaria": 1889,
      "Ġbok": 1890,
      "Ġmushoku": 1891,
      "blood": 1892,
      "Ġmasamune": 1893,
      "goku": 1894,
      "matsu": 1895,
      "xd": 1896,
      "Ġour": 1897,
      "Ġwol": 1898,
      "Ġdxd": 1899,
      "Ġris": 1900,
      "Ġshaku": 1901,
      "Ġshuu": 1902,
      "Ġshana": 1903,
      "Ġseirei": 1904,
      "Ġwolf": 1905,
      "Ġshakugan": 1906,
      "Ġshuumatsu": 1907,
      "jitsu": 1908,
      "lf": 1909,
      "lim": 1910,
      "Ġichi": 1911,
      "Ġjig": 1912,
      "Ġgensou": 1913,
      "izou": 1914,
      "kaima": 1915,
      "Ġtsukaima": 1916,
      "Ġsoul": 1917,
      "limited": 1918,
      "mi": 1919,
      "ism": 1920,
      "Ġcolle": 1921,
      "Ġdaily": 1922,
      "Ġbreak": 1923,
      "Ġkaku": 1924,
      "Ġjik": 1925,
      "soku": 1926,
      "geki": 1927,
      "Ġmushi": 1928,
      "Ġuta": 1929,
      "!.": 1930,
      "Ġdu": 1931,
      "Ġmer": 1932,
      "Ġteasing": 1933,
      "Ġpris": 1934,
      "Ġbasketball": 1935,
      "Ġcolor": 1936,
      "io": 1937,
      "orad": 1938,
      "Ġdel": 1939,
      "antom": 1940,
      "Ġtorad": 1941,
      "Ġright": 1942,
      "imetsu": 1943,
      "Ġeup": 1944,
      "kyri": 1945,
      "Ġstrongest": 1946,
      "Ġvalkyri": 1947,
      "honium": 1948,
      "Ġphantom": 1949,
      "Ġtoradora": 1950,
      "Ġeuphonium": 1951,
      "ger": 1952,
      "Ġara": 1953,
      "Ġsan": 1954,
      "Ġtod": 1955,
      "Ġblo": 1956,
      "Ġcertain": 1957,
      "daka": 1958,
      "Ġsac": 1959,
      "Ġaku": 1960,
      "Ġcat": 1961,
      "Ġmedaka": 1962,
      "Ġseed": 1963,
      "Ġbeast": 1964,
      "Ġkess": 1965,
      "Ġbungou": 1966,
      "gend": 1967,
      "Ġsama": 1968,
      "Ġkaw": 1969,
      "otte": 1970,
      "Ġlegend": 1971,
      "ella": 1972,
      "Ġkawai": 1973,
      "cho": 1974,
      "red": 1975,
      "Ġgoku": 1976,
      "Ġkon": 1977,
      "una": 1978,
      "Ġrecord": 1979,
      "Ġinfin": 1980,
      "isan": 1981,
      "aika": 1982,
      "agn": 1983,
      "ashita": 1984,
      "Ġryu": 1985,
      "Ġnagat": 1986,
      "Ġrumble": 1987,
      "Ġbah": 1988,
      "Ġowar": 1989,
      "esis": 1990,
      "amut": 1991,
      "Ġjouzu": 1992,
      "Ġaso": 1993,
      "Ġgenesis": 1994,
      "isei": 1995,
      "Ġbahamut": 1996,
      "ave": 1997,
      "break": 1998,
      "dess": 1999,
      "kki": 2000,
      "kano": 2001,
      "oon": 2002,
      "pa": 2003,
      "uku": 2004,
      "Ġsil": 2005,
      "Ġnon": 2006,
      "Ġki": 2007,
      "Ġnikki": 2008,
      "Ġsenpai": 2009,
      "igami": 2010,
      "Ġvan": 2011,
      "Ġgoddess": 2012,
      "yak": 2013,
      "Ġsna": 2014,
      "ina": 2015,
      "Ġbis": 2016,
      "Ġlives": 2017,
      "Ġclover": 2018,
      "Ġteen": 2019,
      "Ġkob": 2020,
      "kkon": 2021,
      "Ġglass": 2022,
      "Ġsnafu": 2023,
      "ient": 2024,
      "sha": 2025,
      "tier": 2026,
      "Ġ7": 2027,
      "Ġhal": 2028,
      "Ġreb": 2029,
      "Ġsuiri": 2030,
      "Ġevil": 2031,
      "Ġbakuman": 2032,
      "Ġtales": 2033,
      "Ġimmortal": 2034,
      "Ġsquad": 2035,
      "ip": 2036,
      "rin": 2037,
      "Ġdai": 2038,
      "Ġpu": 2039,
      "cel": 2040,
      "Ġdoes": 2041,
      "Ġash": 2042,
      "Ġasterisk": 2043,
      "Ġrascal": 2044,
      "aut": 2045,
      "dou": 2046,
      "rite": 2047,
      "sion": 2048,
      "write": 2049,
      "Ġdand": 2050,
      "Ġhik": 2051,
      "Ġrewrite": 2052,
      "Ġstein": 2053,
      "Ġ13": 2054,
      "Ġshadow": 2055,
      "Ġsteins": 2056,
      "by": 2057,
      "gir": 2058,
      "himono": 2059,
      "less": 2060,
      "tty": 2061,
      "ini": 2062,
      "Ġiro": 2063,
      "Ġnor": 2064,
      "Ġaki": 2065,
      "Ġgar": 2066,
      "asts": 2067,
      "ali": 2068,
      "Ġtour": 2069,
      "self": 2070,
      "Ġkab": 2071,
      "unib": 2072,
      "Ġbeasts": 2073,
      "arty": 2074,
      "usion": 2075,
      "Ġpretty": 2076,
      "Ġshipp": 2077,
      "oshimono": 2078,
      "Ġotoshimono": 2079,
      "Ġbouken": 2080,
      "Ġmoriarty": 2081,
      "girl": 2082,
      "..": 2083,
      "iant": 2084,
      "Ġ'": 2085,
      "itas": 2086,
      "itial": 2087,
      "Ġinitial": 2088,
      "kyuu": 2089,
      "Ġtsuu": 2090,
      "Ġshitai": 2091,
      "Ġtodoke": 2092,
      "aur": 2093,
      "etsu": 2094,
      "iji": 2095,
      "sushi": 2096,
      "xy": 2097,
      "zak": 2098,
      "ince": 2099,
      "ering": 2100,
      "Ġlel": 2101,
      "utsushi": 2102,
      "ouch": 2103,
      "Ġoce": 2104,
      "Ġretsuko": 2105,
      "Ġmachi": 2106,
      "isai": 2107,
      "akkou": 2108,
      "ressive": 2109,
      "Ġprince": 2110,
      "Ġunlimited": 2111,
      "Ġyozak": 2112,
      "Ġgeass": 2113,
      "Ġaggressive": 2114,
      "Ġlelouch": 2115,
      "Ġocean": 2116,
      "Ġyozakura": 2117,
      "day": 2118,
      "Ġhyou": 2119,
      "Ġhatsu": 2120,
      "Ġkik": 2121,
      "Ġeat": 2122,
      "Ġspy": 2123,
      "Ġsins": 2124,
      "Ġheart": 2125,
      "Ġbride": 2126,
      "Ġflower": 2127,
      "Ġrising": 2128,
      "Ġhatsukoi": 2129,
      "99": 2130,
      "oil": 2131,
      "po": 2132,
      "pan": 2133,
      "inity": 2134,
      "Ġnaru": 2135,
      "Ġace": 2136,
      "Ġprior": 2137,
      "Ġsub": 2138,
      "imi": 2139,
      "imonogatari": 2140,
      "perty": 2141,
      "Ġmysterious": 2142,
      "onoke": 2143,
      "Ġmononoke": 2144,
      "Ġdevils": 2145,
      "fuku": 2146,
      "Ġproperty": 2147,
      "Ġtrinity": 2148,
      "Ġpriority": 2149,
      "band": 2150,
      "iny": 2151,
      "Ġmush": 2152,
      "Ġcle": 2153,
      "Ġhid": 2154,
      "Ġhag": 2155,
      "Ġtab": 2156,
      "ctor": 2157,
      "ights": 2158,
      "inde": 2159,
      "usband": 2160,
      "aph": 2161,
      "Ġhanay": 2162,
      "Ġhanma": 2163,
      "Ġkaiji": 2164,
      "Ġseiken": 2165,
      "Ġmushishi": 2166,
      "ning": 2167,
      "ui": 2168,
      "Ġsom": 2169,
      "Ġnin": 2170,
      "Ġmur": 2171,
      "rei": 2172,
      "Ġdense": 2173,
      "Ġhim": 2174,
      "ayashi": 2175,
      "Ġprom": 2176,
      "Ġkyoushitsu": 2177,
      "Ġkobayashi": 2178,
      "Ġmurder": 2179,
      "Ġdensetsu": 2180,
      "sai": 2181,
      "atar": 2182,
      "Ġho": 2183,
      "umi": 2184,
      "Ġouji": 2185,
      "Ġyuuutsu": 2186,
      "Ġkanata": 2187,
      "Ġyakusoku": 2188,
      "Ġbokura": 2189,
      "ca": 2190,
      "gen": 2191,
      "lan": 2192,
      "sen": 2193,
      "Ġvo": 2194,
      "Ġland": 2195,
      "Ġaish": 2196,
      "Ġyome": 2197,
      "Ġrealist": 2198,
      "Ġgakuen": 2199,
      "Ġkessen": 2200,
      "som": 2201,
      "ment": 2202,
      "Ġame": 2203,
      "Ġhib": 2204,
      "Ġdarkness": 2205,
      "epop": 2206,
      "roku": 2207,
      "Ġhair": 2208,
      "Ġgods": 2209,
      "giepop": 2210,
      "Ġboogiepop": 2211,
      "Ġtestament": 2212,
      "Ġvalkyria": 2213,
      "Ġbaka": 2214,
      "Ġcut": 2215,
      "Ġcross": 2216,
      "Ġgate": 2217,
      "Ġhapp": 2218,
      "ouge": 2219,
      "Ġod": 2220,
      "Ġrouge": 2221,
      "lder": 2222,
      "Ġinu": 2223,
      "Ġcastle": 2224,
      "Ġalter": 2225,
      "native": 2226,
      "Ġquint": 2227,
      "anger": 2228,
      "Ġmemories": 2229,
      "Ġhappy": 2230,
      "Ġalternative": 2231,
      "ling": 2232,
      "nen": 2233,
      "yss": 2234,
      "eren": 2235,
      "Ġmis": 2236,
      "Ġdest": 2237,
      "Ġgant": 2238,
      "Ġhime": 2239,
      "Ġmeg": 2240,
      "Ġrai": 2241,
      "Ġroom": 2242,
      "Ġyuri": 2243,
      "Ġrain": 2244,
      "Ġabyss": 2245,
      "Ġfrieren": 2246,
      "Ġmahouka": 2247,
      "Ġbrother": 2248,
      "Ġsacred": 2249,
      "Ġgantz": 2250,
      "ful": 2251,
      "oria": 2252,
      "arara": 2253,
      "Ġcho": 2254,
      "Ġdur": 2255,
      "Ġkyuu": 2256,
      "Ġkimetsu": 2257,
      "Ġtop": 2258,
      "Ġchr": 2259,
      "Ġyai": 2260,
      "Ġcomple": 2261,
      "Ġtsukai": 2262,
      "Ġkoukaku": 2263,
      "Ġmaiden": 2264,
      "blooded": 2265,
      "Ġdurarara": 2266,
      "Ġyaiba": 2267,
      "gu": 2268,
      "time": 2269,
      "yr": 2270,
      "Ġfood": 2271,
      "Ġpe": 2272,
      "Ġscore": 2273,
      "itai": 2274,
      "outo": 2275,
      "Ġdoor": 2276,
      "elier": 2277,
      "Ġkekkon": 2278,
      "Ġatelier": 2279,
      "Ġmarch": 2280,
      "Ġsummon": 2281,
      "Ġshokugeki": 2282,
      "garden": 2283,
      "hai": 2284,
      "ior": 2285,
      "ject": 2286,
      "jinc": 2287,
      "olet": 2288,
      "Ġ6": 2289,
      "Ġ00": 2290,
      "ĸ³": 2291,
      "Ġsas": 2292,
      "Ġice": 2293,
      "Ġback": 2294,
      "Ġder": 2295,
      "Ġkar": 2296,
      "Ġviolet": 2297,
      "umo": 2298,
      "Ġsae": 2299,
      "Ġyuujinc": 2300,
      "Ġevergarden": 2301,
      "Ġservice": 2302,
      "Ġreijou": 2303,
      "Ġkawaii": 2304,
      "Ġinfinite": 2305,
      "Ġyuujinchou": 2306,
      "col": 2307,
      "Ã¤": 2308,
      "Ġver": 2309,
      "mei": 2310,
      "Ġay": 2311,
      "Ġtantei": 2312,
      "sters": 2313,
      "Ġshe": 2314,
      "Ġshim": 2315,
      "ellion": 2316,
      "Ġbox": 2317,
      "akusha": 2318,
      "Ġbravo": 2319,
      "Ġrebellion": 2320,
      "?,": 2321,
      "co": 2322,
      "gyou": 2323,
      "nemo": 2324,
      "oka": 2325,
      "son": 2326,
      "sari": 2327,
      "Ġwang": 2328,
      "Ġmnemo": 2329,
      "Ġmeshi": 2330,
      "Ġride": 2331,
      "Ġseiya": 2332,
      "Ġseito": 2333,
      "chine": 2334,
      "aman": 2335,
      "Ġear": 2336,
      "Ġmachine": 2337,
      "imson": 2338,
      "Ġchaika": 2339,
      "Ġroku": 2340,
      "Ġrosari": 2341,
      "Ġyuru": 2342,
      "Ġvir": 2343,
      "syne": 2344,
      "agami": 2345,
      "ops": 2346,
      "Ġnise": 2347,
      "Ġshiro": 2348,
      "ign": 2349,
      "Ġcrimson": 2350,
      "Ġrenkin": 2351,
      "Ġeternity": 2352,
      "Ġmnemosyne": 2353,
      "Ġrosario": 2354,
      "doll": 2355,
      "ear": 2356,
      "pe": 2357,
      "zan": 2358,
      "zen": 2359,
      "ĠâĺĨ": 2360,
      "Ġbur": 2361,
      "Ġomo": 2362,
      "Ġforce": 2363,
      "Ġjin": 2364,
      "adan": 2365,
      "Ġbear": 2366,
      "Ġasu": 2367,
      "odachi": 2368,
      "isha": 2369,
      "Ġdake": 2370,
      "blade": 2371,
      "Ġbeyblade": 2372,
      "Ġtomodachi": 2373,
      "Ġjikan": 2374,
      "Ġdandadan": 2375,
      "gate": 2376,
      "pr": 2377,
      "Ġbart": 2378,
      "atte": 2379,
      "Ġegg": 2380,
      "Ġeden": 2381,
      "uren": 2382,
      "ureta": 2383,
      "Ġnegim": 2384,
      "ender": 2385,
      "Ġshoukan": 2386,
      "Ġshinsei": 2387,
      "Ġseraph": 2388,
      "Ġcollection": 2389,
      "Ġbartender": 2390,
      "Ġnegima": 2391,
      "come": 2392,
      "ten": 2393,
      "uunib": 2394,
      "Ġ~": 2395,
      "Ġwel": 2396,
      "Ġansatsu": 2397,
      "Ġms": 2398,
      "Ġmid": 2399,
      "Ġlion": 2400,
      "Ġpet": 2401,
      "stic": 2402,
      "Ġmaj": 2403,
      "Ġchuunib": 2404,
      "Ġbeats": 2405,
      "Ġpop": 2406,
      "ount": 2407,
      "Ġdemo": 2408,
      "Ġseijo": 2409,
      "Ġprison": 2410,
      "Ġwelcome": 2411,
      "Ġchuunibyou": 2412,
      "bin": 2413,
      "gar": 2414,
      "tara": 2415,
      "zero": 2416,
      "zoku": 2417,
      "Ġ\"": 2418,
      "Ġ[": 2419,
      "Ġwal": 2420,
      "Ġnana": 2421,
      "Ġast": 2422,
      "aten": 2423,
      "Ġgem": 2424,
      "Ġpon": 2425,
      "Ġpian": 2426,
      "Ġhot": 2427,
      "Ġstig": 2428,
      "Ġkuu": 2429,
      "emon": 2430,
      "Ġroad": 2431,
      "Ġye": 2432,
      "Ġzetsu": 2433,
      "Ġghoul": 2434,
      "Ġdiary": 2435,
      "Ġdaima": 2436,
      "Ġdemi": 2437,
      "Ġkarakai": 2438,
      "Ġwandering": 2439,
      "Ġjigoku": 2440,
      "Ġwalk": 2441,
      "Ġlin": 2442,
      "Ġlag": 2443,
      "Ġajin": 2444,
      "Ġcase": 2445,
      "ica": 2446,
      "Ġgiven": 2447,
      "Ġsur": 2448,
      "Ġsciss": 2449,
      "Ġed": 2450,
      "Ġshell": 2451,
      "ock": 2452,
      "Ġtei": 2453,
      "Ġars": 2454,
      "Ġrave": 2455,
      "Ġplace": 2456,
      "Ġsengoku": 2457,
      "ised": 2458,
      "Ġxian": 2459,
      "Ġkings": 2460,
      "Ġkamigami": 2461,
      "Ġdeadman": 2462,
      "shu": 2463,
      "kkaku": 2464,
      "akusen": 2465,
      "Ġtanya": 2466,
      "Ġneverland": 2467,
      "Ġwonderland": 2468,
      "Ġowarimonogatari": 2469,
      "Ġhikaru": 2470,
      "Ġninja": 2471,
      "Ġpromised": 2472,
      "Ġscissor": 2473,
      "ds": 2474,
      "mai": 2475,
      "Ļ¥": 2476,
      "Ġnok": 2477,
      "Ġwist": 2478,
      "Ġwill": 2479,
      "omi": 2480,
      "Ġsuzu": 2481,
      "uni": 2482,
      "eps": 2483,
      "iria": 2484,
      "Ġum": 2485,
      "estiria": 2486,
      "Ġzestiria": 2487,
      "Ġtrigun": 2488,
      "Ġtensai": 2489,
      "Ġpanic": 2490,
      "Ġdiabolism": 2491,
      "Ġwistoria": 2492,
      "eet": 2493,
      "nament": 2494,
      "ran": 2495,
      "yaru": 2496,
      "Ġnyaru": 2497,
      "kei": 2498,
      "Ġpeach": 2499,
      "oman": 2500,
      "ilgun": 2501,
      "Ġsweet": 2502,
      "Ġenen": 2503,
      "Ġmayo": 2504,
      "boutai": 2505,
      "Ġrailgun": 2506,
      "uman": 2507,
      "Ġshouboutai": 2508,
      "rain": 2509,
      "shine": 2510,
      "Ġsunshine": 2511,
      "Ġeverything": 2512,
      "Ġtournament": 2513,
      "Ġdestiny": 2514,
      "Ġsurvi": 2515,
      "Ġnyaruko": 2516,
      "ake": 2517,
      "rous": 2518,
      "Ġbig": 2519,
      "Ġfle": 2520,
      "Ġcir": 2521,
      "amada": 2522,
      "Ġcharl": 2523,
      "Ġyar": 2524,
      "Ġyamada": 2525,
      "eland": 2526,
      "usen": 2527,
      "able": 2528,
      "Ġjobl": 2529,
      "place": 2530,
      "Ġgreen": 2531,
      "arnation": 2532,
      "Ġtower": 2533,
      "Ġwitches": 2534,
      "Ġdreaming": 2535,
      "Ġiruma": 2536,
      "Ġ86": 2537,
      "Ġreincarnation": 2538,
      "Ġcirc": 2539,
      "Ġcharlotte": 2540,
      "Ġjobless": 2541,
      "br": 2542,
      "cc": 2543,
      "row": 2544,
      "inal": 2545,
      "Ġwak": 2546,
      "Ġlad": 2547,
      "onara": 2548,
      "Ġdasu": 2549,
      "Ġgakkou": 2550,
      "eno": 2551,
      "Ġoo": 2552,
      "Ġrev": 2553,
      "ilo": 2554,
      "Ġsusu": 2555,
      "Ġstudy": 2556,
      "Ġrock": 2557,
      "Ġisland": 2558,
      "Ġleve": 2559,
      "!!,": 2560,
      "Ġmission": 2561,
      "Ġtomare": 2562,
      "Ġsayonara": 2563,
      "Ġbrothers": 2564,
      "Ġkakur": 2565,
      "Ġcomplex": 2566,
      "Ġsusume": 2567,
      "ga": 2568,
      "nir": 2569,
      "vatar": 2570,
      "inence": 2571,
      "Ġwara": 2572,
      "arashii": 2573,
      "Ġavatar": 2574,
      "Ġmight": 2575,
      "Ġryuu": 2576,
      "Ġkod": 2577,
      "Ġsuki": 2578,
      "Ġeure": 2579,
      "Ġeminence": 2580,
      "ouryaku": 2581,
      "Ġgrisai": 2582,
      "Ġjoshi": 2583,
      "Ġaru": 2584,
      "atsuki": 2585,
      "ousou": 2586,
      "Ġkoe": 2587,
      "awa": 2588,
      "Ġkenja": 2589,
      "uya": 2590,
      "Ġchronicles": 2591,
      "Ġkaguya": 2592,
      "Ġgensouki": 2593,
      "Ġnagatoro": 2594,
      "Ġsubarashii": 2595,
      "Ġraise": 2596,
      "Ġkodomo": 2597,
      "Ġeureka": 2598,
      "Ġgrisaia": 2599,
      "gr": 2600,
      "giru": 2601,
      "jir": 2602,
      "was": 2603,
      "Ġsara": 2604,
      "arish": 2605,
      "Ġlet": 2606,
      "Ġhana": 2607,
      "Ġtat": 2608,
      "Ġraku": 2609,
      "Ġyouko": 2610,
      "Ġall": 2611,
      "Ġuma": 2612,
      "akuro": 2613,
      "Ġzo": 2614,
      "Ġtwo": 2615,
      "!!:": 2616,
      "Ġokarish": 2617,
      "Ġyume": 2618,
      "Ġhanam": 2619,
      "Ġseih": 2620,
      "Ġrettou": 2621,
      "Ġeternal": 2622,
      "Ġqwas": 2623,
      "Ġmissing": 2624,
      "Ġbrotherhood": 2625,
      "Ġyoukoso": 2626,
      "Ġokarishimasu": 2627,
      "Ġrettousei": 2628,
      "Ġqwaser": 2629,
      "az": 2630,
      "back": 2631,
      "cross": 2632,
      "nsion": 2633,
      "vor": 2634,
      "ator": 2635,
      "ich": 2636,
      "Ġstamp": 2637,
      "Ġrond": 2638,
      "imension": 2639,
      "Ġord": 2640,
      "Ġmacross": 2641,
      "ede": 2642,
      "Ġmill": 2643,
      "Ġclann": 2644,
      "fect": 2645,
      "Ġgrap": 2646,
      "Ġparty": 2647,
      "Ġzan": 2648,
      "ope": 2649,
      "pler": 2650,
      "Ġtrigg": 2651,
      "ryuu": 2652,
      "houjo": 2653,
      "iyuu": 2654,
      "âĺħ": 2655,
      "Ġstars": 2656,
      "Ġhito": 2657,
      "Ġoreimo": 2658,
      "Ġflowers": 2659,
      "Ġdenpa": 2660,
      "Ġdiabolik": 2661,
      "Ġbishoujo": 2662,
      "Ġhanayome": 2663,
      "Ġhibike": 2664,
      "Ġstampede": 2665,
      "Ġrondo": 2666,
      "Ġclannad": 2667,
      "Ġgrappler": 2668,
      "Ġtrigger": 2669,
      "gers": 2670,
      "pers": 2671,
      "zy": 2672,
      "âĸ³": 2673,
      "Ġway": 2674,
      "Ġrun": 2675,
      "Ġmajutsu": 2676,
      "Ġwhis": 2677,
      "agari": 2678,
      "Ġromantica": 2679,
      "Ġstranger": 2680,
      "Ġyuki": 2681,
      "Ġoukoku": 2682,
      "Ġrevengers": 2683,
      "Ġotoko": 2684,
      "Ġtsure": 2685,
      "Ġiroha": 2686,
      "gand": 2687,
      "iku": 2688,
      "Ġsk": 2689,
      "Ġipp": 2690,
      "Ġair": 2691,
      "Ġcy": 2692,
      "ontier": 2693,
      "ido": 2694,
      "Ġorig": 2695,
      "Ġjorm": 2696,
      "ungand": 2697,
      "Ġinv": 2698,
      "Ġyur": 2699,
      "Ġyamat": 2700,
      "Ġalice": 2701,
      "Ġfrontier": 2702,
      "Ġacca": 2703,
      "Ġzu": 2704,
      "Ġsennen": 2705,
      "tra": 2706,
      "Ġdao": 2707,
      "Ġslay": 2708,
      "Ġoshigoto": 2709,
      "Ġkakushi": 2710,
      "Ġnoragami": 2711,
      "Ġeater": 2712,
      "Ġippo": 2713,
      "Ġjormungand": 2714,
      "Ġyamato": 2715,
      "gre": 2716,
      "kuro": 2717,
      "za": 2718,
      "ination": 2719,
      "Ġwea": 2720,
      "Ġbul": 2721,
      "Ġnobun": 2722,
      "Ġcent": 2723,
      "atch": 2724,
      "asai": 2725,
      "Ġpup": 2726,
      "Ġtem": 2727,
      "oms": 2728,
      "Ġbegin": 2729,
      "Ġalone": 2730,
      "Ġneon": 2731,
      "aba": 2732,
      "Ġdata": 2733,
      "ardian": 2734,
      "Ġplate": 2735,
      "Ġheroine": 2736,
      "Ġvers": 2737,
      "Ġguardian": 2738,
      "Ġheal": 2739,
      "Ġcrus": 2740,
      "Ġproject": 2741,
      "Ġsouma": 2742,
      "Ġbullet": 2743,
      "Ġcentaur": 2744,
      "Ġbeginning": 2745,
      "hy": 2746,
      "oid": 2747,
      "punch": 2748,
      "vra": 2749,
      "Ġwaru": 2750,
      "Ġcounc": 2751,
      "Ġgin": 2752,
      "Ġtada": 2753,
      "Ġteach": 2754,
      "ices": 2755,
      "Ġrad": 2756,
      "Ġkatsu": 2757,
      "lya": 2758,
      "unk": 2759,
      "Ġinsp": 2760,
      "outai": 2761,
      "Ġyami": 2762,
      "Ġkidoutai": 2763,
      "ibito": 2764,
      "Ġshik": 2765,
      "Ġshiru": 2766,
      "Ġtonari": 2767,
      "Ġvalvra": 2768,
      "Ġluck": 2769,
      "Ġakiba": 2770,
      "Ġvoices": 2771,
      "Ġameku": 2772,
      "Ġsaekano": 2773,
      "Ġnisekoi": 2774,
      "Ġcouncil": 2775,
      "Ġteacher": 2776,
      "Ġradiant": 2777,
      "Ġvalvrave": 2778,
      "dle": 2779,
      "ryou": 2780,
      "Ġinde": 2781,
      "arlet": 2782,
      "Ġcap": 2783,
      "Ġhaku": 2784,
      "Ġoss": 2785,
      "Ġkitan": 2786,
      "Ġscarlet": 2787,
      "Ġforest": 2788,
      "itory": 2789,
      "Ġbeel": 2790,
      "Ġbeaut": 2791,
      "Ġlock": 2792,
      "Ġyona": 2793,
      "Ġworking": 2794,
      "Ġmove": 2795,
      "Ġmago": 2796,
      "umu": 2797,
      "iful": 2798,
      "Ġtonikaku": 2799,
      "bub": 2800,
      "zebub": 2801,
      "Ġkiniro": 2802,
      "Ġasobi": 2803,
      "Ġayumu": 2804,
      "Ġvirgin": 2805,
      "Ġindex": 2806,
      "Ġossan": 2807,
      "Ġbeelzebub": 2808,
      "Ġbeautiful": 2809,
      "cle": 2810,
      "kata": 2811,
      "uden": 2812,
      "Ġus": 2813,
      "Ġous": 2814,
      "Ġsand": 2815,
      "Ġiv": 2816,
      "Ġiz": 2817,
      "Ġnari": 2818,
      "Ġmik": 2819,
      "Ġcall": 2820,
      "aled": 2821,
      "Ġsealed": 2822,
      "Ġjap": 2823,
      "Ġdrop": 2824,
      "amen": 2825,
      "kuu": 2826,
      "sterday": 2827,
      "Ġprelu": 2828,
      "Ġdriver": 2829,
      "Ġgener": 2830,
      "ete": 2831,
      "tsuji": 2832,
      "Ġshitsuji": 2833,
      "Ġimouto": 2834,
      "Ġ14": 2835,
      "Ġreturn": 2836,
      "amatora": 2837,
      "Ġkokoro": 2838,
      "Ġapple": 2839,
      "Ġshippuden": 2840,
      "Ġsasaki": 2841,
      "Ġyesterday": 2842,
      "Ġousama": 2843,
      "Ġjapan": 2844,
      "Ġprelude": 2845,
      "eld": 2846,
      "gant": 2847,
      "jisan": 2848,
      "mmo": 2849,
      "rmmo": 2850,
      "Ġ/": 2851,
      "Ġsid": 2852,
      "Ġbus": 2853,
      "Ġbann": 2854,
      "Ġfour": 2855,
      "ret": 2856,
      "onia": 2857,
      "Ġojisan": 2858,
      "Ġreve": 2859,
      "Ġrebor": 2860,
      "ico": 2861,
      "Ġkot": 2862,
      "Ġkous": 2863,
      "Ġmaior": 2864,
      "Ġshout": 2865,
      "Ġjuli": 2866,
      "Ġkemono": 2867,
      "Ġaccel": 2868,
      "Ġarif": 2869,
      "lations": 2870,
      "Ġshield": 2871,
      "Ġvrmmo": 2872,
      "Ġsecret": 2873,
      "Ġranbu": 2874,
      "Ġdenki": 2875,
      "Ġmaryoku": 2876,
      "Ġtomozaki": 2877,
      "Ġseikatsu": 2878,
      "Ġgargant": 2879,
      "Ġearth": 2880,
      "Ġsidonia": 2881,
      "Ġbannou": 2882,
      "Ġrevelations": 2883,
      "Ġreborn": 2884,
      "Ġkoush": 2885,
      "Ġmaiorita": 2886,
      "Ġjuliet": 2887,
      "Ġarifureta": 2888,
      "Ġgargantia": 2889,
      "Ġsos": 2890,
      "Ġwing": 2891,
      "Ġiron": 2892,
      "Ġcow": 2893,
      "Ġcord": 2894,
      "Ġcaf": 2895,
      "atos": 2896,
      "asso": 2897,
      "Ġpor": 2898,
      "Ġpasso": 2899,
      "Ġtv": 2900,
      "Ġook": 2901,
      "Ġrese": 2902,
      "Ġryou": 2903,
      "Ġkus": 2904,
      "bop": 2905,
      "boy": 2906,
      "adise": 2907,
      "Ġbebop": 2908,
      "Ġyab": 2909,
      "Ġyasha": 2910,
      "Ġyoujo": 2911,
      "Ġblame": 2912,
      "Ġuzai": 2913,
      "view": 2914,
      "Ġstratos": 2915,
      "Ġprimo": 2916,
      "Ġparadise": 2917,
      "Ġshadows": 2918,
      "Ġkokka": 2919,
      "Ġterrace": 2920,
      "Ġsilver": 2921,
      "Ġcowboy": 2922,
      "Ġcorda": 2923,
      "Ġookami": 2924,
      "Ġreset": 2925,
      "Ġyashahime": 2926,
      ".:": 2927,
      "iac": 2928,
      "und": 2929,
      "Ġano": 2930,
      "Ġbor": 2931,
      "Ġbunny": 2932,
      "Ġaqu": 2933,
      "Ġmiy": 2934,
      "retsuko": 2935,
      "Ġgent": 2936,
      "enai": 2937,
      "Ġper": 2938,
      "Ġhitsu": 2939,
      "Ġhyak": 2940,
      "Ġkomi": 2941,
      "Ġscient": 2942,
      "amura": 2943,
      "add": 2944,
      "ury": 2945,
      "Ġass": 2946,
      "Ġshaman": 2947,
      "ump": 2948,
      "arian": 2949,
      "Ġdisapp": 2950,
      "Ġhanako": 2951,
      "Ġplanetarian": 2952,
      "Ġaggretsuko": 2953,
      "Ġkijin": 2954,
      "Ġscientific": 2955,
      "Ġdisappear": 2956,
      "ban": 2957,
      "rough": 2958,
      "sur": 2959,
      "tten": 2960,
      "Ġwagn": 2961,
      "Ġiku": 2962,
      "Ġmou": 2963,
      "Ġnova": 2964,
      "Ġpi": 2965,
      "Ġpori": 2966,
      "Ġkata": 2967,
      "Ġkumo": 2968,
      "chin": 2969,
      "Ġspoil": 2970,
      "adis": 2971,
      "Ġrotten": 2972,
      "Ġbeat": 2973,
      "Ġyats": 2974,
      "Ġarpe": 2975,
      "Ġdies": 2976,
      "moon": 2977,
      "Ġxy": 2978,
      "ggio": 2979,
      "iyo": 2980,
      "Ġyuuna": 2981,
      "Ġknights": 2982,
      "Ġ08": 2983,
      "Ġflops": 2984,
      "Ġurusei": 2985,
      "Ġ2099": 2986,
      "Ġhatchin": 2987,
      "Ġmichiko": 2988,
      "Ġvanadis": 2989,
      "inaoshi": 2990,
      "Ġgemini": 2991,
      "omania": 2992,
      "Ġyarinaoshi": 2993,
      "Ġwagnaria": 2994,
      "Ġporiomania": 2995,
      "Ġspoils": 2996,
      "Ġyatsura": 2997,
      "Ġarpeggio": 2998,
      "cl": 2999,
      "dg": 3000,
      "human": 3001,
      "lin": 3002,
      "Ġsod": 3003,
      "Ġil": 3004,
      "ervo": 3005,
      "arok": 3006,
      "Ġmaria": 3007,
      "Ġfool": 3008,
      "Ġgou": 3009,
      "Ġtama": 3010,
      "Ġsteps": 3011,
      "Ġragn": 3012,
      "ado": 3013,
      "Ġdoctor": 3014,
      "araku": 3015,
      "Ġkeikaku": 3016,
      "Ġones": 3017,
      "shim": 3018,
      "Ġyuukoku": 3019,
      "kanai": 3020,
      "Ġkyokou": 3021,
      "Ġrenai": 3022,
      "Ġflcl": 3023,
      "Ġhataraku": 3024,
      "Ġreservo": 3025,
      "Ġbreaker": 3026,
      "Ġmononokean": 3027,
      "Ġseitokai": 3028,
      "Ġhanamaru": 3029,
      "Ġragnarok": 3030,
      "Ġreservoir": 3031,
      "afer": 3032,
      "gue": 3033,
      "hwar": 3034,
      "ntal": 3035,
      "qi": 3036,
      "saw": 3037,
      "uqi": 3038,
      "wby": 3039,
      "zes": 3040,
      "Ġsab": 3041,
      "mental": 3042,
      "Ġwu": 3043,
      "arnat": 3044,
      "Ġnaku": 3045,
      "Ġban": 3046,
      "Ġmitsu": 3047,
      "Ġfall": 3048,
      "Ġgakusen": 3049,
      "Ġliuqi": 3050,
      "asumi": 3051,
      "Ġtame": 3052,
      "Ġnote": 3053,
      "Ġrin": 3054,
      "Ġrwby": 3055,
      "Ġkoro": 3056,
      "Ġtoshi": 3057,
      "Ġschwar": 3058,
      "amine": 3059,
      "imgar": 3060,
      "Ġji": 3061,
      "Ġloafer": 3062,
      "Ġyoru": 3063,
      "holic": 3064,
      "Ġgray": 3065,
      "Ġgrimgar": 3066,
      "Ġteg": 3067,
      "Ġtwin": 3068,
      "Ġgreatest": 3069,
      "Ġguy": 3070,
      "Ġfarce": 3071,
      "Ġhaven": 3072,
      "Ġheard": 3073,
      "Ġtakamine": 3074,
      "Ġunbreak": 3075,
      "Ġgalko": 3076,
      "Ġtanin": 3077,
      "Ġranking": 3078,
      "Ġchainsaw": 3079,
      "Ġluc": 3080,
      "Ġtsur": 3081,
      "Ġelemental": 3082,
      "Ġreincarnat": 3083,
      "poko": 3084,
      "Ġzetsubou": 3085,
      "Ġshoutai": 3086,
      "Ġtamer": 3087,
      "Ġschwarzes": 3088,
      "Ġunbreakable": 3089,
      "Ġreincarnated": 3090,
      "don": 3091,
      "kkai": 3092,
      "pt": 3093,
      "toro": 3094,
      "uction": 3095,
      "zing": 3096,
      "Ġsite": 3097,
      "thet": 3098,
      "arc": 3099,
      "Ġner": 3100,
      "Ġnum": 3101,
      "Ġaes": 3102,
      "Ġmig": 3103,
      "uten": 3104,
      "Ġcount": 3105,
      "Ġdali": 3106,
      "Ġgj": 3107,
      "Ġhour": 3108,
      "Ġwise": 3109,
      "Ġsteel": 3110,
      "Ġrise": 3111,
      "Ġkur": 3112,
      "Ġtotoro": 3113,
      "Ġsuisei": 3114,
      "Ġscr": 3115,
      "lyss": 3116,
      "Ġshoot": 3117,
      "bocchi": 3118,
      "Ġje": 3119,
      "Ġudon": 3120,
      "Ġulyss": 3121,
      "agaru": 3122,
      "Ġkekkai": 3123,
      "Ġmagica": 3124,
      "ochou": 3125,
      "Ġsensen": 3126,
      "Ġshir": 3127,
      "Ġwarrior": 3128,
      "biku": 3129,
      "Ġlaid": 3130,
      "Ġmadoka": 3131,
      "Ġfreezing": 3132,
      "Ġdouchuu": 3133,
      "Ġhitoribocchi": 3134,
      "Ġmichibiku": 3135,
      "Ġkakumei": 3136,
      "Ġvanitas": 3137,
      "Ġgoddesses": 3138,
      "Ġhalf": 3139,
      "Ġpuella": 3140,
      "Ġburst": 3141,
      "thetica": 3142,
      "Ġnumber": 3143,
      "Ġaesthetica": 3144,
      "Ġmigi": 3145,
      "Ġkurage": 3146,
      "Ġulysses": 3147,
      "bak": 3148,
      "bum": 3149,
      "ika": 3150,
      "iwa": 3151,
      "overy": 3152,
      "uo": 3153,
      "xx": 3154,
      "yama": 3155,
      "Ġsag": 3156,
      "Ġijir": 3157,
      "Ġai": 3158,
      "Ġmot": 3159,
      "Ġmmo": 3160,
      "inga": 3161,
      "ony": 3162,
      "Ġginga": 3163,
      "engh": 3164,
      "asaku": 3165,
      "Ġpol": 3166,
      "Ġhur": 3167,
      "Ġhay": 3168,
      "Ġhusband": 3169,
      "Ġmelan": 3170,
      "Ġrich": 3171,
      "sed": 3172,
      "Ġky": 3173,
      "chic": 3174,
      "Ġforte": 3175,
      "Ġrecovery": 3176,
      "ades": 3177,
      "Ġrohan": 3178,
      "Ġrozen": 3179,
      "kie": 3180,
      "ular": 3181,
      "Ġalbum": 3182,
      "Ġpsychic": 3183,
      "ago": 3184,
      "Ġshengh": 3185,
      "Ġextra": 3186,
      "Ġcompan": 3187,
      "riet": 3188,
      "neval": 3189,
      "Ġteam": 3190,
      "Ġzen": 3191,
      "Ġarriet": 3192,
      "anaide": 3193,
      "Ġkuroiwa": 3194,
      "maid": 3195,
      "Ġhanasaku": 3196,
      "Ġsakur": 3197,
      "Ġaoyama": 3198,
      "Ġfinale": 3199,
      "009": 3200,
      "Ġ07": 3201,
      "Ġelf": 3202,
      "Ġtrick": 3203,
      "Ġjunkie": 3204,
      "Ġakagi": 3205,
      "Ġkishibe": 3206,
      "Ġguns": 3207,
      "Ġmermaid": 3208,
      "Ġcolors": 3209,
      "choly": 3210,
      "Ġmegami": 3211,
      "Ġkarneval": 3212,
      "Ġmajutsushi": 3213,
      "Ġponyo": 3214,
      "Ġlevel": 3215,
      "Ġijiranaide": 3216,
      "Ġpolar": 3217,
      "Ġhurr": 3218,
      "Ġhayate": 3219,
      "Ġmelancholy": 3220,
      "Ġrichang": 3221,
      "Ġshenghuo": 3222,
      "Ġarrietty": 3223,
      "flow": 3224,
      "gular": 3225,
      "Ġer": 3226,
      "Ġushi": 3227,
      "Ġiru": 3228,
      "Ġburai": 3229,
      "Ġfaf": 3230,
      "regular": 3231,
      "Ġdant": 3232,
      "Ġdome": 3233,
      "Ġgyak": 3234,
      "Ġpass": 3235,
      "Ġpap": 3236,
      "alian": 3237,
      "Ġhang": 3238,
      "Ġregi": 3239,
      "Ġrur": 3240,
      "ider": 3241,
      "idai": 3242,
      "ione": 3243,
      "imiya": 3244,
      "Ġbetr": 3245,
      "kushi": 3246,
      "ayal": 3247,
      "Ġittara": 3248,
      "Ġnet": 3249,
      "usui": 3250,
      "Ġhorimiya": 3251,
      "!!!": 3252,
      "ouni": 3253,
      "Ġsaidai": 3254,
      "Ġkaze": 3255,
      "Ġballroom": 3256,
      "Ġkensh": 3257,
      "Ġkouho": 3258,
      "Ġdeadly": 3259,
      "Ġdandy": 3260,
      "Ġsekaiichi": 3261,
      "Ġ01": 3262,
      "Ġcampione": 3263,
      "Ġirregular": 3264,
      "Ġkoukousei": 3265,
      "Ġhonki": 3266,
      "Ġbroly": 3267,
      "Ġbloss": 3268,
      "Ġsilent": 3269,
      "Ġclear": 3270,
      "Ġsomali": 3271,
      "Ġfafnir": 3272,
      "Ġdantalian": 3273,
      "Ġdomestic": 3274,
      "Ġgyakkyou": 3275,
      "Ġpassage": 3276,
      "Ġregios": 3277,
      "Ġrurouni": 3278,
      "Ġbetrayal": 3279,
      "Ġkenshin": 3280,
      "eg": 3281,
      "gurashi": 3282,
      "hashi": 3283,
      "hita": 3284,
      "kketsu": 3285,
      "mata": 3286,
      "to": 3287,
      "ual": 3288,
      "uaga": 3289,
      "zhi": 3290,
      "Ġuru": 3291,
      "Ġss": 3292,
      "ances": 3293,
      "anzhi": 3294,
      "Ġlaby": 3295,
      "Ġaeg": 3296,
      "Ġfren": 3297,
      "Ġnomi": 3298,
      "uta": 3299,
      "Ġlibr": 3300,
      "Ġpers": 3301,
      "Ġhok": 3302,
      "Ġtaw": 3303,
      "Ġrema": 3304,
      "Ġron": 3305,
      "Ġkouryaku": 3306,
      "Ġmair": 3307,
      "imashita": 3308,
      "Ġdruaga": 3309,
      "ceitas": 3310,
      "Ġinn": 3311,
      "ecceitas": 3312,
      "Ġuzum": 3313,
      "Ġkeiy": 3314,
      "Ġdrive": 3315,
      "Ġquanzhi": 3316,
      "Ġmukou": 3317,
      "Ġsenran": 3318,
      "onohashi": 3319,
      "Ġbocchi": 3320,
      "Ġhaecceitas": 3321,
      "Ġmonsters": 3322,
      "Ġkamonohashi": 3323,
      "Ġaoi": 3324,
      "shuu": 3325,
      "Ġdeshita": 3326,
      "Ġredial": 3327,
      "Ġkagura": 3328,
      "Ġurag": 3329,
      "Ġactual": 3330,
      "Ġouran": 3331,
      "rinth": 3332,
      "Ġhost": 3333,
      "Ġderby": 3334,
      "Ġshinseiki": 3335,
      "Ġstigmata": 3336,
      "Ġlagoon": 3337,
      "Ġsurvivor": 3338,
      "Ġusagi": 3339,
      "Ġuruk": 3340,
      "Ġlabyrinth": 3341,
      "Ġaegis": 3342,
      "Ġfrenzy": 3343,
      "Ġlibrary": 3344,
      "Ġpersona": 3345,
      "Ġtawawa": 3346,
      "Ġremake": 3347,
      "Ġmairimashita": 3348,
      "Ġuzumaki": 3349,
      "Ġkeiyakusha": 3350,
      "Ġactually": 3351,
      "!;": 3352,
      "ae": 3353,
      "dame": 3354,
      "domo": 3355,
      "her": 3356,
      "kka": 3357,
      "smi": 3358,
      "wanai": 3359,
      "thod": 3360,
      "Ġwan": 3361,
      "Ġanata": 3362,
      "erella": 3363,
      "arm": 3364,
      "Ġfume": 3365,
      "Ġnodame": 3366,
      "Ġcant": 3367,
      "Ġcind": 3368,
      "kend": 3369,
      "Ġpal": 3370,
      "Ġhy": 3371,
      "Ġhin": 3372,
      "Ġmethod": 3373,
      "Ġocc": 3374,
      "Ġrek": 3375,
      "icial": 3376,
      "Ġkore": 3377,
      "Ġrokka": 3378,
      "astrous": 3379,
      "abile": 3380,
      "riot": 3381,
      "anga": 3382,
      "Ġarashi": 3383,
      "Ġdisastrous": 3384,
      "Ġstraw": 3385,
      "Ġbasara": 3386,
      "Ġshikkaku": 3387,
      "jiku": 3388,
      "Ġpatriot": 3389,
      "Ġtenjiku": 3390,
      "Ġblacksmi": 3391,
      "Ġkengan": 3392,
      "Ġsaiki": 3393,
      "Ġhearts": 3394,
      "Ġoujo": 3395,
      "bieland": 3396,
      "Ġzombieland": 3397,
      "Ġsonico": 3398,
      "Ġyakuza": 3399,
      "berry": 3400,
      "Ġhakkend": 3401,
      "bitch": 3402,
      "Ġcolorful": 3403,
      "Ġashura": 3404,
      "Ġboukensha": 3405,
      "Ġhidan": 3406,
      "Ġcircus": 3407,
      "Ġwarawanai": 3408,
      "Ġkakushigoto": 3409,
      "Ġperfect": 3410,
      "Ġfumetsu": 3411,
      "Ġcantabile": 3412,
      "Ġcinderella": 3413,
      "Ġoccult": 3414,
      "Ġstrawberry": 3415,
      "Ġblacksmith": 3416,
      "Ġhakkenden": 3417,
      "hu": 3418,
      "ng": 3419,
      "ug": 3420,
      "Ġsol": 3421,
      "Ġsiri": 3422,
      "aro": 3423,
      "Ġbara": 3424,
      "Ġapr": 3425,
      "Ġco": 3426,
      "Ġcoff": 3427,
      "Ġdang": 3428,
      "enger": 3429,
      "Ġlie": 3430,
      "Ġmeido": 3431,
      "icious": 3432,
      "Ġroll": 3433,
      "Ġkish": 3434,
      "Ġkado": 3435,
      "idge": 3436,
      "Ġmabor": 3437,
      "imb": 3438,
      "Ġinsom": 3439,
      "Ġchall": 3440,
      "isuru": 3441,
      "Ġyama": 3442,
      "kiri": 3443,
      "Ġclimb": 3444,
      "Ġueki": 3445,
      "Ġuzaki": 3446,
      "Ġshel": 3447,
      "riage": 3448,
      "Ġzhi": 3449,
      "Ġzet": 3450,
      "Ġdepart": 3451,
      "Ġidol": 3452,
      "Ġxia": 3453,
      "Ġshinpan": 3454,
      "osho": 3455,
      "Ġheike": 3456,
      "buster": 3457,
      "bikiri": 3458,
      "Ġbridge": 3459,
      "Ġchio": 3460,
      "gane": 3461,
      "Ġmarriage": 3462,
      "Ġkubikiri": 3463,
      "Ġkingdoms": 3464,
      "Ġflows": 3465,
      "Ġgala": 3466,
      "Ġterror": 3467,
      "Ġgunbuster": 3468,
      "toubun": 3469,
      "Ġduke": 3470,
      "Ġdelicious": 3471,
      "Ġaragoto": 3472,
      "Ġlegendary": 3473,
      "usions": 3474,
      "Ġmidori": 3475,
      "Ġcycle": 3476,
      "Ġsirius": 3477,
      "Ġapril": 3478,
      "Ġcoffin": 3479,
      "Ġrolling": 3480,
      "Ġkishuku": 3481,
      "Ġmaboroshi": 3482,
      "Ġinsomn": 3483,
      "Ġchallenger": 3484,
      "aill": 3485,
      "cend": 3486,
      "demon": 3487,
      "husband": 3488,
      "ife": 3489,
      "ju": 3490,
      "wari": 3491,
      "worm": 3492,
      "zur": 3493,
      "Ġ+": 3494,
      "Ġsent": 3495,
      "Ġwast": 3496,
      "orrow": 3497,
      "Ġill": 3498,
      "areru": 3499,
      "Ġlane": 3500,
      "Ġborn": 3501,
      "Ġalder": 3502,
      "Ġazur": 3503,
      "Ġfif": 3504,
      "Ġca": 3505,
      "Ġcu": 3506,
      "Ġgan": 3507,
      "Ġgarden": 3508,
      "antai": 3509,
      "Ġliber": 3510,
      "asan": 3511,
      "Ġtig": 3512,
      "Ġtip": 3513,
      "Ġtyr": 3514,
      "Ġosom": 3515,
      "owareta": 3516,
      "ilty": 3517,
      "Ġsupers": 3518,
      "Ġscale": 3519,
      "ldier": 3520,
      "amin": 3521,
      "Ġeiyuu": 3522,
      "lets": 3523,
      "itting": 3524,
      "Ġrose": 3525,
      "Ġjuuni": 3526,
      "kiru": 3527,
      "Ġascend": 3528,
      "Ġloved": 3529,
      "Ġshak": 3530,
      "Ġshimasu": 3531,
      "Ġexcel": 3532,
      "essent": 3533,
      "Ġmagician": 3534,
      "Ġenc": 3535,
      "ange": 3536,
      "Ġgrill": 3537,
      "Ġgreed": 3538,
      "Ġdig": 3539,
      "uplets": 3540,
      "Ġshiaw": 3541,
      "awareru": 3542,
      "Ġguilty": 3543,
      "Ġwater": 3544,
      "Ġtenge": 3545,
      "Ġtengoku": 3546,
      "teiru": 3547,
      "Ġcommonplace": 3548,
      "Ġstreet": 3549,
      "Ġotaku": 3550,
      "zuki": 3551,
      "zukai": 3552,
      "Ġknife": 3553,
      "Ġprincesses": 3554,
      "Ġbookworm": 3555,
      "Ġyourself": 3556,
      "Ġutawareru": 3557,
      "Ġjunjou": 3558,
      "Ġsotsu": 3559,
      "Ġsoldier": 3560,
      "Ġtomorrow": 3561,
      "Ġ201": 3562,
      "Ġasteroid": 3563,
      "Ġchained": 3564,
      "Ġfuufu": 3565,
      "Ġkino": 3566,
      "Ġhousehusband": 3567,
      "Ġmushibu": 3568,
      "Ġbeastars": 3569,
      "Ġryuusei": 3570,
      "Ġquintessent": 3571,
      "Ġquintuplets": 3572,
      "Ġpeter": 3573,
      "Ġasuka": 3574,
      "Ġordinal": 3575,
      "Ġmillion": 3576,
      "Ġwhisper": 3577,
      "Ġversaill": 3578,
      "ĠcafÃ©": 3579,
      "Ġalderamin": 3580,
      "Ġfifth": 3581,
      "Ġliberator": 3582,
      "Ġtiger": 3583,
      "Ġtyrant": 3584,
      "Ġosomatsu": 3585,
      "Ġascendance": 3586,
      "Ġshiawase": 3587,
      "Ġutawarerumono": 3588,
      "Ġquintessential": 3589,
      "Ġversailles": 3590,
      "da": 3591,
      "fli": 3592,
      "kana": 3593,
      "lers": 3594,
      "law": 3595,
      "mars": 3596,
      "Ġsousou": 3597,
      "Ġline": 3598,
      "Ġnak": 3599,
      "Ġbiy": 3600,
      "Ġbub": 3601,
      "Ġah": 3602,
      "Ġaka": 3603,
      "Ġdec": 3604,
      "Ġdimension": 3605,
      "Ġhill": 3606,
      "Ġhamatora": 3607,
      "Ġtori": 3608,
      "Ġtte": 3609,
      "hop": 3610,
      "Ġogre": 3611,
      "Ġseki": 3612,
      "Ġseif": 3613,
      "Ġeizou": 3614,
      "Ġformars": 3615,
      "Ġjitsu": 3616,
      "Ġjah": 3617,
      "Ġspice": 3618,
      "aders": 3619,
      "kufuku": 3620,
      "thering": 3621,
      "Ġemiya": 3622,
      "Ġgrace": 3623,
      "Ġzakuro": 3624,
      "lia": 3625,
      "Ġnihon": 3626,
      "Ġlite": 3627,
      "Ġoutlaw": 3628,
      "Ġsensou": 3629,
      "Ġshiken": 3630,
      "iglia": 3631,
      "Ġfamiglia": 3632,
      "Ġtsuk": 3633,
      "Ġdragonar": 3634,
      "awareta": 3635,
      "tei": 3636,
      "Ġkenichi": 3637,
      "Ġkyoushi": 3638,
      "zuku": 3639,
      "Ġgobl": 3640,
      "Ġworkshop": 3641,
      "Ġnani": 3642,
      "202": 3643,
      "Ġakatsuki": 3644,
      "Ġarcana": 3645,
      "Ġshugo": 3646,
      "Ġshukufuku": 3647,
      "Ġservant": 3648,
      "Ġgakuin": 3649,
      "Ġfirefli": 3650,
      "Ġichigo": 3651,
      "Ġmachiave": 3652,
      "Ġaishita": 3653,
      "Ġchocol": 3654,
      "Ġshoukanjuu": 3655,
      "Ġslayer": 3656,
      "Ġbiyori": 3657,
      "Ġbubble": 3658,
      "Ġseifuku": 3659,
      "Ġeizouken": 3660,
      "Ġjahy": 3661,
      "Ġgoblin": 3662,
      "Ġfireflies": 3663,
      "Ġchocolate": 3664,
      "'ve": 3665,
      "baka": 3666,
      "kom": 3667,
      "yom": 3668,
      "oribito": 3669,
      "Ġlup": 3670,
      "Ġburn": 3671,
      "Ġmr": 3672,
      "Ġmotion": 3673,
      "Ġmash": 3674,
      "Ġmoribito": 3675,
      "engu": 3676,
      "Ġpark": 3677,
      "Ġpict": 3678,
      "Ġpengu": 3679,
      "alle": 3680,
      "Ġop": 3681,
      "Ġrend": 3682,
      "icorn": 3683,
      "Ġsed": 3684,
      "Ġeast": 3685,
      "Ġmao": 3686,
      "ook": 3687,
      "uraku": 3688,
      "Ġdokuro": 3689,
      "Ġya": 3690,
      "Ġmato": 3691,
      "Ġlev": 3692,
      "ashiki": 3693,
      "Ġsenko": 3694,
      "ageki": 3695,
      "Ġbokusatsu": 3696,
      "Ġmany": 3697,
      "Ġnanbaka": 3698,
      "Ġslave": 3699,
      "Ġyuugi": 3700,
      "Ġunicorn": 3701,
      "kkatsu": 3702,
      "okuraku": 3703,
      "Ġflash": 3704,
      "Ġinuyashiki": 3705,
      "Ġparalle": 3706,
      "Ġhellsing": 3707,
      "Ġfukkatsu": 3708,
      "Ġjigokuraku": 3709,
      "Ġutau": 3710,
      "Ġgaro": 3711,
      "Ġhaganai": 3712,
      "Ġseihei": 3713,
      "Ġhealer": 3714,
      "Ġcrusade": 3715,
      "Ġlupin": 3716,
      "Ġpicture": 3717,
      "Ġparallel": 3718,
      "199": 3719,
      "aos": 3720,
      "bashi": 3721,
      "bound": 3722,
      "gaku": 3723,
      "head": 3724,
      "iki": 3725,
      "pse": 3726,
      "pest": 3727,
      "too": 3728,
      "ying": 3729,
      "ancre": 3730,
      "orpse": 3731,
      "Ġlyr": 3732,
      "Ġnano": 3733,
      "Ġcra": 3734,
      "Ġcorpse": 3735,
      "Ġpho": 3736,
      "icle": 3737,
      "ilet": 3738,
      "Ġkoku": 3739,
      "Ġtoilet": 3740,
      "Ġmaji": 3741,
      "bobo": 3742,
      "Ġinaba": 3743,
      "Ġchin": 3744,
      "Ġchaos": 3745,
      "isis": 3746,
      "Ġyouth": 3747,
      "Ġ2199": 3748,
      "Ġuchuu": 3749,
      "Ġmagister": 3750,
      "Ġgenjitsu": 3751,
      "ouran": 3752,
      "uuden": 3753,
      "Ġgrancre": 3754,
      "illain": 3755,
      "Ġvillain": 3756,
      "Ġabeno": 3757,
      "kenai": 3758,
      "kenki": 3759,
      "Ġsaikenki": 3760,
      "Ġtaisen": 3761,
      "Ġshugi": 3762,
      "Ġryouran": 3763,
      "Ġbabys": 3764,
      "Ġzokusei": 3765,
      "Ġblooms": 3766,
      "Ġshippuuden": 3767,
      "Ġhyouka": 3768,
      "Ġcuticle": 3769,
      "Ġomoide": 3770,
      "Ġarslan": 3771,
      "Ġkakuriyo": 3772,
      "Ġtempest": 3773,
      "Ġbusou": 3774,
      "Ġhyakka": 3775,
      "Ġlyrical": 3776,
      "Ġnanoha": 3777,
      "Ġgrancrest": 3778,
      "Ġabenobashi": 3779,
      "-,": 3780,
      "bow": 3781,
      "cano": 3782,
      "fumi": 3783,
      "gil": 3784,
      "guru": 3785,
      "jimi": 3786,
      "kashi": 3787,
      "mun": 3788,
      "mashita": 3789,
      "nes": 3790,
      "nichi": 3791,
      "nights": 3792,
      "tom": 3793,
      "vance": 3794,
      "âĻ¥": 3795,
      "Ġark": 3796,
      "orig": 3797,
      "Ġbot": 3798,
      "Ġbac": 3799,
      "Ġbna": 3800,
      "Ġaa": 3801,
      "Ġmarn": 3802,
      "Ġfish": 3803,
      "Ġnoein": 3804,
      "utou": 3805,
      "ated": 3806,
      "Ġtora": 3807,
      "Ġosan": 3808,
      "Ġreview": 3809,
      "icate": 3810,
      "Ġtoki": 3811,
      "uriya": 3812,
      "Ġadachi": 3813,
      "Ġadvance": 3814,
      "Ġyori": 3815,
      "Ġvigil": 3816,
      "Ġcomes": 3817,
      "Ġamnes": 3818,
      "Ġcommun": 3819,
      "etta": 3820,
      "feated": 3821,
      "Ġbeck": 3822,
      "izu": 3823,
      "Ġshigo": 3824,
      "Ġleaves": 3825,
      "Ġxam": 3826,
      "Ġsaji": 3827,
      "Ġguild": 3828,
      "anajimi": 3829,
      "Ġboss": 3830,
      "Ġkaisha": 3831,
      "Ġshinry": 3832,
      "Ġhitorig": 3833,
      "Ġkancol": 3834,
      "Ġkagaku": 3835,
      "Ġhajimemashita": 3836,
      "Ġnagato": 3837,
      "Ġrainbow": 3838,
      "Ġshimamura": 3839,
      "Ġskill": 3840,
      "Ġizetta": 3841,
      "Ġgeneration": 3842,
      "Ġkusuriya": 3843,
      "Ġboruto": 3844,
      "Ġmiyano": 3845,
      "gurui": 3846,
      "Ġarknights": 3847,
      "Ġbottom": 3848,
      "Ġbaccano": 3849,
      "Ġmarnie": 3850,
      "Ġosananajimi": 3851,
      "Ġreviewers": 3852,
      "Ġadvanced": 3853,
      "Ġvigilant": 3854,
      "Ġamnesia": 3855,
      "Ġcommunicate": 3856,
      "Ġshigofumi": 3857,
      "Ġhitorigoto": 3858,
      "Ġkancolle": 3859,
      "ben": 3860,
      "gatsu": 3861,
      "ming": 3862,
      "oxy": 3863,
      "ust": 3864,
      "aner": 3865,
      "mell": 3866,
      "Ġwr": 3867,
      "arotte": 3868,
      "Ġake": 3869,
      "Ġmama": 3870,
      "Ġmashi": 3871,
      "Ġfoo": 3872,
      "Ġfem": 3873,
      "ena": 3874,
      "Ġlily": 3875,
      "Ġtate": 3876,
      "Ġos": 3877,
      "Ġothers": 3878,
      "iled": 3879,
      "Ġtoy": 3880,
      "Ġsube": 3881,
      "Ġspoon": 3882,
      "Ġclick": 3883,
      "ague": 3884,
      "Ġmagmell": 3885,
      "nect": 3886,
      "Ġdeoxy": 3887,
      "Ġjoe": 3888,
      "Ġlearn": 3889,
      "Ġseneki": 3890,
      "Ġxxx": 3891,
      "Ġconnect": 3892,
      "Ġbokuben": 3893,
      "Ġkaijuu": 3894,
      "Ġkakeru": 3895,
      "2016": 3896,
      "Ġcolleague": 3897,
      "Ġkabaner": 3898,
      "Ġastra": 3899,
      "Ġastarotte": 3900,
      "Ġlink": 3901,
      "Ġnariagari": 3902,
      "Ġkyoto": 3903,
      "Ġakebi": 3904,
      "Ġfoot": 3905,
      "Ġfemale": 3906,
      "Ġsubete": 3907,
      "Ġdeoxys": 3908,
      "Ġxxxholic": 3909,
      "Ġkabaneri": 3910,
      "bad": 3911,
      "kar": 3912,
      "lands": 3913,
      "myou": 3914,
      "obo": 3915,
      "Ġsong": 3916,
      "Ġbad": 3917,
      "Ġald": 3918,
      "Ġakai": 3919,
      "Ġfa": 3920,
      "Ġfushi": 3921,
      "atope": 3922,
      "Ġgone": 3923,
      "ants": 3924,
      "alobo": 3925,
      "Ġhel": 3926,
      "Ġhired": 3927,
      "Ġrab": 3928,
      "Ġrecent": 3929,
      "ition": 3930,
      "Ġalread": 3931,
      "ushou": 3932,
      "Ġoni": 3933,
      "Ġonmyou": 3934,
      "illiant": 3935,
      "atekata": 3936,
      "Ġsinbad": 3937,
      "awling": 3938,
      "Ġsaenai": 3939,
      "Ġdistant": 3940,
      "Ġshinai": 3941,
      "Ġcrime": 3942,
      "Ġcrawling": 3943,
      "Ġbrilliant": 3944,
      "ashic": 3945,
      "Ġboys": 3946,
      "Ġjunji": 3947,
      "Ġakashic": 3948,
      "aleid": 3949,
      "Ġtsukihime": 3950,
      "valry": 3951,
      "ketsuki": 3952,
      "noah": 3953,
      "Ġprisma": 3954,
      "Ġsankar": 3955,
      "Ġakuyaku": 3956,
      "Ġrecords": 3957,
      "Ġkabadd": 3958,
      "Ġmegalobo": 3959,
      "Ġkyuuketsuki": 3960,
      "Ġliner": 3961,
      "Ġedge": 3962,
      "Ġaquatope": 3963,
      "Ġsodatekata": 3964,
      "Ġillya": 3965,
      "Ġlucky": 3966,
      "Ġshooter": 3967,
      "Ġbadlands": 3968,
      "Ġaldnoah": 3969,
      "Ġrabbit": 3970,
      "Ġrecently": 3971,
      "Ġalready": 3972,
      "Ġonmyouji": 3973,
      "Ġsankarea": 3974,
      "Ġkabaddi": 3975,
      "Ġmegalobox": 3976,
      "bako": 3977,
      "kon": 3978,
      "kick": 3979,
      "light": 3980,
      "nis": 3981,
      "rol": 3982,
      "tles": 3983,
      "uco": 3984,
      "xc": 3985,
      "yore": 3986,
      "zz": 3987,
      "zer": 3988,
      "Ġerg": 3989,
      "inryou": 3990,
      "Ġlul": 3991,
      "Ġdarl": 3992,
      "Ġphi": 3993,
      "Ġtu": 3994,
      "Ġtari": 3995,
      "oushi": 3996,
      "Ġreli": 3997,
      "icide": 3998,
      "Ġsuicide": 3999,
      "Ġscience": 4000,
      "Ġshoushi": 4001,
      "unkoku": 4002,
      "Ġvii": 4003,
      "Ġbattles": 4004,
      "Ġpatrol": 4005,
      "Ġtennis": 4006,
      "Ġhaiyore": 4007,
      "Ġkyoukan": 4008,
      "Ġsaiunkoku": 4009,
      "Ġstarlight": 4010,
      "Ġproxy": 4011,
      "Ġkuusen": 4012,
      "Ġmadoushi": 4013,
      "Ġpanzer": 4014,
      "Ġpuzz": 4015,
      "Ġrevue": 4016,
      "Ġdropkick": 4017,
      "Ġkoushinryou": 4018,
      "Ġhitsugi": 4019,
      "Ġpiano": 4020,
      "Ġkouhosei": 4021,
      "Ġergo": 4022,
      "Ġluluco": 4023,
      "Ġdarling": 4024,
      "Ġrelife": 4025,
      "Ġshoushitsu": 4026,
      "Ġpuzzle": 4027,
      "65": 4028,
      "giz": 4029,
      "ix": 4030,
      "lle": 4031,
      "puru": 4032,
      "ring": 4033,
      "xion": 4034,
      "¼re": 4035,
      "Ã¼re": 4036,
      "Ġwot": 4037,
      "Ġlone": 4038,
      "Ġfur": 4039,
      "Ġnogiz": 4040,
      "utio": 4041,
      "Ġtut": 4042,
      "Ġtrain": 4043,
      "staur": 4044,
      "Ġrestaur": 4045,
      "seur": 4046,
      "child": 4047,
      "Ġfort": 4048,
      "olutio": 4049,
      "Ġspring": 4050,
      "Ġinari": 4051,
      "Ġbelle": 4052,
      "Ġuchi": 4053,
      "Ġona": 4054,
      "young": 4055,
      "Ġ365": 4056,
      "Ġconcre": 4057,
      "Ġtenpuru": 4058,
      "Ġkimyou": 4059,
      "Ġhanashi": 4060,
      "Ġcrown": 4061,
      "Ġdanseur": 4062,
      "000": 4063,
      "Ġyuuki": 4064,
      "Ġharuka": 4065,
      "ĠâĻ¥": 4066,
      "Ġkansatsu": 4067,
      "Ġbusters": 4068,
      "Ġ2020": 4069,
      "Ġdouky": 4070,
      "Ġkyuujitsu": 4071,
      "ĠwalkÃ¼re": 4072,
      "Ġrevolutio": 4073,
      "Ġwarumono": 4074,
      "liness": 4075,
      "Ġcompany": 4076,
      "Ġloneliness": 4077,
      "Ġnogizaka": 4078,
      "Ġtraining": 4079,
      "Ġrestaurant": 4080,
      "Ġconcrete": 4081,
      "hana": 4082,
      "wor": 4083,
      "ins": 4084,
      "Ġnur": 4085,
      "Ġnay": 4086,
      "Ġag": 4087,
      "Ġfusion": 4088,
      "Ġthem": 4089,
      "Ġput": 4090,
      "Ġpad": 4091,
      "Ġmemo": 4092,
      "ored": 4093,
      "inda": 4094,
      "Ġbell": 4095,
      "kuzu": 4096,
      "ayaki": 4097,
      "Ġshinde": 4098,
      "Ġshinda": 4099,
      "entless": 4100,
      "oura": 4101,
      "Ġafro": 4102,
      "arihy": 4103,
      "ryu": 4104,
      "movie": 4105,
      "Ġsenryu": 4106,
      "Ġtenkuu": 4107,
      "kenzan": 4108,
      "Ġtakuto": 4109,
      "Ġutage": 4110,
      "Ġkonohana": 4111,
      "Ġkagayaki": 4112,
      "Ġhoshikuzu": 4113,
      "Ġtalentless": 4114,
      "Ġreikenzan": 4115,
      "Ġglasslip": 4116,
      "Ġashita": 4117,
      "Ġcapu": 4118,
      "Ġkotoura": 4119,
      "Ġporori": 4120,
      "Ġdisappearance": 4121,
      "Ġnurarihy": 4122,
      "Ġnayami": 4123,
      "Ġshindeiru": 4124,
      "Ġnurarihyon": 4125,
      ".?": 4126,
      "bai": 4127,
      "ddy": 4128,
      "fes": 4129,
      "here": 4130,
      "norm": 4131,
      "Ġutsu": 4132,
      "Ġsareta": 4133,
      "Ġsored": 4134,
      "Ġwall": 4135,
      "utoku": 4136,
      "onome": 4137,
      "ato": 4138,
      "stay": 4139,
      "Ġreze": 4140,
      "see": 4141,
      "ident": 4142,
      "boshi": 4143,
      "ffle": 4144,
      "Ġwords": 4145,
      "Ġue": 4146,
      "Ġrealm": 4147,
      "Ġeng": 4148,
      "Ġjosee": 4149,
      "odiac": 4150,
      "Ġzodiac": 4151,
      "Ġgake": 4152,
      "Ġgaos": 4153,
      "Ġshibai": 4154,
      "ector": 4155,
      "Ġdaemon": 4156,
      "Ġabnorm": 4157,
      "Ġshinonome": 4158,
      "Ġminami": 4159,
      "Ġprofes": 4160,
      "Ġakutoku": 4161,
      "Ġbuddy": 4162,
      "Ġheron": 4163,
      "Ġherself": 4164,
      "Ġshuffle": 4165,
      "Ġnexus": 4166,
      "Ġnowhere": 4167,
      "Ġfuuin": 4168,
      "Ġpancre": 4169,
      "Ġseikan": 4170,
      "2019": 4171,
      "Ġowaranai": 4172,
      "Ġoda": 4173,
      "Ġmiddle": 4174,
      "Ġnobuna": 4175,
      "Ġpupil": 4176,
      "Ġinspector": 4177,
      "Ġryoushu": 4178,
      "Ġyabou": 4179,
      "Ġikusei": 4180,
      "flower": 4181,
      "kushii": 4182,
      "Ġutsukushii": 4183,
      "Ġsoredemo": 4184,
      "Ġwallflower": 4185,
      "Ġgaoshou": 4186,
      "Ġdaemons": 4187,
      "Ġabnormal": 4188,
      "Ġprofessed": 4189,
      "Ġpancreas": 4190,
      "2009": 4191,
      "bane": 4192,
      "cor": 4193,
      "cket": 4194,
      "dur": 4195,
      "ek": 4196,
      "jim": 4197,
      "lish": 4198,
      "mous": 4199,
      "nic": 4200,
      "rom": 4201,
      "run": 4202,
      "sho": 4203,
      "sible": 4204,
      "tic": 4205,
      "Ġsono": 4206,
      "Ġanony": 4207,
      "arch": 4208,
      "Ġben": 4209,
      "Ġboc": 4210,
      "Ġbachi": 4211,
      "Ġming": 4212,
      "Ġnoise": 4213,
      "Ġcike": 4214,
      "oned": 4215,
      "Ġdorm": 4216,
      "atasumi": 4217,
      "Ġlist": 4218,
      "Ġpic": 4219,
      "ilight": 4220,
      "Ġkage": 4221,
      "Ġkatasumi": 4222,
      "Ġsearch": 4223,
      "chim": 4224,
      "Ġmakai": 4225,
      "Ġmajin": 4226,
      "oove": 4227,
      "ctrom": 4228,
      "Ġshobitch": 4229,
      "Ġjits": 4230,
      "visible": 4231,
      "itak": 4232,
      "Ġinvisible": 4233,
      "ĠchÃ¤": 4234,
      "Ġbee": 4235,
      "Ġyag": 4236,
      "andoned": 4237,
      "Ġmother": 4238,
      "agne": 4239,
      "agimi": 4240,
      "Ġgroove": 4241,
      "Ġtwilight": 4242,
      "Ġnige": 4243,
      "Ġrao": 4244,
      "umaru": 4245,
      "Ġdive": 4246,
      "okusha": 4247,
      "oushou": 4248,
      "Ġtenki": 4249,
      "agebu": 4250,
      "Ġabandoned": 4251,
      "Ġhachim": 4252,
      "Ġhaibane": 4253,
      "Ġshinigami": 4254,
      "Ġkougyou": 4255,
      "Ġoverrun": 4256,
      "Ġutatte": 4257,
      "Ġnaritak": 4258,
      "Ġrenmei": 4259,
      "Ġmarumaru": 4260,
      "Ġheavens": 4261,
      "Ġbucket": 4262,
      "akusho": 4263,
      "Ġtouken": 4264,
      "Ġweek": 4265,
      "Ġshokugyou": 4266,
      "Ġelectrom": 4267,
      "douki": 4268,
      "Ġtsuukaku": 4269,
      "Ġverdur": 4270,
      "Ġmayoi": 4271,
      "Ġwakagimi": 4272,
      "Ġletter": 4273,
      "Ġzanryuu": 4274,
      "Ġnobunaga": 4275,
      "Ġpupa": 4276,
      "Ġkatsugeki": 4277,
      "Ġkatsudouki": 4278,
      "Ġgentoushou": 4279,
      "uryokusha": 4280,
      "shimai": 4281,
      "Ġsabagebu": 4282,
      "Ġtegami": 4283,
      "Ġsakurada": 4284,
      "Ġhangyaku": 4285,
      "Ġanonymous": 4286,
      "Ġbocchan": 4287,
      "Ġdormitory": 4288,
      "Ġpicnic": 4289,
      "Ġjitsuryokusha": 4290,
      "ĠchÃ¤os": 4291,
      "Ġyagate": 4292,
      "agnetic": 4293,
      "Ġhachimitsu": 4294,
      "Ġnaritakute": 4295,
      "Ġelectromagnetic": 4296,
      "Ġverdurous": 4297,
      "12": 4298,
      "baby": 4299,
      "ection": 4300,
      "hura": 4301,
      "mp": 4302,
      "mari": 4303,
      "rai": 4304,
      "ritory": 4305,
      "want": 4306,
      "Ġsss": 4307,
      "inaka": 4308,
      "inbou": 4309,
      "Ġany": 4310,
      "Ġahi": 4311,
      "Ġmoro": 4312,
      "Ġcell": 4313,
      "Ġcider": 4314,
      "Ġporc": 4315,
      "Ġtaka": 4316,
      "Ġwithin": 4317,
      "Ġmeiji": 4318,
      "Ġrent": 4319,
      "Ġreike": 4320,
      "eshura": 4321,
      "sea": 4322,
      "setsu": 4323,
      "Ġkart": 4324,
      "Ġkase": 4325,
      "Ġkoto": 4326,
      "Ġkisei": 4327,
      "Ġkuni": 4328,
      "Ġoroka": 4329,
      "Ġoreshura": 4330,
      "imad": 4331,
      "urer": 4332,
      "Ġross": 4333,
      "airoku": 4334,
      "kiyou": 4335,
      "kiagaru": 4336,
      "Ġdarkrai": 4337,
      "Ġadventurer": 4338,
      "Ġugo": 4339,
      "Ġueno": 4340,
      "Ġkemari": 4341,
      "territory": 4342,
      "Ġcomic": 4343,
      "Ġromantan": 4344,
      "Ġwax": 4345,
      "Ġwakiagaru": 4346,
      "Ġlightning": 4347,
      "Ġ35": 4348,
      "Ġdept": 4349,
      "ishinbou": 4350,
      "Ġbasho": 4351,
      "Ġkaito": 4352,
      "Ġkensei": 4353,
      "Ġkenkaku": 4354,
      "Ġkamikaku": 4355,
      "Ġsaibou": 4356,
      "Ġkaii": 4357,
      "Ġgohan": 4358,
      "Ġseikoku": 4359,
      "Ġslope": 4360,
      "Ġunwant": 4361,
      "nazen": 4362,
      "Ġdevilman": 4363,
      "Ġtaimad": 4364,
      "Ġkanon": 4365,
      "Ġmars": 4366,
      "Ġcrybaby": 4367,
      "Ġkuishinbou": 4368,
      "Ġbukiyou": 4369,
      "Ġseiren": 4370,
      "Ġmadan": 4371,
      "Ġtouhai": 4372,
      "Ġretry": 4373,
      "Ġhakairoku": 4374,
      "Ġakuma": 4375,
      "girlfriend": 4376,
      "...": 4377,
      "Ġhyousetsu": 4378,
      "Ġodoru": 4379,
      "linger": 4380,
      "Ġteikoku": 4381,
      "Ġsweetness": 4382,
      "Ġkakuritsu": 4383,
      "Ġinspection": 4384,
      "Ġ1412": 4385,
      "Ġfourth": 4386,
      "Ġearthsea": 4387,
      "banzai": 4388,
      "Ġkatainaka": 4389,
      "Ġbeatless": 4390,
      "Ġbanbanzai": 4391,
      "Ġtamers": 4392,
      "Ġgunslinger": 4393,
      "Ġssss": 4394,
      "Ġahiru": 4395,
      "Ġmorose": 4396,
      "Ġcells": 4397,
      "Ġporco": 4398,
      "Ġtakao": 4399,
      "Ġreiketsu": 4400,
      "Ġkarte": 4401,
      "Ġkotoba": 4402,
      "Ġkiseijuu": 4403,
      "Ġrosso": 4404,
      "Ġugokanai": 4405,
      "Ġkamikakushi": 4406,
      "Ġunwanted": 4407,
      "nazenon": 4408,
      "Ġtaimadou": 4409,
      "):": 4410,
      "aan": 4411,
      "ath": 4412,
      "cue": 4413,
      "date": 4414,
      "daru": 4415,
      "giri": 4416,
      "gizou": 4417,
      "iko": 4418,
      "ihou": 4419,
      "ival": 4420,
      "ny": 4421,
      "ners": 4422,
      "nival": 4423,
      "rage": 4424,
      "sack": 4425,
      "Ġ]": 4426,
      "Ġske": 4427,
      "Ġsis": 4428,
      "anko": 4429,
      "thm": 4430,
      "them": 4431,
      "ments": 4432,
      "Ġanthem": 4433,
      "Ġthorn": 4434,
      "arrage": 4435,
      "Ġnand": 4436,
      "Ġbound": 4437,
      "Ġbump": 4438,
      "Ġbarrage": 4439,
      "Ġmond": 4440,
      "Ġmiko": 4441,
      "Ġcull": 4442,
      "Ġgeki": 4443,
      "Ġliar": 4444,
      "Ġpath": 4445,
      "Ġhaka": 4446,
      "Ġtong": 4447,
      "Ġmete": 4448,
      "Ġoyo": 4449,
      "star": 4450,
      "omata": 4451,
      "iciz": 4452,
      "Ġrid": 4453,
      "Ġrhy": 4454,
      "Ġorb": 4455,
      "Ġego": 4456,
      "indomo": 4457,
      "isana": 4458,
      "antasm": 4459,
      "istic": 4460,
      "Ġcanaan": 4461,
      "Ġmystic": 4462,
      "Ġmatsu": 4463,
      "asete": 4464,
      "Ġaliciz": 4465,
      "Ġammo": 4466,
      "chives": 4467,
      "agara": 4468,
      "Ġkedaru": 4469,
      "cchigiri": 4470,
      "spel": 4471,
      "sodate": 4472,
      "Ġspiral": 4473,
      "Ġbecame": 4474,
      "Ġcarnival": 4475,
      "Ġarchives": 4476,
      "Ġnier": 4477,
      "Ġswordsman": 4478,
      "Ġitsumo": 4479,
      "kaisuru": 4480,
      "Ġsinners": 4481,
      "Ġkoko": 4482,
      "Ġkosodate": 4483,
      "Ġtsuihou": 4484,
      "apsack": 4485,
      "Ġepilo": 4486,
      "Ġdaishi": 4487,
      "Ġkurozu": 4488,
      "Ġshinagara": 4489,
      "Ġhanyou": 4490,
      "Ġcrisis": 4491,
      "Ġgospel": 4492,
      "Ġknapsack": 4493,
      "Ġseikaisuru": 4494,
      "Ġmanaria": 4495,
      "Ġdaybreak": 4496,
      "Ġchiisana": 4497,
      "Ġutago": 4498,
      "Ġhouou": 4499,
      "leton": 4500,
      "Ġboushi": 4501,
      "Ġsonny": 4502,
      "Ġbucchigiri": 4503,
      "Ġyakuindomo": 4504,
      "Ġphantasm": 4505,
      "Ġtanaka": 4506,
      "Ġotogizou": 4507,
      "2014": 4508,
      "Ġrescue": 4509,
      "Ġkikou": 4510,
      "Ġkikasete": 4511,
      "genai": 4512,
      "Ġvoice": 4513,
      "Ġburanko": 4514,
      "Ġhotaru": 4515,
      "Ġstigma": 4516,
      "Ġkuuchuu": 4517,
      "Ġaruji": 4518,
      "Ġrakuen": 4519,
      "Ġyururi": 4520,
      "Ġmovements": 4521,
      "Ġtamako": 4522,
      "Ġcountry": 4523,
      "Ġhourou": 4524,
      "Ġhokuto": 4525,
      "Ġzetman": 4526,
      "Ġsentai": 4527,
      "Ġskeleton": 4528,
      "Ġthorns": 4529,
      "Ġnande": 4530,
      "Ġboundary": 4531,
      "Ġbumpkin": 4532,
      "Ġmonday": 4533,
      "Ġculling": 4534,
      "Ġgekirin": 4535,
      "Ġtongari": 4536,
      "Ġmeteor": 4537,
      "Ġoyogenai": 4538,
      "Ġriddle": 4539,
      "Ġrhythm": 4540,
      "Ġegoistic": 4541,
      "Ġalicization": 4542,
      "Ġkedaruge": 4543,
      "Ġepilogue": 4544,
      "Ġdaishikkaku": 4545,
      "Ġkurozuka": 4546,
      "Ġutagoe": 4547,
      "Ġotogizoushi": 4548,
      "bid": 4549,
      "bles": 4550,
      "eat": 4551,
      "ever": 4552,
      "eive": 4553,
      "gum": 4554,
      "gakkou": 4555,
      "jho": 4556,
      "mands": 4557,
      "ochi": 4558,
      "pen": 4559,
      "ration": 4560,
      "raku": 4561,
      "ses": 4562,
      "sfer": 4563,
      "uou": 4564,
      "Ġverse": 4565,
      "anu": 4566,
      "anch": 4567,
      "through": 4568,
      "Ġthrough": 4569,
      "Ġlaika": 4570,
      "Ġnore": 4571,
      "Ġnami": 4572,
      "Ġband": 4573,
      "Ġaho": 4574,
      "Ġfre": 4575,
      "Ġfunn": 4576,
      "Ġnobles": 4577,
      "Ġnosfer": 4578,
      "onari": 4579,
      "Ġded": 4580,
      "Ġdump": 4581,
      "Ġthen": 4582,
      "atu": 4583,
      "Ġgur": 4584,
      "Ġgour": 4585,
      "antan": 4586,
      "Ġlied": 4587,
      "ales": 4588,
      "Ġhere": 4589,
      "Ġhako": 4590,
      "Ġtell": 4591,
      "Ġoh": 4592,
      "Ġoku": 4593,
      "Ġopp": 4594,
      "stig": 4595,
      "omart": 4596,
      "Ġrever": 4597,
      "ichou": 4598,
      "Ġnotes": 4599,
      "owanu": 4600,
      "Ġruna": 4601,
      "Ġrdg": 4602,
      "vestig": 4603,
      "Ġgimai": 4604,
      "Ġseisen": 4605,
      "amata": 4606,
      "Ġforbid": 4607,
      "imatsu": 4608,
      "Ġjutsushi": 4609,
      "union": 4610,
      "Ġreceive": 4611,
      "vival": 4612,
      "ites": 4613,
      "itantan": 4614,
      "pervious": 4615,
      "Ġinvestig": 4616,
      "Ġchuu": 4617,
      "Ġcharm": 4618,
      "Ġcheat": 4619,
      "edom": 4620,
      "Ġjuuou": 4621,
      "Ġvibration": 4622,
      "Ġwhales": 4623,
      "Ġyouchi": 4624,
      "Ġmatter": 4625,
      "Ġmatsur": 4626,
      "Ġamanch": 4627,
      "Ġkei": 4628,
      "abu": 4629,
      "Ġshimetsu": 4630,
      "Ġmoment": 4631,
      "Ġmujin": 4632,
      "kaichou": 4633,
      "ibly": 4634,
      "Ġsenses": 4635,
      "Ġshikano": 4636,
      "igoro": 4637,
      "Ġkosh": 4638,
      "Ġleapt": 4639,
      "onoko": 4640,
      "Ġimpervious": 4641,
      "Ġtsugum": 4642,
      "Ġoffice": 4643,
      "Ġpossibly": 4644,
      "Ġbones": 4645,
      "Ġtenjho": 4646,
      "Ġshinrei": 4647,
      "osites": 4648,
      "utei": 4649,
      "Ġkimochi": 4650,
      "Ġkamigoro": 4651,
      "Ġotonari": 4652,
      "Ġheika": 4653,
      "Ġkaiyuu": 4654,
      "Ġkaifuku": 4655,
      "Ġkaizoku": 4656,
      "Ġcromart": 4657,
      "Ġtakt": 4658,
      "Ġslide": 4659,
      "Ġyobu": 4660,
      "Ġchiki": 4661,
      "Ġharukana": 4662,
      "Ġlaplace": 4663,
      "Ġyakumo": 4664,
      "apped": 4665,
      "Ġparry": 4666,
      "Ġirabu": 4667,
      "Ġfruit": 4668,
      "Ġplaythrough": 4669,
      "Ġranpo": 4670,
      "Ġfuujin": 4671,
      "Ġseikimatsu": 4672,
      "bitai": 4673,
      "Ġdude": 4674,
      "Ġryuutei": 4675,
      "Ġasobitai": 4676,
      "Ġhagure": 4677,
      "Ġhanayamata": 4678,
      "Ġameagari": 4679,
      "Ġseitokaichou": 4680,
      "Ġmajor": 4681,
      "Ġlagann": 4682,
      "Ġnokonoko": 4683,
      "Ġjoshiraku": 4684,
      "Ġwarui": 4685,
      "Ġcaptain": 4686,
      "Ġsanda": 4687,
      "Ġwings": 4688,
      "survival": 4689,
      "Ġelementalers": 4690,
      "uctions": 4691,
      "Ġscrapped": 4692,
      "Ġshirushi": 4693,
      "Ġzenpen": 4694,
      "Ġelfen": 4695,
      "Ġhurray": 4696,
      "Ġkouryakuchuu": 4697,
      "Ġshakers": 4698,
      "Ġmaoyuu": 4699,
      "Ġnoretara": 4700,
      "Ġfreedom": 4701,
      "Ġfunnu": 4702,
      "Ġnoblesse": 4703,
      "Ġnosferatu": 4704,
      "Ġdeductions": 4705,
      "Ġdumpster": 4706,
      "Ġgurren": 4707,
      "Ġgourmands": 4708,
      "Ġokusama": 4709,
      "Ġopposites": 4710,
      "Ġreverie": 4711,
      "Ġrunaway": 4712,
      "Ġforbidden": 4713,
      "Ġinvestigation": 4714,
      "Ġchuugakkou": 4715,
      "Ġcharms": 4716,
      "Ġyouchien": 4717,
      "Ġmatteru": 4718,
      "Ġmatsurowanu": 4719,
      "Ġamanchu": 4720,
      "Ġshikanoko": 4721,
      "Ġkoshitantan": 4722,
      "Ġtsugumomo": 4723,
      "Ġkamigoroshi": 4724,
      "Ġcromartie": 4725,
      ").": 4726,
      "buru": 4727,
      "book": 4728,
      "chool": 4729,
      "caf": 4730,
      "clip": 4731,
      "dure": 4732,
      "eting": 4733,
      "echan": 4734,
      "garet": 4735,
      "ivers": 4736,
      "kaleid": 4737,
      "my": 4738,
      "min": 4739,
      "mar": 4740,
      "nou": 4741,
      "oki": 4742,
      "oya": 4743,
      "rada": 4744,
      "school": 4745,
      "uki": 4746,
      "ught": 4747,
      "uca": 4748,
      "xero": 4749,
      "zem": 4750,
      "zaka": 4751,
      "Ġsaku": 4752,
      "Ġsample": 4753,
      "anashi": 4754,
      "anron": 4755,
      "Ġwere": 4756,
      "orney": 4757,
      "Ġnama": 4758,
      "Ġnite": 4759,
      "Ġbow": 4760,
      "Ġbik": 4761,
      "Ġbake": 4762,
      "Ġako": 4763,
      "Ġaura": 4764,
      "Ġmum": 4765,
      "Ġmortal": 4766,
      "Ġmount": 4767,
      "Ġmousou": 4768,
      "Ġcou": 4769,
      "Ġcoil": 4770,
      "Ġdend": 4771,
      "Ġdarc": 4772,
      "Ġgass": 4773,
      "Ġgyaku": 4774,
      "asareta": 4775,
      "Ġhome": 4776,
      "Ġhep": 4777,
      "Ġhxero": 4778,
      "Ġmeit": 4779,
      "Ġmeister": 4780,
      "Ġoid": 4781,
      "Ġowari": 4782,
      "Ġreign": 4783,
      "icot": 4784,
      "Ġrivers": 4785,
      "Ġkise": 4786,
      "Ġkita": 4787,
      "Ġtotal": 4788,
      "Ġsuite": 4789,
      "amus": 4790,
      "Ġeight": 4791,
      "Ġearl": 4792,
      "Ġeclip": 4793,
      "oos": 4794,
      "Ġshomin": 4795,
      "imon": 4796,
      "Ġspell": 4797,
      "itou": 4798,
      "itama": 4799,
      "itate": 4800,
      "adale": 4801,
      "Ġrobin": 4802,
      "Ġyak": 4803,
      "Ġyuna": 4804,
      "Ġisuca": 4805,
      "dyman": 4806,
      "lowne": 4807,
      "Ġjudg": 4808,
      "arten": 4809,
      "otan": 4810,
      "elicot": 4811,
      "Ġitaz": 4812,
      "Ġalign": 4813,
      "agura": 4814,
      "Ġkeiji": 4815,
      "Ġhighschool": 4816,
      "akai": 4817,
      "akaten": 4818,
      "sugiru": 4819,
      "quelicot": 4820,
      "Ġmayuri": 4821,
      "rogr": 4822,
      "rise": 4823,
      "Ġescaf": 4824,
      "ourage": 4825,
      "Ġdeer": 4826,
      "uuin": 4827,
      "Ġoneechan": 4828,
      "monsha": 4829,
      "Ġarrow": 4830,
      "Ġleadale": 4831,
      "youbin": 4832,
      "Ġundou": 4833,
      "Ġmuv": 4834,
      "Ġunderstand": 4835,
      "ideo": 4836,
      "ergarten": 4837,
      "Ġshizuku": 4838,
      "Ġvideo": 4839,
      "jie": 4840,
      "Ġkindergarten": 4841,
      "Ġtsuite": 4842,
      "Ġspirited": 4843,
      "Ġconan": 4844,
      "aware": 4845,
      "Ġsaitou": 4846,
      "two": 4847,
      "Ġdaichi": 4848,
      "Ġdaught": 4849,
      "Ġkaoru": 4850,
      "Ġkazem": 4851,
      "Ġhandyman": 4852,
      "Ġkouga": 4853,
      "koubak": 4854,
      "Ġsaigo": 4855,
      "Ġheisei": 4856,
      "Ġkaiju": 4857,
      "Ġoukoubak": 4858,
      "Ġtakanashi": 4859,
      "blades": 4860,
      "Ġunaware": 4861,
      "Ġattorney": 4862,
      "Ġrevenger": 4863,
      "Ġchikyuu": 4864,
      "Ġminna": 4865,
      "Ġelite": 4866,
      "Ġfutatsuki": 4867,
      "ckoos": 4868,
      "Ġhoumonsha": 4869,
      "Ġshitteiru": 4870,
      "Ġkanketsu": 4871,
      "Ġmarken": 4872,
      "Ġakame": 4873,
      "Ġakkun": 4874,
      "Ġdeaimon": 4875,
      "Ġkuzu": 4876,
      "berus": 4877,
      "Ġkiller": 4878,
      "Ġtanuki": 4879,
      "hanne": 4880,
      "Ġryusui": 4881,
      "Ġhonkai": 4882,
      "Ġmemochou": 4883,
      "Ġbakuen": 4884,
      "Ġdennou": 4885,
      "Ġfugou": 4886,
      "Ġnagoya": 4887,
      "Ġmewtwo": 4888,
      "Ġsaying": 4889,
      "Ġmaryuuin": 4890,
      "Ġcerberus": 4891,
      "luv": 4892,
      "Ġjikken": 4893,
      "Ġaraburu": 4894,
      "Ġkiyoubin": 4895,
      "rinin": 4896,
      "Ġdairinin": 4897,
      "Ġhikari": 4898,
      "Ġhyouken": 4899,
      "Ġsuberu": 4900,
      "Ġodoro": 4901,
      "Ġponpoko": 4902,
      "Ġdaimao": 4903,
      "Ġscissors": 4904,
      "Ġnokotan": 4905,
      "Ġumamus": 4906,
      "Ġfleeting": 4907,
      "Ġoosugiru": 4908,
      "Ġtatakai": 4909,
      "Ġseihantai": 4910,
      "Ġtsuredure": 4911,
      "Ġoriginal": 4912,
      "Ġhakuoki": 4913,
      "Ġmikagura": 4914,
      "Ġnotebook": 4915,
      "Ġtsurune": 4916,
      "Ġtsuritama": 4917,
      "Ġschwarzesmar": 4918,
      "Ġnerawareta": 4919,
      "Ġjehanne": 4920,
      "Ġwarriors": 4921,
      "Ġsagrada": 4922,
      "Ġblossom": 4923,
      "Ġuragiri": 4924,
      "Ġwanjie": 4925,
      "Ġrekkuu": 4926,
      "Ġcoquelicot": 4927,
      "Ġdanganron": 4928,
      "Ġcuckoos": 4929,
      "Ġencourage": 4930,
      "garete": 4931,
      "Ġnamae": 4932,
      "Ġbikini": 4933,
      "Ġbakemonogatari": 4934,
      "Ġakogarete": 4935,
      "Ġmummy": 4936,
      "Ġcouple": 4937,
      "Ġdendrogr": 4938,
      "Ġgassen": 4939,
      "Ġgyakushuu": 4940,
      "Ġheppoko": 4941,
      "Ġhxeros": 4942,
      "Ġmeitantei": 4943,
      "Ġoidasareta": 4944,
      "Ġriverside": 4945,
      "Ġkisetsu": 4946,
      "Ġeclipse": 4947,
      "Ġspellblades": 4948,
      "Ġyakitate": 4949,
      "Ġjudgment": 4950,
      "Ġitazura": 4951,
      "Ġescaflowne": 4952,
      "Ġdaughters": 4953,
      "Ġkazemai": 4954,
      "Ġoukoubakko": 4955,
      "Ġkiyoubinbou": 4956,
      "Ġumamusume": 4957,
      "Ġschwarzesmarken": 4958,
      "Ġdanganronpa": 4959,
      "Ġencouragement": 4960,
      "Ġdendrogram": 4961,
      "bis": 4962,
      "butsu": 4963,
      "cury": 4964,
      "elder": 4965,
      "fast": 4966,
      "gyo": 4967,
      "gakuro": 4968,
      "hild": 4969,
      "jis": 4970,
      "kami": 4971,
      "koto": 4972,
      "lit": 4973,
      "list": 4974,
      "nhild": 4975,
      "pon": 4976,
      "poll": 4977,
      "pher": 4978,
      "sian": 4979,
      "sman": 4980,
      "ukoto": 4981,
      "win": 4982,
      "ype": 4983,
      "ylist": 4984,
      "zon": 4985,
      "Īļ": 4986,
      "Ġsoun": 4987,
      "anne": 4988,
      "inasai": 4989,
      "Ġikoku": 4990,
      "Ġibun": 4991,
      "Ġiukoto": 4992,
      "arwin": 4993,
      "Ġnab": 4994,
      "Ġnorn": 4995,
      "Ġbry": 4996,
      "Ġalya": 4997,
      "Ġapoll": 4998,
      "Ġmm": 4999,
      "Ġmark": 5000,
      "Ġfreak": 5001,
      "Ġcos": 5002,
      "Ġdarwin": 5003,
      "atri": 5004,
      "atina": 5005,
      "Ġgel": 5006,
      "Ġgatch": 5007,
      "Ġliz": 5008,
      "Ġpand": 5009,
      "Ġtam": 5010,
      "Ġtru": 5011,
      "Ġwielder": 5012,
      "ouroku": 5013,
      "Ġoemo": 5014,
      "stal": 5015,
      "strous": 5016,
      "stances": 5017,
      "stylist": 5018,
      "omanga": 5019,
      "Ġrebu": 5020,
      "owds": 5021,
      "Ġstore": 5022,
      "Ġsometime": 5023,
      "Ġrus": 5024,
      "Ġriku": 5025,
      "ilt": 5026,
      "iden": 5027,
      "Ġseish": 5028,
      "Ġmaizou": 5029,
      "imichi": 5030,
      "Ġjutsu": 5031,
      "ital": 5032,
      "iteru": 5033,
      "Ġchase": 5034,
      "venience": 5035,
      "Ġyun": 5036,
      "Ġyatsu": 5037,
      "edness": 5038,
      "kuushi": 5039,
      "otot": 5040,
      "usive": 5041,
      "chigai": 5042,
      "Ġkepp": 5043,
      "Ġexcal": 5044,
      "Ġmysteria": 5045,
      "sopher": 5046,
      "Ġonna": 5047,
      "angjuu": 5048,
      "Ġdekiru": 5049,
      "Ġzhu": 5050,
      "Ġzouroku": 5051,
      "monaut": 5052,
      "Ġgiratina": 5053,
      "umstances": 5054,
      "Ġjouran": 5055,
      "iren": 5056,
      "kawa": 5057,
      "Ġgaiden": 5058,
      "ibur": 5059,
      "Ġshigu": 5060,
      "Ġconvenience": 5061,
      "Ġfeelings": 5062,
      "Ġguimi": 5063,
      "tail": 5064,
      "Ġyubis": 5065,
      "Ġhoney": 5066,
      "Ġkurokami": 5067,
      "Ġsaisei": 5068,
      "Ġanimatri": 5069,
      "Ġaoki": 5070,
      "Ġkaibutsu": 5071,
      "Ġcrowds": 5072,
      "Ġdanchigai": 5073,
      "itsukai": 5074,
      "Ġnanana": 5075,
      "Ġslug": 5076,
      "Ġkoiuta": 5077,
      "Ġredo": 5078,
      "Ġelusive": 5079,
      "Ġnarimasu": 5080,
      "Ġrenren": 5081,
      "ĠâĪļ": 5082,
      "Ġjunior": 5083,
      "Ġcrystal": 5084,
      "Ġboukun": 5085,
      "Ġphilo": 5086,
      "Ġseireitsukai": 5087,
      "Ġirina": 5088,
      "Ġtouhou": 5089,
      "Ġsakamichi": 5090,
      "Ġhikuushi": 5091,
      "Ġhoshiai": 5092,
      "Ġdailiren": 5093,
      "Ġlustrous": 5094,
      "Ġcoolhead": 5095,
      "Ġhakken": 5096,
      "Ġelection": 5097,
      "Ġappare": 5098,
      "Ġoshiete": 5099,
      "Ġichiban": 5100,
      "Ġichizon": 5101,
      "Ġbreakfast": 5102,
      "Ġmercury": 5103,
      "Ġarakawa": 5104,
      "Ġgokukoku": 5105,
      "Ġinfinity": 5106,
      "Ġhallow": 5107,
      "Ġkaburu": 5108,
      "Ġtsuugakuro": 5109,
      "Ġkikinasai": 5110,
      "Ġclean": 5111,
      "Ġhides": 5112,
      "Ġhagane": 5113,
      "Ġhimouto": 5114,
      "Ġhozuki": 5115,
      "Ġaishiteru": 5116,
      "Ġhairstylist": 5117,
      "Ġcuties": 5118,
      "Ġchrome": 5119,
      "Ġshirogane": 5120,
      "Ġdaimaou": 5121,
      "Ġsuzume": 5122,
      "Ġumaru": 5123,
      "ranman": 5124,
      "Ġcircumstances": 5125,
      "Ġgakkougurashi": 5126,
      "gajou": 5127,
      "Ġryuugajou": 5128,
      "Ġweapon": 5129,
      "Ġkotaro": 5130,
      "Ġryoubo": 5131,
      "Ġyabai": 5132,
      "Ġgentosho": 5133,
      "Ġkatachi": 5134,
      "Ġtamago": 5135,
      "Ġfalls": 5136,
      "Ġtwintail": 5137,
      "Ġnerae": 5138,
      "Ġjeanne": 5139,
      "Ġeromanga": 5140,
      "Ġushiro": 5141,
      "Ġpapa": 5142,
      "Ġshelled": 5143,
      "Ġxiaochou": 5144,
      "Ġwasteland": 5145,
      "Ġdigital": 5146,
      "Ġmushibugyo": 5147,
      "Ġnakitai": 5148,
      "Ġakaji": 5149,
      "Ġtsukimichi": 5150,
      "jisangjuu": 5151,
      "nhildr": 5152,
      "Ġsounan": 5153,
      "Ġnabari": 5154,
      "Ġbrynhildr": 5155,
      "Ġapollon": 5156,
      "Ġmarksman": 5157,
      "Ġcosmonaut": 5158,
      "Ġgelade": 5159,
      "Ġgatchaman": 5160,
      "Ġpandora": 5161,
      "Ġtamashii": 5162,
      "Ġtrust": 5163,
      "Ġoemojisangjuu": 5164,
      "Ġrebuilt": 5165,
      "Ġsometimes": 5166,
      "Ġrussian": 5167,
      "Ġseishun": 5168,
      "Ġmaizoukin": 5169,
      "ototype": 5170,
      "Ġkeppeki": 5171,
      "Ġexcalibur": 5172,
      "Ġshiguang": 5173,
      "Ġyubisaki": 5174,
      "Ġanimatrix": 5175,
      "Ġphilosopher": 5176,
      "Ġcoolheadedness": 5177,
      "Ġaishiteruze": 5178,
      "Ġoemojisangjuui": 5179,
      "avi": 5180,
      "bits": 5181,
      "bro": 5182,
      "cient": 5183,
      "dama": 5184,
      "dimension": 5185,
      "ele": 5186,
      "ficial": 5187,
      "gho": 5188,
      "haru": 5189,
      "ivery": 5190,
      "iana": 5191,
      "kuri": 5192,
      "lo": 5193,
      "lli": 5194,
      "masu": 5195,
      "nai": 5196,
      "nano": 5197,
      "ose": 5198,
      "puu": 5199,
      "rum": 5200,
      "sak": 5201,
      "tun": 5202,
      "tation": 5203,
      "tok": 5204,
      "vid": 5205,
      "ww": 5206,
      "waru": 5207,
      "Ġsle": 5208,
      "ani": 5209,
      "anism": 5210,
      "ink": 5211,
      "Ġwww": 5212,
      "ororo": 5213,
      "Ġancient": 5214,
      "era": 5215,
      "ert": 5216,
      "Ġthir": 5217,
      "Ġthose": 5218,
      "Ġlv": 5219,
      "Ġning": 5220,
      "Ġname": 5221,
      "Ġnep": 5222,
      "Ġnatte": 5223,
      "Ġnades": 5224,
      "Ġbir": 5225,
      "Ġbard": 5226,
      "Ġbio": 5227,
      "Ġmomo": 5228,
      "Ġmiji": 5229,
      "Ġfena": 5230,
      "rection": 5231,
      "Ġcity": 5232,
      "Ġcele": 5233,
      "Ġdag": 5234,
      "Ġdress": 5235,
      "Ġdyed": 5236,
      "Ġdororo": 5237,
      "Ġgx": 5238,
      "Ġgata": 5239,
      "Ġgei": 5240,
      "Ġlies": 5241,
      "asy": 5242,
      "asion": 5243,
      "Ġped": 5244,
      "Ġpir": 5245,
      "Ġpunk": 5246,
      "Ġpink": 5247,
      "Ġtree": 5248,
      "Ġwild": 5249,
      "stial": 5250,
      "omaru": 5251,
      "Ġreime": 5252,
      "owam": 5253,
      "Ġrag": 5254,
      "Ġkure": 5255,
      "Ġkashi": 5256,
      "Ġorient": 5257,
      "Ġsund": 5258,
      "Ġsumo": 5259,
      "Ġsugar": 5260,
      "Ġsucc": 5261,
      "ampl": 5262,
      "Ġmawaru": 5263,
      "ley": 5264,
      "imak": 5265,
      "itab": 5266,
      "indrum": 5267,
      "cept": 5268,
      "perdimension": 5269,
      "Ġinai": 5270,
      "Ġinfer": 5271,
      "Ġchampl": 5272,
      "urako": 5273,
      "urrection": 5274,
      "Ġrogue": 5275,
      "Ġyame": 5276,
      "Ġyowam": 5277,
      "Ġvivid": 5278,
      "hiko": 5279,
      "hira": 5280,
      "kigen": 5281,
      "kuma": 5282,
      "oneko": 5283,
      "Ġmyself": 5284,
      "eliana": 5285,
      "ayaku": 5286,
      "Ġnekketsu": 5287,
      "Ġnejim": 5288,
      "usica": 5289,
      "Ġmagus": 5290,
      "Ġshichi": 5291,
      "ession": 5292,
      "ocence": 5293,
      "Ġhashira": 5294,
      "roit": 5295,
      "rika": 5296,
      "rificial": 5297,
      "Ġonnano": 5298,
      "Ġdears": 5299,
      "Ġgrimo": 5300,
      "Ġgravi": 5301,
      "Ġclosed": 5302,
      "Ġtekketsu": 5303,
      "Ġjoyuu": 5304,
      "oporo": 5305,
      "Ġwave": 5306,
      "Ġraven": 5307,
      "Ġraitai": 5308,
      "Ġraeliana": 5309,
      "Ġpluto": 5310,
      "Ġhadou": 5311,
      "Ġgathering": 5312,
      "jikenai": 5313,
      "keyo": 5314,
      "Ġimasu": 5315,
      "anoi": 5316,
      "Ġconcept": 5317,
      "awlers": 5318,
      "Ġguide": 5319,
      "Ġwataten": 5320,
      "Ġtenri": 5321,
      "Ġtenka": 5322,
      "Ġtenkyou": 5323,
      "Ġdaimak": 5324,
      "henge": 5325,
      "utsukanai": 5326,
      "Ġkenpuu": 5327,
      "Ġhananoi": 5328,
      "Ġnausica": 5329,
      "Ġwaratte": 5330,
      "Ġaoharu": 5331,
      "Ġgochuu": 5332,
      "Ġtakkyuu": 5333,
      "Ġmansion": 5334,
      "Ġdesert": 5335,
      "Ġbrawlers": 5336,
      "ashite": 5337,
      "Ġ05": 5338,
      "Ġangels": 5339,
      "Ġhousoku": 5340,
      "Ġmaougun": 5341,
      "Ġsouja": 5342,
      "Ġflamen": 5343,
      "Ġkujikenai": 5344,
      "Ġsoni": 5345,
      "Ġsobak": 5346,
      "Ġended": 5347,
      "Ġgale": 5348,
      "Ġvalley": 5349,
      "Ġhigashi": 5350,
      "Ġkizutsukanai": 5351,
      "Ġmadder": 5352,
      "Ġdetroit": 5353,
      "Ġbakugan": 5354,
      "Ġfukigen": 5355,
      "Ġhiiro": 5356,
      "Ġkakera": 5357,
      "Ġgrande": 5358,
      "Ġappear": 5359,
      "Ġresurrection": 5360,
      "Ġdelivery": 5361,
      "Ġvalkyrie": 5362,
      "Ġsacrificial": 5363,
      "Ġakudama": 5364,
      "Ġkiki": 5365,
      "Ġnorowareta": 5366,
      "Ġtabitab": 5367,
      "Ġyurikuma": 5368,
      "Ġchobits": 5369,
      "Ġsasayaku": 5370,
      "Ġmachinegun": 5371,
      "zanmai": 5372,
      "Ġzetsuen": 5373,
      "Ġflew": 5374,
      "Ġmighty": 5375,
      "Ġarukeyo": 5376,
      "Ġsarazanmai": 5377,
      "Ġtatami": 5378,
      "Ġzankyou": 5379,
      "Ġrunway": 5380,
      "Ġinvasion": 5381,
      "Ġreturns": 5382,
      "Ġporoporo": 5383,
      "iacs": 5384,
      "Ġscroll": 5385,
      "Ġshironeko": 5386,
      "Ġsagashite": 5387,
      "Ġtrickster": 5388,
      "Ġerin": 5389,
      "Ġushio": 5390,
      "Ġpaprika": 5391,
      "Ġinner": 5392,
      "Ġinnocence": 5393,
      "Ġpalace": 5394,
      "Ġhyperdimension": 5395,
      "Ġhinomaru": 5396,
      "Ġsola": 5397,
      "Ġyamai": 5398,
      "Ġgalaxy": 5399,
      "Ġinsomniacs": 5400,
      "Ġdecode": 5401,
      "Ġdimensional": 5402,
      "Ġsekirei": 5403,
      "Ġmachiavelli": 5404,
      "Ġpenguindrum": 5405,
      "Ġseduction": 5406,
      "Ġphotok": 5407,
      "Ġbabysitting": 5408,
      "Ġosake": 5409,
      "Ġfootage": 5410,
      "broly": 5411,
      "ghost": 5412,
      "loan": 5413,
      "sakurako": 5414,
      "tunia": 5415,
      "Ġsleepy": 5416,
      "Ġthird": 5417,
      "Ġningen": 5418,
      "Ġneptunia": 5419,
      "Ġnadeshiko": 5420,
      "Ġbirdy": 5421,
      "Ġbardock": 5422,
      "Ġmomokuri": 5423,
      "Ġmijikashi": 5424,
      "Ġcelestial": 5425,
      "Ġdagashi": 5426,
      "Ġgeiko": 5427,
      "Ġpedal": 5428,
      "Ġpirate": 5429,
      "Ġreimeiki": 5430,
      "Ġragna": 5431,
      "Ġsunday": 5432,
      "Ġsuccession": 5433,
      "Ġinferno": 5434,
      "Ġchamploo": 5435,
      "Ġyamemasu": 5436,
      "Ġyowamushi": 5437,
      "Ġnejimaki": 5438,
      "Ġshichihenge": 5439,
      "Ġonnanoko": 5440,
      "Ġgrimoire": 5441,
      "Ġgravitation": 5442,
      "Ġconception": 5443,
      "Ġdaimakyou": 5444,
      "Ġgochuumon": 5445,
      "Ġtakkyuubin": 5446,
      "Ġflamenco": 5447,
      "Ġsobakasu": 5448,
      "Ġappeared": 5449,
      "Ġtabitabi": 5450,
      "Ġmachiavellianism": 5451,
      "Ġphotokano": 5452,
      "//": 5453,
      "15": 5454,
      "?!": 5455,
      "bri": 5456,
      "bura": 5457,
      "ef": 5458,
      "eend": 5459,
      "eiro": 5460,
      "ft": 5461,
      "first": 5462,
      "gure": 5463,
      "got": 5464,
      "gade": 5465,
      "hk": 5466,
      "hate": 5467,
      "hack": 5468,
      "jig": 5469,
      "jima": 5470,
      "kutsu": 5471,
      "lic": 5472,
      "mited": 5473,
      "nium": 5474,
      "ost": 5475,
      "pso": 5476,
      "pelion": 5477,
      "patch": 5478,
      "rlish": 5479,
      "sign": 5480,
      "sident": 5481,
      "vant": 5482,
      "xim": 5483,
      "xia": 5484,
      "zou": 5485,
      "zure": 5486,
      "Ġ.": 5487,
      "Ġsaw": 5488,
      "Ġslip": 5489,
      "meil": 5490,
      "mester": 5491,
      "inary": 5492,
      "Ġwra": 5493,
      "Ġange": 5494,
      "Ġanoh": 5495,
      "eror": 5496,
      "Ġnhk": 5497,
      "Ġbri": 5498,
      "Ġbous": 5499,
      "Ġbtoo": 5500,
      "Ġakan": 5501,
      "Ġmono": 5502,
      "Ġfal": 5503,
      "Ġfum": 5504,
      "Ġfian": 5505,
      "Ġfive": 5506,
      "Ġcag": 5507,
      "Ġcorn": 5508,
      "Ġgak": 5509,
      "Ġguren": 5510,
      "ennium": 5511,
      "Ġlimited": 5512,
      "Ġhound": 5513,
      "Ġwife": 5514,
      "Ġoish": 5515,
      "icane": 5516,
      "Ġrir": 5517,
      "Ġrha": 5518,
      "Ġrage": 5519,
      "Ġriyuu": 5520,
      "Ġkari": 5521,
      "Ġkatar": 5522,
      "Ġkuren": 5523,
      "Ġsea": 5524,
      "Ġsemester": 5525,
      "Ġorange": 5526,
      "Ġsugiru": 5527,
      "amats": 5528,
      "amball": 5529,
      "Ġmabura": 5530,
      "Ġmaxim": 5531,
      "Ġforgot": 5532,
      "Ġshoshim": 5533,
      "imaru": 5534,
      "imori": 5535,
      "unji": 5536,
      "adin": 5537,
      "celer": 5538,
      "ures": 5539,
      "Ġchiy": 5540,
      "Ġchunib": 5541,
      "uraba": 5542,
      "isa": 5543,
      "isakusen": 5544,
      "Ġdoki": 5545,
      "Ġdoji": 5546,
      "araxia": 5547,
      "aijima": 5548,
      "Ġhard": 5549,
      "isto": 5550,
      "ayon": 5551,
      "Ġbless": 5552,
      "Ġitta": 5553,
      "Ġalway": 5554,
      "Ġnetsu": 5555,
      "Ġmilos": 5556,
      "Ġmotsu": 5557,
      "chiak": 5558,
      "Ġumi": 5559,
      "shihen": 5560,
      "Ġpresident": 5561,
      "Ġshamball": 5562,
      "Ġshuraba": 5563,
      "Ġexiled": 5564,
      "beki": 5565,
      "queror": 5566,
      "roh": 5567,
      "Ġqueen": 5568,
      "Ġqueend": 5569,
      "Ġgenzan": 5570,
      "Ġacceler": 5571,
      "Ġdebri": 5572,
      "assination": 5573,
      "Ġzare": 5574,
      "Ġwaves": 5575,
      "liost": 5576,
      "Ġniji": 5577,
      "Ġjourneys": 5578,
      "Ġdied": 5579,
      "Ġcombatants": 5580,
      "Ġdispatch": 5581,
      "iaoke": 5582,
      "Ġgachiak": 5583,
      "kyoku": 5584,
      "Ġshibou": 5585,
      "Ġshiunji": 5586,
      "Ġkokk": 5587,
      "Ġtsuyo": 5588,
      "Ġofficial": 5589,
      "Ġconqueror": 5590,
      "Ġtonika": 5591,
      "Ġsaki": 5592,
      "Ġsavant": 5593,
      "Ġgugure": 5594,
      "Ġokashi": 5595,
      "Ġstanding": 5596,
      "ineko": 5597,
      "Ġcoppelion": 5598,
      "Ġyubi": 5599,
      "Ġgotoku": 5600,
      "offu": 5601,
      "Ġdaisakusen": 5602,
      "Ġataraxia": 5603,
      "Ġkajitsu": 5604,
      "Ġdonten": 5605,
      "Ġshinmai": 5606,
      "gatta": 5607,
      "Ġmonte": 5608,
      "jinai": 5609,
      "Ġkoukyou": 5610,
      "Ġkamui": 5611,
      "Ġsaka": 5612,
      "Ġkyousou": 5613,
      "Ġsaihate": 5614,
      "Ġheine": 5615,
      "iani": 5616,
      "Ġaoiro": 5617,
      "Ġcristo": 5618,
      "Ġcrayon": 5619,
      "Ġdances": 5620,
      "Ġoushitsu": 5621,
      "Ġseihou": 5622,
      "Ġbungaku": 5623,
      "Ġexorcists": 5624,
      "Ġtrap": 5625,
      "Ġsoniani": 5626,
      "Ġbund": 5627,
      "Ġbukyou": 5628,
      "gotozukai": 5629,
      "Ġparasy": 5630,
      "akoi": 5631,
      "Ġhajimaru": 5632,
      "Ġhello": 5633,
      "Ġmagias": 5634,
      "Ġfukan": 5635,
      "Ġmetallic": 5636,
      "Ġfuukei": 5637,
      "Ġactress": 5638,
      "final": 5639,
      "Ġqiaoke": 5640,
      "Ġrises": 5641,
      "Ġduel": 5642,
      "Ġdelusions": 5643,
      "Ġbloom": 5644,
      "Ġgokudoll": 5645,
      "Ġryuusui": 5646,
      "Ġglasses": 5647,
      "Ġashes": 5648,
      "Ġtsuujinai": 5649,
      "Ġmachigatta": 5650,
      "Ġhidden": 5651,
      "Ġsomaru": 5652,
      "Ġaishen": 5653,
      "Ġhibi": 5654,
      "Ġcutie": 5655,
      "Ġchrno": 5656,
      "Ġtsukaikata": 5657,
      "Ġvermeil": 5658,
      "Ġearly": 5659,
      "Ġsuzuka": 5660,
      "Ġumineko": 5661,
      "brid": 5662,
      "Ġwarau": 5663,
      "grand": 5664,
      "Ġletters": 5665,
      "Ġordinary": 5666,
      "Ġmillennium": 5667,
      "âĺħâĺħ": 5668,
      "Ġtsurezure": 5669,
      "Ġtemple": 5670,
      "Ġshikimori": 5671,
      "Ġkoushaku": 5672,
      "Ġassassination": 5673,
      "Ġdisappearances": 5674,
      "Ġfoolish": 5675,
      "Ġbanana": 5676,
      "Ġhouraijima": 5677,
      "Ġkuragehime": 5678,
      "Ġzenshu": 5679,
      "Ġhurricane": 5680,
      "Ġblossoms": 5681,
      "Ġpaladin": 5682,
      "Ġhybrid": 5683,
      "Ġhinamats": 5684,
      "Ġshikkakumon": 5685,
      "Ġdeparted": 5686,
      "Ġdepartures": 5687,
      "Ġillusions": 5688,
      "Ġcafe": 5689,
      "Ġgankutsu": 5690,
      "2022": 5691,
      "Ġyajuu": 5692,
      "Ġcraft": 5693,
      "Ġvigilantes": 5694,
      "Ġwotakoi": 5695,
      "Ġengage": 5696,
      "efing": 5697,
      "jigen": 5698,
      "psody": 5699,
      "Ġwrath": 5700,
      "Ġanohana": 5701,
      "Ġbrigade": 5702,
      "Ġboushoku": 5703,
      "Ġbtooom": 5704,
      "Ġakaneiro": 5705,
      "Ġfalse": 5706,
      "Ġfumoffu": 5707,
      "Ġfianc": 5708,
      "Ġcagliost": 5709,
      "Ġcorner": 5710,
      "Ġgakki": 5711,
      "Ġoishasan": 5712,
      "Ġririsa": 5713,
      "Ġrhapsody": 5714,
      "Ġkarigurashi": 5715,
      "Ġkataritai": 5716,
      "Ġkurenai": 5717,
      "Ġmaburaho": 5718,
      "Ġshoshimin": 5719,
      "Ġchiyu": 5720,
      "Ġchunibyo": 5721,
      "Ġblessing": 5722,
      "Ġalways": 5723,
      "Ġnetsuzou": 5724,
      "Ġmotsubeki": 5725,
      "Ġumibe": 5726,
      "Ġshamballa": 5727,
      "Ġqueendom": 5728,
      "Ġaccelerator": 5729,
      "Ġdebriefing": 5730,
      "Ġzaregotozukai": 5731,
      "Ġnijiiro": 5732,
      "Ġdispatched": 5733,
      "Ġgachiakuta": 5734,
      "Ġkokkuri": 5735,
      "Ġtsuyoimono": 5736,
      "Ġtonikawa": 5737,
      "Ġyubiwa": 5738,
      "Ġkoukyoushihen": 5739,
      "Ġkyousoukyoku": 5740,
      "Ġparasyte": 5741,
      "Ġqiaokeli": 5742,
      "Ġgokudolls": 5743,
      "Ġhinamatsuri": 5744,
      "Ġgankutsuou": 5745,
      "Ġcagliostro": 5746,
      ".\"": 5747,
      "aff": 5748,
      "aus": 5749,
      "aasan": 5750,
      "bers": 5751,
      "bare": 5752,
      "ci": 5753,
      "dol": 5754,
      "dai": 5755,
      "dge": 5756,
      "flip": 5757,
      "ging": 5758,
      "gare": 5759,
      "hay": 5760,
      "iverse": 5761,
      "iest": 5762,
      "iang": 5763,
      "jun": 5764,
      "jaku": 5765,
      "jyom": 5766,
      "kam": 5767,
      "kama": 5768,
      "kkan": 5769,
      "kago": 5770,
      "mpai": 5771,
      "ntr": 5772,
      "ogare": 5773,
      "pol": 5774,
      "phan": 5775,
      "ted": 5776,
      "tro": 5777,
      "umend": 5778,
      "ving": 5779,
      "yasumi": 5780,
      "zda": 5781,
      "Ĳ£": 5782,
      "Ġsant": 5783,
      "inat": 5784,
      "inime": 5785,
      "Ġwest": 5786,
      "Ġanno": 5787,
      "Ġire": 5788,
      "Ġike": 5789,
      "Ġira": 5790,
      "Ġikk": 5791,
      "Ġlaw": 5792,
      "Ġnura": 5793,
      "Ġnageki": 5794,
      "Ġbouryaku": 5795,
      "Ġbaasan": 5796,
      "Ġaven": 5797,
      "Ġazum": 5798,
      "Ġfan": 5799,
      "Ġfake": 5800,
      "Ġnozaki": 5801,
      "Ġcass": 5802,
      "Ġcub": 5803,
      "onance": 5804,
      "atot": 5805,
      "Ġgom": 5806,
      "asogare": 5807,
      "Ġpoc": 5808,
      "Ġhands": 5809,
      "Ġhund": 5810,
      "Ġtiny": 5811,
      "Ġtasogare": 5812,
      "oukama": 5813,
      "Ġmeir": 5814,
      "Ġmetro": 5815,
      "Ġoyasumi": 5816,
      "Ġress": 5817,
      "Ġstard": 5818,
      "Ġstories": 5819,
      "Ġstaff": 5820,
      "Ġkout": 5821,
      "Ġkits": 5822,
      "Ġkantei": 5823,
      "vezda": 5824,
      "Ġseway": 5825,
      "Ġsempai": 5826,
      "Ġorphan": 5827,
      "Ġsuizou": 5828,
      "amib": 5829,
      "Ġmais": 5830,
      "Ġmaqu": 5831,
      "ctic": 5832,
      "Ġshoush": 5833,
      "imin": 5834,
      "Ġjae": 5835,
      "Ġjoukama": 5836,
      "unin": 5837,
      "unted": 5838,
      "itous": 5839,
      "Ġinaz": 5840,
      "isute": 5841,
      "Ġyatot": 5842,
      "Ġisshuu": 5843,
      "aire": 5844,
      "Ġjudge": 5845,
      "kikom": 5846,
      "Ġseto": 5847,
      "irth": 5848,
      "Ġitou": 5849,
      "Ġintai": 5850,
      "Ġmoving": 5851,
      "Ġclan": 5852,
      "Ġclaus": 5853,
      "abouzu": 5854,
      "Ġshore": 5855,
      "Ġexile": 5856,
      "akunin": 5857,
      "Ġcoming": 5858,
      "ocho": 5859,
      "Ġenter": 5860,
      "etai": 5861,
      "angel": 5862,
      "Ġgrave": 5863,
      "Ġzui": 5864,
      "Ġzvezda": 5865,
      "Ġbloodlu": 5866,
      "uminat": 5867,
      "Ġmugen": 5868,
      "Ġmuhai": 5869,
      "Ġmuda": 5870,
      "Ġmujun": 5871,
      "Ġdisci": 5872,
      "Ġouts": 5873,
      "kyaku": 5874,
      "Ġsenjou": 5875,
      "Ġsenkan": 5876,
      "Ġshijou": 5877,
      "Ġxing": 5878,
      "Ġhowl": 5879,
      "Ġokinime": 5880,
      "teki": 5881,
      "Ġhaunted": 5882,
      "jouma": 5883,
      "Ġshinkou": 5884,
      "Ġmonmon": 5885,
      "kousei": 5886,
      "agaeru": 5887,
      "Ġsaikai": 5888,
      "Ġsaikin": 5889,
      "Ġsaijaku": 5890,
      "Ġaoshi": 5891,
      "bukuro": 5892,
      "rui": 5893,
      "bling": 5894,
      "Ġfriendship": 5895,
      "Ġdeshi": 5896,
      "Ġuniverse": 5897,
      "Ġyokai": 5898,
      "Ġchihay": 5899,
      "Ġelain": 5900,
      "Ġsuitai": 5901,
      "Ġhoukago": 5902,
      "Ġmaoujou": 5903,
      "ĠtrÃ¤": 5904,
      "Ġjunjo": 5905,
      "Ġbourei": 5906,
      "Ġboukyaku": 5907,
      "Ġsonzai": 5908,
      "Ġheavenly": 5909,
      "Ġkizoku": 5910,
      "Ġgekkan": 5911,
      "Ġsunabouzu": 5912,
      "Ġwindup": 5913,
      "Ġhonor": 5914,
      "Ġhonya": 5915,
      "Ġurara": 5916,
      "Ġmembers": 5917,
      "afuru": 5918,
      "Ġhikikom": 5919,
      "Ġhajimeru": 5920,
      "Ġdouki": 5921,
      "Ġrumbling": 5922,
      "Ġeleven": 5923,
      "Ġresonance": 5924,
      "Ġqiang": 5925,
      "Ġrasen": 5926,
      "Ġdelusion": 5927,
      "Ġseeds": 5928,
      "Ġgokudol": 5929,
      "Ġbisco": 5930,
      "Ġrebirth": 5931,
      "Ġdaioh": 5932,
      "Ġdandelion": 5933,
      "girls": 5934,
      "etsujou": 5935,
      "Ġtabetai": 5936,
      "Ġsoma": 5937,
      "Ġhimitsu": 5938,
      "Ġhimegoto": 5939,
      "Ġbackflip": 5940,
      "Ġayashii": 5941,
      "Ġshimane": 5942,
      "Ġshimashita": 5943,
      "Ġrokuon": 5944,
      "Ġrokujyom": 5945,
      "Ġrokujouma": 5946,
      "Ġjinrui": 5947,
      "Ġpetits": 5948,
      "Ġsurvive": 5949,
      "Ġfleet": 5950,
      "Ġwakagaeru": 5951,
      "Ġmightiest": 5952,
      "Ġjoshikousei": 5953,
      "Ġrakudai": 5954,
      "Ġwhispers": 5955,
      "ikui": 5956,
      "Ġinvaders": 5957,
      "Ġslayers": 5958,
      "Ġhealing": 5959,
      "Ġcrusaders": 5960,
      "Ġshikkoku": 5961,
      "Ġnariagaru": 5962,
      "Ġmikakunin": 5963,
      "Ġreturner": 5964,
      "Ġxyz": 5965,
      "Ġsabikui": 5966,
      "Ġjiisan": 5967,
      "Ġtegamib": 5968,
      "Ġuragawa": 5969,
      "hern": 5970,
      "Ġbarakam": 5971,
      "Ġgalactic": 5972,
      "Ġinsomnia": 5973,
      "Ġilluminat": 5974,
      "Ġcavalry": 5975,
      "Ġganbare": 5976,
      "Ġmillionaire": 5977,
      "Ġmashle": 5978,
      "Ġrendering": 5979,
      "Ġmajikoi": 5980,
      "Ġshinryakusha": 5981,
      "Ġwrong": 5982,
      "Ġfurther": 5983,
      "Ġsprings": 5984,
      "polis": 5985,
      "Ġsanta": 5986,
      "Ġannoying": 5987,
      "Ġireba": 5988,
      "Ġikebukuro": 5989,
      "Ġirae": 5990,
      "Ġikkitous": 5991,
      "Ġavenging": 5992,
      "Ġazumanga": 5993,
      "Ġcasshern": 5994,
      "Ġcubes": 5995,
      "Ġgomisute": 5996,
      "Ġpoco": 5997,
      "Ġhundred": 5998,
      "Ġmeirocho": 5999,
      "Ġmetropolis": 6000,
      "Ġressha": 6001,
      "Ġstardust": 6002,
      "Ġkoutetsujou": 6003,
      "Ġkitsune": 6004,
      "Ġsewayaki": 6005,
      "Ġorphans": 6006,
      "Ġmaison": 6007,
      "Ġmaquia": 6008,
      "Ġshoushimin": 6009,
      "Ġjaeger": 6010,
      "Ġjoukamachi": 6011,
      "Ġinazuma": 6012,
      "Ġyatotta": 6013,
      "Ġisshuukan": 6014,
      "Ġjudgement": 6015,
      "Ġbloodlust": 6016,
      "Ġmudazukai": 6017,
      "Ġdisciple": 6018,
      "Ġokinimesu": 6019,
      "Ġshinkoukei": 6020,
      "Ġchihayafuru": 6021,
      "Ġelaina": 6022,
      "ĠtrÃ¤umend": 6023,
      "Ġhikikomari": 6024,
      "Ġgokudols": 6025,
      "Ġrokujyoma": 6026,
      "Ġtegamibachi": 6027,
      "Ġbarakamon": 6028,
      "Ġilluminati": 6029,
      "Ġikkitousen": 6030,
      "Ġgomisuteba": 6031,
      "bir": 6032,
      "brain": 6033,
      "efeated": 6034,
      "fl": 6035,
      "fr": 6036,
      "gon": 6037,
      "hone": 6038,
      "jits": 6039,
      "jutsushi": 6040,
      "kre": 6041,
      "loon": 6042,
      "mat": 6043,
      "mart": 6044,
      "moku": 6045,
      "miru": 6046,
      "ox": 6047,
      "oss": 6048,
      "pful": 6049,
      "phone": 6050,
      "ram": 6051,
      "rus": 6052,
      "saga": 6053,
      "taku": 6054,
      "vat": 6055,
      "vas": 6056,
      "wei": 6057,
      "wato": 6058,
      "xoss": 6059,
      "yoku": 6060,
      "Ġsmart": 6061,
      "inar": 6062,
      "oroku": 6063,
      "Ġijou": 6064,
      "Ġiwato": 6065,
      "Ġthus": 6066,
      "arine": 6067,
      "Ġlon": 6068,
      "Ġlun": 6069,
      "Ġlain": 6070,
      "Ġnine": 6071,
      "Ġbast": 6072,
      "Ġbond": 6073,
      "Ġmim": 6074,
      "Ġmizu": 6075,
      "Ġfush": 6076,
      "Ġfox": 6077,
      "Ġnoble": 6078,
      "utachi": 6079,
      "Ġcit": 6080,
      "kegurui": 6081,
      "Ġdom": 6082,
      "Ġdak": 6083,
      "Ġdour": 6084,
      "Ġgle": 6085,
      "asama": 6086,
      "Ġhir": 6087,
      "Ġtub": 6088,
      "houtou": 6089,
      "omeo": 6090,
      "Ġwixoss": 6091,
      "ouki": 6092,
      "Ġmegane": 6093,
      "Ġoad": 6094,
      "stop": 6095,
      "stru": 6096,
      "Ġretsu": 6097,
      "Ġregre": 6098,
      "owloon": 6099,
      "Ġromeo": 6100,
      "ilisk": 6101,
      "iments": 6102,
      "Ġkate": 6103,
      "Ġkowloon": 6104,
      "idea": 6105,
      "Ġgig": 6106,
      "Ġgiji": 6107,
      "Ġtobir": 6108,
      "Ġsele": 6109,
      "Ġsukun": 6110,
      "Ġecho": 6111,
      "Ġshoka": 6112,
      "imaro": 6113,
      "botsu": 6114,
      "unlimited": 6115,
      "Ġspoke": 6116,
      "itosho": 6117,
      "periments": 6118,
      "Ġinfect": 6119,
      "Ġinstru": 6120,
      "ema": 6121,
      "Ġlover": 6122,
      "Ġyi": 6123,
      "Ġishu": 6124,
      "dynazenon": 6125,
      "Ġcanvas": 6126,
      "Ġyoukai": 6127,
      "Ġnekom": 6128,
      "Ġamagi": 6129,
      "Ġucho": 6130,
      "Ġskies": 6131,
      "Ġswim": 6132,
      "Ġexperiments": 6133,
      "Ġentei": 6134,
      "Ġentaku": 6135,
      "Ġquitting": 6136,
      "Ġwasureta": 6137,
      "Ġgenjits": 6138,
      "Ġdekin": 6139,
      "Ġonegai": 6140,
      "Ġtejin": 6141,
      "Ġtekkon": 6142,
      "Ġzoroku": 6143,
      "monster": 6144,
      "live": 6145,
      "Ġundefeated": 6146,
      "Ġgirlish": 6147,
      "Ġmuyo": 6148,
      "Ġclassmat": 6149,
      "Ġheroing": 6150,
      "Ġbasilisk": 6151,
      "Ġkoori": 6152,
      "Ġkoeru": 6153,
      "Ġkoibito": 6154,
      "Ġkoyom": 6155,
      "jikai": 6156,
      "Ġkindan": 6157,
      "Ġimash": 6158,
      "Ġtsue": 6159,
      "Ġtsuyoku": 6160,
      "Ġconfl": 6161,
      "Ġpatema": 6162,
      "Ġtenchi": 6163,
      "Ġqualidea": 6164,
      "Ġdaitosho": 6165,
      "Ġobject": 6166,
      "iteiru": 6167,
      "Ġbobobo": 6168,
      "Ġkazoku": 6169,
      "Ġkakegurui": 6170,
      "ushug": 6171,
      "Ġkimura": 6172,
      "Ġsakasama": 6173,
      "Ġserial": 6174,
      "Ġheya": 6175,
      "Ġkanokon": 6176,
      "Ġcrush": 6177,
      "Ġougon": 6178,
      "Ġstarry": 6179,
      "Ġ40": 6180,
      "Ġtenseiki": 6181,
      "urugi": 6182,
      "Ġmasters": 6183,
      "Ġhitman": 6184,
      "fudou": 6185,
      "Ġ03": 6186,
      "Ġfutoku": 6187,
      "Ġhoukai": 6188,
      "Ġproble": 6189,
      "Ġ),": 6190,
      "Ġendless": 6191,
      "Ġshuushou": 6192,
      "Ġgear": 6193,
      "Ġhonoo": 6194,
      "Ġfuiteiru": 6195,
      "Ġservamp": 6196,
      "Ġsummertime": 6197,
      "Ġultram": 6198,
      "Ġkinkre": 6199,
      "Ġtsurugi": 6200,
      "Ġseikon": 6201,
      "Ġkokkoku": 6202,
      "Ġlogic": 6203,
      "Ġbokutachi": 6204,
      "Ġmerman": 6205,
      "Ġakujo": 6206,
      "Ġkesshoutou": 6207,
      "Ġgokushu": 6208,
      "Ġnonstop": 6209,
      "ipnir": 6210,
      "Ġtsuuhan": 6211,
      "Ġclevat": 6212,
      "senpai": 6213,
      "Ġinukai": 6214,
      "Ġpearl": 6215,
      "Ġpeeps": 6216,
      "Ġviral": 6217,
      "Ġrenkinjutsushi": 6218,
      "Ġomoi": 6219,
      "Ġgeminar": 6220,
      "Ġteiou": 6221,
      "Ġnokoru": 6222,
      "Ġleveling": 6223,
      "Ġryuuou": 6224,
      "Ġyumemiru": 6225,
      "Ġorigination": 6226,
      "Ġhakuouki": 6227,
      "Ġizure": 6228,
      "Ġgeneric": 6229,
      "Ġhitsujikai": 6230,
      "Ġmitsudomo": 6231,
      "Ġrekishi": 6232,
      "Ġsolo": 6233,
      "Ġshelter": 6234,
      "2021": 6235,
      "Ġburning": 6236,
      "Ġmashimaro": 6237,
      "Ġrender": 6238,
      "Ġkokuin": 6239,
      "Ġkokuki": 6240,
      "Ġchinmoku": 6241,
      "Ġchinbotsu": 6242,
      "Ġmashiba": 6243,
      "Ġhelpful": 6244,
      "Ġdoukyusei": 6245,
      "frag": 6246,
      "Ġsmartphone": 6247,
      "Ġiwatobi": 6248,
      "Ġloner": 6249,
      "Ġlunar": 6250,
      "Ġbastard": 6251,
      "Ġbonds": 6252,
      "Ġmiman": 6253,
      "Ġfushisha": 6254,
      "Ġcitrus": 6255,
      "Ġdomination": 6256,
      "Ġdakara": 6257,
      "Ġdouryou": 6258,
      "Ġgleipnir": 6259,
      "Ġhirowareta": 6260,
      "Ġretsujitsu": 6261,
      "Ġregrets": 6262,
      "Ġkatekyou": 6263,
      "Ġtobira": 6264,
      "Ġselector": 6265,
      "Ġsukunai": 6266,
      "Ġechoes": 6267,
      "Ġinfected": 6268,
      "Ġinstructor": 6269,
      "Ġishuzoku": 6270,
      "Ġnekomonogatari": 6271,
      "Ġuchouten": 6272,
      "Ġgenjitsushug": 6273,
      "Ġdekinai": 6274,
      "Ġtejina": 6275,
      "Ġclassmates": 6276,
      "Ġkoyomimonogatari": 6277,
      "Ġimashime": 6278,
      "Ġconflict": 6279,
      "Ġdaitoshokan": 6280,
      "Ġougonkyou": 6281,
      "Ġproblem": 6282,
      "Ġultramarine": 6283,
      "Ġkinkreet": 6284,
      "Ġgokushufudou": 6285,
      "Ġclevatess": 6286,
      "Ġmitsudomoe": 6287,
      "Ġgenjitsushugisha": 6288,
      ":|": 6289,
      "??": 6290,
      "ault": 6291,
      "avor": 6292,
      "base": 6293,
      "bini": 6294,
      "dasai": 6295,
      "ey": 6296,
      "ears": 6297,
      "eful": 6298,
      "fore": 6299,
      "fit": 6300,
      "fron": 6301,
      "hx": 6302,
      "hed": 6303,
      "mas": 6304,
      "mam": 6305,
      "more": 6306,
      "nel": 6307,
      "nity": 6308,
      "para": 6309,
      "pec": 6310,
      "punk": 6311,
      "rant": 6312,
      "range": 6313,
      "sensei": 6314,
      "suri": 6315,
      "six": 6316,
      "tony": 6317,
      "vine": 6318,
      "zar": 6319,
      "zasu": 6320,
      "Ġunn": 6321,
      "Ġsage": 6322,
      "Ġsket": 6323,
      "med": 6324,
      "inland": 6325,
      "Ġwaku": 6326,
      "oran": 6327,
      "oral": 6328,
      "orable": 6329,
      "Ġiwa": 6330,
      "Ġikiru": 6331,
      "erer": 6332,
      "eres": 6333,
      "Ġtheres": 6334,
      "aren": 6335,
      "arion": 6336,
      "arenai": 6337,
      "Ġnid": 6338,
      "Ġnagi": 6339,
      "Ġbent": 6340,
      "Ġmong": 6341,
      "Ġfun": 6342,
      "Ġfune": 6343,
      "Ġflip": 6344,
      "Ġandro": 6345,
      "utep": 6346,
      "uttony": 6347,
      "Ġchou": 6348,
      "kest": 6349,
      "Ġdoro": 6350,
      "Ġdadd": 6351,
      "Ġgos": 6352,
      "Ġping": 6353,
      "Ġpil": 6354,
      "Ġpure": 6355,
      "Ġpong": 6356,
      "Ġhoo": 6357,
      "Ġhuman": 6358,
      "Ġbutlers": 6359,
      "Ġoshimai": 6360,
      "Ġomam": 6361,
      "strange": 6362,
      "Ġreite": 6363,
      "ichan": 6364,
      "eshi": 6365,
      "Ġryo": 6366,
      "Ġkong": 6367,
      "Ġsever": 6368,
      "Ġsuna": 6369,
      "cha": 6370,
      "chara": 6371,
      "olian": 6372,
      "Ġjaku": 6373,
      "Ġjoran": 6374,
      "Ġspider": 6375,
      "erspec": 6376,
      "aded": 6377,
      "Ġchap": 6378,
      "Ġadorable": 6379,
      "Ġbefore": 6380,
      "amed": 6381,
      "hip": 6382,
      "kui": 6383,
      "istmas": 6384,
      "eces": 6385,
      "ephon": 6386,
      "Ġask": 6387,
      "Ġlovely": 6388,
      "Ġmatsuri": 6389,
      "Ġ2009": 6390,
      "Ġ2000": 6391,
      "aymore": 6392,
      "Ġblock": 6393,
      "Ġblaz": 6394,
      "Ġfrag": 6395,
      "Ġnegi": 6396,
      "Ġsport": 6397,
      "Ġinterspec": 6398,
      "unners": 6399,
      "Ġamu": 6400,
      "Ġhistory": 6401,
      "Ġclaymore": 6402,
      "Ġuq": 6403,
      "Ġuzasu": 6404,
      "acy": 6405,
      "aker": 6406,
      "quet": 6407,
      "Ġpopp": 6408,
      "Ġhasami": 6409,
      "Ġonizu": 6410,
      "etaker": 6411,
      "Ġdefeated": 6412,
      "Ġzone": 6413,
      "Ġcaretaker": 6414,
      "Ġarmed": 6415,
      "youbi": 6416,
      "Ġundying": 6417,
      "Ġbattlefron": 6418,
      "Ġrahx": 6419,
      "Ġdivine": 6420,
      "tsuyoubi": 6421,
      "Ġcrest": 6422,
      "Ġplund": 6423,
      "kaisen": 6424,
      "kaido": 6425,
      "Ġshigurui": 6426,
      "Ġvinland": 6427,
      "ikku": 6428,
      "ikiss": 6429,
      "Ġ11": 6430,
      "Ġyuutou": 6431,
      "Ġfarming": 6432,
      "Ġhaite": 6433,
      "Ġeveryday": 6434,
      "Ġshinasai": 6435,
      "Ġkimita": 6436,
      "Ġkimikiss": 6437,
      "Ġbokushi": 6438,
      "channel": 6439,
      "Ġkoujou": 6440,
      "Ġkoubou": 6441,
      "Ġkouhai": 6442,
      "Ġkyoukaisen": 6443,
      "uyuri": 6444,
      "Ġprincip": 6445,
      "Ġstarting": 6446,
      "Ġtake": 6447,
      "llism": 6448,
      "Ġtrunk": 6449,
      "Ġbouquet": 6450,
      "Ġflapp": 6451,
      "Ġflavor": 6452,
      "Ġkudasai": 6453,
      "Ġlazar": 6454,
      "Ġevol": 6455,
      "Ġgals": 6456,
      "berpunk": 6457,
      "Ġpharm": 6458,
      "!?,": 6459,
      "Ġgetsuyoubi": 6460,
      "Ġsunoh": 6461,
      "Ġmemory": 6462,
      "Ġhajimete": 6463,
      "Ġcooler": 6464,
      "Ġtomoyo": 6465,
      "Ġnekopara": 6466,
      "Ġhakarenai": 6467,
      "Ġgluttony": 6468,
      "Ġshokudou": 6469,
      "Ġgrandchild": 6470,
      "Ġappears": 6471,
      "Ġimmoral": 6472,
      "Ġduo": 6473,
      "Ġmerry": 6474,
      "gerunners": 6475,
      "Ġgokui": 6476,
      "Ġkonbini": 6477,
      "Ġasobase": 6478,
      "ipikku": 6479,
      "Ġdaikyuu": 6480,
      "Ġakikan": 6481,
      "Ġhimari": 6482,
      "Ġholder": 6483,
      "Ġmisfit": 6484,
      "Ġchop": 6485,
      "Ġchrono": 6486,
      "Ġchristmas": 6487,
      "Ġtsukaiyou": 6488,
      "Ġsummoner": 6489,
      "Ġkareshi": 6490,
      "Ġnisemonogatari": 6491,
      "Ġshiroi": 6492,
      "Ġomocha": 6493,
      "prototype": 6494,
      "Ġpoputep": 6495,
      "Ġedition": 6496,
      "Ġedgerunners": 6497,
      "Ġladies": 6498,
      "gray": 6499,
      "Ġyumekui": 6500,
      "Ġcyberpunk": 6501,
      "Ġinvaded": 6502,
      "Ġyuruyuri": 6503,
      "Ġweathering": 6504,
      "Ġweakest": 6505,
      "Ġversus": 6506,
      "Ġaquarion": 6507,
      "Ġassault": 6508,
      "Ġpieces": 6509,
      "lined": 6510,
      "Ġhokkaido": 6511,
      "Ġoccultic": 6512,
      "Ġcold": 6513,
      "Ġdangers": 6514,
      "Ġclimbing": 6515,
      "Ġwasteful": 6516,
      "Ġdignity": 6517,
      "Ġmushibugyou": 6518,
      "Ġaharen": 6519,
      "Ġdeclined": 6520,
      "Ġsekiryuu": 6521,
      "Ġmachiavellism": 6522,
      "Ġfushigi": 6523,
      "Ġoniichan": 6524,
      "Ġbattleship": 6525,
      "Ġtutu": 6526,
      "Ġeighty": 6527,
      ":||": 6528,
      "eyes": 6529,
      "hedoro": 6530,
      "Ġunnamed": 6531,
      "Ġwakusei": 6532,
      "Ġtherese": 6533,
      "Ġnidome": 6534,
      "Ġbentou": 6535,
      "Ġmongolian": 6536,
      "Ġandroid": 6537,
      "Ġchoujin": 6538,
      "Ġdorohedoro": 6539,
      "Ġdaddies": 6540,
      "Ġgosick": 6541,
      "Ġpilot": 6542,
      "Ġhoozuki": 6543,
      "Ġhumanity": 6544,
      "Ġomamori": 6545,
      "Ġreitetsu": 6546,
      "Ġryokou": 6547,
      "Ġkongming": 6548,
      "Ġsevering": 6549,
      "Ġchapter": 6550,
      "Ġblockade": 6551,
      "Ġblazers": 6552,
      "Ġfragrant": 6553,
      "Ġinterspecies": 6554,
      "Ġuzasugiru": 6555,
      "Ġpoppy": 6556,
      "Ġonizuka": 6557,
      "Ġbattlefront": 6558,
      "Ġrahxephon": 6559,
      "Ġplunderer": 6560,
      "Ġyuutousei": 6561,
      "Ġkimitachi": 6562,
      "Ġkyoukaisenjou": 6563,
      "Ġprincipal": 6564,
      "Ġtrunks": 6565,
      "Ġflappers": 6566,
      "Ġflavors": 6567,
      "Ġlazarus": 6568,
      "Ġpharmacy": 6569,
      "Ġsunohara": 6570,
      "Ġpoputepipikku": 6571,
      "!-": 6572,
      "duku": 6573,
      "frain": 6574,
      "gana": 6575,
      "hito": 6576,
      "jime": 6577,
      "nagi": 6578,
      "ole": 6579,
      "rou": 6580,
      "rine": 6581,
      "tion": 6582,
      "ymp": 6583,
      "zoman": 6584,
      "ĠÃ©": 6585,
      "ĹĨ": 6586,
      "Ġsymp": 6587,
      "inum": 6588,
      "Ġani": 6589,
      "Ġitsu": 6590,
      "Ġika": 6591,
      "erial": 6592,
      "erview": 6593,
      "aranai": 6594,
      "Ġnai": 6595,
      "Ġbian": 6596,
      "Ġacchi": 6597,
      "Ġage": 6598,
      "Ġmun": 6599,
      "Ġmuren": 6600,
      "ingxion": 6601,
      "Ġnozoman": 6602,
      "Ġcal": 6603,
      "Ġcond": 6604,
      "Ġcif": 6605,
      "keiji": 6606,
      "Ġdus": 6607,
      "atinum": 6608,
      "Ġgash": 6609,
      "Ġpom": 6610,
      "alia": 6611,
      "Ġhet": 6612,
      "Ġtunn": 6613,
      "Ġtond": 6614,
      "Ġtian": 6615,
      "housha": 6616,
      "omiya": 6617,
      "Ġwants": 6618,
      "esday": 6619,
      "Ġramen": 6620,
      "Ġkire": 6621,
      "Ġkora": 6622,
      "Ġkats": 6623,
      "Ġkamen": 6624,
      "Ġkantai": 6625,
      "Ġtoku": 6626,
      "Ġtokeiji": 6627,
      "Ġself": 6628,
      "Ġsuru": 6629,
      "Ġeli": 6630,
      "imai": 6631,
      "Ġjir": 6632,
      "Ġdramat": 6633,
      "ursed": 6634,
      "Ġdoku": 6635,
      "arabako": 6636,
      "Ġyomi": 6637,
      "Ġyingxion": 6638,
      "Ġshowa": 6639,
      "Ġseton": 6640,
      "Ġasaga": 6641,
      "Ġmyri": 6642,
      "elve": 6643,
      "asekai": 6644,
      "ayo": 6645,
      "Ġitteiru": 6646,
      "Ġlook": 6647,
      "Ġnegai": 6648,
      "Ġinterview": 6649,
      "Ġclock": 6650,
      "Ġuete": 6651,
      "abane": 6652,
      "Ġshrine": 6653,
      "Ġhighway": 6654,
      "suga": 6655,
      "Ġencho": 6656,
      "bexc": 6657,
      "Ġpoko": 6658,
      "roiro": 6659,
      "Ġonimai": 6660,
      "Ġgenome": 6661,
      "Ġgenroku": 6662,
      "Ġdegu": 6663,
      "kotsu": 6664,
      "Ġcarole": 6665,
      "Ġtwelve": 6666,
      "Ġdiscre": 6667,
      "Ġidaten": 6668,
      "Ġplatinum": 6669,
      "Ġhadan": 6670,
      "Ġhanda": 6671,
      "kake": 6672,
      "Ġheroic": 6673,
      "Ġsenkyo": 6674,
      "Ġkocchi": 6675,
      "jiki": 6676,
      "ounara": 6677,
      "Ġtsugai": 6678,
      "anohito": 6679,
      "Ġtonkotsu": 6680,
      "tranger": 6681,
      "Ġsajou": 6682,
      "Ġguan": 6683,
      "Ġepic": 6684,
      "Ġshinsekai": 6685,
      "Ġshinju": 6686,
      "Ġkenka": 6687,
      "main": 6688,
      "Ġheion": 6689,
      "Ġdanna": 6690,
      "Ġdansai": 6691,
      "pping": 6692,
      "Ġtakarabako": 6693,
      "kyouchuu": 6694,
      "shusen": 6695,
      "Ġnanayo": 6696,
      "Ġbunri": 6697,
      "Ġyosuga": 6698,
      "urious": 6699,
      "Ġ06": 6700,
      "Ġangeloid": 6701,
      "Ġâĸ³": 6702,
      "Ġarterial": 6703,
      "Ġkannagi": 6704,
      "Ġjuniku": 6705,
      "Ġkujir": 6706,
      "Ġarcade": 6707,
      "hony": 6708,
      "Ġplanetes": 6709,
      "Ġgekai": 6710,
      "Ġhontou": 6711,
      "Ġurasekai": 6712,
      "Ġsayounara": 6713,
      "Ġhakata": 6714,
      "Ġhitorijime": 6715,
      "Ġgunjou": 6716,
      "Ġsquid": 6717,
      "Ġkonnichi": 6718,
      "Ġkonjiki": 6719,
      "Ġiroduku": 6720,
      "Ġtaboo": 6721,
      "Ġninomiya": 6722,
      "Ġpromare": 6723,
      "Ġhaireru": 6724,
      "Ġraihousha": 6725,
      "Ġmaidens": 6726,
      "timer": 6727,
      "Ġshirobako": 6728,
      "Ġjinsei": 6729,
      "Ġwakaranai": 6730,
      "Ġtattoo": 6731,
      "Ġrakugo": 6732,
      "Ġorigins": 6733,
      "Ġshikabane": 6734,
      "Ġbuso": 6735,
      "Ġkusuri": 6736,
      "Ġmitsugana": 6737,
      "Ġkakumeiki": 6738,
      "Ġcubexc": 6739,
      "Ġencore": 6740,
      "Ġnakanohito": 6741,
      "Ġtoriko": 6742,
      "Ġtsukeru": 6743,
      "Ġpenguin": 6744,
      "Ġsedai": 6745,
      "Ġcrazy": 6746,
      "Ġvillainess": 6747,
      "Ġshinryaku": 6748,
      "Ġmashiroiro": 6749,
      "Ġoniisan": 6750,
      "xcurious": 6751,
      "Ġtuesday": 6752,
      "Ġfortune": 6753,
      "work": 6754,
      "ĠnausicaÃ¤": 6755,
      "ĠÃ©tranger": 6756,
      "Ġsymphony": 6757,
      "Ġitsuwari": 6758,
      "Ġmunou": 6759,
      "Ġmurenase": 6760,
      "Ġnozomanu": 6761,
      "Ġcalled": 6762,
      "Ġcondition": 6763,
      "Ġcifu": 6764,
      "Ġdusk": 6765,
      "Ġhetalia": 6766,
      "Ġtunnel": 6767,
      "Ġtondemo": 6768,
      "Ġramens": 6769,
      "Ġkirei": 6770,
      "Ġkatsute": 6771,
      "Ġtokushusen": 6772,
      "Ġtokeijikake": 6773,
      "Ġelise": 6774,
      "Ġjirachi": 6775,
      "Ġdramatical": 6776,
      "ursedxcurious": 6777,
      "Ġdokugaku": 6778,
      "Ġyingxiong": 6779,
      "Ġasagao": 6780,
      "Ġmyriad": 6781,
      "Ġnegaiboshi": 6782,
      "Ġinterviews": 6783,
      "Ġclockwork": 6784,
      "Ġueteiru": 6785,
      "Ġenchousen": 6786,
      "Ġdeguchi": 6787,
      "Ġdiscretion": 6788,
      "Ġkujira": 6789,
      "Ġkonnichiwa": 6790,
      "Ġmitsuganae": 6791,
      "Ġcubexcursedxcurious": 6792,
      ");": 6793,
      ".;": 6794,
      ":â": 6795,
      "?.": 6796,
      "athers": 6797,
      "bb": 6798,
      "cond": 6799,
      "dust": 6800,
      "ets": 6801,
      "eid": 6802,
      "face": 6803,
      "fathers": 6804,
      "gal": 6805,
      "hit": 6806,
      "hno": 6807,
      "hamatora": 6808,
      "jisama": 6809,
      "kishi": 6810,
      "la": 6811,
      "ls": 6812,
      "mate": 6813,
      "pire": 6814,
      "sw": 6815,
      "sura": 6816,
      "tai": 6817,
      "ugh": 6818,
      "xhno": 6819,
      "yushou": 6820,
      "zard": 6821,
      "Ġura": 6822,
      "Ġush": 6823,
      "Ġsku": 6824,
      "inawareta": 6825,
      "Ġansw": 6826,
      "Ġixion": 6827,
      "Ġthree": 6828,
      "Ġboun": 6829,
      "Ġmoto": 6830,
      "Ġnobo": 6831,
      "Ġnobor": 6832,
      "utan": 6833,
      "Ġcen": 6834,
      "onkishi": 6835,
      "Ġdt": 6836,
      "Ġdore": 6837,
      "Ġdum": 6838,
      "Ġgt": 6839,
      "Ġgush": 6840,
      "anteid": 6841,
      "Ġhond": 6842,
      "Ġhakusho": 6843,
      "Ġtown": 6844,
      "Ġtort": 6845,
      "Ġtanteid": 6846,
      "hounen": 6847,
      "omete": 6848,
      "Ġwizard": 6849,
      "ouds": 6850,
      "omori": 6851,
      "esse": 6852,
      "Ġrul": 6853,
      "sell": 6854,
      "second": 6855,
      "Ġkilo": 6856,
      "Ġtopp": 6857,
      "nda": 6858,
      "Ġmaken": 6859,
      "Ġmakyou": 6860,
      "Ġmakenai": 6861,
      "legal": 6862,
      "lyze": 6863,
      "iter": 6864,
      "itters": 6865,
      "ured": 6866,
      "Ġyonkishi": 6867,
      "Ġloveless": 6868,
      "Ġwhisk": 6869,
      "Ġblast": 6870,
      "Ġita": 6871,
      "Ġmokushi": 6872,
      "Ġamagami": 6873,
      "Ġclouds": 6874,
      "Ġshang": 6875,
      "Ġhori": 6876,
      "akomori": 6877,
      "sunda": 6878,
      "Ġcomyushou": 6879,
      "Ġempire": 6880,
      "Ġdeai": 6881,
      "Ġtexhno": 6882,
      "Ġtrip": 6883,
      "Ġtearmoon": 6884,
      "ishuu": 6885,
      "moza": 6886,
      "Ġsenryuu": 6887,
      "Ġshiki": 6888,
      "Ġvictory": 6889,
      "Ġvesse": 6890,
      "Ġkoisuru": 6891,
      "!!.": 6892,
      "haha": 6893,
      "anoia": 6894,
      "Ġsaishuu": 6895,
      "Ġ10": 6896,
      "Ġtenjou": 6897,
      "Ġtengen": 6898,
      "Ġtensura": 6899,
      "Ġgodfathers": 6900,
      "Ġhanbun": 6901,
      "Ġkoushi": 6902,
      "Ġheiki": 6903,
      "Ġkaiba": 6904,
      "Ġoujisama": 6905,
      "Ġoverflow": 6906,
      "Ġyoichi": 6907,
      "Ġbooksell": 6908,
      "Ġshingets": 6909,
      "Ġredline": 6910,
      "Ġfutakomori": 6911,
      "denashi": 6912,
      "ainst": 6913,
      "Ġjuni": 6914,
      "Ġjunketsu": 6915,
      "Ġsousei": 6916,
      "unetsu": 6917,
      "Ġlaugh": 6918,
      "Ġalchemic": 6919,
      "Ġparanoia": 6920,
      "Ġ202": 6921,
      "Ġfuuka": 6922,
      "Ġdousunda": 6923,
      "Ġkinmoza": 6924,
      "Ġbrave": 6925,
      "2011": 6926,
      "Ġdiamonddust": 6927,
      "Ġsouls": 6928,
      "Ġbishounen": 6929,
      "Ġirozuku": 6930,
      "Ġtabi": 6931,
      "Ġroommate": 6932,
      "Ġrokudenashi": 6933,
      "Ġyears": 6934,
      "Ġyarich": 6935,
      "Ġtsurego": 6936,
      "Ġyuragi": 6937,
      "Ġboring": 6938,
      "Ġmiyamura": 6939,
      "Ġsoda": 6940,
      "Ġillegal": 6941,
      "Ġjihen": 6942,
      "utengai": 6943,
      "Ġmoteru": 6944,
      "Ġmotete": 6945,
      "Ġmotomete": 6946,
      "Ġzettai": 6947,
      "Ġshakunetsu": 6948,
      "Ġphoto": 6949,
      "Ġbabysitters": 6950,
      "Ġxamdou": 6951,
      "Ġgenerations": 6952,
      "Ġvigilante": 6953,
      "Ġwriter": 6954,
      "Ġmamahaha": 6955,
      "Ġhelck": 6956,
      "Ġfortress": 6957,
      "Ġagent": 6958,
      "Ġagainst": 6959,
      "coroll": 6960,
      "shoutengai": 6961,
      "ĠfiancÃ©": 6962,
      ":âĲ£": 6963,
      "bbell": 6964,
      "Ġushinawareta": 6965,
      "Ġskull": 6966,
      "Ġanswer": 6967,
      "Ġbounen": 6968,
      "Ġmotokano": 6969,
      "Ġnobody": 6970,
      "Ġnoboru": 6971,
      "Ġcencoroll": 6972,
      "Ġdorei": 6973,
      "Ġdumbbell": 6974,
      "Ġgushing": 6975,
      "Ġhonda": 6976,
      "Ġtortured": 6977,
      "Ġtanteidan": 6978,
      "Ġwizards": 6979,
      "Ġrules": 6980,
      "Ġtoppa": 6981,
      "Ġwhisker": 6982,
      "Ġmokushiroku": 6983,
      "Ġshangri": 6984,
      "Ġtexhnolyze": 6985,
      "Ġvessels": 6986,
      "Ġbookseller": 6987,
      "Ġshingetsutan": 6988,
      "Ġlaughing": 6989,
      "Ġyarichin": 6990,
      "Ġillegals": 6991,
      "2000": 6992,
      "bed": 6993,
      "bled": 6994,
      "eed": 6995,
      "iem": 6996,
      "ifer": 6997,
      "ikyuu": 6998,
      "lant": 6999,
      "mal": 7000,
      "mad": 7001,
      "rs": 7002,
      "ukai": 7003,
      "wareta": 7004,
      "yal": 7005,
      "Ġere": 7006,
      "Ġsix": 7007,
      "the": 7008,
      "thec": 7009,
      "erad": 7010,
      "Ġapo": 7011,
      "Ġfashi": 7012,
      "Ġnomad": 7013,
      "reig": 7014,
      "refrain": 7015,
      "kebit": 7016,
      "atter": 7017,
      "Ġgerad": 7018,
      "asou": 7019,
      "omeshi": 7020,
      "ouin": 7021,
      "oubled": 7022,
      "Ġmeikyuu": 7023,
      "Ġrequ": 7024,
      "Ġseiy": 7025,
      "ions": 7026,
      "Ġmai": 7027,
      "Ġjib": 7028,
      "Ġspeed": 7029,
      "adomeshi": 7030,
      "Ġroyal": 7031,
      "Ġyase": 7032,
      "Ġyadomeshi": 7033,
      "Ġcomet": 7034,
      "lowed": 7035,
      "Ġito": 7036,
      "Ġallowed": 7037,
      "Ġgamers": 7038,
      "agatter": 7039,
      "rors": 7040,
      "Ġacross": 7041,
      "Ġgraph": 7042,
      "Ġzatch": 7043,
      "ntsukai": 7044,
      "Ġdiari": 7045,
      "!!?": 7046,
      "Ġlonger": 7047,
      "Ġgetback": 7048,
      "Ġsakebit": 7049,
      "Ġokami": 7050,
      "twins": 7051,
      "Ġatlant": 7052,
      "Ġhaou": 7053,
      "Ġhaken": 7054,
      "jouou": 7055,
      "Ġshinreig": 7056,
      "Ġhunt": 7057,
      "Ġsakana": 7058,
      "Ġaokana": 7059,
      "Ġcrook": 7060,
      "Ġmakentsukai": 7061,
      "blic": 7062,
      "shmal": 7063,
      "Ġslam": 7064,
      "Ġunlu": 7065,
      "Ġyofu": 7066,
      "Ġchiisai": 7067,
      "Ġchivalry": 7068,
      "Ġtroubled": 7069,
      "Ġmarshmal": 7070,
      "Ġmirrors": 7071,
      "Ġdunk": 7072,
      "Ġfujouou": 7073,
      "Ġbrain": 7074,
      "Ġbraves": 7075,
      "Ġarawareta": 7076,
      "Ġkonkon": 7077,
      "Ġpublic": 7078,
      "automata": 7079,
      "mentar": 7080,
      "Ġcomplete": 7081,
      "Ġedens": 7082,
      "unda": 7083,
      "Ġhyakuren": 7084,
      "moonlit": 7085,
      "Ġlucifer": 7086,
      "Ġcompanions": 7087,
      "Ġsakurasou": 7088,
      "Ġsentouin": 7089,
      "Ġfailed": 7090,
      "Ġtutor": 7091,
      "working": 7092,
      "Ġerementar": 7093,
      "thecary": 7094,
      "Ġapothecary": 7095,
      "Ġrequiem": 7096,
      "Ġseiyaku": 7097,
      "Ġjibaku": 7098,
      "Ġyasei": 7099,
      "agatterunda": 7100,
      "Ġgrapher": 7101,
      "Ġdiaries": 7102,
      "Ġgetbackers": 7103,
      "Ġsakebitagatterunda": 7104,
      "Ġatlantic": 7105,
      "Ġshinreigari": 7106,
      "Ġcrooks": 7107,
      "Ġunluck": 7108,
      "Ġyofukashi": 7109,
      "Ġmarshmallow": 7110,
      ")?": 7111,
      "91": 7112,
      "ex": 7113,
      "eight": 7114,
      "hakusho": 7115,
      "ii": 7116,
      "ks": 7117,
      "kageki": 7118,
      "nine": 7119,
      "ova": 7120,
      "rock": 7121,
      "uusei": 7122,
      "yu": 7123,
      "ycor": 7124,
      "âĢ": 7125,
      "âĹĨ": 7126,
      "Ġ91": 7127,
      "anze": 7128,
      "Ġwon": 7129,
      "Ġlycor": 7130,
      "Ġbak": 7131,
      "Ġaos": 7132,
      "Ġfuro": 7133,
      "Ġdone": 7134,
      "enchi": 7135,
      "Ġhiyo": 7136,
      "Ġlikes": 7137,
      "ics": 7138,
      "Ġround": 7139,
      "Ġorenchi": 7140,
      "Ġrecoil": 7141,
      "istants": 7142,
      "Ġromanze": 7143,
      "Ġyousei": 7144,
      "Ġrobotics": 7145,
      "Ġgenzai": 7146,
      "opii": 7147,
      "arding": 7148,
      "Ġsinks": 7149,
      "iga": 7150,
      "Ġsavers": 7151,
      "Ġboarding": 7152,
      "jouhan": 7153,
      "Ġshinwa": 7154,
      "Ġkoukyuu": 7155,
      "Ġanimal": 7156,
      "Ġtakopii": 7157,
      "ruction": 7158,
      "shaku": 7159,
      "Ġuncle": 7160,
      "Ġbrand": 7161,
      "Ġyojouhan": 7162,
      "Ġutena": 7163,
      "Ġarte": 7164,
      "Ġartist": 7165,
      "Ġkubo": 7166,
      "Ġtaikei": 7167,
      "Ġranma": 7168,
      "Ġryuo": 7169,
      "Ġkikan": 7170,
      "Ġtable": 7171,
      "Ġdestruction": 7172,
      "Ġkyuudou": 7173,
      "Ġkarasu": 7174,
      "prints": 7175,
      "Ġwalkure": 7176,
      "Ġmayoiga": 7177,
      "Ġhanamonogatari": 7178,
      "Ġhakushaku": 7179,
      "Ġassistants": 7180,
      "Ġmitsuboshi": 7181,
      "Ġjijou": 7182,
      "Ġguys": 7183,
      "Ġmaoyu": 7184,
      "Ġfootprints": 7185,
      "Ġdoukyuusei": 7186,
      "shopping": 7187,
      "extra": 7188,
      "âĢł": 7189,
      "Ġlycoris": 7190,
      "Ġbakuten": 7191,
      "Ġaosa": 7192,
      "Ġhiyokoi": 7193,
      "batsu": 7194,
      "ding": 7195,
      "kakusha": 7196,
      "lod": 7197,
      "Ġsare": 7198,
      "Ġwed": 7199,
      "Ġiya": 7200,
      "Ġnam": 7201,
      "Ġaut": 7202,
      "Ġmise": 7203,
      "Ġmora": 7204,
      "utte": 7205,
      "antsu": 7206,
      "Ġtale": 7207,
      "Ġmelod": 7208,
      "Ġkick": 7209,
      "amichi": 7210,
      "Ġef": 7211,
      "Ġchan": 7212,
      "Ġdosan": 7213,
      "kiku": 7214,
      "abutte": 7215,
      "Ġmysteries": 7216,
      "Ġraita": 7217,
      "Ġmenu": 7218,
      "Ġmenkoi": 7219,
      "Ġstride": 7220,
      "Ġsenbatsu": 7221,
      "iform": 7222,
      "ikabutte": 7223,
      "Ġspiritpa": 7224,
      "Ġkao": 7225,
      "Ġshinkakusha": 7226,
      "Ġuniform": 7227,
      "Ġparade": 7228,
      "Ġuramichi": 7229,
      "Ġnagara": 7230,
      "Ġfiles": 7231,
      "Ġbroken": 7232,
      "2018": 7233,
      "Ġtoday": 7234,
      "breaker": 7235,
      "Ġookiku": 7236,
      "Ġopantsu": 7237,
      "Ġotherside": 7238,
      "Ġfurikabutte": 7239,
      "Ġwedding": 7240,
      "Ġnamara": 7241,
      "Ġautomata": 7242,
      "Ġmisete": 7243,
      "Ġmoraitai": 7244,
      "Ġmelodies": 7245,
      "Ġkicker": 7246,
      "Ġdosanko": 7247,
      "Ġraitaisai": 7248,
      "Ġspiritpact": 7249,
      "cr": 7250,
      "do": 7251,
      "dive": 7252,
      "fish": 7253,
      "kashii": 7254,
      "udo": 7255,
      "Ïī": 7256,
      "ĠÏī": 7257,
      "anxx": 7258,
      "Ġmorn": 7259,
      "Ġfist": 7260,
      "Ġdella": 7261,
      "Ġpico": 7262,
      "Ġstoria": 7263,
      "ĠkÃ¤": 7264,
      "lyfish": 7265,
      "Ġjel": 7266,
      "adono": 7267,
      "Ġchamp": 7268,
      "Ġchoro": 7269,
      "Ġfranxx": 7270,
      "Ġclima": 7271,
      "Ġmuzu": 7272,
      "Ġoutbreak": 7273,
      "Ġangai": 7274,
      "Ġglories": 7275,
      "Ġsanshimai": 7276,
      "Ġkobato": 7277,
      "Ġnorth": 7278,
      "Ġuso": 7279,
      "Ġmikadono": 7280,
      "Ġkyudo": 7281,
      "Ġ2016": 7282,
      "Ġwotaku": 7283,
      "mpfer": 7284,
      "crisis": 7285,
      "Ġmorning": 7286,
      "ĠkÃ¤mpfer": 7287,
      "Ġjellyfish": 7288,
      "Ġchampion": 7289,
      "Ġchoroi": 7290,
      "Ġclimax": 7291,
      "Ġmuzukashii": 7292,
      "iisan": 7293,
      "uko": 7294,
      "oniisan": 7295,
      "Ġkaleid": 7296,
      "Ġjash": 7297,
      "Ġvision": 7298,
      "Ġyoung": 7299,
      "notes": 7300,
      "Ġmusuko": 7301,
      "Ġchildhood": 7302,
      "Ġ):": 7303,
      "Ġ2014": 7304,
      "âĻ¥,": 7305,
      "Ġjashin": 7306,
      "!-,": 7307,
      "ied": 7308,
      "iod": 7309,
      "pfer": 7310,
      "ynazenon": 7311,
      "âģ": 7312,
      "Ġ%": 7313,
      "Ġmpfer": 7314,
      "Ġdynazenon": 7315,
      "Ġbed": 7316,
      "aged": 7317,
      "ified": 7318,
      "Ġmoonlit": 7319,
      "Ġunident": 7320,
      "Ġjikkyouchuu": 7321,
      "...,": 7322,
      "Ġperiod": 7323,
      "Ġ2019": 7324,
      "Ġengaged": 7325,
      "âģĦ": 7326,
      "Ġunidentified": 7327,
      "kado": 7328,
      "kkyouchuu": 7329,
      "~,": 7330,
      "Ġrlish": 7331,
      "Ġmazoku": 7332,
      "urano": 7333,
      "!!;": 7334,
      "jikkyouchuu": 7335,
      "Ġakaten": 7336,
      "Ġ)?": 7337,
      "Ġbokurano": 7338,
      "Ġmachikado": 7339,
      "Ġ2018": 7340,
      ".\",": 7341,
      "Ġ2021": 7342,
      "Ġ2022": 7343,
      "\",": 7344,
      "-.": 7345,
      "Ġâĺħ": 7346,
      "Ġtojim": 7347,
      "Ġato": 7348,
      "Ġtojimari": 7349,
      "%,": 7350,
      "-;": 7351,
      "?:": 7352,
      "Ġsign": 7353,
      "engai": 7354,
      "Ġhol": 7355,
      "Ġhack": 7356,
      "Ġkageki": 7357,
      "Ġprototype": 7358,
      "Ġhead": 7359,
      "ĠâĢł": 7360,
      "Ġshoutengai": 7361,
      ":||,": 7362,
      "Ġholic": 7363,
      "?!,": 7364,
      "Ġumend": 7365,
      "Ġ-,": 7366,
      "Ġ-?": 7367,
      "ĠâĲ£": 7368,
      "Ġtranger": 7369,
      "!?.": 7370,
      "âĸ³,": 7371,
      "Ġtwins": 7372,
      "âĺħâĺħ,": 7373,
      "-?": 7374,
      "?;": 7375,
      "Ġshopping": 7376,
      "ĠâĹĨ": 7377,
      "Ġ).": 7378,
      "!??": 7379,
      "Ġ\",": 7380,
      "Ġsurvival": 7381,
      "Ġsakurako": 7382,
      "Ġ2011": 7383,
      "ĠâĻ¥,": 7384,
      "',": 7385,
      "],": 7386,
      "prise": 7387,
      "~.": 7388,
      "Ġ|": 7389,
      "Ġrefrain": 7390,
      "Ġstrange": 7391,
      "Ġ~,": 7392,
      "Ġsurprise": 7393,
      "ĠâĻ¥.": 7394,
      "ĠâĻ¥;": 7395,
      "ĠâĻ¥?": 7396,
      "Ġ],": 7397
    },
    "merges": [
      [
        "Ġ",
        "s"
      ],
      [
        "a",
        "n"
      ],
      [
        "t",
        "h"
      ],
      [
        "m",
        "e"
      ],
      [
        "i",
        "n"
      ],
      [
        "Ġ",
        "w"
      ],
      [
        "o",
        "r"
      ],
      [
        "Ġ",
        "an"
      ],
      [
        "Ġ",
        "i"
      ],
      [
        "e",
        "r"
      ],
      [
        "Ġ",
        "th"
      ],
      [
        "a",
        "r"
      ],
      [
        "Ġ",
        "l"
      ],
      [
        "Ġ",
        "n"
      ],
      [
        "Ġ",
        "b"
      ],
      [
        "Ġ",
        "a"
      ],
      [
        "Ġ",
        "m"
      ],
      [
        "in",
        "g"
      ],
      [
        "Ġ",
        "f"
      ],
      [
        "Ġan",
        "d"
      ],
      [
        "Ġn",
        "o"
      ],
      [
        "r",
        "e"
      ],
      [
        "u",
        "t"
      ],
      [
        "Ġ",
        "c"
      ],
      [
        "k",
        "e"
      ],
      [
        "o",
        "n"
      ],
      [
        "Ġ",
        "d"
      ],
      [
        "Ġth",
        "e"
      ],
      [
        "a",
        "t"
      ],
      [
        "Ġ",
        "g"
      ],
      [
        "e",
        "n"
      ],
      [
        "an",
        "t"
      ],
      [
        "Ġl",
        "i"
      ],
      [
        "a",
        "s"
      ],
      [
        "Ġ",
        "p"
      ],
      [
        "a",
        "l"
      ],
      [
        "Ġ",
        "h"
      ],
      [
        "Ġ",
        "t"
      ],
      [
        "Ġli",
        "ke"
      ],
      [
        "h",
        "o"
      ],
      [
        "o",
        "me"
      ],
      [
        "Ġb",
        "ut"
      ],
      [
        "t",
        "s"
      ],
      [
        "Ġw",
        "i"
      ],
      [
        "o",
        "u"
      ],
      [
        "Ġwi",
        "th"
      ],
      [
        "Ġ",
        "me"
      ],
      [
        "Ġ",
        "o"
      ],
      [
        "s",
        "t"
      ],
      [
        "o",
        "m"
      ],
      [
        "Ġw",
        "ant"
      ],
      [
        "Ġ",
        "re"
      ],
      [
        "i",
        "c"
      ],
      [
        "th",
        "ing"
      ],
      [
        "Ġno",
        "t"
      ],
      [
        "o",
        "w"
      ],
      [
        "Ġs",
        "t"
      ],
      [
        "e",
        "s"
      ],
      [
        "Ġs",
        "ome"
      ],
      [
        "Ġ",
        "r"
      ],
      [
        "s",
        "e"
      ],
      [
        "i",
        "l"
      ],
      [
        "i",
        "me"
      ],
      [
        "Ġsome",
        "thing"
      ],
      [
        "Ġ",
        "k"
      ],
      [
        "v",
        "e"
      ],
      [
        "i",
        "d"
      ],
      [
        "Ġan",
        "ime"
      ],
      [
        "Ġg",
        "i"
      ],
      [
        "Ġt",
        "o"
      ],
      [
        "Ġs",
        "e"
      ],
      [
        "Ġ",
        "or"
      ],
      [
        "g",
        "h"
      ],
      [
        "Ġo",
        "f"
      ],
      [
        "Ġs",
        "u"
      ],
      [
        "n",
        "d"
      ],
      [
        "Ġs",
        "c"
      ],
      [
        "l",
        "d"
      ],
      [
        "Ġlike",
        "d"
      ],
      [
        "i",
        "on"
      ],
      [
        "c",
        "h"
      ],
      [
        "a",
        "m"
      ],
      [
        "Ġ",
        "e"
      ],
      [
        "Ġm",
        "a"
      ],
      [
        "l",
        "e"
      ],
      [
        "o",
        "o"
      ],
      [
        "c",
        "t"
      ],
      [
        "l",
        "y"
      ],
      [
        "Ġf",
        "or"
      ],
      [
        "o",
        "l"
      ],
      [
        "Ġs",
        "ho"
      ],
      [
        "i",
        "m"
      ],
      [
        "i",
        "gh"
      ],
      [
        "b",
        "o"
      ],
      [
        "or",
        "e"
      ],
      [
        "Ġ",
        "j"
      ],
      [
        "Ġgi",
        "ve"
      ],
      [
        "Ġth",
        "at"
      ],
      [
        "u",
        "n"
      ],
      [
        "Ġd",
        "r"
      ],
      [
        "Ġre",
        "c"
      ],
      [
        "v",
        "i"
      ],
      [
        "Ġs",
        "p"
      ],
      [
        "i",
        "t"
      ],
      [
        "er",
        "s"
      ],
      [
        "a",
        "d"
      ],
      [
        "in",
        "d"
      ],
      [
        "me",
        "nd"
      ],
      [
        "om",
        "mend"
      ],
      [
        "Ġrec",
        "ommend"
      ],
      [
        "c",
        "e"
      ],
      [
        "p",
        "er"
      ],
      [
        "ic",
        "al"
      ],
      [
        "Ġsu",
        "per"
      ],
      [
        "Ġ",
        "in"
      ],
      [
        "Ġp",
        "ow"
      ],
      [
        "u",
        "re"
      ],
      [
        "Ġc",
        "h"
      ],
      [
        "u",
        "r"
      ],
      [
        "i",
        "s"
      ],
      [
        "e",
        "m"
      ],
      [
        "Ġst",
        "u"
      ],
      [
        "Ġr",
        "o"
      ],
      [
        "as",
        "t"
      ],
      [
        "f",
        "f"
      ],
      [
        "v",
        "en"
      ],
      [
        "Ġa",
        "d"
      ],
      [
        "Ġb",
        "e"
      ],
      [
        "ho",
        "ol"
      ],
      [
        "v",
        "o"
      ],
      [
        "Ġsc",
        "hool"
      ],
      [
        "ar",
        "y"
      ],
      [
        "o",
        "ut"
      ],
      [
        "Ġa",
        "vo"
      ],
      [
        "Ġavo",
        "id"
      ],
      [
        "Ġl",
        "o"
      ],
      [
        "Ġs",
        "im"
      ],
      [
        "il",
        "ar"
      ],
      [
        "Ġsim",
        "ilar"
      ],
      [
        "Ġd",
        "o"
      ],
      [
        "Ġwith",
        "out"
      ],
      [
        "t",
        "ing"
      ],
      [
        "Ġm",
        "ore"
      ],
      [
        "Ġro",
        "bo"
      ],
      [
        "ar",
        "a"
      ],
      [
        "Ġ",
        "y"
      ],
      [
        "Ġc",
        "ast"
      ],
      [
        "Ġsho",
        "w"
      ],
      [
        "am",
        "a"
      ],
      [
        "e",
        "d"
      ],
      [
        "Ġ",
        "vi"
      ],
      [
        "Ġi",
        "s"
      ],
      [
        "a",
        "i"
      ],
      [
        "a",
        "me"
      ],
      [
        "Ġstu",
        "ff"
      ],
      [
        "h",
        "i"
      ],
      [
        "d",
        "y"
      ],
      [
        "i",
        "al"
      ],
      [
        "Ġc",
        "ome"
      ],
      [
        "ou",
        "ld"
      ],
      [
        "Ġch",
        "ara"
      ],
      [
        "Ġdr",
        "ama"
      ],
      [
        "Ġchara",
        "ct"
      ],
      [
        "Ġpow",
        "ers"
      ],
      [
        "l",
        "ow"
      ],
      [
        "ho",
        "l"
      ],
      [
        "Ġf",
        "igh"
      ],
      [
        "Ġj",
        "u"
      ],
      [
        "ant",
        "as"
      ],
      [
        "k",
        "i"
      ],
      [
        "Ġf",
        "antas"
      ],
      [
        "Ġfantas",
        "y"
      ],
      [
        "as",
        "on"
      ],
      [
        "Ġse",
        "t"
      ],
      [
        "Ġju",
        "st"
      ],
      [
        "Ġh",
        "ar"
      ],
      [
        "Ġs",
        "low"
      ],
      [
        "Ġk",
        "id"
      ],
      [
        "Ġvi",
        "b"
      ],
      [
        "en",
        "se"
      ],
      [
        "Ġvib",
        "es"
      ],
      [
        "Ġhar",
        "em"
      ],
      [
        "ar",
        "t"
      ],
      [
        "Ġw",
        "ould"
      ],
      [
        "k",
        "ing"
      ],
      [
        "Ġkid",
        "s"
      ],
      [
        "k",
        "u"
      ],
      [
        "i",
        "st"
      ],
      [
        "u",
        "l"
      ],
      [
        "ar",
        "k"
      ],
      [
        "e",
        "c"
      ],
      [
        "Ġr",
        "om"
      ],
      [
        "Ġcome",
        "dy"
      ],
      [
        "Ġset",
        "ting"
      ],
      [
        "Ġd",
        "ark"
      ],
      [
        "e",
        "p"
      ],
      [
        "g",
        "ical"
      ],
      [
        "Ġrobo",
        "ts"
      ],
      [
        "u",
        "se"
      ],
      [
        "Ġw",
        "or"
      ],
      [
        "Ġc",
        "an"
      ],
      [
        "Ġcharact",
        "er"
      ],
      [
        "i",
        "r"
      ],
      [
        "v",
        "er"
      ],
      [
        "at",
        "ion"
      ],
      [
        "th",
        "er"
      ],
      [
        "on",
        "e"
      ],
      [
        "Ġme",
        "ch"
      ],
      [
        "Ġa",
        "s"
      ],
      [
        "o",
        "t"
      ],
      [
        "Ġlo",
        "ve"
      ],
      [
        "e",
        "a"
      ],
      [
        "Ġm",
        "y"
      ],
      [
        "Ġw",
        "h"
      ],
      [
        "Ġy",
        "ou"
      ],
      [
        "Ġm",
        "at"
      ],
      [
        "e",
        "l"
      ],
      [
        "Ġ",
        "2"
      ],
      [
        "oo",
        "d"
      ],
      [
        "ar",
        "ts"
      ],
      [
        "as",
        "e"
      ],
      [
        "a",
        "y"
      ],
      [
        "ct",
        "ion"
      ],
      [
        "Ġb",
        "l"
      ],
      [
        "Ġi",
        "t"
      ],
      [
        "an",
        "d"
      ],
      [
        "Ġa",
        "l"
      ],
      [
        "Ġg",
        "ame"
      ],
      [
        "ven",
        "t"
      ],
      [
        "Ġad",
        "vent"
      ],
      [
        "Ġse",
        "ason"
      ],
      [
        "Ġadvent",
        "ure"
      ],
      [
        "Ġl",
        "oo"
      ],
      [
        "Ġloo",
        "king"
      ],
      [
        "s",
        "y"
      ],
      [
        "Ġf",
        "r"
      ],
      [
        "Ġn",
        "e"
      ],
      [
        "Ġp",
        "sy"
      ],
      [
        "or",
        "y"
      ],
      [
        "ul",
        "t"
      ],
      [
        "Ġsp",
        "or"
      ],
      [
        "Ġspor",
        "ts"
      ],
      [
        "Ġpsy",
        "c"
      ],
      [
        "Ġm",
        "il"
      ],
      [
        "Ġin",
        "t"
      ],
      [
        "un",
        "n"
      ],
      [
        "an",
        "ce"
      ],
      [
        "Ġgi",
        "ant"
      ],
      [
        "Ġsc",
        "ary"
      ],
      [
        "y",
        "thing"
      ],
      [
        "n",
        "at"
      ],
      [
        "Ġf",
        "ind"
      ],
      [
        "Ġmat",
        "ure"
      ],
      [
        "Ġm",
        "o"
      ],
      [
        "Ġa",
        "m"
      ],
      [
        "it",
        "ary"
      ],
      [
        "Ġmil",
        "itary"
      ],
      [
        "unn",
        "y"
      ],
      [
        "ec",
        "ial"
      ],
      [
        "Ġan",
        "ything"
      ],
      [
        "Ġh",
        "ist"
      ],
      [
        "or",
        "ical"
      ],
      [
        "Ġhist",
        "orical"
      ],
      [
        "u",
        "s"
      ],
      [
        "Ġp",
        "le"
      ],
      [
        "Ġple",
        "ase"
      ],
      [
        "Ġf",
        "unny"
      ],
      [
        "Ġad",
        "ult"
      ],
      [
        "Ġsuper",
        "nat"
      ],
      [
        "ur",
        "al"
      ],
      [
        "Ġsupernat",
        "ural"
      ],
      [
        "ch",
        "i"
      ],
      [
        "Ġc",
        "l"
      ],
      [
        "Ġgame",
        "s"
      ],
      [
        "o",
        "gical"
      ],
      [
        "hol",
        "ogical"
      ],
      [
        "Ġpsyc",
        "hological"
      ],
      [
        "Ġm",
        "ind"
      ],
      [
        "f",
        "er"
      ],
      [
        "Ġa",
        "ction"
      ],
      [
        "Ġ",
        "u"
      ],
      [
        "or",
        "d"
      ],
      [
        "a",
        "g"
      ],
      [
        "Ġre",
        "al"
      ],
      [
        "Ġwor",
        "ld"
      ],
      [
        "Ġfr",
        "om"
      ],
      [
        "Ġ",
        "ke"
      ],
      [
        "Ġst",
        "ory"
      ],
      [
        "a",
        "c"
      ],
      [
        "st",
        "er"
      ],
      [
        "i",
        "ts"
      ],
      [
        "s",
        "hi"
      ],
      [
        "Ġma",
        "g"
      ],
      [
        "Ġp",
        "re"
      ],
      [
        "a",
        "b"
      ],
      [
        "Ġd",
        "at"
      ],
      [
        "Ġo",
        "ld"
      ],
      [
        "Ġs",
        "ki"
      ],
      [
        "en",
        "ce"
      ],
      [
        "Ġski",
        "p"
      ],
      [
        "Ġs",
        "h"
      ],
      [
        "Ġh",
        "or"
      ],
      [
        "Ġs",
        "w"
      ],
      [
        "Ġto",
        "o"
      ],
      [
        "Ġh",
        "igh"
      ],
      [
        "Ġe",
        "x"
      ],
      [
        "c",
        "chi"
      ],
      [
        "Ġsw",
        "ord"
      ],
      [
        "Ġth",
        "in"
      ],
      [
        "t",
        "le"
      ],
      [
        "es",
        "s"
      ],
      [
        "Ġmag",
        "ic"
      ],
      [
        "s",
        "s"
      ],
      [
        "r",
        "or"
      ],
      [
        "a",
        "k"
      ],
      [
        "s",
        "u"
      ],
      [
        "Ġh",
        "ea"
      ],
      [
        "t",
        "er"
      ],
      [
        "Ġc",
        "om"
      ],
      [
        "Ġe",
        "cchi"
      ],
      [
        "Ġrom",
        "ant"
      ],
      [
        "Ġhor",
        "ror"
      ],
      [
        "o",
        "c"
      ],
      [
        "d",
        "e"
      ],
      [
        "ver",
        "se"
      ],
      [
        "Ġromant",
        "ic"
      ],
      [
        "ou",
        "gh"
      ],
      [
        "Ġ",
        "en"
      ],
      [
        "Ġre",
        "verse"
      ],
      [
        "Ġs",
        "ad"
      ],
      [
        "b",
        "e"
      ],
      [
        "Ġmy",
        "ster"
      ],
      [
        "s",
        "p"
      ],
      [
        "Ġdat",
        "ing"
      ],
      [
        "q",
        "u"
      ],
      [
        "j",
        "o"
      ],
      [
        "Ġma",
        "y"
      ],
      [
        "bo",
        "ut"
      ],
      [
        "Ġrobo",
        "t"
      ],
      [
        "Ġg",
        "ore"
      ],
      [
        "o",
        "ther"
      ],
      [
        "v",
        "y"
      ],
      [
        "Ġhea",
        "vy"
      ],
      [
        "Ġe",
        "m"
      ],
      [
        "Ġshow",
        "s"
      ],
      [
        "Ġp",
        "o"
      ],
      [
        "Ġh",
        "as"
      ],
      [
        "Ġsu",
        "sp"
      ],
      [
        "Ġsusp",
        "ense"
      ],
      [
        "Ġmech",
        "a"
      ],
      [
        "Ġa",
        "bout"
      ],
      [
        "Ġfigh",
        "ting"
      ],
      [
        "Ġf",
        "oc"
      ],
      [
        "use",
        "d"
      ],
      [
        "Ġfoc",
        "used"
      ],
      [
        "Ġan",
        "other"
      ],
      [
        "Ġ",
        "arts"
      ],
      [
        "Ġm",
        "art"
      ],
      [
        "ot",
        "ion"
      ],
      [
        "Ġint",
        "ense"
      ],
      [
        "Ġmart",
        "ial"
      ],
      [
        "Ġdr",
        "i"
      ],
      [
        "in",
        "en"
      ],
      [
        "Ġse",
        "inen"
      ],
      [
        "Ġmyster",
        "y"
      ],
      [
        "Ġmay",
        "be"
      ],
      [
        "Ġem",
        "otion"
      ],
      [
        "Ġemotion",
        "al"
      ],
      [
        "Ġw",
        "hol"
      ],
      [
        "es",
        "ome"
      ],
      [
        "Ġwhol",
        "esome"
      ],
      [
        "r",
        "o"
      ],
      [
        "un",
        "en"
      ],
      [
        "Ġold",
        "er"
      ],
      [
        "Ġrom",
        "ance"
      ],
      [
        "s",
        "o"
      ],
      [
        "en",
        "t"
      ],
      [
        "Ġfigh",
        "ts"
      ],
      [
        "Ġsho",
        "unen"
      ],
      [
        "Ġpow",
        "er"
      ],
      [
        "r",
        "i"
      ],
      [
        "e",
        "st"
      ],
      [
        "Ġdri",
        "ven"
      ],
      [
        "Ġpre",
        "fer"
      ],
      [
        "Ġ",
        "qu"
      ],
      [
        "Ġ",
        "on"
      ],
      [
        "Ġw",
        "as"
      ],
      [
        "Ġthin",
        "k"
      ],
      [
        "Ġi",
        "f"
      ],
      [
        "Ġke",
        "ep"
      ],
      [
        "n",
        "e"
      ],
      [
        "e",
        "el"
      ],
      [
        "Ġg",
        "en"
      ],
      [
        "Ġf",
        "eel"
      ],
      [
        "Ġsp",
        "ir"
      ],
      [
        "e",
        "t"
      ],
      [
        "Ġal",
        "so"
      ],
      [
        "a",
        "ku"
      ],
      [
        "ab",
        "ly"
      ],
      [
        "Ġprefer",
        "ably"
      ],
      [
        "ow",
        "n"
      ],
      [
        "Ġ",
        "es"
      ],
      [
        "p",
        "ecial"
      ],
      [
        "Ġes",
        "pecial"
      ],
      [
        "Ġespecial",
        "ly"
      ],
      [
        "Ġreal",
        "ly"
      ],
      [
        "Ġth",
        "ing"
      ],
      [
        "Ġma",
        "in"
      ],
      [
        "er",
        "e"
      ],
      [
        "Ġa",
        "c"
      ],
      [
        "f",
        "e"
      ],
      [
        "Ġf",
        "in"
      ],
      [
        "Ġcl",
        "o"
      ],
      [
        "ou",
        "r"
      ],
      [
        "an",
        "g"
      ],
      [
        "Ġbe",
        "c"
      ],
      [
        "Ġd",
        "e"
      ],
      [
        "Ġl",
        "ess"
      ],
      [
        "'",
        "s"
      ],
      [
        "Ġcom",
        "b"
      ],
      [
        "u",
        "u"
      ],
      [
        "Ġa",
        "f"
      ],
      [
        "Ġg",
        "r"
      ],
      [
        "Ġp",
        "art"
      ],
      [
        "Ġth",
        "an"
      ],
      [
        "Ġaf",
        "ter"
      ],
      [
        "Ġclo",
        "se"
      ],
      [
        "vi",
        "e"
      ],
      [
        "ad",
        "em"
      ],
      [
        "Ġac",
        "adem"
      ],
      [
        "as",
        "s"
      ],
      [
        "st",
        "ly"
      ],
      [
        "Ġgen",
        "re"
      ],
      [
        "Ġ",
        "one"
      ],
      [
        "le",
        "d"
      ],
      [
        "k",
        "o"
      ],
      [
        "Ġsp",
        "ecial"
      ],
      [
        "Ġs",
        "ame"
      ],
      [
        "t",
        "al"
      ],
      [
        "Ġt",
        "e"
      ],
      [
        "k",
        "ai"
      ],
      [
        "Ġre",
        "ason"
      ],
      [
        "Ġj",
        "o"
      ],
      [
        "o",
        "d"
      ],
      [
        "il",
        "l"
      ],
      [
        "Ġmo",
        "vie"
      ],
      [
        "Ġth",
        "ough"
      ],
      [
        "on",
        "g"
      ],
      [
        "Ġli",
        "fe"
      ],
      [
        "Ġ",
        "z"
      ],
      [
        "Ġc",
        "ar"
      ],
      [
        "Ġwh",
        "at"
      ],
      [
        "Ġb",
        "al"
      ],
      [
        "Ġm",
        "ood"
      ],
      [
        "Ġrecommend",
        "ation"
      ],
      [
        "m",
        "on"
      ],
      [
        "o",
        "p"
      ],
      [
        "ic",
        "e"
      ],
      [
        "Ġbl",
        "ood"
      ],
      [
        "Ġ",
        "ar"
      ],
      [
        "Ġl",
        "e"
      ],
      [
        "Ġw",
        "a"
      ],
      [
        "Ġg",
        "ho"
      ],
      [
        "at",
        "e"
      ],
      [
        "l",
        "i"
      ],
      [
        "Ġb",
        "at"
      ],
      [
        "Ġt",
        "w"
      ],
      [
        "n",
        "ts"
      ],
      [
        "y",
        "ou"
      ],
      [
        "Ġn",
        "i"
      ],
      [
        "Ġu",
        "nd"
      ],
      [
        "p",
        "l"
      ],
      [
        "Ġbat",
        "tle"
      ],
      [
        "Ġr",
        "a"
      ],
      [
        "il",
        "e"
      ],
      [
        "Ġm",
        "ome"
      ],
      [
        "gh",
        "t"
      ],
      [
        "Ġt",
        "one"
      ],
      [
        "Ġgi",
        "r"
      ],
      [
        "Ġfeel",
        "s"
      ],
      [
        "u",
        "m"
      ],
      [
        "re",
        "ss"
      ],
      [
        "er",
        "k"
      ],
      [
        "er",
        "o"
      ],
      [
        "Ġli",
        "t"
      ],
      [
        "Ġt",
        "ri"
      ],
      [
        "on",
        "d"
      ],
      [
        "Ġmome",
        "nts"
      ],
      [
        "Ġli",
        "ght"
      ],
      [
        "Ġgir",
        "l"
      ],
      [
        "Ġth",
        "is"
      ],
      [
        "ro",
        "om"
      ],
      [
        "Ġma",
        "gical"
      ],
      [
        "Ġm",
        "u"
      ],
      [
        "ne",
        "y"
      ],
      [
        "Ġj",
        "our"
      ],
      [
        "Ġqu",
        "est"
      ],
      [
        "Ġint",
        "o"
      ],
      [
        "Ġme",
        "n"
      ],
      [
        "Ġcl",
        "ass"
      ],
      [
        "Ġlit",
        "tle"
      ],
      [
        "l",
        "es"
      ],
      [
        "Ġjour",
        "ney"
      ],
      [
        "Ġn",
        "ice"
      ],
      [
        "Ġg",
        "re"
      ],
      [
        "Ġ",
        "3"
      ],
      [
        "Ġspir",
        "its"
      ],
      [
        "d",
        "ent"
      ],
      [
        "Ġstu",
        "dent"
      ],
      [
        "Ġacadem",
        "y"
      ],
      [
        "l",
        "ation"
      ],
      [
        "Ġclass",
        "room"
      ],
      [
        "Ġd",
        "i"
      ],
      [
        "ir",
        "st"
      ],
      [
        "is",
        "ts"
      ],
      [
        "Ġu",
        "p"
      ],
      [
        "Ġd",
        "ep"
      ],
      [
        "Ġst",
        "ill"
      ],
      [
        "oo",
        "dy"
      ],
      [
        "ol",
        "ence"
      ],
      [
        "Ġvi",
        "olence"
      ],
      [
        "Ġbl",
        "oody"
      ],
      [
        "ke",
        "s"
      ],
      [
        "Ġjo",
        "kes"
      ],
      [
        "Ġp",
        "arts"
      ],
      [
        "f",
        "y"
      ],
      [
        "Ġg",
        "oo"
      ],
      [
        "Ġgoo",
        "fy"
      ],
      [
        "Ġf",
        "irst"
      ],
      [
        "Ġtw",
        "ists"
      ],
      [
        "Ġcharact",
        "ers"
      ],
      [
        "shi",
        "p"
      ],
      [
        "Ġmen",
        "tal"
      ],
      [
        "o",
        "ku"
      ],
      [
        "ar",
        "i"
      ],
      [
        "Ġcomb",
        "at"
      ],
      [
        "Ġte",
        "ar"
      ],
      [
        "or",
        "ation"
      ],
      [
        "Ġex",
        "pl"
      ],
      [
        "Ġexpl",
        "oration"
      ],
      [
        "i",
        "re"
      ],
      [
        "Ġsword",
        "s"
      ],
      [
        "Ġre",
        "lation"
      ],
      [
        "Ġrelation",
        "ship"
      ],
      [
        "ep",
        "y"
      ],
      [
        "j",
        "erk"
      ],
      [
        "Ġtear",
        "jerk"
      ],
      [
        "Ġtearjerk",
        "er"
      ],
      [
        "s",
        "ts"
      ],
      [
        "ts",
        "u"
      ],
      [
        "Ġgho",
        "sts"
      ],
      [
        "Ġc",
        "re"
      ],
      [
        "d",
        "ic"
      ],
      [
        "Ġcome",
        "dic"
      ],
      [
        "Ġp",
        "ac"
      ],
      [
        "Ġpac",
        "ing"
      ],
      [
        "Ġfigh",
        "t"
      ],
      [
        "i",
        "z"
      ],
      [
        "y",
        "ed"
      ],
      [
        "Ġcre",
        "epy"
      ],
      [
        "Ġle",
        "an"
      ],
      [
        "Ġd",
        "is"
      ],
      [
        "ress",
        "ing"
      ],
      [
        "Ġdep",
        "ressing"
      ],
      [
        "ar",
        "d"
      ],
      [
        "and",
        "s"
      ],
      [
        "Ġgr",
        "own"
      ],
      [
        "Ġth",
        "ere"
      ],
      [
        "Ġi",
        "d"
      ],
      [
        "ver",
        "y"
      ],
      [
        "en",
        "es"
      ],
      [
        "Ġsc",
        "enes"
      ],
      [
        "Ġgre",
        "at"
      ],
      [
        "Ġen",
        "jo"
      ],
      [
        "Ġenjo",
        "yed"
      ],
      [
        "Ġ",
        "use"
      ],
      [
        "Ġund",
        "er"
      ],
      [
        "Ġo",
        "ther"
      ],
      [
        "Ġworld",
        "s"
      ],
      [
        "ang",
        "les"
      ],
      [
        "Ġtri",
        "angles"
      ],
      [
        "Ġo",
        "ut"
      ],
      [
        "in",
        "ts"
      ],
      [
        "at",
        "su"
      ],
      [
        "Ġmo",
        "stly"
      ],
      [
        "Ġp",
        "l"
      ],
      [
        "Ġpo",
        "ints"
      ],
      [
        "Ġlo",
        "ts"
      ],
      [
        "Ġi",
        "ts"
      ],
      [
        "Ġh",
        "ad"
      ],
      [
        "Ġunder",
        "st"
      ],
      [
        "Ġsu",
        "its"
      ],
      [
        "a",
        "use"
      ],
      [
        "Ġh",
        "and"
      ],
      [
        "Ġbec",
        "ause"
      ],
      [
        "Ġst",
        "r"
      ],
      [
        "is",
        "h"
      ],
      [
        "Ġmu",
        "ch"
      ],
      [
        "Ġi",
        "de"
      ],
      [
        "Ġide",
        "al"
      ],
      [
        "Ġunderst",
        "ands"
      ],
      [
        "i",
        "a"
      ],
      [
        "ke",
        "d"
      ],
      [
        "Ġwor",
        "ked"
      ],
      [
        "k",
        "a"
      ],
      [
        "or",
        "t"
      ],
      [
        "Ġg",
        "a"
      ],
      [
        "Ġbal",
        "ance"
      ],
      [
        "ou",
        "s"
      ],
      [
        "Ġreason",
        "s"
      ],
      [
        "r",
        "y"
      ],
      [
        "Ġwh",
        "ile"
      ],
      [
        "Ġmain",
        "ly"
      ],
      [
        "Ġthing",
        "s"
      ],
      [
        "Ġhand",
        "led"
      ],
      [
        "Ġs",
        "in"
      ],
      [
        "am",
        "p"
      ],
      [
        "li",
        "ke"
      ],
      [
        "Ġdis",
        "like"
      ],
      [
        "Ġre",
        "fer"
      ],
      [
        "Ġi",
        "i"
      ],
      [
        "ac",
        "k"
      ],
      [
        "el",
        "l"
      ],
      [
        "k",
        "y"
      ],
      [
        "u",
        "p"
      ],
      [
        "as",
        "hi"
      ],
      [
        "id",
        "e"
      ],
      [
        "Ġra",
        "ther"
      ],
      [
        "b",
        "or"
      ],
      [
        "Ġh",
        "ero"
      ],
      [
        "i",
        "b"
      ],
      [
        "er",
        "g"
      ],
      [
        "Ġg",
        "ood"
      ],
      [
        "m",
        "o"
      ],
      [
        "Ġs",
        "en"
      ],
      [
        "Ġb",
        "as"
      ],
      [
        "Ġs",
        "hi"
      ],
      [
        "i",
        "g"
      ],
      [
        "ho",
        "od"
      ],
      [
        "Ġc",
        "ould"
      ],
      [
        "Ġen",
        "erg"
      ],
      [
        "Ġenerg",
        "y"
      ],
      [
        "Ġ",
        "v"
      ],
      [
        "ou",
        "nd"
      ],
      [
        "Ġk",
        "o"
      ],
      [
        "t",
        "ch"
      ],
      [
        "it",
        "y"
      ],
      [
        "Ġrefer",
        "ence"
      ],
      [
        "!",
        "!"
      ],
      [
        "igh",
        "bor"
      ],
      [
        "Ġne",
        "ighbor"
      ],
      [
        "j",
        "i"
      ],
      [
        "Ġlo",
        "st"
      ],
      [
        "Ġsin",
        "ce"
      ],
      [
        "w",
        "ay"
      ],
      [
        "Ġne",
        "ar"
      ],
      [
        "i",
        "se"
      ],
      [
        "Ġneighbor",
        "hood"
      ],
      [
        "Ġl",
        "ea"
      ],
      [
        "ke",
        "y"
      ],
      [
        "Ġse",
        "c"
      ],
      [
        "i",
        "f"
      ],
      [
        "on",
        "o"
      ],
      [
        "Ġl",
        "ong"
      ],
      [
        "th",
        "ough"
      ],
      [
        "Ġal",
        "though"
      ],
      [
        "Ġl",
        "ow"
      ],
      [
        "Ġlow",
        "key"
      ],
      [
        "e",
        "ct"
      ],
      [
        "Ġfin",
        "e"
      ],
      [
        "Ġk",
        "ind"
      ],
      [
        "Ġ",
        "x"
      ],
      [
        "h",
        "a"
      ],
      [
        "Ġsec",
        "ond"
      ],
      [
        "ou",
        "n"
      ],
      [
        "Ġf",
        "am"
      ],
      [
        "Ġlea",
        "ve"
      ],
      [
        "Ġcar",
        "e"
      ],
      [
        "en",
        "d"
      ],
      [
        "s",
        "an"
      ],
      [
        "Ġi",
        "m"
      ],
      [
        "g",
        "e"
      ],
      [
        "Ġsho",
        "u"
      ],
      [
        "Ġne",
        "w"
      ],
      [
        "ur",
        "a"
      ],
      [
        "Ġa",
        "way"
      ],
      [
        "Ġt",
        "su"
      ],
      [
        "ho",
        "u"
      ],
      [
        "i",
        "k"
      ],
      [
        "Ġfam",
        "il"
      ],
      [
        "an",
        "o"
      ],
      [
        "Ġof",
        "f"
      ],
      [
        "Ġ",
        "("
      ],
      [
        "as",
        "ing"
      ],
      [
        "Ġspir",
        "it"
      ],
      [
        "v",
        "a"
      ],
      [
        "Ġt",
        "ime"
      ],
      [
        "Ġc",
        "on"
      ],
      [
        "Ġfeel",
        "ing"
      ],
      [
        "ar",
        "u"
      ],
      [
        "am",
        "i"
      ],
      [
        "Ġdr",
        "ag"
      ],
      [
        "Ġdrag",
        "on"
      ],
      [
        "a",
        "w"
      ],
      [
        "o",
        "de"
      ],
      [
        "ur",
        "o"
      ],
      [
        "Ġt",
        "on"
      ],
      [
        "Ġd",
        "own"
      ],
      [
        "ur",
        "n"
      ],
      [
        "a",
        "p"
      ],
      [
        "or",
        "i"
      ],
      [
        "Ġg",
        "et"
      ],
      [
        "t",
        "r"
      ],
      [
        "Ġlean",
        "ing"
      ],
      [
        "Ġp",
        "r"
      ],
      [
        "Ġstr",
        "ong"
      ],
      [
        "g",
        "g"
      ],
      [
        "ar",
        "n"
      ],
      [
        "Ġs",
        "a"
      ],
      [
        "Ġo",
        "va"
      ],
      [
        "Ġma",
        "de"
      ],
      [
        "Ġ",
        "1"
      ],
      [
        "Ġg",
        "u"
      ],
      [
        "Ġw",
        "at"
      ],
      [
        "s",
        "ing"
      ],
      [
        "Ġh",
        "ow"
      ],
      [
        "ib",
        "le"
      ],
      [
        "Ġpo",
        "ss"
      ],
      [
        "Ġo",
        "k"
      ],
      [
        "Ġw",
        "ho"
      ],
      [
        "Ġst",
        "and"
      ],
      [
        "Ġfin",
        "ish"
      ],
      [
        "'",
        "t"
      ],
      [
        "'",
        "m"
      ],
      [
        "Ġon",
        "ly"
      ],
      [
        "i",
        "y"
      ],
      [
        "Ġar",
        "e"
      ],
      [
        "Ġw",
        "o"
      ],
      [
        "Ġs",
        "ound"
      ],
      [
        "Ġch",
        "asing"
      ],
      [
        "Ġposs",
        "ible"
      ],
      [
        "Ġp",
        "at"
      ],
      [
        "i",
        "ar"
      ],
      [
        "Ġfamil",
        "iar"
      ],
      [
        "Ġbec",
        "ome"
      ],
      [
        "t",
        "ers"
      ],
      [
        "Ġb",
        "on"
      ],
      [
        "in",
        "e"
      ],
      [
        "ic",
        "t"
      ],
      [
        "Ġc",
        "op"
      ],
      [
        "Ġt",
        "en"
      ],
      [
        "t",
        "a"
      ],
      [
        "Ġy",
        "u"
      ],
      [
        "oun",
        "c"
      ],
      [
        "if",
        "ic"
      ],
      [
        "Ġg",
        "ot"
      ],
      [
        "Ġt",
        "urn"
      ],
      [
        "Ġst",
        "arts"
      ],
      [
        "Ġbecome",
        "s"
      ],
      [
        "n",
        "ot"
      ],
      [
        "Ġwh",
        "ere"
      ],
      [
        "Ġf",
        "ar"
      ],
      [
        "t",
        "e"
      ],
      [
        "Ġr",
        "u"
      ],
      [
        "Ġid",
        "k"
      ],
      [
        "Ġs",
        "ide"
      ],
      [
        "Ġcom",
        "mon"
      ],
      [
        "Ġbon",
        "us"
      ],
      [
        "o",
        "ff"
      ],
      [
        "t",
        "w"
      ],
      [
        "Ġd",
        "ist"
      ],
      [
        "ut",
        "ion"
      ],
      [
        "Ġp",
        "ul"
      ],
      [
        "Ġset",
        "up"
      ],
      [
        "ec",
        "ution"
      ],
      [
        "Ġcan",
        "not"
      ],
      [
        "Ġex",
        "ecution"
      ],
      [
        "Ġpul",
        "led"
      ],
      [
        "re",
        "ad"
      ],
      [
        "Ġe",
        "p"
      ],
      [
        "ire",
        "d"
      ],
      [
        "i",
        "ence"
      ],
      [
        "k",
        "un"
      ],
      [
        "Ġst",
        "op"
      ],
      [
        "Ġe",
        "ven"
      ],
      [
        "Ġsp",
        "ect"
      ],
      [
        "Ġmat",
        "ters"
      ],
      [
        "ag",
        "e"
      ],
      [
        "ac",
        "le"
      ],
      [
        "Ġnear",
        "ly"
      ],
      [
        "Ġspect",
        "acle"
      ],
      [
        "an",
        "a"
      ],
      [
        "Ġbl",
        "ack"
      ],
      [
        "Ġh",
        "one"
      ],
      [
        "Ġsp",
        "ec"
      ],
      [
        "Ġqu",
        "al"
      ],
      [
        "Ġd",
        "a"
      ],
      [
        "e",
        "en"
      ],
      [
        "Ġwant",
        "ed"
      ],
      [
        "Ġsome",
        "one"
      ],
      [
        "vi",
        "ous"
      ],
      [
        "Ġst",
        "re"
      ],
      [
        "Ġk",
        "ing"
      ],
      [
        "Ġwh",
        "y"
      ],
      [
        "Ġst",
        "ay"
      ],
      [
        "Ġ",
        "very"
      ],
      [
        "Ġa",
        "b"
      ],
      [
        "Ġk",
        "uro"
      ],
      [
        "Ġo",
        "b"
      ],
      [
        "Ġsound",
        "s"
      ],
      [
        "it",
        "e"
      ],
      [
        "ict",
        "ory"
      ],
      [
        "Ġne",
        "ed"
      ],
      [
        "Ġkeep",
        "s"
      ],
      [
        "Ġru",
        "in"
      ],
      [
        "Ġqual",
        "ity"
      ],
      [
        "in",
        "ction"
      ],
      [
        "Ġb",
        "o"
      ],
      [
        "Ġdist",
        "inction"
      ],
      [
        "Ġstay",
        "ed"
      ],
      [
        "ke",
        "n"
      ],
      [
        "Ġhone",
        "stly"
      ],
      [
        "Ġspec",
        "ific"
      ],
      [
        "h",
        "en"
      ],
      [
        "Ġa",
        "t"
      ],
      [
        "Ġlo",
        "sing"
      ],
      [
        "Ġal",
        "mo"
      ],
      [
        "Ġalmo",
        "st"
      ],
      [
        "Ġth",
        "read"
      ],
      [
        "Ġl",
        "ate"
      ],
      [
        "Ġb",
        "ounc"
      ],
      [
        "Ġt",
        "ired"
      ],
      [
        "Ġbe",
        "en"
      ],
      [
        "Ġbe",
        "tw"
      ],
      [
        "Ġlate",
        "ly"
      ],
      [
        "Ġbounc",
        "ing"
      ],
      [
        "Ġbetw",
        "een"
      ],
      [
        "Ġb",
        "it"
      ],
      [
        "w",
        "ard"
      ],
      [
        "Ġ",
        "&"
      ],
      [
        "Ġb",
        "y"
      ],
      [
        "Ġafter",
        "ward"
      ],
      [
        "Ġno",
        "ne"
      ],
      [
        "in",
        "es"
      ],
      [
        "Ġd",
        "id"
      ],
      [
        "Ġcomb",
        "ines"
      ],
      [
        "Ġton",
        "ed"
      ],
      [
        "Ġcop",
        "y"
      ],
      [
        "Ġob",
        "vious"
      ],
      [
        "Ġc",
        "ame"
      ],
      [
        "ad",
        "ictory"
      ],
      [
        "is",
        "ode"
      ],
      [
        "Ġcon",
        "tr"
      ],
      [
        "Ġep",
        "isode"
      ],
      [
        "Ġcontr",
        "adictory"
      ],
      [
        "Ġh",
        "a"
      ],
      [
        "ic",
        "k"
      ],
      [
        "Ġk",
        "a"
      ],
      [
        "Ġsh",
        "ort"
      ],
      [
        "ut",
        "su"
      ],
      [
        "Ġe",
        "very"
      ],
      [
        "er",
        "ent"
      ],
      [
        "ff",
        "erent"
      ],
      [
        "Ġde",
        "al"
      ],
      [
        "Ġdi",
        "fferent"
      ],
      [
        "!",
        ","
      ],
      [
        "in",
        "c"
      ],
      [
        "p",
        "ort"
      ],
      [
        "Ġas",
        "king"
      ],
      [
        "Ġthin",
        "king"
      ],
      [
        "Ġim",
        "port"
      ],
      [
        "Ġimport",
        "ant"
      ],
      [
        "Ġp",
        "ay"
      ],
      [
        "Ġe",
        "arn"
      ],
      [
        "tch",
        "ed"
      ],
      [
        "Ġok",
        "ay"
      ],
      [
        "Ġpat",
        "ience"
      ],
      [
        "Ġstre",
        "tched"
      ],
      [
        "Ġpay",
        "off"
      ],
      [
        "Ġearn",
        "ed"
      ],
      [
        "Ġw",
        "ell"
      ],
      [
        "Ġbal",
        "l"
      ],
      [
        "u",
        "e"
      ],
      [
        "j",
        "ou"
      ],
      [
        "a",
        "ki"
      ],
      [
        "amp",
        "le"
[...]
