{
  "version": "1.0",
  "truncation": null,
  "padding": null,
  "added_tokens": [
    {
      "id": 0,
      "content": "<PAD>",
      "single_word": false,
      "lstrip": false,
      "rstrip": false,
      "normalized": false,
      "special": true
    },
    {
      "id": 1,
      "content": "<UNK>",
      "single_word": false,
      "lstrip": false,
      "rstrip": false,
      "normalized": false,
      "special": true
    }
  ],
  "normalizer": null,
  "pre_tokenizer": {
    "type": "ByteLevel",
    "add_prefix_space": true,
    "trim_offsets": true,
    "use_regex": true
  },
  "post_processor": null,
  "decoder": {
    "type": "ByteLevel",
    "add_prefix_space": true,
    "trim_offsets": true,
    "use_regex": true
  },
  "model": {
    "type": "BPE",
    "dropout": null,
    "unk_token": "<UNK>",
    "continuing_subword_prefix": null,
    "end_of_word_suffix": null,
    "fuse_unk": false,
    "byte_fallback": false,
    "ignore_merges": false,
    "vocab": {
      "<PAD>": 0,
      "<UNK>": 1,
      "!": 2,
      "\"": 3,
      "#": 4,
      "$": 5,
      "%": 6,
      "&": 7,
      "'": 8,
      "(": 9,
      ")": 10,
      "*": 11,
      "+": 12,
      ",": 13,
      "-": 14,
      ".": 15,
      "/": 16,
      "0": 17,
      "1": 18,
      "2": 19,
      "3": 20,
      "4": 21,
      "5": 22,
      "6": 23,
      "7": 24,
      "8": 25,
      "9": 26,
      ":": 27,
      ";": 28,
      "<": 29,
      "=": 30,
      ">": 31,
      "?": 32,
      "@": 33,
      "A": 34,
      "B": 35,
      "C": 36,
      "D": 37,
      "E": 38,
      "F": 39,
      "G": 40,
      "H": 41,
      "I": 42,
      "J": 43,
      "K": 44,
      "L": 45,
      "M": 46,
      "N": 47,
      "O": 48,
      "P": 49,
      "Q": 50,
      "R": 51,
      "S": 52,
      "T": 53,
      "U": 54,
      "V": 55,
      "W": 56,
      "X": 57,
      "Y": 58,
      "Z": 59,
      "[": 60,
      "\\": 61,
      "]": 62,
      "^": 63,
      "_": 64,
      "`": 65,
      "a": 66,
      "b": 67,
      "c": 68,
      "d": 69,
      "e": 70,
      "f": 71,
      "g": 72,
      "h": 73,
      "i": 74,
      "j": 75,
      "k": 76,
      "l": 77,
      "m": 78,
      "n": 79,
      "o": 80,
      "p": 81,
      "q": 82,
      "r": 83,
      "s": 84,
      "t": 85,
      "u": 86,
      "v": 87,
      "w": 88,
      "x": 89,
      "y": 90,
      "z": 91,
      "{": 92,
      "|": 93,
      "}": 94,
      "~": 95,
      "¡": 96,
      "¢": 97,
      "£": 98,
      "¤": 99,
      "¥": 100,
      "¦": 101,
      "§": 102,
      "¨": 103,
      "©": 104,
      "ª": 105,
      "«": 106,
      "¬": 107,
      "®": 108,
      "¯": 109,
      "°": 110,
      "±": 111,
      "²": 112,
      "³": 113,
      "´": 114,
      "µ": 115,
      "¶": 116,
      "·": 117,
      "¸": 118,
      "¹": 119,
      "º": 120,
      "»": 121,
      "¼": 122,
      "½": 123,
      "¾": 124,
      "¿": 125,
      "À": 126,
      "Á": 127,
      "Â": 128,
      "Ã": 129,
      "Ä": 130,
      "Å": 131,
      "Æ": 132,
      "Ç": 133,
      "È": 134,
      "É": 135,
      "Ê": 136,
      "Ë": 137,
      "Ì": 138,
      "Í": 139,
      "Î": 140,
      "Ï": 141,
      "Ð": 142,
      "Ñ": 143,
      "Ò": 144,
      "Ó": 145,
      "Ô": 146,
      "Õ": 147,
      "Ö": 148,
      "×": 149,
      "Ø": 150,
      "Ù": 151,
      "Ú": 152,
      "Û": 153,
      "Ü": 154,
      "Ý": 155,
      "Þ": 156,
      "ß": 157,
      "à": 158,
      "á": 159,
      "â": 160,
      "ã": 161,
      "ä": 162,
      "å": 163,
      "æ": 164,
      "ç": 165,
      "è": 166,
      "é": 167,
      "ê": 168,
      "ë": 169,
      "ì": 170,
      "í": 171,
      "î": 172,
      "ï": 173,
      "ð": 174,
      "ñ": 175,
      "ò": 176,
      "ó": 177,
      "ô": 178,
      "õ": 179,
      "ö": 180,
      "÷": 181,
      "ø": 182,
      "ù": 183,
      "ú": 184,
      "û": 185,
      "ü": 186,
      "ý": 187,
      "þ": 188,
      "ÿ": 189,
      "Ā": 190,
      "ā": 191,
      "Ă": 192,
      "ă": 193,
      "Ą": 194,
      "ą": 195,
      "Ć": 196,
      "ć": 197,
      "Ĉ": 198,
      "ĉ": 199,
      "Ċ": 200,
      "ċ": 201,
      "Č": 202,
      "č": 203,
      "Ď": 204,
      "ď": 205,
      "Đ": 206,
      "đ": 207,
      "Ē": 208,
      "ē": 209,
      "Ĕ": 210,
      "ĕ": 211,
      "Ė": 212,
      "ė": 213,
      "Ę": 214,
      "ę": 215,
      "Ě": 216,
      "ě": 217,
      "Ĝ": 218,
      "ĝ": 219,
      "Ğ": 220,
      "ğ": 221,
      "Ġ": 222,
      "ġ": 223,
      "Ģ": 224,
      "ģ": 225,
      "Ĥ": 226,
      "ĥ": 227,
      "Ħ": 228,
      "ħ": 229,
      "Ĩ": 230,
      "ĩ": 231,
      "Ī": 232,
      "ī": 233,
      "Ĭ": 234,
      "ĭ": 235,
      "Į": 236,
      "į": 237,
      "İ": 238,
      "ı": 239,
      "Ĳ": 240,
      "ĳ": 241,
      "Ĵ": 242,
      "ĵ": 243,
      "Ķ": 244,
      "ķ": 245,
      "ĸ": 246,
      "Ĺ": 247,
      "ĺ": 248,
      "Ļ": 249,
      "ļ": 250,
      "Ľ": 251,
      "ľ": 252,
      "Ŀ": 253,
      "ŀ": 254,
      "Ł": 255,
      "ł": 256,
      "Ń": 257,
      "Ġa": 258,
      "Ġt": 259,
      "Ġs": 260,
      "in": 261,
      "er": 262,
      "Ġw": 263,
      "me": 264,
      "or": 265,
      "ing": 266,
      "an": 267,
      "Ġi": 268,
      "Ġp": 269,
      "on": 270,
      "at": 271,
      "ĠI": 272,
      "he": 273,
      "Ġb": 274,
      "ou": 275,
      "le": 276,
      "Ġan": 277,
      "ar": 278,
      "th": 279,
      "en": 280,
      "Ġf": 281,
      "as": 282,
      "ke": 283,
      "Ġc": 284,
      "ic": 285,
      "Ġm": 286,
      "al": 287,
      "li": 288,
      "st": 289,
      "Ġn": 290,
      "Ġis": 291,
      "Ġand": 292,
      "Ġno": 293,
      "Ġr": 294,
      "Ġthe": 295,
      "Ġli": 296,
      "Ġd": 297,
      "Ġo": 298,
      "ho": 299,
      "Ġg": 300,
      "ant": 301,
      "ts": 302,
      "ur": 303,
      "Ġst": 304,
      "Ġh": 305,
      "ut": 306,
      "ĠS": 307,
      "ĠT": 308,
      "ed": 309,
      "Ġth": 310,
      "am": 311,
      "ith": 312,
      "Ġwith": 313,
      "Ġbut": 314,
      "thing": 315,
      "Ġlike": 316,
      "ome": 317,
      "ac": 318,
      "ter": 319,
      "Ġme": 320,
      "ld": 321,
      "les": 322,
      "ĠM": 323,
      "ve": 324,
      "il": 325,
      "om": 326,
      "lo": 327,
      "Ġof": 328,
      "ĠA": 329,
      "ti": 330,
      "vi": 331,
      "ro": 332,
      "Ġon": 333,
      "Ġwant": 334,
      "Ġnot": 335,
      "ĠN": 336,
      "ec": 337,
      "ay": 338,
      "ĠThe": 339,
      "ĠK": 340,
      "Ġin": 341,
      "ep": 342,
      "us": 343,
      "ĠG": 344,
      "ĠC": 345,
      "et": 346,
      "Ġj": 347,
      "es": 348,
      "her": 349,
      "ical": 350,
      "ore": 351,
      "ri": 352,
      "ust": 353,
      "ven": 354,
      "how": 355,
      "Ġch": 356,
      "Ġshow": 357,
      "Ġpo": 358,
      "ag": 359,
      "Ġar": 360,
      "men": 361,
      "ĠH": 362,
      "hi": 363,
      "ll": 364,
      "one": 365,
      "ime": 366,
      "Ġwor": 367,
      "ĠNo": 368,
      "Ġu": 369,
      "ĠP": 370,
      "out": 371,
      "Ġfor": 372,
      "ive": 373,
      "Ġto": 374,
      "ama": 375,
      "less": 376,
      "Ġif": 377,
      "ould": 378,
      "ything": 379,
      "Ġ\"": 380,
      "Ġsome": 381,
      "Ġwould": 382,
      "Ġit": 383,
      "Ġfin": 384,
      "Ġhas": 385,
      "Ġthat": 386,
      "Ġjust": 387,
      "Ġe": 388,
      "Ġsp": 389,
      "ch": 390,
      "tion": 391,
      "rama": 392,
      "ĠL": 393,
      "ig": 394,
      "Ġdrama": 395,
      "Ġat": 396,
      "Ġvi": 397,
      "Ġtone": 398,
      "att": 399,
      "oo": 400,
      "our": 401,
      "ki": 402,
      "Ġre": 403,
      "Ġbatt": 404,
      "ast": 405,
      "ai": 406,
      "ĠD": 407,
      "ce": 408,
      "fe": 409,
      "oun": 410,
      "Ġsc": 411,
      "Ġlife": 412,
      "it": 413,
      "Ġtr": 414,
      "per": 415,
      "ĠB": 416,
      "ery": 417,
      "urn": 418,
      "here": 419,
      "Ġke": 420,
      "Ġkeep": 421,
      "ss": 422,
      "shi": 423,
      "ked": 424,
      "de": 425,
      "Ġmat": 426,
      "ati": 427,
      "Ġpac": 428,
      "Ġpacing": 429,
      "ure": 430,
      "igh": 431,
      "ĠAn": 432,
      "Ġanime": 433,
      "Ġint": 434,
      "ge": 435,
      "ick": 436,
      "orts": 437,
      "ol": 438,
      "Ġsports": 439,
      "ting": 440,
      "ill": 441,
      "ourn": 442,
      "ass": 443,
      "im": 444,
      "ist": 445,
      "and": 446,
      "ters": 447,
      "Ġvib": 448,
      "eep": 449,
      "id": 450,
      "you": 451,
      "Ġcom": 452,
      "Ġlo": 453,
      "ily": 454,
      "ment": 455,
      "Ġworld": 456,
      "ak": 457,
      "Ġstor": 458,
      "ens": 459,
      "ĠHar": 460,
      "row": 461,
      "ib": 462,
      "ber": 463,
      "Ġup": 464,
      "ake": 465,
      "ase": 466,
      "Ġgrow": 467,
      "art": 468,
      "Ġwar": 469,
      "ĠIs": 470,
      "qu": 471,
      "Ġ/": 472,
      "Ġbattles": 473,
      "lus": 474,
      "ĠAf": 475,
      "ere": 476,
      "gle": 477,
      "atch": 478,
      "rop": 479,
      "king": 480,
      "ible": 481,
      "oid": 482,
      "hell": 483,
      "ĠCan": 484,
      "mber": 485,
      "arts": 486,
      "ĠAfter": 487,
      "ather": 488,
      "ack": 489,
      "ĠMore": 490,
      "ĠNot": 491,
      "ĠLoo": 492,
      "urns": 493,
      "icky": 494,
      "Ġbe": 495,
      "lease": 496,
      "ĠSome": 497,
      "tered": 498,
      "ĠPlease": 499,
      "member": 500,
      "Ġthan": 501,
      "ĠKeep": 502,
      "agg": 503,
      "ounc": 504,
      "ĠHard": 505,
      "ĠLooking": 506,
      "bout": 507,
      "kay": 508,
      "nless": 509,
      "void": 510,
      "Ġless": 511,
      "Ġyou": 512,
      "Ġam": 513,
      "Ġas": 514,
      "Ġall": 515,
      "Ġabout": 516,
      "Ġavoid": 517,
      "Ġtit": 518,
      "Ġturns": 519,
      "Ġtagg": 520,
      "Ġski": 521,
      "Ġsim": 522,
      "Ġshell": 523,
      "Ġwhere": 524,
      "Ġwatch": 525,
      "Ġide": 526,
      "Ġpass": 527,
      "Ġpart": 528,
      "Ġplus": 529,
      "Ġpicky": 530,
      "Ġbounc": 531,
      "Ġanything": 532,
      "Ġangle": 533,
      "entered": 534,
      "asing": 535,
      "Ġcentered": 536,
      "Ġmore": 537,
      "Ġmake": 538,
      "Ġrec": 539,
      "Ġrather": 540,
      "Ġdrop": 541,
      "Ġokay": 542,
      "Ġgive": 543,
      "Ġstill": 544,
      "Ġstarts": 545,
      "Ġthere": 546,
      "Ġwithout": 547,
      "Ġliked": 548,
      "ilar": 549,
      "ommen": 550,
      "Ġoff": 551,
      "ĠGive": 552,
      "Ġchasing": 553,
      "Ġposs": 554,
      "Ġart": 555,
      "Ġworked": 556,
      "Ġunless": 557,
      "Ġsomething": 558,
      "Ġfind": 559,
      "Ġfine": 560,
      "Ġeven": 561,
      "Ġremember": 562,
      "Ġmatters": 563,
      "ĠAnything": 564,
      "Ġinto": 565,
      "Ġvibe": 566,
      "ĠSomething": 567,
      "Ġtitle": 568,
      "Ġtagged": 569,
      "Ġskip": 570,
      "Ġsimilar": 571,
      "Ġideal": 572,
      "Ġbounced": 573,
      "Ġrecommen": 574,
      "Ġpossible": 575,
      "Ġrecommend": 576,
      "Ġqu": 577,
      "Ġset": 578,
      "Ġsetting": 579,
      "ation": 580,
      "Ġad": 581,
      "od": 582,
      "Ġcast": 583,
      "ĠR": 584,
      "lit": 585,
      "ship": 586,
      "ther": 587,
      "Ġte": 588,
      "sp": 589,
      "Ġsu": 590,
      "antas": 591,
      "antasy": 592,
      "Ġhe": 593,
      "Ġfantasy": 594,
      "ob": 595,
      "Ġrom": 596,
      "val": 597,
      "orical": 598,
      "Ġhist": 599,
      "Ġhistorical": 600,
      "urvi": 601,
      "end": 602,
      "mo": 603,
      "urvival": 604,
      "Ġsurvival": 605,
      "ov": 606,
      "Ġstory": 607,
      "ond": 608,
      "low": 609,
      "un": 610,
      "ament": 611,
      "Ġmag": 612,
      "ournament": 613,
      "amily": 614,
      "Ġslow": 615,
      "Ġhand": 616,
      "Ġtournament": 617,
      "ĠF": 618,
      "Ġfamily": 619,
      "eri": 620,
      "Ġcho": 621,
      "is": 622,
      "ense": 623,
      "obo": 624,
      "yst": 625,
      "ent": 626,
      "venge": 627,
      "Ġstr": 628,
      "Ġpolit": 629,
      "riend": 630,
      "ark": 631,
      "ystery": 632,
      "Ġfriend": 633,
      "Ġchan": 634,
      "Ġfriendship": 635,
      "Ġtime": 636,
      "Ġmystery": 637,
      "host": 638,
      "Ġteam": 639,
      "ĠO": 640,
      "um": 641,
      "cho": 642,
      "ame": 643,
      "Ġghost": 644,
      "Ġgrown": 645,
      "Ġfigh": 646,
      "sy": 647,
      "Ġtra": 648,
      "Ġdark": 649,
      "ĠW": 650,
      "Ġac": 651,
      "Ġarts": 652,
      "antic": 653,
      "Ġrobo": 654,
      "sycho": 655,
      "Ġromantic": 656,
      "re": 657,
      "wer": 658,
      "log": 659,
      "Ġgri": 660,
      "ural": 661,
      "Ġbattle": 662,
      "Ġpsycho": 663,
      "ames": 664,
      "logical": 665,
      "Ġpsychological": 666,
      "Ġmech": 667,
      "em": 668,
      "Ġgames": 669,
      "arac": 670,
      "Ġcharac": 671,
      "ary": 672,
      "for": 673,
      "Ġpower": 674,
      "ture": 675,
      "atural": 676,
      "natural": 677,
      "pernatural": 678,
      "Ġsupernatural": 679,
      "ok": 680,
      "ance": 681,
      "dy": 682,
      "Ġstu": 683,
      "fi": 684,
      "nce": 685,
      "usic": 686,
      "Ġmusic": 687,
      "ul": 688,
      "ab": 689,
      "ole": 690,
      "av": 691,
      "ĠY": 692,
      "Ġmagic": 693,
      "olence": 694,
      "kai": 695,
      "ice": 696,
      "venture": 697,
      "Ġsci": 698,
      "ort": 699,
      "Ġviolence": 700,
      "Ġcome": 701,
      "Ġcomedy": 702,
      "Ġheav": 703,
      "Ġheavy": 704,
      "ate": 705,
      "lood": 706,
      "ap": 707,
      "jo": 708,
      "ug": 709,
      "ĠE": 710,
      "el": 711,
      "lice": 712,
      "other": 713,
      "Ġblood": 714,
      "ult": 715,
      "Ġadventure": 716,
      "Ġslice": 717,
      "ansp": 718,
      "Ġanother": 719,
      "Ġtransp": 720,
      "orted": 721,
      "Ġtransported": 722,
      "Ġaction": 723,
      "ue": 724,
      "Ġadult": 725,
      "ĠSh": 726,
      "ror": 727,
      "uu": 728,
      "ĠMo": 729,
      "orror": 730,
      "ine": 731,
      "tsu": 732,
      "ous": 733,
      "op": 734,
      "ekai": 735,
      "Ġhorror": 736,
      "Ġhigh": 737,
      "ir": 738,
      "ces": 739,
      "ayb": 740,
      "ken": 741,
      "ece": 742,
      "Ġpayb": 743,
      "Ġpayback": 744,
      "Ġother": 745,
      "sen": 746,
      "iece": 747,
      "ray": 748,
      "oving": 749,
      "Ġmoving": 750,
      "Ġkeeps": 751,
      "Ġble": 752,
      "Ġatmo": 753,
      "sphere": 754,
      "Ġbleak": 755,
      "Ġatmosphere": 756,
      "ound": 757,
      "ind": 758,
      "hool": 759,
      "Ġschool": 760,
      "Ġbet": 761,
      "Ġda": 762,
      "Ġburn": 763,
      "rayal": 764,
      "Ġbetrayal": 765,
      "anked": 766,
      "Ġranked": 767,
      "iet": 768,
      "Ġisekai": 769,
      "my": 770,
      "Ġquiet": 771,
      "Ġdaily": 772,
      "Ġrevenge": 773,
      "esper": 774,
      "esperate": 775,
      "ong": 776,
      "Ġdesperate": 777,
      "Ġgrowing": 778,
      "Ġfound": 779,
      "ft": 780,
      "ace": 781,
      "day": 782,
      "Ġarc": 783,
      "Ġpati": 784,
      "Ġpatient": 785,
      "Ġfights": 786,
      "econd": 787,
      "oc": 788,
      "uz": 789,
      "ices": 790,
      "Ġghosts": 791,
      "ĠJ": 792,
      "emp": 793,
      "abb": 794,
      "ty": 795,
      "ood": 796,
      "very": 797,
      "Ġback": 798,
      "stabb": 799,
      "Ġevery": 800,
      "Ġbackstabb": 801,
      "Ġeveryday": 802,
      "Ġbackstabbing": 803,
      "Ġmature": 804,
      "Ġred": 805,
      "emption": 806,
      "Ġredemption": 807,
      "eriod": 808,
      "ord": 809,
      "ops": 810,
      "Ġchosen": 811,
      "Ġpiece": 812,
      "Ġperiod": 813,
      "rig": 814,
      "time": 815,
      "Ġwartime": 816,
      "Ġchoices": 817,
      "line": 818,
      "elf": 819,
      "Ġloops": 820,
      "Ġtimeline": 821,
      "tial": 822,
      "onement": 823,
      "Ġatonement": 824,
      "isc": 825,
      "oft": 826,
      "Ġsoft": 827,
      "aling": 828,
      "Ġhealing": 829,
      "est": 830,
      "Ġstrong": 831,
      "Ġfriendships": 832,
      "ics": 833,
      "artial": 834,
      "Ġmood": 835,
      "Ġgrim": 836,
      "Ġcharacter": 837,
      "Ġmartial": 838,
      "ojo": 839,
      "Ġage": 840,
      "Ġcoming": 841,
      "Ġself": 842,
      "Ġdisc": 843,
      "overy": 844,
      "Ġdiscovery": 845,
      "ving": 846,
      "uzz": 847,
      "ion": 848,
      "vel": 849,
      "ei": 850,
      "ĠSp": 851,
      "Ġsecond": 852,
      "Ġchances": 853,
      "Ġsol": 854,
      "Ġpuzz": 855,
      "uma": 856,
      "Ġsolving": 857,
      "Ġpuzzle": 858,
      "ff": 859,
      "iri": 860,
      "tive": 861,
      "ourt": 862,
      "ies": 863,
      "gh": 864,
      "rigue": 865,
      "Ġbond": 866,
      "Ġbonding": 867,
      "vie": 868,
      "Ġintrigue": 869,
      "Ġpolitical": 870,
      "ght": 871,
      "Ġcourt": 872,
      "Ġpolitics": 873,
      "Ġ2": 874,
      "Ġwho": 875,
      "lesome": 876,
      "Ġwholesome": 877,
      "ective": 878,
      "etective": 879,
      "ĠSt": 880,
      "Ġdojo": 881,
      "Ġtense": 882,
      "Ġgore": 883,
      "ugg": 884,
      "its": 885,
      "Ġstrugg": 886,
      "Ġstruggles": 887,
      "ging": 888,
      "Ġpast": 889,
      "erious": 890,
      "Ġchanging": 891,
      "Ġbro": 892,
      "Ġmind": 893,
      "Ġtrust": 894,
      "Ġbroken": 895,
      "Ġstuff": 896,
      "iant": 897,
      "Ġserious": 898,
      "Ġoper": 899,
      "Ġspace": 900,
      "Ġopera": 901,
      "dol": 902,
      "eld": 903,
      "word": 904,
      "Ġtrauma": 905,
      "Ġbattlefi": 906,
      "Ġbattlefield": 907,
      "ence": 908,
      "Ġsuits": 909,
      "eti": 910,
      "Ġgiant": 911,
      "Ġrobots": 912,
      "Ġtravel": 913,
      "wist": 914,
      "Ġtwist": 915,
      "Ġtwists": 916,
      "ĠV": 917,
      "ĠMovie": 918,
      "words": 919,
      "irits": 920,
      "yal": 921,
      "Ġemo": 922,
      "tional": 923,
      "yalty": 924,
      "Ġemotional": 925,
      "ker": 926,
      "Ġdetective": 927,
      "hou": 928,
      "ĠU": 929,
      "Ġspirits": 930,
      "Ġshows": 931,
      "Ġrobot": 932,
      "Ġcre": 933,
      "Ġloyalty": 934,
      "Ġcrew": 935,
      "ech": 936,
      "rap": 937,
      "Ġswords": 938,
      "Ġquick": 939,
      "iction": 940,
      "Ġlight": 941,
      "uture": 942,
      "lot": 943,
      "peti": 944,
      "Ġidol": 945,
      "Ġcompeti": 946,
      "Ġcompetition": 947,
      "form": 948,
      "Ġvenge": 949,
      "Ġplot": 950,
      "Ġvengeance": 951,
      "ĠMa": 952,
      "Ġcomfor": 953,
      "Ġcomforting": 954,
      "Ġfiction": 955,
      "Ġscience": 956,
      "Ġtech": 957,
      "Ġfuture": 958,
      "nt": 959,
      "oku": 960,
      "live": 961,
      "Ġmecha": 962,
      "Ġmourn": 963,
      "Ġmourning": 964,
      "Ġstay": 965,
      "ef": 966,
      "Ġalive": 967,
      "Ġstaying": 968,
      "enes": 969,
      "stig": 970,
      "vestig": 971,
      "vestigation": 972,
      "rill": 973,
      "act": 974,
      "Ġscary": 975,
      "bat": 976,
      "Ġfast": 977,
      "oke": 978,
      "Ġthrill": 979,
      "Ġthriller": 980,
      "Ġment": 981,
      "Ġmental": 982,
      "Ġinvestigation": 983,
      "pense": 984,
      "Ġsus": 985,
      "Ġsuspense": 986,
      "erform": 987,
      "Ġstories": 988,
      "Ġperform": 989,
      "Ġperforming": 990,
      "Ġloss": 991,
      "hic": 992,
      "ster": 993,
      "Ġtact": 994,
      "Ġtactical": 995,
      "Ġquest": 996,
      "Ġjoke": 997,
      "Ġbloody": 998,
      "Ġjokes": 999,
      "jer": 1000,
      "arjer": 1001,
      "Ġgrap": 1002,
      "Ġtearjer": 1003,
      "Ġgraphic": 1004,
      "Ġtearjerker": 1005,
      "onster": 1006,
      "ad": 1007,
      "su": 1008,
      "ari": 1009,
      "Ġscenes": 1010,
      "Ġfight": 1011,
      "Ġband": 1012,
      "Ġtens": 1013,
      "Ġtension": 1014,
      "Ġfoc": 1015,
      "used": 1016,
      "Ġcombat": 1017,
      "Ġfocused": 1018,
      "lation": 1019,
      "ating": 1020,
      "Ġrelation": 1021,
      "Ġrelationship": 1022,
      "Ġpowers": 1023,
      "Ġ'": 1024,
      "ey": 1025,
      "Ġvibes": 1026,
      "Ġdating": 1027,
      "litary": 1028,
      "Ġgrief": 1029,
      "ilitary": 1030,
      "Ġmilitary": 1031,
      "eg": 1032,
      "Ġlove": 1033,
      "fy": 1034,
      "Ġgoo": 1035,
      "Ġgoofy": 1036,
      "Ġmonster": 1037,
      "Ġromance": 1038,
      "dent": 1039,
      "Ġstudent": 1040,
      "lor": 1041,
      "lass": 1042,
      "Ġcharacters": 1043,
      "unn": 1044,
      "reep": 1045,
      "Ġcreep": 1046,
      "Ġcreepy": 1047,
      "ĠZ": 1048,
      "aku": 1049,
      "Ġworlds": 1050,
      "Ġmagical": 1051,
      "xp": 1052,
      "ers": 1053,
      "unny": 1054,
      "Ġarmy": 1055,
      "Ġexp": 1056,
      "loration": 1057,
      "Ġexploration": 1058,
      "Ġjourn": 1059,
      "Ġjourney": 1060,
      "Ġfunny": 1061,
      "ade": 1062,
      "ĠCh": 1063,
      "ĠSe": 1064,
      "Ġclass": 1065,
      "room": 1066,
      "Ġclassroom": 1067,
      "lder": 1068,
      "Ġolder": 1069,
      "ĠTen": 1070,
      "ial": 1071,
      "og": 1072,
      "ĠSen": 1073,
      "ĠBl": 1074,
      "yuu": 1075,
      "ecial": 1076,
      "ĠSpecial": 1077,
      "ot": 1078,
      "ĠIn": 1079,
      "ĠII": 1080,
      "ĠMon": 1081,
      "ademy": 1082,
      "ha": 1083,
      "Ġacademy": 1084,
      "ik": 1085,
      "ĠGun": 1086,
      "irl": 1087,
      "ain": 1088,
      "ouk": 1089,
      "ĠSu": 1090,
      "ĠGirl": 1091,
      "az": 1092,
      "uk": 1093,
      "yo": 1094,
      "Ġ(": 1095,
      "hen": 1096,
      "ĠShi": 1097,
      "ĠTo": 1098,
      "ĠPr": 1099,
      "ĠHe": 1100,
      "atsu": 1101,
      "ami": 1102,
      "ĠDe": 1103,
      "ight": 1104,
      "ĠOn": 1105,
      "ori": 1106,
      "ĠAr": 1107,
      "ĠDr": 1108,
      "os": 1109,
      "ĠNe": 1110,
      "ĠTe": 1111,
      "ĠLo": 1112,
      "ĠAnge": 1113,
      "den": 1114,
      "ĠShin": 1115,
      "ra": 1116,
      "Ġ1": 1117,
      "atari": 1118,
      "ĠMi": 1119,
      "ĠWar": 1120,
      "emon": 1121,
      "ara": 1122,
      "ĠKid": 1123,
      "ess": 1124,
      "ĠDor": 1125,
      "man": 1126,
      "ver": 1127,
      "ashi": 1128,
      "ĠKi": 1129,
      "ĠKo": 1130,
      "ĠAnim": 1131,
      "ogatari": 1132,
      "ĠPrin": 1133,
      "ji": 1134,
      "Ġ-": 1135,
      "all": 1136,
      "ĠBe": 1137,
      "umi": 1138,
      "Ġ0": 1139,
      "ĠMahou": 1140,
      "egend": 1141,
      "ĠMonogatari": 1142,
      "ĠAnimation": 1143,
      "dam": 1144,
      "ia": 1145,
      "ĠKen": 1146,
      "ĠLegend": 1147,
      "chi": 1148,
      "jin": 1149,
      "uus": 1150,
      "ya": 1151,
      "ang": 1152,
      "ĠSpecials": 1153,
      "te": 1154,
      "ĠChi": 1155,
      "ĠGundam": 1156,
      "ĠAngel": 1157,
      "Ġ3": 1158,
      "ĠTsu": 1159,
      "ĠDai": 1160,
      "ĠRe": 1161,
      "ka": 1162,
      "ĠMe": 1163,
      "ĠGe": 1164,
      "ĠHun": 1165,
      "ma": 1166,
      "ĠX": 1167,
      "aru": 1168,
      "ĠAd": 1169,
      "agon": 1170,
      "ĠSenshi": 1171,
      "oy": 1172,
      "up": 1173,
      "ero": 1174,
      "ĠTai": 1175,
      "ĠMag": 1176,
      "chan": 1177,
      "ĠRobo": 1178,
      "ĠShou": 1179,
      "!!": 1180,
      "ko": 1181,
      "ow": 1182,
      "ĠSei": 1183,
      "ĠMeg": 1184,
      "ĠLove": 1185,
      "ile": 1186,
      "cess": 1187,
      "ĠStar": 1188,
      "nd": 1189,
      "ĠMas": 1190,
      "ĠDense": 1191,
      "ĠYu": 1192,
      "ĠDragon": 1193,
      "ĠDensetsu": 1194,
      "achi": 1195,
      "ĠMai": 1196,
      "ushi": 1197,
      "ĠGo": 1198,
      "ĠIII": 1199,
      "ĠPrincess": 1200,
      "ode": 1201,
      "ran": 1202,
      "ĠChou": 1203,
      "ĠDi": 1204,
      "ĠTenshi": 1205,
      "aemon": 1206,
      "ana": 1207,
      "ĠLup": 1208,
      "ita": 1209,
      "aka": 1210,
      "ĠStor": 1211,
      "ĠDoraemon": 1212,
      "ĠShoujo": 1213,
      "ĠLupin": 1214,
      "00": 1215,
      "oshi": 1216,
      "ĠBatt": 1217,
      "VA": 1218,
      "hin": 1219,
      "ku": 1220,
      "ky": 1221,
      "ron": 1222,
      "Ġwo": 1223,
      "ura": 1224,
      "ĠSa": 1225,
      "ĠTime": 1226,
      "ĠKai": 1227,
      "ĠCon": 1228,
      "ĠSuper": 1229,
      "ĠKidou": 1230,
      "ĠBattle": 1231,
      "dou": 1232,
      "ry": 1233,
      "uc": 1234,
      "inal": 1235,
      "chuu": 1236,
      "ĠBlack": 1237,
      "aki": 1238,
      "ta": 1239,
      "Ġwa": 1240,
      "Ġni": 1241,
      "ĠSai": 1242,
      "ĠKan": 1243,
      "ĠKyou": 1244,
      "ĠCl": 1245,
      "ounen": 1246,
      "ity": 1247,
      "akus": 1248,
      "ĠOne": 1249,
      "Ġ&": 1250,
      "ĠTok": 1251,
      "ĠKur": 1252,
      "ĠCom": 1253,
      "ĠLa": 1254,
      "ream": 1255,
      "ĠHunter": 1256,
      "!,": 1257,
      "..": 1258,
      "ire": 1259,
      "ard": 1260,
      "are": 1261,
      "ĠSam": 1262,
      "amp": 1263,
      "ĠAi": 1264,
      "ĠKa": 1265,
      "ĠFut": 1266,
      "ie": 1267,
      "jou": 1268,
      "se": 1269,
      "ub": 1270,
      "vil": 1271,
      "ĠTw": 1272,
      "ĠMy": 1273,
      "ĠMar": 1274,
      "ĠMac": 1275,
      "ĠGet": 1276,
      "ĠGre": 1277,
      "ĠGaku": 1278,
      "ĠNob": 1279,
      "ĠPic": 1280,
      "ĠPiece": 1281,
      "ĠDa": 1282,
      "ĠBall": 1283,
      "ĠOVA": 1284,
      "ĠMoon": 1285,
      "ĠJun": 1286,
      "ĠSpace": 1287,
      "ĠBlue": 1288,
      "ne": 1289,
      "ĠIk": 1290,
      "ouken": 1291,
      "ĠNight": 1292,
      "ĠKing": 1293,
      "age": 1294,
      "ĠPri": 1295,
      "ĠBoy": 1296,
      "ĠWor": 1297,
      "99": 1298,
      "ja": 1299,
      "koku": 1300,
      "antei": 1301,
      "urai": 1302,
      "ĠMus": 1303,
      "ĠMir": 1304,
      "ĠNin": 1305,
      "ĠNan": 1306,
      "ect": 1307,
      "ĠGen": 1308,
      "agi": 1309,
      "ĠHit": 1310,
      "ĠShounen": 1311,
      "ĠJack": 1312,
      "uku": 1313,
      "ĠMagical": 1314,
      "ian": 1315,
      "kan": 1316,
      "ly": 1317,
      "land": 1318,
      "night": 1319,
      "tachi": 1320,
      "utsu": 1321,
      "zoku": 1322,
      "ĠQ": 1323,
      "ason": 1324,
      "aman": 1325,
      "ĠKaz": 1326,
      "ĠCap": 1327,
      "rior": 1328,
      "ĠPro": 1329,
      "ĠRy": 1330,
      "ĠUchuu": 1331,
      "ĠSeason": 1332,
      "ĠWarrior": 1333,
      "ĠAdventure": 1334,
      "ĠNobita": 1335,
      "),": 1336,
      "kou": 1337,
      "mor": 1338,
      "mai": 1339,
      "ann": 1340,
      "ĠSan": 1341,
      "ĠMan": 1342,
      "ĠMob": 1343,
      "ĠAl": 1344,
      "ĠGr": 1345,
      "ĠCity": 1346,
      "oko": 1347,
      "ĠSuit": 1348,
      "ĠHeart": 1349,
      "ĠKoi": 1350,
      "ĠConan": 1351,
      "ĠSamurai": 1352,
      "ĠGakuen": 1353,
      "mer": 1354,
      "tai": 1355,
      "light": 1356,
      "ĠMu": 1357,
      "ĠMem": 1358,
      "ĠCat": 1359,
      "ĠPol": 1360,
      "ĠLe": 1361,
      "ĠDark": 1362,
      "ĠBak": 1363,
      "ĠRo": 1364,
      "onder": 1365,
      "ĠFinal": 1366,
      "ĠYou": 1367,
      "ĠJo": 1368,
      "ĠMaz": 1369,
      "ĠZero": 1370,
      "ĠSenki": 1371,
      "ĠToki": 1372,
      "ĠDevil": 1373,
      "ĠStory": 1374,
      "ĠWorld": 1375,
      "ĠMobile": 1376,
      "ĠMemor": 1377,
      "mi": 1378,
      "ĠIchi": 1379,
      "ichi": 1380,
      "uri": 1381,
      "ĠSain": 1382,
      "ĠTa": 1383,
      "ĠTh": 1384,
      "ĠHi": 1385,
      "ĠDig": 1386,
      "ĠDest": 1387,
      "ĠRec": 1388,
      "ĠOt": 1389,
      "ĠWonder": 1390,
      "ĠEn": 1391,
      "ĠEp": 1392,
      "ĠVi": 1393,
      "ĠSeis": 1394,
      "ĠMitsu": 1395,
      "ĠGetter": 1396,
      "ĠPicture": 1397,
      "ĠSaint": 1398,
      "!.": 1399,
      "ck": 1400,
      "juu": 1401,
      "kyuu": 1402,
      "tor": 1403,
      "tle": 1404,
      "Ġx": 1405,
      "ath": 1406,
      "urr": 1407,
      "ĠSum": 1408,
      "ĠSekai": 1409,
      "ĠMin": 1410,
      "ĠGu": 1411,
      "ĠCy": 1412,
      "ĠLi": 1413,
      "air": 1414,
      "ĠDay": 1415,
      "ĠDream": 1416,
      "ĠRes": 1417,
      "ĠFu": 1418,
      "ĠOu": 1419,
      "ĠWat": 1420,
      "ĠYouk": 1421,
      "ĠWars": 1422,
      "ĠTsub": 1423,
      "ĠEpis": 1424,
      "pp": 1425,
      "ins": 1426,
      "ane": 1427,
      "ouch": 1428,
      "ala": 1429,
      "ach": 1430,
      "ĠMid": 1431,
      "omo": 1432,
      "ĠAki": 1433,
      "ross": 1434,
      "ĠNor": 1435,
      "ĠKin": 1436,
      "ĠGi": 1437,
      "ĠDo": 1438,
      "ĠDou": 1439,
      "ima": 1440,
      "ĠFor": 1441,
      "ĠFigh": 1442,
      "ĠMaj": 1443,
      "ĠNew": 1444,
      "ĠNinja": 1445,
      "ĠEpisode": 1446,
      "etsu": 1447,
      "go": 1448,
      "sama": 1449,
      "zu": 1450,
      "hei": 1451,
      "asa": 1452,
      "lion": 1453,
      "ĠSho": 1454,
      "ĠMei": 1455,
      "omi": 1456,
      "ĠKu": 1457,
      "ĠKar": 1458,
      "ĠGar": 1459,
      "ago": 1460,
      "ĠHaru": 1461,
      "ĠYak": 1462,
      "tsuki": 1463,
      "ĠArmor": 1464,
      "uusei": 1465,
      "ĠReb": 1466,
      "ĠMacross": 1467,
      "ĠMirai": 1468,
      "ĠQue": 1469,
      "ĠKaze": 1470,
      "200": 1471,
      "TV": 1472,
      "ble": 1473,
      "iro": 1474,
      "lay": 1475,
      "sh": 1476,
      "zo": 1477,
      "inga": 1478,
      "ato": 1479,
      "ĠSist": 1480,
      "ĠScho": 1481,
      "ĠTr": 1482,
      "ilor": 1483,
      "oms": 1484,
      "lock": 1485,
      "ĠAs": 1486,
      "ĠNuku": 1487,
      "ĠKnight": 1488,
      "ĠGinga": 1489,
      "ĠCri": 1490,
      "vent": 1491,
      "ĠHy": 1492,
      "ĠHana": 1493,
      "aiden": 1494,
      "ĠDetective": 1495,
      "ĠBouken": 1496,
      "imon": 1497,
      "ishou": 1498,
      "ĠWind": 1499,
      "app": 1500,
      "apter": 1501,
      "ousei": 1502,
      "ĠVamp": 1503,
      "ĠChapter": 1504,
      "ĠGirls": 1505,
      "ose": 1506,
      "ĠTetsu": 1507,
      "rave": 1508,
      "ĠBeast": 1509,
      "ĠSailor": 1510,
      "ĠTokyo": 1511,
      "ĠFutari": 1512,
      "ĠPolice": 1513,
      "ĠJoe": 1514,
      "ĠSummer": 1515,
      "ĠSchool": 1516,
      ").": 1517,
      "01": 1518,
      "Mo": 1519,
      "ban": 1520,
      "do": 1521,
      "kun": 1522,
      "to": 1523,
      "ume": 1524,
      "xy": 1525,
      "ina": 1526,
      "inger": 1527,
      "ĠIt": 1528,
      "oushi": 1529,
      "ash": 1530,
      "uto": 1531,
      "ĠSon": 1532,
      "rotsuki": 1533,
      "ĠKim": 1534,
      "ĠKak": 1535,
      "ĠCode": 1536,
      "ĠHot": 1537,
      "ĠHik": 1538,
      "ĠLit": 1539,
      "ĠDemon": 1540,
      "itantei": 1541,
      "ensou": 1542,
      "ĠRa": 1543,
      "ĠRyou": 1544,
      "ĠRyuu": 1545,
      "ugi": 1546,
      "ĠEX": 1547,
      "ĠEnd": 1548,
      "ĠSpiri": 1549,
      "ĠStr": 1550,
      "ĠUp": 1551,
      "ĠUrotsuki": 1552,
      "ĠChar": 1553,
      "ĠSeven": 1554,
      "ĠTenchi": 1555,
      "ĠNeko": 1556,
      "ĠPrince": 1557,
      "ĠMeitantei": 1558,
      "ĠSeiya": 1559,
      "ĠClub": 1560,
      "ĠGreat": 1561,
      "ĠMemories": 1562,
      "ĠDigimon": 1563,
      "ĠForce": 1564,
      "ĠVampire": 1565,
      "ĠLittle": 1566,
      "ĠSpirit": 1567,
      "19": 1568,
      "ba": 1569,
      "ful": 1570,
      "hon": 1571,
      "ier": 1572,
      "ler": 1573,
      "na": 1574,
      "nis": 1575,
      "rom": 1576,
      "ress": 1577,
      "tain": 1578,
      "ĠIdol": 1579,
      "Ġde": 1580,
      "Ġga": 1581,
      "uru": 1582,
      "ĠSor": 1583,
      "ĠSecond": 1584,
      "ĠMil": 1585,
      "ĠMet": 1586,
      "ĠAg": 1587,
      "ĠAt": 1588,
      "ĠGod": 1589,
      "ĠGhost": 1590,
      "ĠGaiden": 1591,
      "ĠCol": 1592,
      "aga": 1593,
      "ĠPar": 1594,
      "ign": 1595,
      "ĠDen": 1596,
      "ĠBig": 1597,
      "ĠBir": 1598,
      "ĠBoku": 1599,
      "ĠBrave": 1600,
      "ĠFist": 1601,
      "ise": 1602,
      "ĠJu": 1603,
      "ĠStri": 1604,
      "ĠVot": 1605,
      "ĠInu": 1606,
      "ĠShimai": 1607,
      "ĠAdvent": 1608,
      "ĠChoujin": 1609,
      "ĠStories": 1610,
      "uction": 1611,
      "ĠCyber": 1612,
      "ĠDays": 1613,
      "ĠTsubasa": 1614,
      "ĠSisters": 1615,
      "Movie": 1616,
      "ĠVotoms": 1617,
      "ĠAdventur": 1618,
      "Oh": 1619,
      "bu": 1620,
      "bou": 1621,
      "eed": 1622,
      "hab": 1623,
      "ni": 1624,
      "ness": 1625,
      "son": 1626,
      "sho": 1627,
      "vate": 1628,
      "wn": 1629,
      "Ġ4": 1630,
      "Ġyo": 1631,
      "eru": 1632,
      "enai": 1633,
      "Ġna": 1634,
      "ĠSD": 1635,
      "ĠSo": 1636,
      "ĠSou": 1637,
      "ĠTro": 1638,
      "ĠMug": 1639,
      "ĠAk": 1640,
      "ĠNatsu": 1641,
      "ĠKou": 1642,
      "ĠKouk": 1643,
      "ĠGan": 1644,
      "ĠCr": 1645,
      "ĠCar": 1646,
      "ĠHok": 1647,
      "ĠHoshi": 1648,
      "ĠPl": 1649,
      "ĠPo": 1650,
      "ĠPat": 1651,
      "ĠPir": 1652,
      "itai": 1653,
      "ĠBok": 1654,
      "ĠBab": 1655,
      "ĠFl": 1656,
      "ĠFile": 1657,
      "ĠYam": 1658,
      "ĠEl": 1659,
      "ĠEv": 1660,
      "ĠVal": 1661,
      "ĠUl": 1662,
      "rapp": 1663,
      "ĠTennis": 1664,
      "ĠTeam": 1665,
      "ĠKishi": 1666,
      "ĠGeki": 1667,
      "ĠMegami": 1668,
      "range": 1669,
      "ĠLady": 1670,
      "ĠPrivate": 1671,
      "ĠCaptain": 1672,
      "ĠRoad": 1673,
      "ĠMazinger": 1674,
      "ĠDevilman": 1675,
      "ĠFull": 1676,
      "ĠAkihab": 1677,
      "ĠMetal": 1678,
      "ĠMugen": 1679,
      "ĠPirate": 1680,
      "ĠAkihabara": 1681,
      "ER": 1682,
      "Go": 1683,
      "be": 1684,
      "bo": 1685,
      "che": 1686,
      "der": 1687,
      "ip": 1688,
      "joku": 1689,
      "ject": 1690,
      "mon": 1691,
      "oh": 1692,
      "oha": 1693,
      "ple": 1694,
      "ruction": 1695,
      "sion": 1696,
      "shou": 1697,
      "sform": 1698,
      "tan": 1699,
      "ten": 1700,
      "wa": 1701,
      "war": 1702,
      "yu": 1703,
      "Ġ99": 1704,
      "Ġtai": 1705,
      "iny": 1706,
      "orp": 1707,
      "ange": 1708,
      "ats": 1709,
      "ĠIm": 1710,
      "lec": 1711,
      "arou": 1712,
      "asha": 1713,
      "ket": 1714,
      "ica": 1715,
      "icha": 1716,
      "uro": 1717,
      "ĠTop": 1718,
      "ĠTran": 1719,
      "acher": 1720,
      "ĠAll": 1721,
      "ĠNa": 1722,
      "ĠNur": 1723,
      "ĠNaka": 1724,
      "ĠKon": 1725,
      "ĠKag": 1726,
      "ĠGala": 1727,
      "ĠCoo": 1728,
      "ĠCoun": 1729,
      "uster": 1730,
      "ĠHero": 1731,
      "lls": 1732,
      "ĠPe": 1733,
      "chou": 1734,
      "ĠLy": 1735,
      "ĠLel": 1736,
      "ights": 1737,
      "imi": 1738,
      "ĠRom": 1739,
      "ĠRid": 1740,
      "ĠRum": 1741,
      "ĠRoc": 1742,
      "ĠFort": 1743,
      "eries": 1744,
      "uman": 1745,
      "ĠWe": 1746,
      "ula": 1747,
      "abor": 1748,
      "ĠYor": 1749,
      "ĠYuu": 1750,
      "ĠEi": 1751,
      "Ġ21": 1752,
      "ĠVen": 1753,
      "ĠVic": 1754,
      "ĠUr": 1755,
      "ĠTenk": 1756,
      "yuuki": 1757,
      "ĠInf": 1758,
      "ĠInn": 1759,
      "iko": 1760,
      "oukou": 1761,
      "ĠDeath": 1762,
      "ĠTeacher": 1763,
      "ĠChild": 1764,
      "ĠTsukai": 1765,
      "ĠGeass": 1766,
      "own": 1767,
      "ĠMega": 1768,
      "ĠMaison": 1769,
      "ĠKaizoku": 1770,
      "ĠProject": 1771,
      "ĠGrand": 1772,
      "ĠDarkness": 1773,
      "ĠTales": 1774,
      "ĠDestruction": 1775,
      "ĠAdventures": 1776,
      "ĠBaby": 1777,
      "sformers": 1778,
      "ĠTransformers": 1779,
      "ĠGalaxy": 1780,
      "ĠLelouch": 1781,
      "...": 1782,
      "Yasha": 1783,
      "ae": 1784,
      "ale": 1785,
      "bouken": 1786,
      "butsu": 1787,
      "di": 1788,
      "gi": 1789,
      "goku": 1790,
      "iles": 1791,
      "labor": 1792,
      "mate": 1793,
      "ret": 1794,
      "rical": 1795,
      "tou": 1796,
      "we": 1797,
      "yak": 1798,
      "Ġ+": 1799,
      "ino": 1800,
      "org": 1801,
      "ketsu": 1802,
      "ution": 1803,
      "ĠSin": 1804,
      "ĠSec": 1805,
      "ĠSlay": 1806,
      "ĠTV": 1807,
      "ĠTan": 1808,
      "teru": 1809,
      "ĠMomo": 1810,
      "ĠAshi": 1811,
      "roku": 1812,
      "ĠNag": 1813,
      "ĠNeg": 1814,
      "ĠKot": 1815,
      "ĠGenes": 1816,
      "ĠClo": 1817,
      "ĠCos": 1818,
      "rie": 1819,
      "ĠHa": 1820,
      "ĠHigh": 1821,
      "ĠHouk": 1822,
      "ĠHapp": 1823,
      "ĠPur": 1824,
      "ĠPeti": 1825,
      "ĠPair": 1826,
      "ĠDore": 1827,
      "ĠDir": 1828,
      "ĠDang": 1829,
      "ite": 1830,
      "ĠBi": 1831,
      "ĠBu": 1832,
      "andy": 1833,
      "ĠIsland": 1834,
      "ĠFore": 1835,
      "ĠFiles": 1836,
      "ĠOver": 1837,
      "ĠWith": 1838,
      "ĠWhen": 1839,
      "okushi": 1840,
      "ugan": 1841,
      "ĠEy": 1842,
      "ĠMotion": 1843,
      "ĠBlade": 1844,
      "yuuden": 1845,
      "ĠArc": 1846,
      "oso": 1847,
      "ĠTek": 1848,
      "ĠMiss": 1849,
      "ĠKihei": 1850,
      "Ġ00": 1851,
      "ĠDaibouken": 1852,
      "ĠRobot": 1853,
      "ĠMask": 1854,
      "ĠMaster": 1855,
      "ushigi": 1856,
      "kyrie": 1857,
      "douji": 1858,
      "ĠIkkoku": 1859,
      "ĠNanoha": 1860,
      "ĠYoukoso": 1861,
      "ĠQuest": 1862,
      "ĠUrotsukidouji": 1863,
      "ĠCharat": 1864,
      "198": 1865,
      "ĠStriker": 1866,
      "ĠInuYasha": 1867,
      "ĠHokuto": 1868,
      "ĠPatlabor": 1869,
      "ĠYamato": 1870,
      "ĠValkyrie": 1871,
      "ĠGekijou": 1872,
      "ĠCount": 1873,
      "ĠLyrical": 1874,
      "ĠInnoc": 1875,
      "ĠSecret": 1876,
      "ĠCosmo": 1877,
      "ĠHoukago": 1878,
      "!;": 1879,
      "199": 1880,
      "AN": 1881,
      "II": 1882,
      "bi": 1883,
      "han": 1884,
      "ix": 1885,
      "iki": 1886,
      "kyou": 1887,
      "kaku": 1888,
      "mar": 1889,
      "mas": 1890,
      "oi": 1891,
      "oper": 1892,
      "oss": 1893,
      "ram": 1894,
      "ser": 1895,
      "san": 1896,
      "vas": 1897,
      "way": 1898,
      "yori": 1899,
      "yuusei": 1900,
      "Ġ5": 1901,
      "Ġzo": 1902,
      "ermai": 1903,
      "orn": 1904,
      "oro": 1905,
      "ors": 1906,
      "ata": 1907,
      "Ġfrom": 1908,
      "Ġhack": 1909,
      "ĠSas": 1910,
      "ĠSak": 1911,
      "ĠSun": 1912,
      "ĠSug": 1913,
      "ĠSuz": 1914,
      "ĠSeries": 1915,
      "ĠSoukou": 1916,
      "ĠTom": 1917,
      "acula": 1918,
      "tern": 1919,
      "ĠMam": 1920,
      "ĠMak": 1921,
      "ĠMichi": 1922,
      "ĠMermai": 1923,
      "ĠAp": 1924,
      "ĠAce": 1925,
      "ĠNi": 1926,
      "ection": 1927,
      "ĠKik": 1928,
      "usa": 1929,
      "ĠClass": 1930,
      "ĠCorp": 1931,
      "ĠCandy": 1932,
      "ettai": 1933,
      "rist": 1934,
      "ĠHan": 1935,
      "ĠHimi": 1936,
      "ĠPap": 1937,
      "iger": 1938,
      "airy": 1939,
      "ĠDun": 1940,
      "ĠBr": 1941,
      "ĠBishou": 1942,
      "olution": 1943,
      "ander": 1944,
      "ĠHarlock": 1945,
      "ĠRen": 1946,
      "ĠRain": 1947,
      "ĠFantasy": 1948,
      "ĠFir": 1949,
      "ĠFire": 1950,
      "ĠFairy": 1951,
      "ĠOb": 1952,
      "ĠOj": 1953,
      "ĠOm": 1954,
      "ump": 1955,
      "ree": 1956,
      "abi": 1957,
      "ĠYo": 1958,
      "ĠYousei": 1959,
      "ĠEar": 1960,
      "ellion": 1961,
      "ĠShaman": 1962,
      "ĠShicha": 1963,
      "ĠJuus": 1964,
      "ĠSpeed": 1965,
      "ĠVir": 1966,
      "ĠMah": 1967,
      "ĠChrist": 1968,
      "ĠHell": 1969,
      "atsuki": 1970,
      "ĠDead": 1971,
      "ĠOnna": 1972,
      "ĠDracula": 1973,
      "ĠKiss": 1974,
      "umiya": 1975,
      "anga": 1976,
      "ĠTaiho": 1977,
      "ĠMagic": 1978,
      "ĠYuugi": 1979,
      "ĠMaid": 1980,
      "ĠMaiden": 1981,
      "ĠGold": 1982,
      "ĠDiver": 1983,
      "uck": 1984,
      "ĠTwo": 1985,
      "ĠJungle": 1986,
      "ĠDestiny": 1987,
      "ĠOtome": 1988,
      "ĠViolence": 1989,
      "tory": 1990,
      "urrection": 1991,
      "ĠGuard": 1992,
      "ĠResurrection": 1993,
      "ĠMidori": 1994,
      "ĠHaruhi": 1995,
      "ĠRebellion": 1996,
      "ĠSora": 1997,
      "ĠTrooper": 1998,
      "ĠCryst": 1999,
      "ĠKagaku": 2000,
      "ĠVictory": 2001,
      "ĠTsukaima": 2002,
      "ĠAshita": 2003,
      "ĠGenesis": 2004,
      "ĠHappy": 2005,
      "ĠDirty": 2006,
      "ĠSuzumiya": 2007,
      "ĠMermaid": 2008,
      "ĠHimitsu": 2009,
      "ĠBishoujo": 2010,
      "ĠFirst": 2011,
      "ĠShichau": 2012,
      "FO": 2013,
      "aut": 2014,
      "aven": 2015,
      "buster": 2016,
      "fair": 2017,
      "ilight": 2018,
      "jir": 2019,
      "ning": 2020,
      "nou": 2021,
      "nen": 2022,
      "pa": 2023,
      "pose": 2024,
      "rd": 2025,
      "rs": 2026,
      "ring": 2027,
      "rine": 2028,
      "uts": 2029,
      "vs": 2030,
      "volution": 2031,
      "wan": 2032,
      "yaku": 2033,
      "Ġ8": 2034,
      "Ġvs": 2035,
      "ink": 2036,
      "anc": 2037,
      "asu": 2038,
      "key": 2039,
      "alker": 2040,
      "liver": 2041,
      "urst": 2042,
      "urashi": 2043,
      "ĠSent": 2044,
      "ĠTon": 2045,
      "ĠTak": 2046,
      "ĠTantei": 2047,
      "amu": 2048,
      "ĠMk": 2049,
      "ĠMami": 2050,
      "ĠMokushi": 2051,
      "ĠMrs": 2052,
      "ĠAo": 2053,
      "ĠAlice": 2054,
      "ĠKit": 2055,
      "ĠKind": 2056,
      "ĠGin": 2057,
      "ĠGok": 2058,
      "ĠGoku": 2059,
      "ĠGensou": 2060,
      "ĠCase": 2061,
      "ĠCult": 2062,
      "ĠCream": 2063,
      "ria": 2064,
      "mension": 2065,
      "ĠHo": 2066,
      "ĠHime": 2067,
      "ĠHig": 2068,
      "ĠHad": 2069,
      "ĠPh": 2070,
      "ĠPort": 2071,
      "outai": 2072,
      "ĠLive": 2073,
      "igo": 2074,
      "ĠDrop": 2075,
      "ĠBas": 2076,
      "ĠBlood": 2077,
      "akuro": 2078,
      "berry": 2079,
      "ĠAffair": 2080,
      "ĠRur": 2081,
      "ĠRyo": 2082,
      "una": 2083,
      "une": 2084,
      "uni": 2085,
      "ĠFr": 2086,
      "ish": 2087,
      "ensei": 2088,
      "ĠOr": 2089,
      "ĠOnce": 2090,
      "ĠOrig": 2091,
      "ĠWi": 2092,
      "rei": 2093,
      "reet": 2094,
      "ĠYami": 2095,
      "ĠYuus": 2096,
      "elp": 2097,
      "velation": 2098,
      "ĠSpring": 2099,
      "Ġ28": 2100,
      "ĠSte": 2101,
      "ĠStreet": 2102,
      "ĠUFO": 2103,
      "adia": 2104,
      "ĠZen": 2105,
      "ĠZetsu": 2106,
      "otte": 2107,
      "ĠMonkey": 2108,
      "ukan": 2109,
      "ĠShipp": 2110,
      "ĠHeis": 2111,
      "ĠHeaven": 2112,
      "ĠOnly": 2113,
      "ĠAngeli": 2114,
      "Ġ100": 2115,
      "ĠKidoutai": 2116,
      "ĠLegendary": 2117,
      "anger": 2118,
      "ĠChikan": 2119,
      "ĠRevolution": 2120,
      "ĠRevelation": 2121,
      "ĠHunt": 2122,
      "!!,": 2123,
      "ĠYume": 2124,
      "ĠDimension": 2125,
      "ĠKanojo": 2126,
      "akusen": 2127,
      "ĠKurenai": 2128,
      "ĠTwilight": 2129,
      "ĠMach": 2130,
      "ĠMoonlight": 2131,
      "ĠMusume": 2132,
      "ĠRyuusei": 2133,
      "ĠWarriors": 2134,
      "ĠRecap": 2135,
      "ĠLife": 2136,
      "ĠMidnight": 2137,
      "ĠNorth": 2138,
      "ĠNorakuro": 2139,
      "ĠGift": 2140,
      "ĠFighter": 2141,
      "ĠFighting": 2142,
      "ĠYakyuu": 2143,
      "ĠArmored": 2144,
      "ĠHikari": 2145,
      "ĠAgain": 2146,
      "ĠBirth": 2147,
      "ĠKoukaku": 2148,
      "bee": 2149,
      "ĠPeach": 2150,
      "ĠVenus": 2151,
      "ĠTenkuu": 2152,
      "ĠSlayers": 2153,
      "ĠPurpose": 2154,
      "ĠInnocent": 2155,
      "ĠSakura": 2156,
      "utsushi": 2157,
      "ĠMokushiroku": 2158,
      "ĠCultural": 2159,
      "ĠCreamy": 2160,
      "ĠHigurashi": 2161,
      ");": 2162,
      "!:": 2163,
      "!?": 2164,
      "Burst": 2165,
      "Gu": 2166,
      "Gai": 2167,
      "Man": 2168,
      "ON": 2169,
      "ST": 2170,
      "aur": 2171,
      "ail": 2172,
      "bl": 2173,
      "by": 2174,
      "boo": 2175,
      "dai": 2176,
      "down": 2177,
      "fic": 2178,
      "gin": 2179,
      "gen": 2180,
      "gun": 2181,
      "gumi": 2182,
      "gram": 2183,
      "huu": 2184,
      "iC": 2185,
      "kara": 2186,
      "kman": 2187,
      "kaman": 2188,
      "no": 2189,
      "nar": 2190,
      "ned": 2191,
      "oz": 2192,
      "oir": 2193,
      "sc": 2194,
      "sha": 2195,
      "tei": 2196,
      "tra": 2197,
      "vers": 2198,
      "yp": 2199,
      "yan": 2200,
      "Ġ%": 2201,
      "Ġ6": 2202,
      "Ġyori": 2203,
      "Ġkara": 2204,
      "mei": 2205,
      "orrow": 2206,
      "oroshi": 2207,
      "atic": 2208,
      "ĠIG": 2209,
      "ĠIke": 2210,
      "ĠIron": 2211,
      "let": 2212,
      "enix": 2213,
      "asan": 2214,
      "asog": 2215,
      "lip": 2216,
      "hoenix": 2217,
      "ante": 2218,
      "utou": 2219,
      "ĠSE": 2220,
      "ĠSc": 2221,
      "ĠSay": 2222,
      "ĠSqu": 2223,
      "ĠShell": 2224,
      "ĠSov": 2225,
      "ĠSensou": 2226,
      "ĠTam": 2227,
      "ĠTri": 2228,
      "ĠToo": 2229,
      "ĠTake": 2230,
      "ĠTori": 2231,
      "ĠTouch": 2232,
      "ĠTasog": 2233,
      "amas": 2234,
      "amned": 2235,
      "ĠMed": 2236,
      "ĠMonster": 2237,
      "ĠMari": 2238,
      "ĠMori": 2239,
      "ĠMne": 2240,
      "ĠManga": 2241,
      "omb": 2242,
      "ĠAh": 2243,
      "ĠAm": 2244,
      "ĠAz": 2245,
      "ĠAim": 2246,
      "ĠAir": 2247,
      "timate": 2248,
      "ĠNing": 2249,
      "ĠNai": 2250,
      "ĠNana": 2251,
      "ĠNights": 2252,
      "ayo": 2253,
      "ĠThey": 2254,
      "ĠKe": 2255,
      "ĠKis": 2256,
      "ĠKyo": 2257,
      "ĠKara": 2258,
      "usume": 2259,
      "ĠGa": 2260,
      "ĠGul": 2261,
      "ĠGlass": 2262,
      "ĠGran": 2263,
      "ĠGuru": 2264,
      "ĠGrapp": 2265,
      "ĠCH": 2266,
      "ĠCli": 2267,
      "ĠCho": 2268,
      "ĠCome": 2269,
      "ĠCent": 2270,
      "ĠCry": 2271,
      "etty": 2272,
      "ette": 2273,
      "agnar": 2274,
      "ĠHon": 2275,
      "ĠHone": 2276,
      "ĠHous": 2277,
      "ĠHatsu": 2278,
      "imeki": 2279,
      "imeitai": 2280,
      "ĠPan": 2281,
      "ĠPhoenix": 2282,
      "amajo": 2283,
      "ĠLust": 2284,
      "ĠLov": 2285,
      "ĠLord": 2286,
      "ĠLess": 2287,
      "ĠDamned": 2288,
      "oung": 2289,
      "ito": 2290,
      "ĠBar": 2291,
      "ĠBurn": 2292,
      "ĠBible": 2293,
      "ĠBun": 2294,
      "ĠBaki": 2295,
      "ĠBann": 2296,
      "ĠAnd": 2297,
      "ĠAnother": 2298,
      "geki": 2299,
      "youshi": 2300,
      "ensha": 2301,
      "enshin": 2302,
      "que": 2303,
      "ereign": 2304,
      "ĠRing": 2305,
      "ĠRed": 2306,
      "ĠRet": 2307,
      "ĠRagnar": 2308,
      "obou": 2309,
      "ender": 2310,
      "mosy": 2311,
      "ĠFamily": 2312,
      "ĠFushigi": 2313,
      "eria": 2314,
      "ĠOf": 2315,
      "ĠWing": 2316,
      "ĠWan": 2317,
      "rest": 2318,
      "okami": 2319,
      "ĠYama": 2320,
      "ĠYoung": 2321,
      "ugyou": 2322,
      "ĠEx": 2323,
      "ĠEle": 2324,
      "ĠJing": 2325,
      "ĠJuu": 2326,
      "ĠJump": 2327,
      "Ġ20": 2328,
      "Ġ201": 2329,
      "ĠStra": 2330,
      "ĠStrange": 2331,
      "ĠUta": 2332,
      "ĠUten": 2333,
      "ada": 2334,
      "adise": 2335,
      "ĠChin": 2336,
      "ĠChron": 2337,
      "ĠSeimeitai": 2338,
      "ikan": 2339,
      "ĠGunbuster": 2340,
      "ĠShiro": 2341,
      "ĠPretty": 2342,
      "ĠDramas": 2343,
      "ĠBell": 2344,
      "ĠXam": 2345,
      "ĠKyoushi": 2346,
      "ĠTokimeki": 2347,
      "ĠComple": 2348,
      "ĠKamen": 2349,
      "ĠFutatsuki": 2350,
      "ĠMusashi": 2351,
      "ĠHitori": 2352,
      "ĠMuyou": 2353,
      "ĠMuyo": 2354,
      "ĠMaze": 2355,
      "ĠTokio": 2356,
      "ĠIchizoku": 2357,
      "ĠThree": 2358,
      "ĠRecord": 2359,
      "ĠWonderful": 2360,
      "ĠSeisaku": 2361,
      "ĠMitsume": 2362,
      "ĠWataru": 2363,
      "ĠMajutsushi": 2364,
      "ĠShoot": 2365,
      "ĠGarden": 2366,
      "ĠQueen": 2367,
      "ĠHyour": 2368,
      "ĠMilk": 2369,
      "ĠParadise": 2370,
      "ĠSold": 2371,
      "ĠSoul": 2372,
      "ĠBokan": 2373,
      "ĠEvange": 2374,
      "ĠUltimate": 2375,
      "ĠRockman": 2376,
      "ĠFortress": 2377,
      "ĠWeb": 2378,
      "ĠYoru": 2379,
      "ĠYuuutsu": 2380,
      "ĠDoremi": 2381,
      "ĠDango": 2382,
      "ĠArcadia": 2383,
      "ĠTekkaman": 2384,
      "ĠCountdown": 2385,
      "ĠSugar": 2386,
      "ĠTomorrow": 2387,
      "ĠOjamajo": 2388,
      "ĠVirgin": 2389,
      "ĠDrops": 2390,
      "ĠWild": 2391,
      "ĠAngelique": 2392,
      "ĠRecaps": 2393,
      "ĠSovereign": 2394,
      "ĠTasogare": 2395,
      "ĠMnemosy": 2396,
      "ĠGulliver": 2397,
      "ĠGrappler": 2398,
      "ĠHoney": 2399,
      "ĠHouse": 2400,
      "ĠLovers": 2401,
      "ĠLesson": 2402,
      "ĠRagnarok": 2403,
      "ĠUtena": 2404,
      "ĠChronic": 2405,
      "ĠComplex": 2406,
      "ĠEvangelion": 2407,
      "ĠMnemosyne": 2408,
      ".,": 2409,
      "AVA": 2410,
      "ED": 2411,
      "ES": 2412,
      "ET": 2413,
      "IST": 2414,
      "LE": 2415,
      "LAN": 2416,
      "Musume": 2417,
      "NiC": 2418,
      "PX": 2419,
      "Ro": 2420,
      "RAVA": 2421,
      "Voir": 2422,
      "ave": 2423,
      "bow": 2424,
      "cle": 2425,
      "da": 2426,
      "ds": 2427,
      "din": 2428,
      "eki": 2429,
      "fumi": 2430,
      "gou": 2431,
      "jib": 2432,
      "jima": 2433,
      "kin": 2434,
      "katsu": 2435,
      "mp": 2436,
      "mist": 2437,
      "nik": 2438,
      "oon": 2439,
      "pe": 2440,
      "pen": 2441,
      "rou": 2442,
      "rome": 2443,
      "sed": 2444,
      "sis": 2445,
      "sakusen": 2446,
      "tal": 2447,
      "wberry": 2448,
      "xis": 2449,
      "yas": 2450,
      "yashi": 2451,
      "yakus": 2452,
      "zer": 2453,
      "zou": 2454,
      "zai": 2455,
      "zuna": 2456,
      "Ġ7": 2457,
      "Ġ~": 2458,
      "inter": 2459,
      "erae": 2460,
      "erno": 2461,
      "metal": 2462,
      "anet": 2463,
      "ated": 2464,
      "hexis": 2465,
      "ouki": 2466,
      "arch": 2467,
      "kete": 2468,
      "icane": 2469,
      "ury": 2470,
      "uten": 2471,
      "ĠSP": 2472,
      "ĠSer": 2473,
      "ĠSens": 2474,
      "ĠSoc": 2475,
      "ĠSensei": 2476,
      "ĠTat": 2477,
      "ĠTou": 2478,
      "ĠThi": 2479,
      "ĠTournament": 2480,
      "ĠTest": 2481,
      "ĠTrapp": 2482,
      "ĠTabi": 2483,
      "ĠTRAVA": 2484,
      "ĠMic": 2485,
      "ĠMom": 2486,
      "ĠMay": 2487,
      "ĠMigh": 2488,
      "ĠMech": 2489,
      "oma": 2490,
      "oman": 2491,
      "omatic": 2492,
      "ĠAc": 2493,
      "ĠAde": 2494,
      "ĠAoshi": 2495,
      "ĠAyak": 2496,
      "ĠAria": 2497,
      "rot": 2498,
      "roia": 2499,
      "ĠNaz": 2500,
      "ĠNerae": 2501,
      "ĠKib": 2502,
      "ĠKok": 2503,
      "ĠKuu": 2504,
      "ĠKenshin": 2505,
      "ĠGall": 2506,
      "ĠGender": 2507,
      "ĠGyakus": 2508,
      "ĠCle": 2509,
      "ĠCamp": 2510,
      "ride": 2511,
      "agure": 2512,
      "ĠHab": 2513,
      "ĠHurr": 2514,
      "ĠPart": 2515,
      "ĠPlus": 2516,
      "ĠPail": 2517,
      "ĠPLAN": 2518,
      "Ġef": 2519,
      "ĠLet": 2520,
      "ĠLol": 2521,
      "ĠLand": 2522,
      "igayo": 2523,
      "kie": 2524,
      "ĠDep": 2525,
      "ĠDef": 2526,
      "ĠDog": 2527,
      "ĠDouk": 2528,
      "ĠDash": 2529,
      "ĠDino": 2530,
      "ouni": 2531,
      "itou": 2532,
      "ital": 2533,
      "ĠBL": 2534,
      "ĠBo": 2535,
      "ĠBro": 2536,
      "ĠBey": 2537,
      "ĠBaku": 2538,
      "ĠBounen": 2539,
      "ĠBride": 2540,
      "uretsu": 2541,
      "ĠAnime": 2542,
      "ĠAnkoku": 2543,
      "imit": 2544,
      "ĠHarukan": 2545,
      "ĠRai": 2546,
      "ĠRond": 2547,
      "ĠRose": 2548,
      "ĠRiki": 2549,
      "ĠRES": 2550,
      "obe": 2551,
      "ĠFam": 2552,
      "ĠFest": 2553,
      "ĠFron": 2554,
      "ĠFIST": 2555,
      "ĠOre": 2556,
      "ĠOff": 2557,
      "ĠOrange": 2558,
      "ĠWhi": 2559,
      "ĠWit": 2560,
      "ĠWill": 2561,
      "ĠWinter": 2562,
      "aba": 2563,
      "aver": 2564,
      "ĠYori": 2565,
      "ĠYumi": 2566,
      "ugh": 2567,
      "ĠEvil": 2568,
      "ĠEtern": 2569,
      "ĠShur": 2570,
      "ĠMoey": 2571,
      "opo": 2572,
      "iru": 2573,
      "senzo": 2574,
      "inden": 2575,
      "estroia": 2576,
      "Ġ200": 2577,
      "ĠStand": 2578,
      "ĠStage": 2579,
      "ĠVers": 2580,
      "ĠVestroia": 2581,
      "ĠUn": 2582,
      "ĠMad": 2583,
      "adow": 2584,
      "ario": 2585,
      "ĠZettai": 2586,
      "ĠChina": 2587,
      "ĠChuck": 2588,
      "ĠSex": 2589,
      "ĠSenkan": 2590,
      "ĠInjuu": 2591,
      "ikki": 2592,
      "ains": 2593,
      "ĠSub": 2594,
      "azaki": 2595,
      "azard": 2596,
      "ukyou": 2597,
      "ĠShigo": 2598,
      "ĠToshi": 2599,
      "ĠTown": 2600,
      "ĠHearts": 2601,
      "ĠNeo": 2602,
      "Ġ13": 2603,
      "ĠMizu": 2604,
      "ĠDorami": 2605,
      "manin": 2606,
      "ĠKizuna": 2607,
      "jitsu": 2608,
      "ĠBeaut": 2609,
      "Ġ02": 2610,
      "Ġ03": 2611,
      "Ġ04": 2612,
      "ĠChikyuu": 2613,
      "ĠDaisakusen": 2614,
      "ĠTaisen": 2615,
      "ĠTaitei": 2616,
      "ĠTaimanin": 2617,
      "ĠMegumi": 2618,
      "ĠMashou": 2619,
      "ĠGoGo": 2620,
      "ĠGosenzo": 2621,
      "kyoku": 2622,
      "ĠSaigo": 2623,
      "ĠKaibutsu": 2624,
      "ĠClann": 2625,
      "ĠKuro": 2626,
      "ĠKuromi": 2627,
      "ĠComm": 2628,
      "ĠCombat": 2629,
      "ĠSammy": 2630,
      "ĠKawar": 2631,
      "ĠTwin": 2632,
      "ĠMars": 2633,
      "ĠGreen": 2634,
      "ĠDaig": 2635,
      "ĠDawn": 2636,
      "ĠJunkie": 2637,
      "ĠKingd": 2638,
      "ĠMuskete": 2639,
      "ĠKazoku": 2640,
      "ĠCapo": 2641,
      "ĠRyoko": 2642,
      "ĠSanshi": 2643,
      "ĠAlone": 2644,
      "ĠAlche": 2645,
      "ĠMujin": 2646,
      "ĠBakugan": 2647,
      "ĠBakuretsu": 2648,
      "ĠIchigo": 2649,
      "ĠTale": 2650,
      "ĠSeisen": 2651,
      "ĠMinky": 2652,
      "ĠWatashi": 2653,
      "ĠKinnik": 2654,
      "ĠDolls": 2655,
      "ĠMajor": 2656,
      "shuu": 2657,
      "ĠAsagi": 2658,
      "ĠCrisis": 2659,
      "ĠHyper": 2660,
      "ĠSonic": 2661,
      "ĠKimagure": 2662,
      "ĠKimigayo": 2663,
      "ĠKakeru": 2664,
      "ĠRyououki": 2665,
      "ĠEXE": 2666,
      "ĠAtobe": 2667,
      "ĠCollec": 2668,
      "ĠDennou": 2669,
      "ĠPlanet": 2670,
      "ĠFlash": 2671,
      "ĠFullmetal": 2672,
      "ERVoir": 2673,
      "ĠNurse": 2674,
      "ĠInfin": 2675,
      "ĠInferno": 2676,
      "ĠClosed": 2677,
      "ĠHaou": 2678,
      "ĠPetit": 2679,
      "ĠBio": 2680,
      "ĠEye": 2681,
      "ĠMission": 2682,
      "1980": 2683,
      "ĠStrikerS": 2684,
      "ĠMamotte": 2685,
      "ĠRainbow": 2686,
      "ĠMahor": 2687,
      "ĠGuardian": 2688,
      "ĠCrystal": 2689,
      "ĠRurouni": 2690,
      "ĠYuusha": 2691,
      "ĠSprings": 2692,
      "ĠShippuu": 2693,
      "ĠSEED": 2694,
      "ĠTamers": 2695,
      "ĠCHRo": 2696,
      "ĠComet": 2697,
      "ĠCentury": 2698,
      "ĠBunka": 2699,
      "ĠBannou": 2700,
      "ĠStrawberry": 2701,
      "ĠXamdou": 2702,
      "ĠMitsumete": 2703,
      "NiCLE": 2704,
      "yasumi": 2705,
      "ĠTestament": 2706,
      "ĠMighty": 2707,
      "ĠAdeu": 2708,
      "ĠAyakashi": 2709,
      "ĠGyakushuu": 2710,
      "ĠHurricane": 2711,
      "ĠPailsen": 2712,
      "ĠPLANET": 2713,
      "ĠDefense": 2714,
      "ĠDoukyuusei": 2715,
      "ĠDinoZ": 2716,
      "ĠHarukanaru": 2717,
      "ĠRondo": 2718,
      "ĠRESERVoir": 2719,
      "ĠMoeyo": 2720,
      "ĠShigofumi": 2721,
      "ĠGoGoGo": 2722,
      "ĠClannad": 2723,
      "ĠKawarazaki": 2724,
      "ĠMusketeers": 2725,
      "ĠAlchemist": 2726,
      "ĠCHRoNiCLE": 2727,
      "!!.": 2728,
      "79": 2729,
      "AG": 2730,
      "Do": 2731,
      "Dri": 2732,
      "Gi": 2733,
      "Hazard": 2734,
      "Jo": 2735,
      "af": 2736,
      "afe": 2737,
      "aichi": 2738,
      "bine": 2739,
      "ball": 2740,
      "boy": 2741,
      "borg": 2742,
      "case": 2743,
      "dd": 2744,
      "ding": 2745,
      "gy": 2746,
      "gry": 2747,
      "hashi": 2748,
      "iy": 2749,
      "ide": 2750,
      "ious": 2751,
      "ific": 2752,
      "jis": 2753,
      "juus": 2754,
      "juku": 2755,
      "lan": 2756,
      "mal": 2757,
      "now": 2758,
      "nights": 2759,
      "ower": 2760,
      "pot": 2761,
      "ru": 2762,
      "rin": 2763,
      "ren": 2764,
      "rai": 2765,
      "ryou": 2766,
      "ses": 2767,
      "self": 2768,
      "tama": 2769,
      "tous": 2770,
      "uation": 2771,
      "vack": 2772,
      "vices": 2773,
      "won": 2774,
      "wari": 2775,
      "ylor": 2776,
      "ze": 2777,
      "zack": 2778,
      "zumi": 2779,
      "Ġ9": 2780,
      "inus": 2781,
      "ores": 2782,
      "ano": 2783,
      "ancho": 2784,
      "onara": 2785,
      "onna": 2786,
      "ature": 2787,
      "ĠIh": 2788,
      "oug": 2789,
      "ouge": 2790,
      "aret": 2791,
      "aragi": 2792,
      "ths": 2793,
      "thlet": 2794,
      "enki": 2795,
      "enad": 2796,
      "kei": 2797,
      "icy": 2798,
      "icon": 2799,
      "ald": 2800,
      "alors": 2801,
      "alyp": 2802,
      "antan": 2803,
      "antom": 2804,
      "antai": 2805,
      "utch": 2806,
      "ĠSl": 2807,
      "ĠSy": 2808,
      "ĠSand": 2809,
      "ĠSib": 2810,
      "ĠSword": 2811,
      "ĠSwords": 2812,
      "ĠSaz": 2813,
      "ĠSwe": 2814,
      "ĠSnow": 2815,
      "ĠTer": 2816,
      "ĠTho": 2817,
      "ĠTous": 2818,
      "ĠToku": 2819,
      "ĠTra": 2820,
      "ĠTaka": 2821,
      "ĠTylor": 2822,
      "edding": 2823,
      "acific": 2824,
      "ĠMS": 2825,
      "ĠMur": 2826,
      "ĠMour": 2827,
      "ĠMatch": 2828,
      "ĠMun": 2829,
      "ĠMyst": 2830,
      "ĠMel": 2831,
      "ĠMiko": 2832,
      "ĠMito": 2833,
      "ilot": 2834,
      "ĠAa": 2835,
      "ĠAma": 2836,
      "ĠAmer": 2837,
      "ĠAbo": 2838,
      "ĠAthlet": 2839,
      "ĠNar": 2840,
      "ĠNation": 2841,
      "ĠNine": 2842,
      "ĠNaki": 2843,
      "ĠNasu": 2844,
      "ĠKy": 2845,
      "ĠKer": 2846,
      "ĠKam": 2847,
      "ĠKus": 2848,
      "ĠKick": 2849,
      "ĠKaku": 2850,
      "ĠKatsu": 2851,
      "ĠKuus": 2852,
      "ĠKita": 2853,
      "ĠKuni": 2854,
      "ĠKnights": 2855,
      "usei": 2856,
      "ĠGig": 2857,
      "ĠGak": 2858,
      "ĠGame": 2859,
      "ĠGood": 2860,
      "ĠGiant": 2861,
      "ĠGakus": 2862,
      "ĠGurr": 2863,
      "ĠCant": 2864,
      "ĠCass": 2865,
      "ĠCir": 2866,
      "ĠCord": 2867,
      "ĠCard": 2868,
      "ĠCub": 2869,
      "ĠCoss": 2870,
      "ĠCafe": 2871,
      "ete": 2872,
      "usty": 2873,
      "agann": 2874,
      "agwon": 2875,
      "ĠHai": 2876,
      "ĠHol": 2877,
      "ĠHand": 2878,
      "ĠHib": 2879,
      "ĠHorror": 2880,
      "ĠHakus": 2881,
      "ĠHina": 2882,
      "ĠHoushi": 2883,
      "ĠHelp": 2884,
      "ĠHutch": 2885,
      "hime": 2886,
      "llber": 2887,
      "ĠPure": 2888,
      "ĠPass": 2889,
      "ĠPand": 2890,
      "ĠPsycho": 2891,
      "ĠPre": 2892,
      "ĠPers": 2893,
      "ĠPacific": 2894,
      "ĠPilot": 2895,
      "ĠLay": 2896,
      "ĠLast": 2897,
      "ĠLod": 2898,
      "ĠLoc": 2899,
      "ĠLight": 2900,
      "ĠLagann": 2901,
      "iga": 2902,
      "kitous": 2903,
      "aika": 2904,
      "aiba": 2905,
      "ĠDu": 2906,
      "ĠDon": 2907,
      "ĠDol": 2908,
      "ĠDok": 2909,
      "ĠDoc": 2910,
      "ĠDown": 2911,
      "ĠDagwon": 2912,
      "ĠBut": 2913,
      "ĠBoo": 2914,
      "ĠByou": 2915,
      "ĠBack": 2916,
      "ĠBari": 2917,
      "ĠBouk": 2918,
      "ĠBow": 2919,
      "ĠBron": 2920,
      "ĠBakus": 2921,
      "ĠBorg": 2922,
      "ureka": 2923,
      "ĠAnne": 2924,
      "mentalors": 2925,
      "akugan": 2926,
      "ĠHarem": 2927,
      "akei": 2928,
      "ĠRos": 2929,
      "ĠRouge": 2930,
      "unkoku": 2931,
      "ĠFog": 2932,
      "ĠFuk": 2933,
      "ĠFall": 2934,
      "isaku": 2935,
      "isana": 2936,
      "ĠOs": 2937,
      "ĠOz": 2938,
      "ĠOur": 2939,
      "ĠOuk": 2940,
      "ĠOokami": 2941,
      "umon": 2942,
      "ĠWal": 2943,
      "ĠWoman": 2944,
      "ĠWedding": 2945,
      "emi": 2946,
      "okou": 2947,
      "able": 2948,
      "abian": 2949,
      "avo": 2950,
      "ĠYour": 2951,
      "ĠYaiba": 2952,
      "ategy": 2953,
      "ĠEm": 2954,
      "ĠExp": 2955,
      "ĠEdi": 2956,
      "ĠEsc": 2957,
      "ĠEureka": 2958,
      "ĠShuu": 2959,
      "ĠShana": 2960,
      "ĠShrine": 2961,
      "ĠShadow": 2962,
      "ĠShakugan": 2963,
      "ousand": 2964,
      "ock": 2965,
      "ochi": 2966,
      "ocalyp": 2967,
      "ĠJang": 2968,
      "ĠJoshi": 2969,
      "ĠJugyou": 2970,
      "vely": 2971,
      "ĠVis": 2972,
      "ĠVinus": 2973,
      "houzu": 2974,
      "ĠMax": 2975,
      "ĠMaou": 2976,
      "ĠMail": 2977,
      "adam": 2978,
      "ĠZoku": 2979,
      "ĠChange": 2980,
      "ĠSearch": 2981,
      "ĠSengoku": 2982,
      "ĠBlaz": 2983,
      "ĠMono": 2984,
      "ĠGuns": 2985,
      "uko": 2986,
      "ĠTosho": 2987,
      "ĠDevices": 2988,
      "ĠNek": 2989,
      "ĠNezumi": 2990,
      "ĠLoki": 2991,
      "ĠLovely": 2992,
      "ĠShins": 2993,
      "ĠShinjuku": 2994,
      "ravi": 2995,
      "Ġ19": 2996,
      "ession": 2997,
      "ĠDorobou": 2998,
      "ĠDorvack": 2999,
      "Ġ09": 3000,
      "ĠKenkaku": 3001,
      "jinbou": 3002,
      "ĠChibi": 3003,
      "ĠChivas": 3004,
      "ĠChiisana": 3005,
      "ĠAngels": 3006,
      "ĠTsuki": 3007,
      "ĠDait": 3008,
      "ĠMeisaku": 3009,
      "ĠGek": 3010,
      "ĠGeum": 3011,
      "ĠHungry": 3012,
      "mail": 3013,
      "ĠTaikei": 3014,
      "ĠMashin": 3015,
      "ĠChoujuu": 3016,
      "ĠDiary": 3017,
      "uraiger": 3018,
      "ĠSae": 3019,
      "ĠKaiki": 3020,
      "ĠBlackmail": 3021,
      "ĠSaiyuuki": 3022,
      "ĠSaidai": 3023,
      "ĠSaiunkoku": 3024,
      "ĠKanip": 3025,
      "ĠKyoukai": 3026,
      "ĠComic": 3027,
      "setsu": 3028,
      "ĠGettan": 3029,
      "ĠPichi": 3030,
      "ĠIkusa": 3031,
      "ĠIkkitous": 3032,
      "ĠPrimo": 3033,
      "ĠGenm": 3034,
      "ĠGener": 3035,
      "ĠProgram": 3036,
      "ĠRyokou": 3037,
      "moral": 3038,
      "ĠGrenad": 3039,
      "ĠSuitcase": 3040,
      "ĠPoly": 3041,
      "ĠYoujinbou": 3042,
      "ĠMemorial": 3043,
      "ĠThat": 3044,
      "ĠThousand": 3045,
      "ĠCyborg": 3046,
      "ĠLike": 3047,
      "ĠDreams": 3048,
      "ĠFuuma": 3049,
      "ĠYouko": 3050,
      "ĠYoukou": 3051,
      "ĠTsubomi": 3052,
      "inson": 3053,
      "ĠKiniro": 3054,
      "ĠDouwa": 3055,
      "ĠDoubutsu": 3056,
      "ĠMeiji": 3057,
      "ĠKumo": 3058,
      "ĠReborn": 3059,
      "2000": 3060,
      "2009": 3061,
      "ĠHanaukyou": 3062,
      "ĠTetsujin": 3063,
      "ĠTetsudou": 3064,
      "ĠStrategy": 3065,
      "ĠUpon": 3066,
      "ĠParis": 3067,
      "nival": 3068,
      "nivers": 3069,
      "enaide": 3070,
      "ĠNatsuyasumi": 3071,
      "ĠKouya": 3072,
      "ĠKoukyoushi": 3073,
      "ĠGanzack": 3074,
      "ĠCarnival": 3075,
      "ĠPower": 3076,
      "ĠElf": 3077,
      "ĠUltra": 3078,
      "ches": 3079,
      "ĠImmoral": 3080,
      "ĠNurses": 3081,
      "ĠCool": 3082,
      "ĠRomantan": 3083,
      "ĠRumble": 3084,
      "ĠRumiko": 3085,
      "ĠWellber": 3086,
      "ĠEien": 3087,
      "ĠEiyuuden": 3088,
      "ĠChildren": 3089,
      "ĠMegaMan": 3090,
      "diver": 3091,
      "ĠTanjou": 3092,
      "ĠNagai": 3093,
      "ĠNegima": 3094,
      "ĠKotou": 3095,
      "ĠBudd": 3096,
      "ĠEyes": 3097,
      "marine": 3098,
      "ĠSasuraiger": 3099,
      "ĠApocalyp": 3100,
      "ĠKikou": 3101,
      "ĠDunbine": 3102,
      "ĠBravo": 3103,
      "ĠRenketsu": 3104,
      "ĠYohouzu": 3105,
      "ĠEarth": 3106,
      "ĠGolden": 3107,
      "ĠSentai": 3108,
      "ĠAoki": 3109,
      "ĠKindaichi": 3110,
      "ĠHadou": 3111,
      "ĠPhantom": 3112,
      "ĠBasics": 3113,
      "ĠOriginal": 3114,
      "ĠHeisei": 3115,
      "ĠDimensional": 3116,
      "ĠYakyuubu": 3117,
      "Guard": 3118,
      "aurs": 3119,
      "lipop": 3120,
      "ĠSayonara": 3121,
      "ĠSquare": 3122,
      "ĠMaria": 3123,
      "ĠAzusa": 3124,
      "ĠKisaragi": 3125,
      "ĠGranDo": 3126,
      "ĠHonoo": 3127,
      "ĠHatsumei": 3128,
      "ĠElementalors": 3129,
      "ĠJuubee": 3130,
      "ĠHyouryuuki": 3131,
      "ĠSoldier": 3132,
      "ĠWebdiver": 3133,
      "ĠTataka": 3134,
      "ĠNazo": 3135,
      "ĠKiba": 3136,
      "ĠParty": 3137,
      "ĠLollipop": 3138,
      "ĠDepths": 3139,
      "ĠFesta": 3140,
      "ĠWhite": 3141,
      "ĠSubmarine": 3142,
      "ĠSanshirou": 3143,
      "ĠMujintou": 3144,
      "ĠKinnikuman": 3145,
      "ĠMahoromatic": 3146,
      "Driver": 3147,
      "ancholy": 3148,
      "areta": 3149,
      "ĠSiberia": 3150,
      "ĠSazae": 3151,
      "ĠSweet": 3152,
      "ĠTakahashi": 3153,
      "ĠMouryou": 3154,
      "ĠMunto": 3155,
      "ĠMelancholy": 3156,
      "ĠAmaenaide": 3157,
      "ĠAmerica": 3158,
      "ĠAbove": 3159,
      "ĠNational": 3160,
      "ĠKuusou": 3161,
      "ĠGakusaver": 3162,
      "ĠGurren": 3163,
      "ĠCorda": 3164,
      "ĠCossette": 3165,
      "ĠHakusho": 3166,
      "ĠHoushiki": 3167,
      "ĠPasso": 3168,
      "ĠLodoss": 3169,
      "ĠDolores": 3170,
      "ĠDoctor": 3171,
      "ĠByouin": 3172,
      "ĠBronze": 3173,
      "ĠBakusou": 3174,
      "ĠBorgman": 3175,
      "ĠRosario": 3176,
      "ĠOukoku": 3177,
      "ĠExpress": 3178,
      "ĠEdition": 3179,
      "ĠJoshikou": 3180,
      "ĠToshokan": 3181,
      "ĠKanipan": 3182,
      "ĠIkkitousen": 3183,
      "ĠGrenadier": 3184,
      "ĠKoukyoushihen": 3185,
      "ĠBuddha": 3186,
      "ĠApocalypse": 3187,
      "ĠGranDoll": 3188,
      "?!": 3189,
      "67": 3190,
      "AC": 3191,
      "AR": 3192,
      "Gar": 3193,
      "HE": 3194,
      "IG": 3195,
      "JI": 3196,
      "Ko": 3197,
      "LO": 3198,
      "Lo": 3199,
      "OR": 3200,
      "Ot": 3201,
      "OON": 3202,
      "RI": 3203,
      "RON": 3204,
      "Xep": 3205,
      "ZE": 3206,
      "au": 3207,
      "bop": 3208,
      "bare": 3209,
      "buri": 3210,
      "cer": 3211,
      "core": 3212,
      "cence": 3213,
      "cia": 3214,
      "dan": 3215,
      "dle": 3216,
      "das": 3217,
      "ear": 3218,
      "eada": 3219,
      "ekin": 3220,
      "fushigi": 3221,
      "gg": 3222,
      "gu": 3223,
      "gent": 3224,
      "gence": 3225,
      "goy": 3226,
      "ginal": 3227,
      "gie": 3228,
      "gald": 3229,
      "hy": 3230,
      "hama": 3231,
      "hun": 3232,
      "hatsu": 3233,
      "hne": 3234,
      "hinden": 3235,
      "hXep": 3236,
      "io": 3237,
      "iven": 3238,
      "iken": 3239,
      "ju": 3240,
      "jong": 3241,
      "kur": 3242,
      "kuz": 3243,
      "lv": 3244,
      "lin": 3245,
      "mm": 3246,
      "more": 3247,
      "mort": 3248,
      "mad": 3249,
      "matsu": 3250,
      "ner": 3251,
      "ners": 3252,
      "oles": 3253,
      "oting": 3254,
      "otsu": 3255,
      "oGai": 3256,
      "pect": 3257,
      "phan": 3258,
      "rat": 3259,
      "red": 3260,
      "rath": 3261,
      "squ": 3262,
      "tation": 3263,
      "uki": 3264,
      "uff": 3265,
      "uaga": 3266,
      "va": 3267,
      "wl": 3268,
      "wei": 3269,
      "xx": 3270,
      "xander": 3271,
      "yout": 3272,
      "yver": 3273,
      "yann": 3274,
      "yomi": 3275,
      "zak": 3276,
      "zuri": 3277,
      "zner": 3278,
      "Ġ=": 3279,
      "Ġ@": 3280,
      "Ġen": 3281,
      "inad": 3282,
      "inchou": 3283,
      "erumon": 3284,
      "metsu": 3285,
      "ora": 3286,
      "anai": 3287,
      "anari": 3288,
      "ania": 3289,
      "ons": 3290,
      "onde": 3291,
      "ater": 3292,
      "aten": 3293,
      "atri": 3294,
      "atha": 3295,
      "athexis": 3296,
      "ĠIV": 3297,
      "ĠIro": 3298,
      "ĠIki": 3299,
      "ĠItsu": 3300,
      "ĠIken": 3301,
      "ĠIta": 3302,
      "ĠIdo": 3303,
      "hea": 3304,
      "hel": 3305,
      "ouzu": 3306,
      "ouble": 3307,
      "ouds": 3308,
      "oupe": 3309,
      "len": 3310,
      "leet": 3311,
      "leid": 3312,
      "leach": 3313,
      "lexander": 3314,
      "arid": 3315,
      "aser": 3316,
      "Ġcathexis": 3317,
      "Ġmy": 3318,
      "allo": 3319,
      "alact": 3320,
      "aloupe": 3321,
      "lie": 3322,
      "liation": 3323,
      "hoemi": 3324,
      "uraku": 3325,
      "utu": 3326,
      "ĠSm": 3327,
      "ĠSw": 3328,
      "ĠSil": 3329,
      "ĠSep": 3330,
      "ĠSore": 3331,
      "ĠShow": 3332,
      "ĠSout": 3333,
      "ĠSour": 3334,
      "ĠSurvi": 3335,
      "ĠSunny": 3336,
      "ĠSile": 3337,
      "ĠSousei": 3338,
      "ĠSket": 3339,
      "ĠSettai": 3340,
      "ĠSoma": 3341,
      "ĠSimit": 3342,
      "ĠTs": 3343,
      "ĠTei": 3344,
      "ĠTrap": 3345,
      "ĠTot": 3346,
      "ĠTouk": 3347,
      "ĠTomo": 3348,
      "ĠToushi": 3349,
      "ĠTiger": 3350,
      "ĠTHE": 3351,
      "ĠTutu": 3352,
      "eda": 3353,
      "amaru": 3354,
      "acer": 3355,
      "ache": 3356,
      "acle": 3357,
      "acha": 3358,
      "ĠMou": 3359,
      "ĠMut": 3360,
      "ĠMama": 3361,
      "ĠMake": 3362,
      "ĠMayb": 3363,
      "loss": 3364,
      "ĠAD": 3365,
      "ĠAss": 3366,
      "ĠAlive": 3367,
      "ĠAka": 3368,
      "ĠApp": 3369,
      "ĠAlexander": 3370,
      "tier": 3371,
      "rog": 3372,
      "roit": 3373,
      "roket": 3374,
      "ĠNT": 3375,
      "ĠNap": 3376,
      "ĠNaku": 3377,
      "ĠNAN": 3378,
      "ĠNyan": 3379,
      "ĠNitou": 3380,
      "ĠNikki": 3381,
      "ecure": 3382,
      "ayate": 3383,
      "aymore": 3384,
      "ĠKod": 3385,
      "ĠKate": 3386,
      "ĠKous": 3387,
      "ĠKoku": 3388,
      "ĠKero": 3389,
      "ĠKapp": 3390,
      "ĠKoro": 3391,
      "ĠKamu": 3392,
      "ĠKoroshi": 3393,
      "epper": 3394,
      "ush": 3395,
      "usha": 3396,
      "ushin": 3397,
      "ĠGri": 3398,
      "ĠGlor": 3399,
      "ĠGravi": 3400,
      "ĠGIG": 3401,
      "ĠGalact": 3402,
      "ĠCo": 3403,
      "ĠCob": 3404,
      "ĠCond": 3405,
      "ĠCray": 3406,
      "ĠCow": 3407,
      "ĠCage": 3408,
      "ĠCroket": 3409,
      "etroit": 3410,
      "hern": 3411,
      "rial": 3412,
      "ritsu": 3413,
      "rika": 3414,
      "riage": 3415,
      "ĠHid": 3416,
      "ĠHame": 3417,
      "ĠHumi": 3418,
      "ĠHachi": 3419,
      "ĠHima": 3420,
      "ĠHishou": 3421,
      "ĠHuman": 3422,
      "ĠHinad": 3423,
      "ĠHaten": 3424,
      "ĠHayate": 3425,
      "llcia": 3426,
      "llyann": 3427,
      "ĠNoland": 3428,
      "ĠPer": 3429,
      "ĠPom": 3430,
      "ĠPsy": 3431,
      "ĠPoke": 3432,
      "ĠPoko": 3433,
      "ĠPier": 3434,
      "ĠPink": 3435,
      "ĠPepper": 3436,
      "outo": 3437,
      "chic": 3438,
      "ĠLing": 3439,
      "ĠLib": 3440,
      "ĠLong": 3441,
      "ĠLad": 3442,
      "ĠLuc": 3443,
      "ĠLamp": 3444,
      "ĠLala": 3445,
      "ĠLAG": 3446,
      "ĠLaika": 3447,
      "ĠLeda": 3448,
      "igen": 3449,
      "oot": 3450,
      "kimatsu": 3451,
      "astic": 3452,
      "aikyoku": 3453,
      "ĠDec": 3454,
      "ĠDes": 3455,
      "ĠDrama": 3456,
      "ĠDance": 3457,
      "ĠDap": 3458,
      "ĠDel": 3459,
      "ĠDiction": 3460,
      "ĠDanc": 3461,
      "ĠDelp": 3462,
      "ĠDallo": 3463,
      "ĠDetroit": 3464,
      "feat": 3465,
      "iton": 3466,
      "ĠBa": 3467,
      "ĠBou": 3468,
      "ĠBand": 3469,
      "ĠBre": 3470,
      "ĠBeg": 3471,
      "ĠBunn": 3472,
      "ĠBara": 3473,
      "ĠBRON": 3474,
      "ĠByout": 3475,
      "ĠBinchou": 3476,
      "ĠBleach": 3477,
      "shiteru": 3478,
      "ĠAns": 3479,
      "ĠAniy": 3480,
      "geon": 3481,
      "gest": 3482,
      "geant": 3483,
      "geance": 3484,
      "ola": 3485,
      "olf": 3486,
      "olin": 3487,
      "illon": 3488,
      "imum": 3489,
      "ister": 3490,
      "ider": 3491,
      "ako": 3492,
      "akuri": 3493,
      "enshou": 3494,
      "ĠIsaku": 3495,
      "lusiven": 3496,
      "oiden": 3497,
      "ĠCanary": 3498,
      "ĠCanvas": 3499,
      "ĠNote": 3500,
      "ody": 3501,
      "ĠRan": 3502,
      "ĠRob": 3503,
      "ĠRem": 3504,
      "ĠRei": 3505,
      "ĠRune": 3506,
      "ĠRide": 3507,
      "ĠRonde": 3508,
      "ĠRhea": 3509,
      "ĠRacer": 3510,
      "speada": 3511,
      "obia": 3512,
      "lowne": 3513,
      "unyuu": 3514,
      "under": 3515,
      "ĠFive": 3516,
      "ĠFuture": 3517,
      "ĠFang": 3518,
      "ĠFrom": 3519,
      "ĠFleet": 3520,
      "ĠFrog": 3521,
      "ĠFobia": 3522,
      "isatsu": 3523,
      "entai": 3524,
      "ĠOo": 3525,
      "ĠOsu": 3526,
      "ĠOka": 3527,
      "ĠOsh": 3528,
      "umatsu": 3529,
      "ĠWas": 3530,
      "ĠWho": 3531,
      "ĠWake": 3532,
      "ĠWere": 3533,
      "ĠWaga": 3534,
      "ĠWish": 3535,
      "ĠWrath": 3536,
      "ĠWaikyoku": 3537,
      "ĠWolf": 3538,
      "antica": 3539,
      "oker": 3540,
      "fiend": 3541,
      "oleon": 3542,
      "avage": 3543,
      "ĠYon": 3544,
      "ĠYos": 3545,
      "ĠYadam": 3546,
      "kaiser": 3547,
      "apan": 3548,
      "ugo": 3549,
      "ugun": 3550,
      "uguu": 3551,
      "ĠEr": 3552,
      "ĠEro": 3553,
      "ĠEik": 3554,
      "ĠEgg": 3555,
      "ĠEllcia": 3556,
      "ĠElusiven": 3557,
      "ĠShame": 3558,
      "ĠShuus": 3559,
      "ĠShura": 3560,
      "ĠShuten": 3561,
      "ĠMosqu": 3562,
      "ĠMospeada": 3563,
      "tsukai": 3564,
      "irth": 3565,
      "ires": 3566,
      "sengumi": 3567,
      "ocation": 3568,
      "ĠJot": 3569,
      "ĠJish": 3570,
      "ĠJiken": 3571,
      "ĠJoker": 3572,
      "ĠJapan": 3573,
      "ĠSpirits": 3574,
      "ĠSpoon": 3575,
      "ĠSpider": 3576,
      "ĠStep": 3577,
      "ĠStron": 3578,
      "ĠVicky": 3579,
      "ĠVie": 3580,
      "ĠUm": 3581,
      "ĠUs": 3582,
      "ĠUt": 3583,
      "ĠUtsu": 3584,
      "ĠUnd": 3585,
      "ĠUnivers": 3586,
      "ĠMaki": 3587,
      "ĠMajo": 3588,
      "ĠMajin": 3589,
      "adaki": 3590,
      "addin": 3591,
      "aduation": 3592,
      "ĠZone": 3593,
      "ĠZai": 3594,
      "ĠZeg": 3595,
      "ĠZomb": 3596,
      "ĠZwei": 3597,
      "ĠChamp": 3598,
      "ĠChaser": 3599,
      "ĠChacha": 3600,
      "ĠSeima": 3601,
      "ĠTenka": 3602,
      "ĠTengoku": 3603,
      "ogane": 3604,
      "ogoroshi": 3605,
      "ĠBlame": 3606,
      "oto": 3607,
      "ĠInvestigation": 3608,
      "ĠInbou": 3609,
      "ĠMonshou": 3610,
      "azing": 3611,
      "azuk": 3612,
      "ĠShik": 3613,
      "ĠShift": 3614,
      "ĠPrai": 3615,
      "ĠPrecure": 3616,
      "ĠHebi": 3617,
      "ĠDeb": 3618,
      "ĠDear": 3619,
      "ĠDefeat": 3620,
      "ĠArt": 3621,
      "ĠArgent": 3622,
      "ĠDruaga": 3623,
      "ĠNeon": 3624,
      "ĠNever": 3625,
      "ĠTele": 3626,
      "ĠLost": 3627,
      "ĠShinkou": 3628,
      "ĠShinshou": 3629,
      "ĠShinsengumi": 3630,
      "ĠMiteru": 3631,
      "essa": 3632,
      "ĠKoe": 3633,
      "ĠKoala": 3634,
      "ĠKojir": 3635,
      "ĠKoJI": 3636,
      "ĠBear": 3637,
      "ĠBebop": 3638,
      "Ġ05": 3639,
      "Ġ07": 3640,
      "ĠMahoutsukai": 3641,
      "ĠKenya": 3642,
      "ĠChijoku": 3643,
      "ĠTsuku": 3644,
      "ĠTsuushin": 3645,
      "ĠDaishou": 3646,
      "ĠRevenge": 3647,
      "max": 3648,
      "ĠAdoles": 3649,
      "ĠTaiyou": 3650,
      "ĠSeikai": 3651,
      "ĠSeiken": 3652,
      "ĠSeijuu": 3653,
      "ĠSeikimatsu": 3654,
      "ĠMeguri": 3655,
      "ĠStars": 3656,
      "ĠMasters": 3657,
      "ĠMasaru": 3658,
      "ĠYuki": 3659,
      "ĠYuuguu": 3660,
      "ĠDragonar": 3661,
      "ĠDoraemons": 3662,
      "hinaga": 3663,
      "kyway": 3664,
      "tail": 3665,
      "ĠSaiyu": 3666,
      "ĠSaikyou": 3667,
      "ĠKanan": 3668,
      "ĠKanchou": 3669,
      "ĠClouds": 3670,
      "ĠClaymore": 3671,
      "ĠKurogane": 3672,
      "ĠComing": 3673,
      "ĠKao": 3674,
      "ĠKajitsu": 3675,
      "ĠKaleid": 3676,
      "ĠMarple": 3677,
      "ĠMarginal": 3678,
      "ĠMarriage": 3679,
      "ĠGreed": 3680,
      "ĠGakuin": 3681,
      "ĠNobody": 3682,
      "ĠDaugh": 3683,
      "ĠJunai": 3684,
      "ĠIkka": 3685,
      "ĠPrix": 3686,
      "ĠBoys": 3687,
      "ĠWork": 3688,
      "ĠMusekin": 3689,
      "ĠMiracle": 3690,
      "ĠNanako": 3691,
      "ĠGenki": 3692,
      "ĠGenshi": 3693,
      "ĠHitoz": 3694,
      "ĠHitotsu": 3695,
      "lander": 3696,
      "ĠCapu": 3697,
      "ĠSane": 3698,
      "ĠSanjuus": 3699,
      "ĠMania": 3700,
      "ĠAladdin": 3701,
      "ĠGraduation": 3702,
      "ĠKoishiteru": 3703,
      "ĠLeo": 3704,
      "ĠLeina": 3705,
      "ĠBakunyuu": 3706,
      "ĠBakumatsu": 3707,
      "ĠThrot": 3708,
      "ĠDigital": 3709,
      "ĠOtoko": 3710,
      "ĠEnma": 3711,
      "ĠEnshuu": 3712,
      "ĠViking": 3713,
      "ĠViolin": 3714,
      "ĠSeishun": 3715,
      "ĠMini": 3716,
      "ĠGuyver": 3717,
      "ĠRespect": 3718,
      "ĠOuji": 3719,
      "ĠOujis": 3720,
      "ĠWatarid": 3721,
      "achan": 3722,
      "ĠKinkyuu": 3723,
      "ĠShooting": 3724,
      "ĠMeiou": 3725,
      "ĠMeikai": 3726,
      "ĠKarin": 3727,
      "ĠKarakuri": 3728,
      "ĠGargoy": 3729,
      "ĠYakyu": 3730,
      "ĠRebirth": 3731,
      "irot": 3732,
      "ĠTrue": 3733,
      "ĠTrain": 3734,
      "ĠTrouble": 3735,
      "ĠAsgald": 3736,
      "ĠBoukenki": 3737,
      "ĠWindup": 3738,
      "ĠTetsuwan": 3739,
      "doki": 3740,
      "doji": 3741,
      "ĠItadaki": 3742,
      "ĠKakyuusei": 3743,
      "ĠHikaru": 3744,
      "ĠRail": 3745,
      "ĠRaoh": 3746,
      "ĠRahXep": 3747,
      "ĠRyouri": 3748,
      "ĠRyoujoku": 3749,
      "ĠEndless": 3750,
      "ĠStranger": 3751,
      "ĠUrotsukidoji": 3752,
      "ĠSeventh": 3753,
      "ĠMilkyway": 3754,
      "ĠAgatha": 3755,
      "ĠAtom": 3756,
      "ĠColle": 3757,
      "ĠBraves": 3758,
      "ĠJuuni": 3759,
      "ĠJuicy": 3760,
      "ĠStrike": 3761,
      "Ohki": 3762,
      "ĠAkazuk": 3763,
      "ĠAkachan": 3764,
      "ĠGanbare": 3765,
      "ĠCarlv": 3766,
      "ĠPollyann": 3767,
      "ĠPoirot": 3768,
      "ĠBokura": 3769,
      "ĠEvocation": 3770,
      "warerumon": 3771,
      "Ġ999": 3772,
      "atsushi": 3773,
      "atsuri": 3774,
      "ĠImmort": 3775,
      "ĠImouto": 3776,
      "lection": 3777,
      "ĠToppa": 3778,
      "ĠHeroic": 3779,
      "ĠRomantica": 3780,
      "ĠRider": 3781,
      "ĠRiders": 3782,
      "ĠRiddle": 3783,
      "ĠFortune": 3784,
      "ĠYoroiden": 3785,
      "Ġ2167": 3786,
      "ĠVengeance": 3787,
      "ĠUruk": 3788,
      "ĠTenkousei": 3789,
      "ĠGrandma": 3790,
      "ween": 3791,
      "ĠSinners": 3792,
      "ĠClover": 3793,
      "ĠHighlander": 3794,
      "ĠPetits": 3795,
      "ĠForest": 3796,
      "ĠForever": 3797,
      "ĠForeign": 3798,
      "ĠOverfiend": 3799,
      "ĠTekken": 3800,
      "ĠMasks": 3801,
      "1989": 3802,
      "1997": 3803,
      "III": 3804,
      "ĠMakai": 3805,
      "ĠApache": 3806,
      "ĠClassics": 3807,
      "ĠClassmate": 3808,
      "ĠPaprika": 3809,
      "ĠPapillon": 3810,
      "ĠDungeon": 3811,
      "ĠObake": 3812,
      "ĠObasan": 3813,
      "ĠOmake": 3814,
      "ĠOmatsuri": 3815,
      "ĠJuusenki": 3816,
      "ĠMahjong": 3817,
      "ĠChristie": 3818,
      "ĠChristmas": 3819,
      "ĠDivergence": 3820,
      "ĠTroopers": 3821,
      "ĠCrystania": 3822,
      "ĠSentou": 3823,
      "ĠTonde": 3824,
      "ĠTakkyuu": 3825,
      "ĠKitarou": 3826,
      "ĠGinrei": 3827,
      "ĠGintama": 3828,
      "ĠGokuu": 3829,
      "ĠGokuraku": 3830,
      "ĠGensoumad": 3831,
      "ĠHohoemi": 3832,
      "ĠHades": 3833,
      "ĠPhase": 3834,
      "ĠPortrai": 3835,
      "ĠOrphan": 3836,
      "ĠOrigins": 3837,
      "ĠSteel": 3838,
      "ĠZetsubou": 3839,
      "ĠHeisa": 3840,
      "ĠRevolutionary": 3841,
      "ĠRevelations": 3842,
      "ĠMusumet": 3843,
      "Gaim": 3844,
      "ĠIGPX": 3845,
      "ĠIGLO": 3846,
      "ĠIketeru": 3847,
      "ĠMedical": 3848,
      "ĠAmazing": 3849,
      "ĠNingen": 3850,
      "ĠKeisatsu": 3851,
      "ĠKyojin": 3852,
      "ĠGaoGai": 3853,
      "ĠClimber": 3854,
      "ĠClimax": 3855,
      "ĠReturn": 3856,
      "ĠReturns": 3857,
      "restrial": 3858,
      "Ġ203": 3859,
      "Ġ2011": 3860,
      "ĠUtawarerumon": 3861,
      "ĠChinmi": 3862,
      "ĠHoneybee": 3863,
      "ĠChronicle": 3864,
      "ĠChronicles": 3865,
      "mphon": 3866,
      "ĠSPT": 3867,
      "ĠSergeant": 3868,
      "ĠSensen": 3869,
      "ĠThird": 3870,
      "ĠMaya": 3871,
      "ĠMecha": 3872,
      "ĠKokka": 3873,
      "ĠCleavage": 3874,
      "ĠCampus": 3875,
      "ĠHabit": 3876,
      "ĠBLAC": 3877,
      "ĠBoin": 3878,
      "ĠBroly": 3879,
      "ĠBeyond": 3880,
      "ĠBakuhatsu": 3881,
      "ĠFrontier": 3882,
      "ĠWitches": 3883,
      "ĠEternal": 3884,
      "ĠShurato": 3885,
      "Ġ2005": 3886,
      "ĠMadara": 3887,
      "ĠBeauti": 3888,
      "ĠCommand": 3889,
      "ĠDaigunder": 3890,
      "ĠKingdom": 3891,
      "ĠSeisenshi": 3892,
      "ĠCollector": 3893,
      "ĠInfinity": 3894,
      "ĠCrystals": 3895,
      "ĠMitsumeteitai": 3896,
      "ĠDinoZaurs": 3897,
      "aflowne": 3898,
      "ougar": 3899,
      "ĠSymphon": 3900,
      "ĠTerrestrial": 3901,
      "ĠToushinden": 3902,
      "ĠMurder": 3903,
      "ĠNaruto": 3904,
      "ĠGakki": 3905,
      "ĠCantaloupe": 3906,
      "ĠCasshern": 3907,
      "ĠCircle": 3908,
      "ĠCubes": 3909,
      "ĠHoly": 3910,
      "ĠPersia": 3911,
      "ĠLayzner": 3912,
      "ĠLightning": 3913,
      "ĠDuel": 3914,
      "ĠButler": 3915,
      "ĠBoukensha": 3916,
      "ĠFukkatsu": 3917,
      "ĠOzanari": 3918,
      "ĠEscaflowne": 3919,
      "ĠBlazers": 3920,
      "ĠNekogoroshi": 3921,
      "ĠSaezuri": 3922,
      "ĠTatakae": 3923,
      "ĠDoctors": 3924,
      "Loan": 3925,
      "Otome": 3926,
      "kuzu": 3927,
      "ĠIkite": 3928,
      "ĠIkenie": 3929,
      "ĠIdolo": 3930,
      "ĠSilver": 3931,
      "ĠSouten": 3932,
      "ĠSouryuuden": 3933,
      "ĠSketch": 3934,
      "ĠSimitra": 3935,
      "ĠTouka": 3936,
      "ĠTomoyo": 3937,
      "ĠMaybe": 3938,
      "ĠNapoleon": 3939,
      "ĠNANJo": 3940,
      "ĠNitouhei": 3941,
      "ĠKamui": 3942,
      "ĠKoroshiya": 3943,
      "ĠGrimm": 3944,
      "ĠGalactic": 3945,
      "ĠCobra": 3946,
      "ĠCondor": 3947,
      "ĠCrayon": 3948,
      "ĠCowboy": 3949,
      "ĠHamelin": 3950,
      "ĠHumiliation": 3951,
      "ĠHimawari": 3952,
      "ĠHishouden": 3953,
      "ĠHumanoid": 3954,
      "ĠHinadori": 3955,
      "ĠHatenkou": 3956,
      "ĠNolandia": 3957,
      "ĠPsychic": 3958,
      "ĠPokemon": 3959,
      "ĠPierce": 3960,
      "ĠPepperpot": 3961,
      "ĠLAGOON": 3962,
      "ĠDaphne": 3963,
      "ĠDictionary": 3964,
      "ĠDancougar": 3965,
      "ĠDelpower": 3966,
      "ĠDallos": 3967,
      "ĠBandits": 3968,
      "ĠBunnies": 3969,
      "ĠBRONZE": 3970,
      "ĠByoutou": 3971,
      "ĠAniyome": 3972,
      "ĠOkaasan": 3973,
      "ĠOshare": 3974,
      "ĠYoshinaga": 3975,
      "ĠYadamon": 3976,
      "ĠElusiveness": 3977,
      "ĠShuusaku": 3978,
      "ĠMosquiton": 3979,
      "ĠJishu": 3980,
      "ĠJikenbo": 3981,
      "ĠStrongest": 3982,
      "ĠView": 3983,
      "ĠUnder": 3984,
      "ĠZombie": 3985,
      "ĠArgento": 3986,
      "ĠKojirou": 3987,
      "ĠTsukuyomi": 3988,
      "ĠDaishougun": 3989,
      "ĠAdolescence": 3990,
      "ĠSaiyuki": 3991,
      "ĠKaleido": 3992,
      "ĠDaughter": 3993,
      "ĠMusekinin": 3994,
      "ĠHitozuma": 3995,
      "ĠSanjuushi": 3996,
      "ĠThrottle": 3997,
      "ĠOujisama": 3998,
      "ĠWataridori": 3999,
      "ĠGargoyle": 4000,
      "ĠYakyuugun": 4001,
      "ĠAsgaldh": 4002,
      "ĠItadakiman": 4003,
      "ĠRahXephon": 4004,
      "ĠAkazukin": 4005,
      "ĠCarlvinson": 4006,
      "ĠPollyanna": 4007,
      "ĠImmortal": 4008,
      "ĠGensoumaden": 4009,
      "ĠPortrait": 4010,
      "ĠOrphans": 4011,
      "ĠIGLOO": 4012,
      "ĠGaoGaiGar": 4013,
      "ĠUtawarerumono": 4014,
      "ĠBLACK": 4015,
      "!!;": 4016,
      "45": 4017,
      "89": 4018,
      "91": 4019,
      "AT": 4020,
      "AX": 4021,
      "BC": 4022,
      "Boo": 4023,
      "Boy": 4024,
      "Chan": 4025,
      "Daman": 4026,
      "DER": 4027,
      "EN": 4028,
      "Girl": 4029,
      "IK": 4030,
      "IV": 4031,
      "Ind": 4032,
      "Ki": 4033,
      "KBC": 4034,
      "ME": 4035,
      "MS": 4036,
      "Mi": 4037,
      "Maiden": 4038,
      "MDriver": 4039,
      "Matri": 4040,
      "OL": 4041,
      "OV": 4042,
      "Pet": 4043,
      "RY": 4044,
      "Re": 4045,
      "RMS": 4046,
      "SX": 4047,
      "UE": 4048,
      "XX": 4049,
      "XIII": 4050,
      "aw": 4051,
      "bin": 4052,
      "bal": 4053,
      "bum": 4054,
      "bad": 4055,
      "betsu": 4056,
      "bakei": 4057,
      "cal": 4058,
      "cist": 4059,
      "cand": 4060,
      "crow": 4061,
      "cole": 4062,
      "czer": 4063,
      "dge": 4064,
      "dess": 4065,
      "dream": 4066,
      "ets": 4067,
      "eur": 4068,
      "eir": 4069,
      "eong": 4070,
      "fu": 4071,
      "far": 4072,
      "fli": 4073,
      "fam": 4074,
      "figh": 4075,
      "fect": 4076,
      "fession": 4077,
      "get": 4078,
      "gation": 4079,
      "gum": 4080,
      "gari": 4081,
      "glass": 4082,
      "gami": 4083,
      "gau": 4084,
      "hai": 4085,
      "hrine": 4086,
      "iho": 4087,
      "ishi": 4088,
      "itial": 4089,
      "iei": 4090,
      "itive": 4091,
      "ioku": 4092,
      "iers": 4093,
      "ija": 4094,
      "iKi": 4095,
      "jime": 4096,
      "jim": 4097,
      "jun": 4098,
      "jaku": 4099,
      "jica": 4100,
      "jigen": 4101,
      "jeong": 4102,
      "kill": 4103,
      "kaz": 4104,
      "kko": 4105,
      "kichi": 4106,
      "lon": 4107,
      "linger": 4108,
      "mit": 4109,
      "myou": 4110,
      "maru": 4111,
      "mula": 4112,
      "matsuki": 4113,
      "nam": 4114,
      "net": 4115,
      "nes": 4116,
      "nect": 4117,
      "napp": 4118,
      "ox": 4119,
      "pst": 4120,
      "pit": 4121,
      "pper": 4122,
      "pei": 4123,
      "rt": 4124,
      "ril": 4125,
      "rugg": 4126,
      "ragon": 4127,
      "rage": 4128,
      "rino": 4129,
      "rakei": 4130,
      "rlie": 4131,
      "sa": 4132,
      "sip": 4133,
      "slan": 4134,
      "tz": 4135,
      "the": 4136,
      "tical": 4137,
      "tem": 4138,
      "tact": 4139,
      "taka": 4140,
      "tect": 4141,
      "tto": 4142,
      "uy": 4143,
      "ues": 4144,
      "uits": 4145,
      "uya": 4146,
      "vor": 4147,
      "wou": 4148,
      "wai": 4149,
      "ward": 4150,
      "ware": 4151,
      "wagi": 4152,
      "xess": 4153,
      "yay": 4154,
      "yane": 4155,
      "ynam": 4156,
      "zen": 4157,
      "zase": 4158,
      "zort": 4159,
      "Ġ|": 4160,
      "Ġed": 4161,
      "Ġout": 4162,
      "Ġtaru": 4163,
      "Ġtale": 4164,
      "ini": 4165,
      "inic": 4166,
      "ined": 4167,
      "inos": 4168,
      "inaru": 4169,
      "inky": 4170,
      "inland": 4171,
      "inning": 4172,
      "inkaiser": 4173,
      "erk": 4174,
      "eror": 4175,
      "erday": 4176,
      "erty": 4177,
      "erlock": 4178,
      "erite": 4179,
      "eranai": 4180,
      "orm": 4181,
      "oru": 4182,
      "oron": 4183,
      "oral": 4184,
      "ored": 4185,
      "orori": 4186,
      "orora": 4187,
      "orcist": 4188,
      "ingles": 4189,
      "ingend": 4190,
      "angle": 4191,
      "anban": 4192,
      "onance": 4193,
      "onatsu": 4194,
      "onaka": 4195,
      "ator": 4196,
      "atter": 4197,
      "attered": 4198,
      "atob": 4199,
      "atov": 4200,
      "atos": 4201,
      "atra": 4202,
      "ataki": 4203,
      "atantei": 4204,
      "atarou": 4205,
      "atrino": 4206,
      "ĠIg": 4207,
      "ĠIl": 4208,
      "ĠIss": 4209,
      "ĠIpp": 4210,
      "ĠIzu": 4211,
      "ĠIlls": 4212,
      "ĠIria": 4213,
      "ĠIczer": 4214,
      "ĠIjigen": 4215,
      "hess": 4216,
      "heto": 4217,
      "leberry": 4218,
      "aro": 4219,
      "areru": 4220,
      "arcrow": 4221,
      "arget": 4222,
      "thical": 4223,
      "ena": 4224,
      "enti": 4225,
      "asaki": 4226,
      "asuman": 4227,
      "ketsuki": 4228,
      "ico": 4229,
      "ication": 4230,
      "icine": 4231,
      "ichin": 4232,
      "ichama": 4233,
      "allow": 4234,
      "alian": 4235,
      "alopo": 4236,
      "lis": 4237,
      "sto": 4238,
      "stalker": 4239,
      "storm": 4240,
      "Ġray": 4241,
      "Ġdake": 4242,
      "hog": 4243,
      "hood": 4244,
      "hoyo": 4245,
      "hoku": 4246,
      "anto": 4247,
      "antastic": 4248,
      "tsugyou": 4249,
      "urus": 4250,
      "urug": 4251,
      "urik": 4252,
      "urse": 4253,
      "uragi": 4254,
      "uriru": 4255,
      "utter": 4256,
      "utai": 4257,
      "utte": 4258,
      "utante": 4259,
      "ĠSle": 4260,
      "ĠSal": 4261,
      "ĠSed": 4262,
      "ĠSher": 4263,
      "ĠSki": 4264,
      "ĠSurvival": 4265,
      "ĠSir": 4266,
      "ĠSind": 4267,
      "ĠSong": 4268,
      "ĠSara": 4269,
      "ĠSku": 4270,
      "ĠSky": 4271,
      "ĠSins": 4272,
      "ĠSign": 4273,
      "ĠSwan": 4274,
      "ĠSakusen": 4275,
      "ĠSlip": 4276,
      "ĠSession": 4277,
      "ĠSola": 4278,
      "ĠSSX": 4279,
      "ĠSkill": 4280,
      "ĠSsip": 4281,
      "ĠSingles": 4282,
      "ĠTO": 4283,
      "ĠTep": 4284,
      "ĠTab": 4285,
      "ĠTong": 4286,
      "ĠTree": 4287,
      "ĠTalker": 4288,
      "ĠTante": 4289,
      "ĠTada": 4290,
      "ĠTentai": 4291,
      "ĠTessa": 4292,
      "ĠTarget": 4293,
      "edit": 4294,
      "edge": 4295,
      "eders": 4296,
      "amond": 4297,
      "amis": 4298,
      "amari": 4299,
      "amboo": 4300,
      "amball": 4301,
      "amoto": 4302,
      "omed": 4303,
      "omen": 4304,
      "terature": 4305,
      "lders": 4306,
      "leseed": 4307,
      "ĠMec": 4308,
      "ĠMystery": 4309,
      "ĠMary": 4310,
      "ĠMap": 4311,
      "ĠMother": 4312,
      "ĠMous": 4313,
      "ĠMound": 4314,
      "ĠMachi": 4315,
      "ĠMita": 4316,
      "ĠMitai": 4317,
      "ĠMicha": 4318,
      "ĠMikan": 4319,
      "ĠMAX": 4320,
      "ĠMatantei": 4321,
      "ves": 4322,
      "veil": 4323,
      "ilm": 4324,
      "ille": 4325,
      "ilty": 4326,
      "oming": 4327,
      "omama": 4328,
      "omber": 4329,
      "omugi": 4330,
      "ominland": 4331,
      "loo": 4332,
      "lody": 4333,
      "load": 4334,
      "ĠAge": 4335,
      "ĠAkai": 4336,
      "ĠAeg": 4337,
      "ĠAachi": 4338,
      "ĠAyashi": 4339,
      "ĠAIK": 4340,
      "ĠAMDriver": 4341,
      "ĠARMS": 4342,
      "ĠAxess": 4343,
      "ĠAyane": 4344,
      "tiful": 4345,
      "vius": 4346,
      "vision": 4347,
      "vigation": 4348,
      "rose": 4349,
      "ĠNatural": 4350,
      "ĠNature": 4351,
      "eck": 4352,
      "ayome": 4353,
      "ayfar": 4354,
      "ĠKO": 4355,
      "ĠKas": 4356,
      "ĠKig": 4357,
      "ĠKour": 4358,
      "ĠKoun": 4359,
      "ĠKun": 4360,
      "ĠKab": 4361,
      "ĠKop": 4362,
      "ĠKoc": 4363,
      "ĠKei": 4364,
      "ĠKad": 4365,
      "ĠKeg": 4366,
      "ĠKyuu": 4367,
      "ĠKami": 4368,
      "ĠKemon": 4369,
      "ĠKran": 4370,
      "ĠKago": 4371,
      "ĠKise": 4372,
      "ĠKantai": 4373,
      "ĠKomugi": 4374,
      "usou": 4375,
      "ĠGT": 4376,
      "ĠGer": 4377,
      "ĠGol": 4378,
      "ĠGass": 4379,
      "ĠGrow": 4380,
      "ĠGather": 4381,
      "ĠGem": 4382,
      "ĠGray": 4383,
      "ĠGord": 4384,
      "ĠGad": 4385,
      "ĠGrave": 4386,
      "ĠGash": 4387,
      "ĠGale": 4388,
      "ĠGyak": 4389,
      "ĠGPX": 4390,
      "ĠGantai": 4391,
      "ĠGEN": 4392,
      "ĠGurug": 4393,
      "ĠCB": 4394,
      "ĠChe": 4395,
      "ĠCust": 4396,
      "ĠCast": 4397,
      "ĠCind": 4398,
      "ĠChic": 4399,
      "ĠCade": 4400,
      "ĠCasu": 4401,
      "ĠCock": 4402,
      "ĠCKBC": 4403,
      "ĠCRY": 4404,
      "ĠCurse": 4405,
      "ety": 4406,
      "etaman": 4407,
      "Ġja": 4408,
      "ese": 4409,
      "rive": 4410,
      "riss": 4411,
      "rift": 4412,
      "venation": 4413,
      "ager": 4414,
      "agic": 4415,
      "agyuu": 4416,
      "agutsu": 4417,
      "Ġare": 4418,
      "ĠHak": 4419,
      "ĠHatch": 4420,
      "ĠHel": 4421,
      "ĠHound": 4422,
      "ĠHood": 4423,
      "ĠHei": 4424,
      "ĠHey": 4425,
      "ĠHaku": 4426,
      "ĠHang": 4427,
      "ĠHuck": 4428,
      "ĠHerlock": 4429,
      "ĠHedge": 4430,
      "hiku": 4431,
      "lla": 4432,
      "llar": 4433,
      "ĠNooz": 4434,
      "ĠNova": 4435,
      "ĠPi": 4436,
      "ĠPy": 4437,
      "ĠPon": 4438,
      "ĠPet": 4439,
      "ĠPit": 4440,
      "ĠPent": 4441,
      "ĠPik": 4442,
      "ĠPia": 4443,
      "ĠPoy": 4444,
      "ĠPian": 4445,
      "ĠPlay": 4446,
      "ĠPorp": 4447,
      "ĠPorn": 4448,
      "outei": 4449,
      "oulder": 4450,
      "ĠeX": 4451,
      "ĠLime": 4452,
      "ĠLak": 4453,
      "ĠLun": 4454,
      "ĠLum": 4455,
      "ĠLemon": 4456,
      "ĠLago": 4457,
      "ĠLotte": 4458,
      "ĠLimit": 4459,
      "iganger": 4460,
      "attod": 4461,
      "ooka": 4462,
      "kiku": 4463,
      "kiburi": 4464,
      "kidoki": 4465,
      "aiki": 4466,
      "aide": 4467,
      "aizer": 4468,
      "ĠDX": 4469,
      "ĠDan": 4470,
      "ĠDame": 4471,
      "ĠDisc": 4472,
      "ĠDrill": 4473,
      "ĠDuc": 4474,
      "ĠDante": 4475,
      "ĠDensha": 4476,
      "ĠDjib": 4477,
      "ĠDynam": 4478,
      "ĠDinos": 4479,
      "ĠDarcrow": 4480,
      "ĠDrive": 4481,
      "ounan": 4482,
      "itor": 4483,
      "peror": 4484,
      "peration": 4485,
      "ĠBist": 4486,
      "ĠBake": 4487,
      "ĠBase": 4488,
      "ĠBob": 4489,
      "ĠBond": 4490,
      "ĠBum": 4491,
      "ĠBem": 4492,
      "ĠBine": 4493,
      "ĠBef": 4494,
      "ĠBad": 4495,
      "ĠBers": 4496,
      "ĠBaz": 4497,
      "ĠBos": 4498,
      "ĠBang": 4499,
      "ĠBub": 4500,
      "ĠBurai": 4501,
      "ĠBagi": 4502,
      "ĠBump": 4503,
      "ĠButou": 4504,
      "ĠBomb": 4505,
      "ĠBusty": 4506,
      "ĠBloss": 4507,
      "ĠBush": 4508,
      "ĠBanban": 4509,
      "ĠBamboo": 4510,
      "ĠBomber": 4511,
      "ĠBeck": 4512,
      "sses": 4513,
      "shiro": 4514,
      "del": 4515,
      "deo": 4516,
      "dewa": 4517,
      "ĠAnata": 4518,
      "ĠAngie": 4519,
      "ĠAnthe": 4520,
      "gei": 4521,
      "assins": 4522,
      "imusha": 4523,
      "anda": 4524,
      "andre": 4525,
      "eeper": 4526,
      "yousha": 4527,
      "akase": 4528,
      "akara": 4529,
      "akoi": 4530,
      "akata": 4531,
      "ĠHare": 4532,
      "ĠHarel": 4533,
      "ibouzu": 4534,
      "iburiru": 4535,
      "berta": 4536,
      "asei": 4537,
      "ĠIsamu": 4538,
      "ĠIscand": 4539,
      "quence": 4540,
      "queror": 4541,
      "lusion": 4542,
      "erella": 4543,
      "ĠLoop": 4544,
      "ĠSomeday": 4545,
      "odaiki": 4546,
      "ĠRas": 4547,
      "ĠRant": 4548,
      "ĠRef": 4549,
      "ĠRunn": 4550,
      "ĠRachi": 4551,
      "ĠRise": 4552,
      "lita": 4553,
      "splay": 4554,
      "oba": 4555,
      "obre": 4556,
      "obutai": 4557,
      "moi": 4558,
      "unin": 4559,
      "undou": 4560,
      "unication": 4561,
      "ĠFem": 4562,
      "ĠFuma": 4563,
      "ĠFlor": 4564,
      "ĠFunny": 4565,
      "ĠFran": 4566,
      "ĠFare": 4567,
      "ĠFland": 4568,
      "ĠFanc": 4569,
      "ĠFox": 4570,
      "ĠFantastic": 4571,
      "ĠFurik": 4572,
      "ĠFilm": 4573,
      "erie": 4574,
      "erian": 4575,
      "isei": 4576,
      "isuru": 4577,
      "oboku": 4578,
      "ĠOZ": 4579,
      "ĠOther": 4580,
      "ĠOos": 4581,
      "ĠOpp": 4582,
      "ĠOyak": 4583,
      "ĠOgen": 4584,
      "ĠOdin": 4585,
      "ĠOpen": 4586,
      "ĠOyay": 4587,
      "ĠOperation": 4588,
      "ĠOobutai": 4589,
      "ĠOmoi": 4590,
      "umanga": 4591,
      "umeria": 4592,
      "ĠWul": 4593,
      "ĠWall": 4594,
      "ĠWow": 4595,
      "ĠWaka": 4596,
      "ĠWander": 4597,
      "ĠWalker": 4598,
      "ĠWAR": 4599,
      "ĠWXIII": 4600,
      "ĠWomen": 4601,
      "ĠWayfar": 4602,
      "logue": 4603,
      "ameshrine": 4604,
      "eman": 4605,
      "okko": 4606,
      "abareta": 4607,
      "abutte": 4608,
      "ĠYs": 4609,
      "ĠYob": 4610,
      "ĠYest": 4611,
      "ĠYuk": 4612,
      "ĠYoko": 4613,
      "ĠYugi": 4614,
      "ĠYoh": 4615,
      "ĠYats": 4616,
      "ĠYear": 4617,
      "ĠYAT": 4618,
      "ĠYatter": 4619,
      "ĠYareru": 4620,
      "ĠYasuman": 4621,
      "ĠYagyuu": 4622,
      "ĠYattod": 4623,
      "apain": 4624,
      "joined": 4625,
      "ĠEve": 4626,
      "ĠEnt": 4627,
      "ĠEmi": 4628,
      "ĠEvent": 4629,
      "ĠElec": 4630,
      "ĠEater": 4631,
      "ĠEcole": 4632,
      "ela": 4633,
      "elve": 4634,
      "ĠShind": 4635,
      "ĠShoukou": 4636,
      "ĠShuff": 4637,
      "ĠShattered": 4638,
      "ĠShichin": 4639,
      "ĠShamball": 4640,
      "ĠShoulder": 4641,
      "ĠShounan": 4642,
      "ĠShasei": 4643,
      "ĠShameshrine": 4644,
      "rors": 4645,
      "uuou": 4646,
      "ĠMoyashi": 4647,
      "ĠMotto": 4648,
      "ĠMolders": 4649,
      "ĠMoominland": 4650,
      "inegau": 4651,
      "tsuou": 4652,
      "tsugeki": 4653,
      "oushou": 4654,
      "opatra": 4655,
      "ira": 4656,
      "iral": 4657,
      "kenshi": 4658,
      "Ġbetween": 4659,
      "ĠJin": 4660,
      "ĠJik": 4661,
      "ĠJos": 4662,
      "ĠJuku": 4663,
      "ĠJikan": 4664,
      "ĠJusty": 4665,
      "ĠJiburiru": 4666,
      "ĠSpa": 4667,
      "ĠSpy": 4668,
      "ĠSpain": 4669,
      "ĠSpiral": 4670,
      "Ġ23": 4671,
      "Ġ25": 4672,
      "ĠStop": 4673,
      "ĠVoy": 4674,
      "ĠVale": 4675,
      "ĠVerite": 4676,
      "ĠVandre": 4677,
      "houbu": 4678,
      "ĠUo": 4679,
      "ĠUly": 4680,
      "ĠUmi": 4681,
      "ĠUdewa": 4682,
      "raph": 4683,
      "ntine": 4684,
      "okuji": 4685,
      "efoot": 4686,
      "bats": 4687,
      "batsu": 4688,
      "okei": 4689,
      "adonna": 4690,
      "suke": 4691,
      "aria": 4692,
      "ĠZatch": 4693,
      "ĠZeir": 4694,
      "ĠZorori": 4695,
      "ĠChu": 4696,
      "ĠChance": 4697,
      "ĠChuu": 4698,
      "ĠChara": 4699,
      "ĠChanto": 4700,
      "ĠSea": 4701,
      "ĠSeed": 4702,
      "ĠSeine": 4703,
      "ĠSexy": 4704,
      "ĠSeires": 4705,
      "ĠSequence": 4706,
      "ĠTenkai": 4707,
      "ogi": 4708,
      "ograph": 4709,
      "ĠSenya": 4710,
      "ĠSennen": 4711,
      "ĠSengen": 4712,
      "ĠBlind": 4713,
      "ĠBlink": 4714,
      "ĠIna": 4715,
      "ĠInter": 4716,
      "ĠInuk": 4717,
      "ĠInma": 4718,
      "ĠInjoku": 4719,
      "ĠIntern": 4720,
      "ĠInitial": 4721,
      "ĠMonte": 4722,
      "ĠMonica": 4723,
      "ikyoushi": 4724,
      "ĠGunyuuden": 4725,
      "ĠSuiei": 4726,
      "ĠSuhoyo": 4727,
      "azone": 4728,
      "azura": 4729,
      "uka": 4730,
      "ĠShiyou": 4731,
      "ĠShiyo": 4732,
      "ĠShirei": 4733,
      "ĠShihai": 4734,
      "ĠShimatsuki": 4735,
      "ĠTower": 4736,
      "ĠToori": 4737,
      "ĠTosh": 4738,
      "ĠTowa": 4739,
      "ĠToward": 4740,
      "ĠTotsugeki": 4741,
      "ĠHells": 4742,
      "ĠHeated": 4743,
      "ĠDelight": 4744,
      "ĠDelusion": 4745,
      "ĠOnsen": 4746,
      "ĠOnmyou": 4747,
      "ĠOnimusha": 4748,
      "ĠAru": 4749,
      "ĠArabian": 4750,
      "ĠArmit": 4751,
      "ĠArslan": 4752,
      "ĠArena": 4753,
      "ĠAramis": 4754,
      "ĠNee": 4755,
      "ĠTeatrino": 4756,
      "ĠLolita": 4757,
      "ĠAngelus": 4758,
      "ĠShinwa": 4759,
      "Ġ15": 4760,
      "ĠMile": 4761,
      "ĠMiyu": 4762,
      "ĠMiyori": 4763,
      "ĠMiija": 4764,
      "ĠKids": 4765,
      "ĠKiddy": 4766,
      "ĠKidnapp": 4767,
      "ĠDorabian": 4768,
      "ĠDororon": 4769,
      "mannen": 4770,
      "ashite": 4771,
      "ĠKiki": 4772,
      "ĠKihon": 4773,
      "ĠKojin": 4774,
      "ĠKoeru": 4775,
      "ĠKozou": 4776,
      "ĠKoinegau": 4777,
      "ĠKosuke": 4778,
      "ĠAnimated": 4779,
      "jiki": 4780,
      "ĠBee": 4781,
      "ĠBeat": 4782,
      "ĠBeware": 4783,
      "Ġ01": 4784,
      "Ġ08": 4785,
      "ĠMahoujin": 4786,
      "ĠAnimations": 4787,
      "ĠKenyuu": 4788,
      "ĠKenji": 4789,
      "ĠKenkou": 4790,
      "ango": 4791,
      "ĠChie": 4792,
      "Ġ31": 4793,
      "Ġ34": 4794,
      "ĠTsuioku": 4795,
      "ĠDaikatsu": 4796,
      "ĠDairugg": 4797,
      "ĠDaiundou": 4798,
      "ĠReju": 4799,
      "ĠMemo": 4800,
      "ĠMeets": 4801,
      "ĠMezase": 4802,
      "ĠMelody": 4803,
      "ĠGear": 4804,
      "ĠGeist": 4805,
      "ĠGeobre": 4806,
      "ĠHunters": 4807,
      "maveil": 4808,
      "ĠXV": 4809,
      "ĠXtra": 4810,
      "ĠAdrift": 4811,
      "agona": 4812,
      "ĠMagi": 4813,
      "ĠMagister": 4814,
      "ĠRobots": 4815,
      "!!:": 4816,
      "koi": 4817,
      "ĠSeif": 4818,
      "ĠSeihon": 4819,
      "ĠMegaman": 4820,
      "ĠMegalopo": 4821,
      "ĠMegazone": 4822,
      "ĠStarlight": 4823,
      "ĠDragonaut": 4824,
      "ĠGokiburi": 4825,
      "ĠPrincesses": 4826,
      "ĠDiamond": 4827,
      "hinryou": 4828,
      "kutsuou": 4829,
      "ĠSave": 4830,
      "ĠSaurus": 4831,
      "ĠKaiji": 4832,
      "ĠKaiba": 4833,
      "ĠKaiketsu": 4834,
      "ĠConnect": 4835,
      "ĠContact": 4836,
      "ĠConqueror": 4837,
      "ĠConjoined": 4838,
      "ĠSaiya": 4839,
      "ĠSaiyan": 4840,
      "ĠSaishuu": 4841,
      "ĠSaiwai": 4842,
      "ĠKann": 4843,
      "ĠKanon": 4844,
      "ĠKanketsu": 4845,
      "ĠKyoudai": 4846,
      "ĠClinic": 4847,
      "ĠTokusou": 4848,
      "ĠKurumi": 4849,
      "ĠKuroi": 4850,
      "ĠKaette": 4851,
      "ĠKaeranai": 4852,
      "ĠFutago": 4853,
      "ĠFutakoi": 4854,
      "ubi": 4855,
      "ĠTwins": 4856,
      "ĠTwelve": 4857,
      "ĠMyself": 4858,
      "ĠMythical": 4859,
      "ĠMarch": 4860,
      "ĠMarsh": 4861,
      "ĠMaruko": 4862,
      "ĠGreece": 4863,
      "ĠPico": 4864,
      "ĠDae": 4865,
      "ĠDaicon": 4866,
      "ĠJunk": 4867,
      "ĠJunjou": 4868,
      "ĠPrime": 4869,
      "ĠPrimaveil": 4870,
      "ĠMirrors": 4871,
      "ĠNanjo": 4872,
      "ĠNanami": 4873,
      "ĠNanka": 4874,
      "ĠNanpa": 4875,
      "ĠGene": 4876,
      "ĠGenma": 4877,
      "ĠHitou": 4878,
      "ĠHitomi": 4879,
      "ĠHitonatsu": 4880,
      "ĠQu": 4881,
      "ĠProfession": 4882,
      "ĠProtect": 4883,
      "ĠPrologue": 4884,
      "ĠRyu": 4885,
      "ĠRyvius": 4886,
      "annar": 4887,
      "ĠSankichi": 4888,
      "ĠSankenshi": 4889,
      "ĠManyuuki": 4890,
      "ĠAlp": 4891,
      "ĠAlpen": 4892,
      "ĠAlbum": 4893,
      "ĠGrade": 4894,
      "ĠHeartful": 4895,
      "ĠKoihime": 4896,
      "ĠCatman": 4897,
      "ĠCatbl": 4898,
      "ĠCathexis": 4899,
      "ĠLeon": 4900,
      "ĠLeave": 4901,
      "ĠDarkstalker": 4902,
      "ĠBakutou": 4903,
      "ĠRoom": 4904,
      "ĠRoyal": 4905,
      "ĠRoberta": 4906,
      "ĠMazinkaiser": 4907,
      "ĠWorlds": 4908,
      "ĠMemory": 4909,
      "mium": 4910,
      "ĠIchiya": 4911,
      "ĠIchitaka": 4912,
      "ĠIchimannen": 4913,
      "ĠHiki": 4914,
      "ĠHiwou": 4915,
      "ĠDigest": 4916,
      "ĠRecip": 4917,
      "ĠOtakara": 4918,
      "ĠOtoboku": 4919,
      "ĠOtogi": 4920,
      "ĠEnban": 4921,
      "ĠEnikki": 4922,
      "ĠEncore": 4923,
      "ĠEnishi": 4924,
      "ĠVifam": 4925,
      "ĠVideo": 4926,
      "ĠSeisou": 4927,
      "ĠSeisai": 4928,
      "ĠMinor": 4929,
      "ĠMinimum": 4930,
      "ĠGuilty": 4931,
      "ĠLipst": 4932,
      "ĠLiterature": 4933,
      "ĠDaydream": 4934,
      "ĠDreamers": 4935,
      "ĠResort": 4936,
      "ĠResonance": 4937,
      "ĠOujo": 4938,
      "achu": 4939,
      "ĠAkiba": 4940,
      "ĠAkibakei": 4941,
      "ĠDoRe": 4942,
      "ĠDoomed": 4943,
      "ĠDokidoki": 4944,
      "ĠDouji": 4945,
      "ĠDouble": 4946,
      "ĠDougram": 4947,
      "ĠFormula": 4948,
      "ĠFighters": 4949,
      "ĠMajime": 4950,
      "ĠMajokko": 4951,
      "asawagi": 4952,
      "ĠShock": 4953,
      "ĠMeiken": 4954,
      "ĠMeikyuu": 4955,
      "ĠKuchi": 4956,
      "ĠKujir": 4957,
      "ĠKujib": 4958,
      "ĠKudas": 4959,
      "ĠKujaku": 4960,
      "ĠKaren": 4961,
      "ĠKaras": 4962,
      "ĠKarasawagi": 4963,
      "ĠGarn": 4964,
      "ĠGaran": 4965,
      "ĠYakin": 4966,
      "ĠYakata": 4967,
      "2004": 4968,
      "blegum": 4969,
      "ĠSister": 4970,
      "ĠTragic": 4971,
      "ĠAsobou": 4972,
      "ĠAsatarou": 4973,
      "ĠCrim": 4974,
      "ĠCrime": 4975,
      "ĠCritical": 4976,
      "ĠCristo": 4977,
      "ĠHyak": 4978,
      "ĠWindaria": 4979,
      "ĠTetsukuzu": 4980,
      "totsu": 4981,
      "ĠItan": 4982,
      "ĠItazura": 4983,
      "ĠSono": 4984,
      "ĠSonzoku": 4985,
      "ĠSonata": 4986,
      "ĠSonnet": 4987,
      "ĠKimiKi": 4988,
      "ĠKakero": 4989,
      "ĠKakutou": 4990,
      "ĠHotori": 4991,
      "ĠHikyou": 4992,
      "ĠRaven": 4993,
      "ĠEnds": 4994,
      "ĠStringend": 4995,
      "ĠStratos": 4996,
      "ĠCharm": 4997,
      "1979": 4998,
      "ĠSoratob": 4999,
      "ĠMillen": 5000,
      "ĠAtragon": 5001,
      "ĠGods": 5002,
      "ĠGoddess": 5003,
      "ĠGodannar": 5004,
      "ĠColors": 5005,
      "ĠColored": 5006,
      "ĠDenji": 5007,
      "ĠDengeki": 5008,
      "ĠBirdy": 5009,
      "ĠBirds": 5010,
      "ĠAdventurers": 5011,
      "ĠSotsugyou": 5012,
      "ĠTroop": 5013,
      "ĠAkko": 5014,
      "ĠAkagi": 5015,
      "ĠNatsume": 5016,
      "ĠKouro": 5017,
      "ĠKouji": 5018,
      "ĠGanmo": 5019,
      "ĠGankutsuou": 5020,
      "ĠCredit": 5021,
      "ĠCarrot": 5022,
      "ĠHokkyoku": 5023,
      "ĠHoshii": 5024,
      "ĠPlains": 5025,
      "ĠFlutter": 5026,
      "ĠYamamoto": 5027,
      "ĠElves": 5028,
      "ĠEva": 5029,
      "ĠValerian": 5030,
      "ĠGekitou": 5031,
      "monogatari": 5032,
      "ĠTopo": 5033,
      "ĠNajica": 5034,
      "ĠNavigation": 5035,
      "ĠKonpe": 5036,
      "ĠKonomama": 5037,
      "ĠKonjiki": 5038,
      "ĠPets": 5039,
      "ĠRomance": 5040,
      "ĠRumbl": 5041,
      "ĠRocky": 5042,
      "ĠRocket": 5043,
      "ĠYuugeki": 5044,
      "ĠEiyuu": 5045,
      "ĠVicious": 5046,
      "ĠUrusei": 5047,
      "ĠUrsa": 5048,
      "ĠBabylon": 5049,
      "well": 5050,
      "inojou": 5051,
      "ĠSince": 5052,
      "ĠSlayer": 5053,
      "ĠTanken": 5054,
      "ĠMomoiro": 5055,
      "ĠNagasaki": 5056,
      "ĠNagagutsu": 5057,
      "ĠNegi": 5058,
      "ĠNegibouzu": 5059,
      "ĠKotetsu": 5060,
      "ĠKotoba": 5061,
      "ĠHaha": 5062,
      "ĠDangaizer": 5063,
      "ĠBull": 5064,
      "ĠOverture": 5065,
      "Ġ009": 5066,
      "Ġ0079": 5067,
      "ĠIkkokujima": 5068,
      "ĠInnocence": 5069,
      "ĠCosmos": 5070,
      "1996": 5071,
      "haniho": 5072,
      "masters": 5073,
      "ramble": 5074,
      "ways": 5075,
      "ĠSasami": 5076,
      "ĠSasete": 5077,
      "ĠSunred": 5078,
      "ĠMamore": 5079,
      "ĠMaker": 5080,
      "ĠMichiko": 5081,
      "ĠCorps": 5082,
      "ĠCorporal": 5083,
      "ĠHans": 5084,
      "ĠHanamaru": 5085,
      "ĠHanayome": 5086,
      "ĠPapa": 5087,
      "ĠBrat": 5088,
      "ĠBrain": 5089,
      "ĠFirefli": 5090,
      "ĠFirestorm": 5091,
      "ĠOmakase": 5092,
      "ĠEarl": 5093,
      "ĠEarly": 5094,
      "ĠShamanic": 5095,
      "ĠJuusou": 5096,
      "ĠJuushi": 5097,
      "ĠVirus": 5098,
      "ĠChristian": 5099,
      "ĠMagician": 5100,
      "ĠMaids": 5101,
      "ĠMaidens": 5102,
      "jiru": 5103,
      "Ġ801": 5104,
      "ĠTonight": 5105,
      "ĠTakane": 5106,
      "ĠKitty": 5107,
      "ĠGokudou": 5108,
      "ĠHost": 5109,
      "ĠPortable": 5110,
      "ĠPortriss": 5111,
      "ĠBasara": 5112,
      "ĠRurou": 5113,
      "ĠFruits": 5114,
      "ĠOrder": 5115,
      "ĠYuushi": 5116,
      "ĠZenjitsu": 5117,
      "ĠZenrakei": 5118,
      "ĠZetsuai": 5119,
      "ĠZetsumetsu": 5120,
      "ĠShippo": 5121,
      "ĠChikansha": 5122,
      "blade": 5123,
      "bye": 5124,
      "book": 5125,
      "verse": 5126,
      "ĠScramble": 5127,
      "ĠSayuri": 5128,
      "ĠTrip": 5129,
      "ĠTribe": 5130,
      "ĠTriangle": 5131,
      "ĠToozak": 5132,
      "ĠTakegami": 5133,
      "ĠMedicine": 5134,
      "ĠAmnes": 5135,
      "ĠAzumanga": 5136,
      "ĠAirbats": 5137,
      "ĠNingyo": 5138,
      "ĠNaisho": 5139,
      "ĠNanafushigi": 5140,
      "ĠKek": 5141,
      "ĠKishin": 5142,
      "ĠKyohei": 5143,
      "ĠGawl": 5144,
      "ĠGranzort": 5145,
      "ĠChoc": 5146,
      "ĠChopper": 5147,
      "ĠHatsukoi": 5148,
      "ĠPanic": 5149,
      "ĠPanther": 5150,
      "ĠPanyo": 5151,
      "ĠLords": 5152,
      "ĠBarrage": 5153,
      "ĠBarefoot": 5154,
      "ĠAndrome": 5155,
      "ĠAndorora": 5156,
      "ĠWani": 5157,
      "ĠWanwan": 5158,
      "ĠEleven": 5159,
      "ĠJumping": 5160,
      "Ġ2012": 5161,
      "ĠChinjuu": 5162,
      "ĠShiroki": 5163,
      "ĠBelladonna": 5164,
      "ĠShootfigh": 5165,
      "ĠHyouryuu": 5166,
      "ĠSoldiers": 5167,
      "ekitotsu": 5168,
      "ĠSensitive": 5169,
      "ĠSocchi": 5170,
      "ĠSoccer": 5171,
      "ĠMicron": 5172,
      "ĠMichel": 5173,
      "ĠMomone": 5174,
      "ĠMayonaka": 5175,
      "ĠMechander": 5176,
      "ĠAct": 5177,
      "ĠAcchi": 5178,
      "ĠKuuchuu": 5179,
      "ĠKuukou": 5180,
      "ĠCleopatra": 5181,
      "ĠHabataki": 5182,
      "ĠLandlock": 5183,
      "ĠDogs": 5184,
      "ĠBLUE": 5185,
      "ĠBrother": 5186,
      "ĠBeyblade": 5187,
      "ĠRikimaru": 5188,
      "ĠFront": 5189,
      "ĠWitch": 5190,
      "ĠEternia": 5191,
      "ĠShuryousha": 5192,
      "opoyo": 5193,
      "ĠVersus": 5194,
      "ĠVersion": 5195,
      "ĠUnbal": 5196,
      "ĠSexorcist": 5197,
      "ĠBeauty": 5198,
      "ĠCommunication": 5199,
      "ĠDaigekitotsu": 5200,
      "ĠKingdoms": 5201,
      "ĠCollection": 5202,
      "ĠInfinite": 5203,
      "ĠGuardians": 5204,
      "ĠShippuuden": 5205,
      "ĠDinoZone": 5206,
      "lanser": 5207,
      "mallow": 5208,
      "ĠIhrlie": 5209,
      "ĠIhatov": 5210,
      "ĠSlave": 5211,
      "ĠSandglass": 5212,
      "ĠSwordsman": 5213,
      "ĠThose": 5214,
      "ĠThomas": 5215,
      "ĠTokuban": 5216,
      "ĠTokubetsu": 5217,
      "ĠTrail": 5218,
      "ĠTravel": 5219,
      "ĠMysterious": 5220,
      "ĠAthletes": 5221,
      "ĠAthletess": 5222,
      "ĠKyodaiki": 5223,
      "ĠKerob": 5224,
      "ĠKeroro": 5225,
      "ĠKamichama": 5226,
      "ĠKusabi": 5227,
      "ĠKussetsu": 5228,
      "ĠKickers": 5229,
      "ĠKakuyaku": 5230,
      "ĠKakumei": 5231,
      "ĠGigant": 5232,
      "ĠGigio": 5233,
      "ĠGoodbye": 5234,
      "ĠHaita": 5235,
      "ĠHibi": 5236,
      "ĠHibari": 5237,
      "ĠPanda": 5238,
      "ĠPandalian": 5239,
      "ĠPrefect": 5240,
      "ĠPremium": 5241,
      "ĠLocke": 5242,
      "ĠDokuro": 5243,
      "ĠBook": 5244,
      "ĠFalls": 5245,
      "ĠFalling": 5246,
      "ĠOsaru": 5247,
      "ĠOuran": 5248,
      "ĠWaltz": 5249,
      "ĠYourself": 5250,
      "ĠEmma": 5251,
      "ĠEmperor": 5252,
      "ĠVision": 5253,
      "ĠVisitor": 5254,
      "ĠGunslinger": 5255,
      "ĠShinsatsushi": 5256,
      "Ġ1945": 5257,
      "Ġ1989": 5258,
      "ĠDaitokuji": 5259,
      "ĠGekiganger": 5260,
      "ĠGenmu": 5261,
      "ĠGenmukan": 5262,
      "ĠGeneration": 5263,
      "ĠGenerator": 5264,
      "ĠPolymar": 5265,
      "ĠPowered": 5266,
      "ĠBakusouzoku": 5267,
      "RIOR": 5268,
      "kurou": 5269,
      "ĠIrohaniho": 5270,
      "ĠSmall": 5271,
      "ĠSwallow": 5272,
      "ĠSeptem": 5273,
      "ĠSurvivor": 5274,
      "ĠSilence": 5275,
      "ĠTeio": 5276,
      "ĠTotta": 5277,
      "ĠMuteki": 5278,
      "ĠAssassins": 5279,
      "ĠAkaki": 5280,
      "ĠAppleseed": 5281,
      "ĠKodomo": 5282,
      "ĠKateikyoushi": 5283,
      "ĠKoushinryou": 5284,
      "ĠKokuki": 5285,
      "ĠGlorious": 5286,
      "ĠGravitation": 5287,
      "ĠCosplay": 5288,
      "ĠHidamari": 5289,
      "ĠHachiyou": 5290,
      "ĠPerverse": 5291,
      "ĠLingerie": 5292,
      "ĠLiberty": 5293,
      "ĠLucy": 5294,
      "ĠDecode": 5295,
      "ĠDesire": 5296,
      "ĠBaoh": 5297,
      "ĠBouei": 5298,
      "ĠBreath": 5299,
      "ĠBeginning": 5300,
      "ĠAnshin": 5301,
      "ĠRansen": 5302,
      "ĠRemains": 5303,
      "ĠOokiku": 5304,
      "ĠOsuki": 5305,
      "ĠYonkurou": 5306,
      "ĠErabareta": 5307,
      "ĠEikoku": 5308,
      "ĠJotan": 5309,
      "ĠJapanese": 5310,
      "ĠUmishou": 5311,
      "ĠUsagi": 5312,
      "ĠUtakata": 5313,
      "ĠUniverse": 5314,
      "ĠZegapain": 5315,
      "ĠChampion": 5316,
      "ĠInvestigations": 5317,
      "ĠPraise": 5318,
      "ĠDebutante": 5319,
      "ĠDearS": 5320,
      "ĠTelevision": 5321,
      "ĠBears": 5322,
      "ĠYukikaz": 5323,
      "ĠRailways": 5324,
      "ĠTondemo": 5325,
      "Ġ2032": 5326,
      "ĠBeautiful": 5327,
      "ĠSymphony": 5328,
      "ĠIkiteita": 5329,
      "ĠViewtiful": 5330,
      "Booster": 5331,
      "Indoushi": 5332,
      "Matrix": 5333,
      "ĠIppatsu": 5334,
      "ĠIzumo": 5335,
      "ĠSeduction": 5336,
      "ĠSherlock": 5337,
      "ĠSkirt": 5338,
      "ĠSiren": 5339,
      "ĠSindbad": 5340,
      "ĠSkull": 5341,
      "ĠSsipak": 5342,
      "ĠTeppei": 5343,
      "ĠTessaiga": 5344,
      "ĠMechiku": 5345,
      "ĠMaryuuou": 5346,
      "ĠMaple": 5347,
      "ĠMousou": 5348,
      "ĠMounds": 5349,
      "ĠMichaela": 5350,
      "ĠAegis": 5351,
      "ĠAIKa": 5352,
      "ĠKourin": 5353,
      "ĠKounai": 5354,
      "ĠKopanda": 5355,
      "ĠKocchi": 5356,
      "ĠKeikaku": 5357,
      "ĠKado": 5358,
      "ĠKegashite": 5359,
      "ĠKyuuketsuki": 5360,
      "ĠKemono": 5361,
      "ĠKranke": 5362,
      "ĠKiseki": 5363,
      "ĠGolgo": 5364,
      "ĠGrowlanser": 5365,
      "ĠGathering": 5366,
      "ĠGemini": 5367,
      "ĠGordian": 5368,
      "ĠGyakkyou": 5369,
      "ĠGENDER": 5370,
      "ĠGuruguru": 5371,
      "ĠCustom": 5372,
      "ĠCastle": 5373,
      "ĠCinderella": 5374,
      "ĠChico": 5375,
      "ĠCadets": 5376,
      "ĠCasual": 5377,
      "ĠCockpit": 5378,
      "ĠHakaba": 5379,
      "ĠHatchin": 5380,
      "ĠHello": 5381,
      "ĠHangyaku": 5382,
      "ĠHuckleberry": 5383,
      "ĠHedgehog": 5384,
      "ĠNoozles": 5385,
      "ĠPitch": 5386,
      "ĠPentagona": 5387,
      "ĠPikachu": 5388,
      "ĠPoyopoyo": 5389,
      "ĠPorphy": 5390,
      "ĠPornograph": 5391,
      "ĠLakers": 5392,
      "ĠLagoon": 5393,
      "ĠLimited": 5394,
      "ĠDamekko": 5395,
      "ĠDuchess": 5396,
      "ĠDjibril": 5397,
      "ĠDynamite": 5398,
      "ĠDarcrows": 5399,
      "ĠBistro": 5400,
      "ĠBakemonogatari": 5401,
      "ĠBaseball": 5402,
      "ĠBondage": 5403,
      "ĠBumboo": 5404,
      "ĠBinetsu": 5405,
      "ĠBefore": 5406,
      "ĠBerserk": 5407,
      "ĠBazooka": 5408,
      "ĠBosatsu": 5409,
      "ĠBangai": 5410,
      "ĠBubblegum": 5411,
      "ĠBumpety": 5412,
      "ĠButouden": 5413,
      "ĠBlossoming": 5414,
      "ĠBanbanzai": 5415,
      "ĠAnthem": 5416,
      "ĠHareluya": 5417,
      "ĠIscandar": 5418,
      "ĠReflection": 5419,
      "ĠRunner": 5420,
      "ĠRachiru": 5421,
      "ĠFemale": 5422,
      "ĠFumajime": 5423,
      "ĠFlorence": 5424,
      "ĠFrank": 5425,
      "ĠFarewell": 5426,
      "ĠFlanders": 5427,
      "ĠFancy": 5428,
      "ĠFurikabutte": 5429,
      "ĠOoshoubu": 5430,
      "ĠOppai": 5431,
      "ĠOyako": 5432,
      "ĠOgenki": 5433,
      "ĠOpening": 5434,
      "ĠOyayubi": 5435,
      "ĠWulong": 5436,
      "ĠWalls": 5437,
      "ĠWakaokami": 5438,
      "ĠWARRIOR": 5439,
      "ĠWayfarer": 5440,
      "ĠYesterday": 5441,
      "ĠYukinojou": 5442,
      "ĠYohko": 5443,
      "ĠYatsura": 5444,
      "ĠYatterman": 5445,
      "ĠYasumanaide": 5446,
      "ĠYattodetaman": 5447,
      "ĠEntaku": 5448,
      "ĠShindenshou": 5449,
      "ĠShoukougun": 5450,
      "ĠShuffle": 5451,
      "ĠShichinin": 5452,
      "ĠShamballa": 5453,
      "ĠMoyashimon": 5454,
      "ĠJikuu": 5455,
      "ĠJosou": 5456,
      "ĠJukujo": 5457,
      "ĠVoyeur": 5458,
      "ĠValentine": 5459,
      "ĠVandread": 5460,
      "ĠUlysses": 5461,
      "ĠZeiram": 5462,
      "ĠSeiresetsu": 5463,
      "ĠInukami": 5464,
      "ĠInternal": 5465,
      "ĠSuhoyojeong": 5466,
      "ĠShihaisha": 5467,
      "ĠToshinden": 5468,
      "ĠArmitage": 5469,
      "ĠDaikatsuyaku": 5470,
      "ĠDairugger": 5471,
      "ĠDaiundoukai": 5472,
      "ĠRejuvenation": 5473,
      "ĠGeobreeders": 5474,
      "ĠSeihonnou": 5475,
      "ĠMegalopolis": 5476,
      "ĠConnected": 5477,
      "ĠMarshmallow": 5478,
      "ĠProfessional": 5479,
      "ĠAlpenrose": 5480,
      "ĠCatblue": 5481,
      "ĠLeaves": 5482,
      "ĠDarkstalkers": 5483,
      "ĠRecipe": 5484,
      "ĠLipstick": 5485,
      "ĠDoReMi": 5486,
      "ĠKujibiki": 5487,
      "ĠKudasai": 5488,
      "ĠKujakuou": 5489,
      "ĠKimiKiss": 5490,
      "ĠStringendo": 5491,
      "ĠSoratobu": 5492,
      "ĠHokkyokukai": 5493,
      "ĠKonpeitou": 5494,
      "ĠRumbling": 5495,
      "ĠYuugekitai": 5496,
      "ĠFireflies": 5497,
      "ĠToozakaru": 5498,
      "ĠAmnesia": 5499,
      "ĠAndromeda": 5500,
      "ĠShootfighter": 5501,
      "ĠUnbalance": 5502,
      "ĠPrefectural": 5503,
      "ĠShinsatsushitsu": 5504,
      "ĠIrohanihoheto": 5505,
      "ĠSwallowtail": 5506,
      "ĠYukikaze": 5507,
      ".;": 5508,
      ".:": 5509,
      "16": 5510,
      "38": 5511,
      "57": 5512,
      "58": 5513,
      "65": 5514,
      "66": 5515,
      "72": 5516,
      "78": 5517,
      "772": 5518,
      ":.": 5519,
      "AST": 5520,
      "AME": 5521,
      "Bu": 5522,
      "Back": 5523,
      "Co": 5524,
      "Cro": 5525,
      "Chi": 5526,
      "Cha": 5527,
      "Dec": 5528,
      "DOL": 5529,
      "EM": 5530,
      "Ey": 5531,
      "Eon": 5532,
      "EAR": 5533,
      "He": 5534,
      "HOL": 5535,
      "IE": 5536,
      "IX": 5537,
      "KA": 5538,
      "Lx": 5539,
      "Legend": 5540,
      "May": 5541,
      "Mind": 5542,
      "MIX": 5543,
      "NA": 5544,
      "On": 5545,
      "Pa": 5546,
      "Po": 5547,
      "Pai": 5548,
      "Pato": 5549,
      "Power": 5550,
      "Prin": 5551,
      "Rou": 5552,
      "Sp": 5553,
      "Second": 5554,
      "Sensei": 5555,
      "Saur": 5556,
      "Spot": 5557,
      "SKA": 5558,
      "TW": 5559,
      "Tak": 5560,
      "TER": 5561,
      "UM": 5562,
      "VD": 5563,
      "WO": 5564,
      "Zone": 5565,
      "Zero": 5566,
      "ah": 5567,
      "aan": 5568,
      "aig": 5569,
      "ady": 5570,
      "awn": 5571,
      "awar": 5572,
      "aCha": 5573,
      "batt": 5574,
      "bour": 5575,
      "band": 5576,
      "bid": 5577,
      "back": 5578,
      "bun": 5579,
      "bap": 5580,
      "bir": 5581,
      "bits": 5582,
      "bot": 5583,
      "bori": 5584,
      "bang": 5585,
      "bachi": 5586,
      "bors": 5587,
      "ca": 5588,
      "ci": 5589,
      "cu": 5590,
      "come": 5591,
      "cri": 5592,
      "coun": 5593,
      "cap": 5594,
      "cue": 5595,
      "cano": 5596,
      "cred": 5597,
      "centi": 5598,
      "dust": 5599,
      "dame": 5600,
      "dies": 5601,
      "datsu": 5602,
      "dashi": 5603,
      "dian": 5604,
      "ew": 5605,
      "ex": 5606,
      "ein": 5607,
      "eor": 5608,
      "een": 5609,
      "eig": 5610,
      "father": 5611,
      "fura": 5612,
      "final": 5613,
      "fish": 5614,
      "fuko": 5615,
      "gr": 5616,
      "ger": 5617,
      "gan": 5618,
      "gus": 5619,
      "gai": 5620,
      "git": 5621,
      "gre": 5622,
      "gatari": 5623,
      "gage": 5624,
      "guru": 5625,
      "gokushi": 5626,
      "gmal": 5627,
      "haku": 5628,
      "hara": 5629,
      "huus": 5630,
      "hutsu": 5631,
      "iac": 5632,
      "ius": 5633,
      "imen": 5634,
      "ival": 5635,
      "ihou": 5636,
      "ios": 5637,
      "iyan": 5638,
      "ienti": 5639,
      "jho": 5640,
      "jab": 5641,
      "jik": 5642,
      "jimi": 5643,
      "jutsushi": 5644,
      "jango": 5645,
      "kon": 5646,
      "kus": 5647,
      "kuu": 5648,
      "kup": 5649,
      "kushi": 5650,
      "koma": 5651,
      "la": 5652,
      "ling": 5653,
      "lter": 5654,
      "lun": 5655,
      "lins": 5656,
      "lution": 5657,
      "link": 5658,
      "law": 5659,
      "mu": 5660,
      "ming": 5661,
      "mith": 5662,
      "mashi": 5663,
      "nal": 5664,
      "nai": 5665,
      "nment": 5666,
      "noid": 5667,
      "nounc": 5668,
      "num": 5669,
      "nia": 5670,
      "nichi": 5671,
      "oF": 5672,
      "of": 5673,
      "ove": 5674,
      "och": 5675,
      "oices": 5676,
      "oya": 5677,
      "oichi": 5678,
      "oPet": 5679,
      "pi": 5680,
      "po": 5681,
      "pan": 5682,
      "pou": 5683,
      "par": 5684,
      "put": 5685,
      "ption": 5686,
      "plus": 5687,
      "puu": 5688,
      "patsu": 5689,
      "poko": 5690,
      "path": 5691,
      "prin": 5692,
      "puff": 5693,
      "pons": 5694,
      "rr": 5695,
      "ras": 5696,
      "ral": 5697,
      "rase": 5698,
      "rary": 5699,
      "rte": 5700,
      "ranger": 5701,
      "rated": 5702,
      "radam": 5703,
      "sm": 5704,
      "so": 5705,
      "sou": 5706,
      "some": 5707,
      "sper": 5708,
      "sase": 5709,
      "sel": 5710,
      "sect": 5711,
      "sensei": 5712,
      "side": 5713,
      "tes": 5714,
      "trama": 5715,
      "tate": 5716,
      "temp": 5717,
      "tarou": 5718,
      "tranger": 5719,
      "ui": 5720,
      "uv": 5721,
      "ux": 5722,
      "uer": 5723,
      "uth": 5724,
      "ual": 5725,
      "umber": 5726,
      "umo": 5727,
      "udy": 5728,
      "uji": 5729,
      "uchi": 5730,
      "vy": 5731,
      "vice": 5732,
      "vating": 5733,
      "wd": 5734,
      "ws": 5735,
      "wy": 5736,
      "wor": 5737,
      "wive": 5738,
      "wak": 5739,
      "waru": 5740,
      "walker": 5741,
      "yoku": 5742,
      "yagi": 5743,
      "yokei": 5744,
      "yla": 5745,
      "zy": 5746,
      "zar": 5747,
      "zas": 5748,
      "zore": 5749,
      "zug": 5750,
      "zard": 5751,
      "zzo": 5752,
      "zuka": 5753,
      "Ġor": 5754,
      "Ġsin": 5755,
      "inshi": 5756,
      "inqu": 5757,
      "injo": 5758,
      "inous": 5759,
      "iness": 5760,
      "inity": 5761,
      "inoko": 5762,
      "inanc": 5763,
      "ert": 5764,
      "eration": 5765,
      "erun": 5766,
      "erry": 5767,
      "erva": 5768,
      "ertail": 5769,
      "ernment": 5770,
      "mezzo": 5771,
      "ory": 5772,
      "orashi": 5773,
      "orable": 5774,
      "ingu": 5775,
      "ingumi": 5776,
      "ani": 5777,
      "anst": 5778,
      "anjou": 5779,
      "anoir": 5780,
      "ansetsu": 5781,
      "andel": 5782,
      "ĠiDOL": 5783,
      "Ġpyo": 5784,
      "onan": 5785,
      "onic": 5786,
      "onal": 5787,
      "oned": 5788,
      "onom": 5789,
      "ates": 5790,
      "ative": 5791,
      "atori": 5792,
      "atoman": 5793,
      "atonic": 5794,
      "ĠIe": 5795,
      "ĠIri": 5796,
      "ĠIce": 5797,
      "ĠIshi": 5798,
      "ĠIde": 5799,
      "ĠIhou": 5800,
      "ĠInt": 5801,
      "ĠIma": 5802,
      "ĠIjou": 5803,
      "ĠIyashi": 5804,
      "ĠIru": 5805,
      "ĠIbun": 5806,
      "ĠIrr": 5807,
      "ĠIyagi": 5808,
      "hevi": 5809,
      "Ġby": 5810,
      "oup": 5811,
      "ouve": 5812,
      "oujin": 5813,
      "ouie": 5814,
      "ouple": 5815,
      "oulet": 5816,
      "led": 5817,
      "lel": 5818,
      "lean": 5819,
      "lege": 5820,
      "arm": 5821,
      "arn": 5822,
      "arp": 5823,
      "arth": 5824,
      "aries": 5825,
      "arot": 5826,
      "araba": 5827,
      "arochi": 5828,
      "aruko": 5829,
      "aranoir": 5830,
      "thur": 5831,
      "enade": 5832,
      "enog": 5833,
      "enman": 5834,
      "enma": 5835,
      "enage": 5836,
      "enkyou": 5837,
      "engu": 5838,
      "enzy": 5839,
      "eneration": 5840,
      "aster": 5841,
      "asure": 5842,
      "asara": 5843,
      "asite": 5844,
      "keman": 5845,
      "kelter": 5846,
      "icens": 5847,
      "icap": 5848,
      "alf": 5849,
      "alk": 5850,
      "alt": 5851,
      "alme": 5852,
      "alon": 5853,
      "alli": 5854,
      "alay": 5855,
      "ality": 5856,
      "aldi": 5857,
      "allen": 5858,
      "allel": 5859,
      "lia": 5860,
      "lid": 5861,
      "liar": 5862,
      "lien": 5863,
      "livi": 5864,
      "ligan": 5865,
      "stle": 5866,
      "stray": 5867,
      "stors": 5868,
      "stPet": 5869,
      "stradam": 5870,
      "Ġnight": 5871,
      "Ġnochi": 5872,
      "hoon": 5873,
      "hoshi": 5874,
      "anty": 5875,
      "antz": 5876,
      "tsuu": 5877,
      "tsugo": 5878,
      "urib": 5879,
      "uria": 5880,
      "urugi": 5881,
      "urano": 5882,
      "uta": 5883,
      "uty": 5884,
      "utab": 5885,
      "utty": 5886,
      "utey": 5887,
      "utra": 5888,
      "utaru": 5889,
      "utomatic": 5890,
      "utlaw": 5891,
      "ĠSac": 5892,
      "ĠSom": 5893,
      "ĠSus": 5894,
      "ĠSet": 5895,
      "ĠSit": 5896,
      "ĠSim": 5897,
      "ĠSake": 5898,
      "ĠSod": 5899,
      "ĠSeri": 5900,
      "ĠSab": 5901,
      "ĠSous": 5902,
      "ĠSound": 5903,
      "ĠSty": 5904,
      "ĠSelf": 5905,
      "ĠSion": 5906,
      "ĠSad": 5907,
      "ĠSess": 5908,
      "ĠSang": 5909,
      "ĠSaka": 5910,
      "ĠSect": 5911,
      "ĠSoko": 5912,
      "ĠSoushi": 5913,
      "ĠSaga": 5914,
      "ĠSix": 5915,
      "ĠSusume": 5916,
      "ĠSaver": 5917,
      "ĠSemi": 5918,
      "ĠShel": 5919,
      "ĠSTER": 5920,
      "ĠSUM": 5921,
      "ĠSaraba": 5922,
      "ĠSkelter": 5923,
      "ĠSutra": 5924,
      "ĠTag": 5925,
      "ĠTama": 5926,
      "ĠTatt": 5927,
      "ĠThere": 5928,
      "ĠTens": 5929,
      "ĠTrop": 5930,
      "ĠTob": 5931,
      "ĠTre": 5932,
      "ĠTemp": 5933,
      "ĠTrig": 5934,
      "ĠTech": 5935,
      "ĠTeg": 5936,
      "ĠTall": 5937,
      "ĠTaru": 5938,
      "ĠTachi": 5939,
      "ĠTonder": 5940,
      "ĠTane": 5941,
      "ĠTyp": 5942,
      "ĠTora": 5943,
      "ĠTWO": 5944,
      "ĠTalon": 5945,
      "eder": 5946,
      "edou": 5947,
      "edie": 5948,
      "amer": 5949,
      "amou": 5950,
      "amig": 5951,
      "amichi": 5952,
      "amasa": 5953,
      "amaga": 5954,
      "amise": 5955,
      "amander": 5956,
      "amune": 5957,
      "amboy": 5958,
      "ambot": 5959,
      "aces": 5960,
      "action": 5961,
      "acation": 5962,
      "active": 5963,
      "achou": 5964,
      "acket": 5965,
      "accano": 5966,
      "Ġmelo": 5967,
      "Ġmemor": 5968,
      "lesh": 5969,
      "ĠMD": 5970,
      "ĠMant": 5971,
      "ĠMig": 5972,
      "ĠMoun": 5973,
      "ĠMib": 5974,
      "ĠMis": 5975,
      "ĠMark": 5976,
      "ĠMame": 5977,
      "ĠMok": 5978,
      "ĠMusic": 5979,
      "ĠMab": 5980,
      "ĠMisc": 5981,
      "ĠMartial": 5982,
      "ĠMits": 5983,
      "ĠMik": 5984,
      "ĠMuk": 5985,
      "ĠMight": 5986,
      "ĠMashi": 5987,
      "ĠMushi": 5988,
      "ĠMaka": 5989,
      "ĠMimi": 5990,
      "ĠMabor": 5991,
      "ĠMister": 5992,
      "ĠMOV": 5993,
      "ĠMenage": 5994,
      "vement": 5995,
      "illion": 5996,
      "omon": 5997,
      "omomo": 5998,
      "omicon": 5999,
      "loCro": 6000,
      "ĠAA": 6001,
      "ĠAme": 6002,
      "ĠAil": 6003,
      "ĠAre": 6004,
      "ĠAtsu": 6005,
      "ĠAji": 6006,
      "ĠAya": 6007,
      "ĠAura": 6008,
      "ĠAkan": 6009,
      "ĠAzu": 6010,
      "ĠAmon": 6011,
      "ĠAoi": 6012,
      "ĠAway": 6013,
      "ĠAby": 6014,
      "ĠAjis": 6015,
      "ĠAisuru": 6016,
      "ĠASKA": 6017,
      "ĠAband": 6018,
      "ĠAjik": 6019,
      "ĠAwak": 6020,
      "ĠAlien": 6021,
      "ĠAstray": 6022,
      "ĠAutomatic": 6023,
      "tif": 6024,
      "tivating": 6025,
      "via": 6026,
      "vies": 6027,
      "viole": 6028,
      "roll": 6029,
      "roid": 6030,
      "road": 6031,
      "roach": 6032,
      "roove": 6033,
      "ĠNec": 6034,
      "ĠNand": 6035,
      "ĠNab": 6036,
      "ĠNad": 6037,
      "ĠNik": 6038,
      "ĠNaru": 6039,
      "ĠNie": 6040,
      "ĠNub": 6041,
      "ĠNamu": 6042,
      "ĠNadia": 6043,
      "ĠNons": 6044,
      "ĠNessa": 6045,
      "ĠNisei": 6046,
      "ĠNumeria": 6047,
      "ĠNumber": 6048,
      "ĠNonom": 6049,
      "ĠNouve": 6050,
      "ecy": 6051,
      "aya": 6052,
      "ayaki": 6053,
      "ayear": 6054,
      "ĠKore": 6055,
      "ĠKout": 6056,
      "ĠKama": 6057,
      "ĠKame": 6058,
      "ĠKir": 6059,
      "ĠKuma": 6060,
      "ĠKari": 6061,
      "ĠKey": 6062,
      "ĠKog": 6063,
      "ĠKashi": 6064,
      "ĠKaru": 6065,
      "ĠKup": 6066,
      "ĠKare": 6067,
      "ĠKagi": 6068,
      "ĠKoko": 6069,
      "ĠKoushi": 6070,
      "ĠKats": 6071,
      "ĠKiko": 6072,
      "ĠKite": 6073,
      "ĠKomb": 6074,
      "ĠKochi": 6075,
      "ĠKrat": 6076,
      "ĠKatri": 6077,
      "ĠKatsushi": 6078,
      "ĠKango": 6079,
      "ĠKorashi": 6080,
      "ĠKutab": 6081,
      "ĠKachou": 6082,
      "eping": 6083,
      "epan": 6084,
      "eplay": 6085,
      "usu": 6086,
      "usen": 6087,
      "usher": 6088,
      "usatsu": 6089,
      "usub": 6090,
      "ĠGP": 6091,
      "ĠGR": 6092,
      "ĠGou": 6093,
      "ĠGatt": 6094,
      "ĠGoo": 6095,
      "ĠGai": 6096,
      "ĠGand": 6097,
      "ĠGib": 6098,
      "ĠGatch": 6099,
      "ĠGob": 6100,
      "ĠGov": 6101,
      "ĠGent": 6102,
      "ĠGav": 6103,
      "ĠGate": 6104,
      "ĠGuu": 6105,
      "ĠGest": 6106,
      "ĠGrap": 6107,
      "ĠGos": 6108,
      "ĠGumi": 6109,
      "ĠGang": 6110,
      "ĠGiny": 6111,
      "ĠGonna": 6112,
      "ĠGoushou": 6113,
      "ĠGAME": 6114,
      "ĠGates": 6115,
      "ĠGasara": 6116,
      "ĠGantz": 6117,
      "ĠGedou": 6118,
      "ĠGamer": 6119,
      "ĠGroove": 6120,
      "ĠCore": 6121,
      "ĠCure": 6122,
      "ĠCue": 6123,
      "ĠCoc": 6124,
      "ĠCourt": 6125,
      "ĠCall": 6126,
      "ĠCup": 6127,
      "ĠCare": 6128,
      "ĠCross": 6129,
      "ĠCeru": 6130,
      "ĠCorn": 6131,
      "ĠCrest": 6132,
      "ĠCRI": 6133,
      "ĠCouple": 6134,
      "ĠCutey": 6135,
      "ĠCedie": 6136,
      "etten": 6137,
      "etween": 6138,
      "esh": 6139,
      "esan": 6140,
      "esman": 6141,
      "escri": 6142,
      "espons": 6143,
      "hera": 6144,
      "hery": 6145,
      "rix": 6146,
      "ries": 6147,
      "rite": 6148,
      "riko": 6149,
      "rikup": 6150,
      "rilege": 6151,
      "ustrated": 6152,
      "agle": 6153,
      "agiri": 6154,
      "agane": 6155,
      "aguer": 6156,
      "menman": 6157,
      "ĠHome": 6158,
      "ĠHama": 6159,
      "ĠHoo": 6160,
      "ĠHour": 6161,
      "ĠHass": 6162,
      "ĠHim": 6163,
      "ĠHens": 6164,
      "ĠHere": 6165,
      "ĠHis": 6166,
      "ĠHum": 6167,
      "ĠHashi": 6168,
      "ĠHow": 6169,
      "ĠHaka": 6170,
      "ĠHash": 6171,
      "ĠHiru": 6172,
      "ĠHazard": 6173,
      "ĠHentai": 6174,
      "ĠHoutei": 6175,
      "ĠHEAR": 6176,
      "ĠHalf": 6177,
      "ĠHagane": 6178,
      "hiro": 6179,
      "hield": 6180,
      "hiko": 6181,
      "llvia": 6182,
      "ĠNois": 6183,
      "ĠNoir": 6184,
      "ĠNodame": 6185,
      "ĠNoein": 6186,
      "ĠNostradam": 6187,
      "ĠPast": 6188,
      "ĠPok": 6189,
      "ĠPound": 6190,
      "ĠPeriod": 6191,
      "ĠPops": 6192,
      "ĠPlot": 6193,
      "ĠPerform": 6194,
      "ĠPot": 6195,
      "ĠPain": 6196,
      "ĠPath": 6197,
      "ĠPale": 6198,
      "ĠPopo": 6199,
      "ĠPiy": 6200,
      "ĠPush": 6201,
      "ĠPinky": 6202,
      "ĠPinoko": 6203,
      "ĠPengu": 6204,
      "ĠPalme": 6205,
      "ĠPanty": 6206,
      "amaiki": 6207,
      "chak": 6208,
      "chrome": 6209,
      "ĠLass": 6210,
      "ĠLake": 6211,
      "ĠLul": 6212,
      "ĠLap": 6213,
      "ĠLoving": 6214,
      "ĠLog": 6215,
      "ĠLain": 6216,
      "ĠLie": 6217,
      "ĠLiger": 6218,
      "ĠLink": 6219,
      "ĠLuv": 6220,
      "ĠLouie": 6221,
      "ĠLicens": 6222,
      "ĠLamune": 6223,
      "igi": 6224,
      "igoku": 6225,
      "igami": 6226,
      "oots": 6227,
      "oogie": 6228,
      "ouru": 6229,
      "ourth": 6230,
      "kiri": 6231,
      "kiss": 6232,
      "kishi": 6233,
      "kiden": 6234,
      "kihei": 6235,
      "kiten": 6236,
      "kirei": 6237,
      "astof": 6238,
      "ait": 6239,
      "aiso": 6240,
      "ĠDust": 6241,
      "ĠDick": 6242,
      "ĠDist": 6243,
      "ĠDak": 6244,
      "ĠDagg": 6245,
      "ĠDend": 6246,
      "ĠDis": 6247,
      "ĠDum": 6248,
      "ĠDem": 6249,
      "ĠDue": 6250,
      "ĠDesperate": 6251,
      "ĠDeg": 6252,
      "ĠDot": 6253,
      "ĠDaka": 6254,
      "ĠDenshin": 6255,
      "ĠDenshou": 6256,
      "ĠDeeper": 6257,
      "ĠDNA": 6258,
      "ĠDVD": 6259,
      "ĠDjango": 6260,
      "ĠDuty": 6261,
      "cel": 6262,
      "cean": 6263,
      "cestors": 6264,
      "itas": 6265,
      "item": 6266,
      "itok": 6267,
      "itensha": 6268,
      "perimen": 6269,
      "ĠBat": 6270,
      "ĠBay": 6271,
      "ĠBus": 6272,
      "ĠBart": 6273,
      "ĠBis": 6274,
      "ĠBound": 6275,
      "ĠBoc": 6276,
      "ĠBrig": 6277,
      "ĠBuzz": 6278,
      "ĠBot": 6279,
      "ĠBik": 6280,
      "ĠBra": 6281,
      "ĠBaka": 6282,
      "ĠBuc": 6283,
      "ĠBard": 6284,
      "ĠButsu": 6285,
      "ĠBoushi": 6286,
      "ĠBuster": 6287,
      "ĠBorn": 6288,
      "ĠBuck": 6289,
      "ĠBurst": 6290,
      "ĠBukyou": 6291,
      "ĠBicy": 6292,
      "ĠBald": 6293,
      "ĠBAST": 6294,
      "ĠBEM": 6295,
      "ĠBerry": 6296,
      "ĠBaldi": 6297,
      "ĠBurib": 6298,
      "ĠBaccano": 6299,
      "ĠBetween": 6300,
      "ĠBastof": 6301,
      "ssion": 6302,
      "ssatsu": 6303,
      "shio": 6304,
      "shiki": 6305,
      "shiete": 6306,
      "dex": 6307,
      "deen": 6308,
      "ureis": 6309,
      "ighbors": 6310,
      "ĠAnder": 6311,
      "ĠAntou": 6312,
      "ĠAneki": 6313,
      "ĠAnnivers": 6314,
      "ĠAnci": 6315,
      "ĠAnnounc": 6316,
      "ĠAnpan": 6317,
      "ĠAncestors": 6318,
      "gege": 6319,
      "olon": 6320,
      "olate": 6321,
      "ollection": 6322,
      "oltes": 6323,
      "illage": 6324,
      "iman": 6325,
      "andaba": 6326,
      "ida": 6327,
      "idi": 6328,
      "idan": 6329,
      "iden": 6330,
      "idachi": 6331,
      "youchuu": 6332,
      "mentar": 6333,
      "akai": 6334,
      "akushi": 6335,
      "akakus": 6336,
      "akkou": 6337,
      "akichi": 6338,
      "ĠHaruk": 6339,
      "ĠHarumi": 6340,
      "ĠHarima": 6341,
      "ĠHarbour": 6342,
      "ibu": 6343,
      "ibang": 6344,
      "ibito": 6345,
      "Ġupon": 6346,
      "aseba": 6347,
      "artet": 6348,
      "ĠIsab": 6349,
      "ĠIsami": 6350,
      "quation": 6351,
      "ĠAfro": 6352,
      "roppo": 6353,
      "ĠKeepers": 6354,
      "ĠHardcore": 6355,
      "Ġadplus": 6356,
      "odes": 6357,
      "ĠRin": 6358,
      "ĠRis": 6359,
      "ĠRok": 6360,
      "ĠRul": 6361,
      "ĠRap": 6362,
      "ĠRace": 6363,
      "ĠRabb": 6364,
      "ĠRoku": 6365,
      "ĠRey": 6366,
      "ĠReg": 6367,
      "ĠRall": 6368,
      "ĠRakus": 6369,
      "ĠRane": 6370,
      "ĠRandy": 6371,
      "ĠRanc": 6372,
      "ĠRuna": 6373,
      "ĠRanger": 6374,
      "ĠRxx": 6375,
      "ĠRayear": 6376,
      "ĠReplay": 6377,
      "ĠRoots": 6378,
      "thern": 6379,
      "spital": 6380,
      "sphera": 6381,
      "antasia": 6382,
      "obin": 6383,
      "obito": 6384,
      "valier": 6385,
      "endou": 6386,
      "mos": 6387,
      "mother": 6388,
      "moff": 6389,
      "moku": 6390,
      "lower": 6391,
      "unki": 6392,
      "ungle": 6393,
      "unrai": 6394,
      "ĠFake": 6395,
      "ĠFather": 6396,
      "ĠFriend": 6397,
      "ĠFate": 6398,
      "ĠFood": 6399,
      "ĠFourt": 6400,
      "ĠFact": 6401,
      "ĠFami": 6402,
      "ĠFight": 6403,
      "ĠFara": 6404,
      "ĠFashi": 6405,
      "ĠFub": 6406,
      "ĠFuku": 6407,
      "ĠFly": 6408,
      "ĠFoot": 6409,
      "ĠFawn": 6410,
      "ĠFinanc": 6411,
      "ĠFarm": 6412,
      "ĠFaces": 6413,
      "ĠFlesh": 6414,
      "ĠFourth": 6415,
      "ĠFantasia": 6416,
      "ĠFlower": 6417,
      "isa": 6418,
      "isuji": 6419,
      "entoshi": 6420,
      "entrix": 6421,
      "ĠOG": 6422,
      "ĠOh": 6423,
      "ĠOri": 6424,
      "ĠOmen": 6425,
      "ĠOval": 6426,
      "ĠOug": 6427,
      "ĠOchi": 6428,
      "ĠOita": 6429,
      "ĠOkan": 6430,
      "ĠOly": 6431,
      "ĠOwar": 6432,
      "ĠOhan": 6433,
      "ĠOoi": 6434,
      "ĠOsan": 6435,
      "ĠOgre": 6436,
      "ĠOkus": 6437,
      "ĠOhoshi": 6438,
      "ĠOutlaw": 6439,
      "ĠOcean": 6440,
      "ĠOshiete": 6441,
      "umb": 6442,
      "umin": 6443,
      "umind": 6444,
      "umana": 6445,
      "umamig": 6446,
      "ĠWet": 6447,
      "ĠWel": 6448,
      "ĠWound": 6449,
      "ĠWood": 6450,
      "ĠWord": 6451,
      "ĠWest": 6452,
      "ĠWha": 6453,
      "ĠWakus": 6454,
      "ĠWrest": 6455,
      "ĠWave": 6456,
      "ĠWandaba": 6457,
      "ĠWakakus": 6458,
      "rel": 6459,
      "rementar": 6460,
      "uralitas": 6461,
      "emble": 6462,
      "emayo": 6463,
      "aracter": 6464,
      "okon": 6465,
      "ulture": 6466,
      "abile": 6467,
      "abane": 6468,
      "abouzu": 6469,
      "abungle": 6470,
      "ava": 6471,
      "ĠYin": 6472,
      "ĠYot": 6473,
      "ĠYang": 6474,
      "ĠYaki": 6475,
      "ĠYose": 6476,
      "ĠYarou": 6477,
      "ĠYasha": 6478,
      "ĠYoma": 6479,
      "ĠYonna": 6480,
      "ĠYumeria": 6481,
      "ĠYoushou": 6482,
      "ĠYawar": 6483,
      "ĠYuria": 6484,
      "kaider": 6485,
      "apa": 6486,
      "ugari": 6487,
      "ugog": 6488,
      "ĠEfe": 6489,
      "ĠElder": 6490,
      "ĠEight": 6491,
      "ĠEdo": 6492,
      "ĠEto": 6493,
      "ĠEmp": 6494,
      "ĠErin": 6495,
      "ĠEdge": 6496,
      "ĠEsper": 6497,
      "ĠEtranger": 6498,
      "ĠEriko": 6499,
      "ĠEagle": 6500,
      "ĠEquation": 6501,
      "ĠErementar": 6502,
      "els": 6503,
      "elle": 6504,
      "ueki": 6505,
      "ĠShouk": 6506,
      "ĠShall": 6507,
      "ĠShugo": 6508,
      "ĠShingu": 6509,
      "ĠShonan": 6510,
      "ĠSharp": 6511,
      "ĠShunrai": 6512,
      "ĠShugog": 6513,
      "ĠMoero": 6514,
      "ĠModel": 6515,
      "ĠMogit": 6516,
      "ĠMovement": 6517,
      "ĠMotif": 6518,
      "ĠMovies": 6519,
      "ineko": 6520,
      "ineiro": 6521,
      "tsumen": 6522,
      "tsuji": 6523,
      "tsubou": 6524,
      "tsukyou": 6525,
      "ousama": 6526,
      "opia": 6527,
      "iraku": 6528,
      "irrel": 6529,
      "iety": 6530,
      "ĠJr": 6531,
      "ĠJog": 6532,
      "ĠJouk": 6533,
      "ĠJiru": 6534,
      "ĠJigen": 6535,
      "ĠJira": 6536,
      "ĠJew": 6537,
      "ĠJacket": 6538,
      "ĠJecy": 6539,
      "ĠJigoku": 6540,
      "ĠJitensha": 6541,
      "eiro": 6542,
      "eizou": 6543,
      "eikiden": 6544,
      "ĠSports": 6545,
      "ĠSpica": 6546,
      "ĠSprite": 6547,
      "ghu": 6548,
      "Ġ2772": 6549,
      "ĠStore": 6550,
      "ĠStation": 6551,
      "ĠState": 6552,
      "ĠStain": 6553,
      "ĠStudy": 6554,
      "ĠVF": 6555,
      "ĠVS": 6556,
      "ĠVari": 6557,
      "ĠVess": 6558,
      "ĠVex": 6559,
      "ĠVoices": 6560,
      "ĠVandel": 6561,
      "ĠVaranoir": 6562,
      "ĠVacation": 6563,
      "ĠVoogie": 6564,
      "ĠVoltes": 6565,
      "ĠVillage": 6566,
      "ĠUP": 6567,
      "ĠUchi": 6568,
      "ĠUgo": 6569,
      "ĠUba": 6570,
      "ĠUser": 6571,
      "ĠUshiro": 6572,
      "ĠUrikup": 6573,
      "ĠUshio": 6574,
      "ĠMau": 6575,
      "ĠMadam": 6576,
      "ĠMadou": 6577,
      "ĠMado": 6578,
      "ĠMaico": 6579,
      "ĠMawaru": 6580,
      "adron": 6581,
      "adoon": 6582,
      "adokei": 6583,
      "admasters": 6584,
      "sui": 6585,
      "suit": 6586,
      "eyamaga": 6587,
      "ĠZER": 6588,
      "ĠZip": 6589,
      "ĠZaika": 6590,
      "ĠZambot": 6591,
      "ĠZillion": 6592,
      "ĠZibang": 6593,
      "ĠZentrix": 6594,
      "akuin": 6595,
      "erson": 6596,
      "ĠChain": 6597,
      "ĠChoro": 6598,
      "ĠChrome": 6599,
      "ĠChains": 6600,
      "ĠChaCha": 6601,
      "ĠChallen": 6602,
      "ĠCharacter": 6603,
      "ĠSebang": 6604,
      "ĠSeigi": 6605,
      "ĠSekirei": 6606,
      "ĠSeitok": 6607,
      "ĠTenge": 6608,
      "ĠTengen": 6609,
      "ĠTengu": 6610,
      "ĠTenjho": 6611,
      "ĠTenpou": 6612,
      "ĠSenjou": 6613,
      "ĠSenritsu": 6614,
      "ĠSengokushi": 6615,
      "ĠBlues": 6616,
      "ĠBlinky": 6617,
      "otarou": 6618,
      "ĠInbo": 6619,
      "ĠIngoku": 6620,
      "ĠInser": 6621,
      "ĠInvas": 6622,
      "ĠInochi": 6623,
      "ĠIncred": 6624,
      "ĠIndian": 6625,
      "ĠInmu": 6626,
      "ĠInsect": 6627,
      "ĠIndex": 6628,
      "ĠInyouchuu": 6629,
      "ĠMonmon": 6630,
      "ĠMonarch": 6631,
      "haft": 6632,
      "haha": 6633,
      "ikou": 6634,
      "ikakushi": 6635,
      "ĠGunpar": 6636,
      "oukyoku": 6637,
      "ĠSuiri": 6638,
      "ĠSuishou": 6639,
      "ĠSuisei": 6640,
      "azy": 6641,
      "azuki": 6642,
      "azuchi": 6643,
      "ukugari": 6644,
      "yokiss": 6645,
      "ĠShion": 6646,
      "ĠShien": 6647,
      "ĠShiho": 6648,
      "ĠShishi": 6649,
      "ĠShitsu": 6650,
      "ĠShiken": 6651,
      "ĠShima": 6652,
      "ĠShish": 6653,
      "ĠShirat": 6654,
      "ĠShiritsu": 6655,
      "ĠShiaw": 6656,
      "ĠShibori": 6657,
      "ĠShiguru": 6658,
      "ĠShirase": 6659,
      "ĠToaru": 6660,
      "ĠTooru": 6661,
      "ĠToHe": 6662,
      "ĠTozas": 6663,
      "ĠPrescri": 6664,
      "ĠHeidi": 6665,
      "ĠHeadmasters": 6666,
      "ĠDeity": 6667,
      "ĠDeba": 6668,
      "ĠOni": 6669,
      "ĠArk": 6670,
      "ĠArts": 6671,
      "ĠAround": 6672,
      "ĠArmy": 6673,
      "ĠArara": 6674,
      "ĠArrest": 6675,
      "ĠArano": 6676,
      "ĠArete": 6677,
      "ĠAraig": 6678,
      "ĠArthur": 6679,
      "ĠArusu": 6680,
      "ĠAraiso": 6681,
      "ĠNell": 6682,
      "ĠNejim": 6683,
      "ĠNeighbors": 6684,
      "ĠTeki": 6685,
      "ĠTezuka": 6686,
      "ĠLolo": 6687,
      "ĠLoad": 6688,
      "ĠShinko": 6689,
      "ĠShinku": 6690,
      "ĠShinsh": 6691,
      "ĠShinzou": 6692,
      "ĠShinpi": 6693,
      "ĠShinesman": 6694,
      "ĠShinigami": 6695,
      "raper": 6696,
      "Ġ10": 6697,
      "Ġ12": 6698,
      "Ġ16": 6699,
      "Ġ17": 6700,
      "Ġ18": 6701,
      "Ġ101": 6702,
      "ĠMiki": 6703,
      "ĠMiami": 6704,
      "ĠMija": 6705,
      "ĠMizug": 6706,
      "ĠWarning": 6707,
      "arajima": 6708,
      "ĠKidan": 6709,
      "ashii": 6710,
      "ashire": 6711,
      "ashiman": 6712,
      "ashita": 6713,
      "ashimi": 6714,
      "ashigo": 6715,
      "ĠKioku": 6716,
      "ĠKijoku": 6717,
      "ĠKiroku": 6718,
      "ĠKijutsushi": 6719,
      "ĠKiitem": 6720,
      "ĠKikaider": 6721,
      "ĠKoisuru": 6722,
      "ĠPrintemp": 6723,
      "alla": 6724,
      "ĠBeet": 6725,
      "ĠBells": 6726,
      "ĠBeater": 6727,
      "ĠBeanst": 6728,
      "Ġ06": 6729,
      "damaya": 6730,
      "ĠKenshi": 6731,
      "ĠKenritsu": 6732,
      "ĠKenshiro": 6733,
      "ĠKenpuu": 6734,
      "jinchou": 6735,
      "uushutsu": 6736,
      "teki": 6737,
      "ĠChika": 6738,
      "ĠChiryou": 6739,
      "ĠChihiro": 6740,
      "ĠAngelic": 6741,
      "Ġ357": 6742,
      "Ġ365": 6743,
      "ĠTsupp": 6744,
      "ĠTsuyokiss": 6745,
      "ĠDaiou": 6746,
      "ĠDaite": 6747,
      "ĠDaima": 6748,
      "ĠDaioh": 6749,
      "ĠDairin": 6750,
      "ĠDaimos": 6751,
      "ĠRemember": 6752,
      "ĠRead": 6753,
      "ĠRelight": 6754,
      "ĠReins": 6755,
      "ĠReign": 6756,
      "ĠReload": 6757,
      "ĠReality": 6758,
      "kaan": 6759,
      "ĠMew": 6760,
      "ĠMeine": 6761,
      "ĠMejoku": 6762,
      "ĠMeadow": 6763,
      "ĠMetsubou": 6764,
      "ĠGeo": 6765,
      "ĠGeorg": 6766,
      "ĠGegege": 6767,
      "ĠGetsumen": 6768,
      "ĠXX": 6769,
      "ĠXenog": 6770,
      "ĠXabungle": 6771,
      "ĠTaikai": 6772,
      "ĠTaisho": 6773,
      "ĠTaishou": 6774,
      "ĠTaisetsu": 6775,
      "ĠTaiyokei": 6776,
      "ĠMagni": 6777,
      "ĠMagikan": 6778,
      "ĠMagnum": 6779,
      "ĠShouen": 6780,
      "ĠShoumen": 6781,
      "ĠShouzou": 6782,
      "ĠShougai": 6783,
      "owareta": 6784,
      "ĠSeiai": 6785,
      "ĠSeihou": 6786,
      "ĠSeirei": 6787,
      "ĠSeijun": 6788,
      "ĠMeguru": 6789,
      "ĠLoves": 6790,
      "ĠStarship": 6791,
      "ĠStardust": 6792,
      "ndrome": 6793,
      "ĠMasou": 6794,
      "ĠYuureis": 6795,
      "ushiji": 6796,
      "ĠGoemon": 6797,
      "ĠGozai": 6798,
      "ĠChouon": 6799,
      "ĠChouja": 6800,
      "ĠChoujuus": 6801,
      "ĠChoubatsu": 6802,
      "ĠDie": 6803,
      "ĠDiaries": 6804,
      "anajimi": 6805,
      "oshitsuji": 6806,
      "ĠBattler": 6807,
      "hina": 6808,
      "kuinshi": 6809,
      "ronomicon": 6810,
      "uraho": 6811,
      "ĠSauc": 6812,
      "ĠSawy": 6813,
      "ĠKaitou": 6814,
      "ĠKaitei": 6815,
      "ĠKaidan": 6816,
      "ĠKaidashi": 6817,
      "ĠConcenti": 6818,
      "ĠSuperman": 6819,
      "ĠSuperbook": 6820,
      "ĠSuperlink": 6821,
      "ryoku": 6822,
      "uchery": 6823,
      "ĠSaiko": 6824,
      "ĠKane": 6825,
      "ĠKankin": 6826,
      "ĠKanokon": 6827,
      "ĠKanashimi": 6828,
      "ĠKyouen": 6829,
      "ĠKyousho": 6830,
      "ĠKyougoku": 6831,
      "ĠKyougen": 6832,
      "ĠKyouju": 6833,
      "ĠKyoufu": 6834,
      "ĠKyouhaku": 6835,
      "ĠKyousou": 6836,
      "ĠCluster": 6837,
      "ĠOneesan": 6838,
      "ĠToka": 6839,
      "ĠTokkyuu": 6840,
      "ĠTokuten": 6841,
      "ĠTokineiro": 6842,
      "ĠKuroz": 6843,
      "ĠKuroshitsuji": 6844,
      "ĠCombin": 6845,
      "ĠCombatt": 6846,
      "ĠComput": 6847,
      "ĠLaura": 6848,
      "ĠLaugh": 6849,
      "ĠLaws": 6850,
      "ĠKajib": 6851,
      "ĠFutatsu": 6852,
      "seki": 6853,
      "ĠMaroko": 6854,
      "ĠMarina": 6855,
      "ĠMarmal": 6856,
      "ĠMarvy": 6857,
      "ĠMacron": 6858,
      "ĠMachina": 6859,
      "ĠGrey": 6860,
      "ĠGakuentoshi": 6861,
      "ĠDaare": 6862,
      "ĠDaigo": 6863,
      "ĠBallad": 6864,
      "ĠOVALx": 6865,
      "ĠMoons": 6866,
      "ĠJunjo": 6867,
      "neamise": 6868,
      "ĠIkkyuu": 6869,
      "ĠIkusen": 6870,
      "ĠIkazuchi": 6871,
      "ĠNightwalker": 6872,
      "ĠKingyo": 6873,
      "ĠPrism": 6874,
      "ĠWorth": 6875,
      "ĠMuscle": 6876,
      "ĠMiru": 6877,
      "ĠMirmo": 6878,
      "ĠNina": 6879,
      "ĠNinomi": 6880,
      "ĠNintama": 6881,
      "ĠNinjab": 6882,
      "ĠNinkuu": 6883,
      "ĠNanase": 6884,
      "ĠNankoku": 6885,
      "ector": 6886,
      "ĠGenom": 6887,
      "ĠGenei": 6888,
      "ĠHitman": 6889,
      "ĠHitobito": 6890,
      "ĠJacky": 6891,
      "lands": 6892,
      "utsujo": 6893,
      "zokudan": 6894,
      "ĠKazah": 6895,
      "ĠCapital": 6896,
      "ĠCaptivating": 6897,
      "ĠProxy": 6898,
      "ĠRyger": 6899,
      "koubu": 6900,
      "ĠSans": 6901,
      "ĠSanada": 6902,
      "ĠSanzokudan": 6903,
      "ĠManami": 6904,
      "ĠManie": 6905,
      "ĠMansion": 6906,
      "ĠManabi": 6907,
      "ĠManager": 6908,
      "ĠManiac": 6909,
      "ĠManual": 6910,
      "ĠMoby": 6911,
      "ĠAltern": 6912,
      "ĠGroup": 6913,
      "ĠHeartwor": 6914,
      "ĠMujun": 6915,
      "ĠMuumind": 6916,
      "ĠCats": 6917,
      "ĠPolyp": 6918,
      "ĠLevel": 6919,
      "ĠLeaf": 6920,
      "ĠLewd": 6921,
      "ĠLeaguer": 6922,
      "ĠDarker": 6923,
      "ĠBakuten": 6924,
      "ĠRoyalty": 6925,
      "ĠRozen": 6926,
      "ĠFinals": 6927,
      "ĠYoukai": 6928,
      "ĠYoujuu": 6929,
      "ĠYouchou": 6930,
      "ĠJoou": 6931,
      "ĠJoyuu": 6932,
      "ĠJoJo": 6933,
      "ĠJolie": 6934,
      "ĠSenkitan": 6935,
      "ĠTokidoki": 6936,
      "mitsu": 6937,
      "mission": 6938,
      "ĠIchiban": 6939,
      "ĠTail": 6940,
      "ĠTaose": 6941,
      "ĠTaiga": 6942,
      "ĠThumb": 6943,
      "ĠHihou": 6944,
      "ĠHiiro": 6945,
      "ĠHiroku": 6946,
      "ĠHissatsu": 6947,
      "ĠRecollection": 6948,
      "ĠOtenki": 6949,
      "ĠEnbo": 6950,
      "ĠEnzai": 6951,
      "ĠEncoun": 6952,
      "ĠEngage": 6953,
      "ĠEpic": 6954,
      "ĠMitsubachi": 6955,
      "tora": 6956,
      "Ġxxx": 6957,
      "ĠSumomomo": 6958,
      "ĠSumaseba": 6959,
      "ĠMina": 6960,
      "ĠMiners": 6961,
      "ĠMinami": 6962,
      "ĠMinerva": 6963,
      "ĠMinashigo": 6964,
      "ĠGuts": 6965,
      "ĠGude": 6966,
      "ĠCybuster": 6967,
      "ĠLiving": 6968,
      "ĠLilia": 6969,
      "ĠResolution": 6970,
      "ĠRescue": 6971,
      "ĠFuyu": 6972,
      "ĠFumoff": 6973,
      "ĠOui": 6974,
      "ĠWata": 6975,
      "ĠWater": 6976,
      "ĠWatches": 6977,
      "ĠTsubaki": 6978,
      "ĠEpisodes": 6979,
      "ppon": 6980,
      "ĠMidara": 6981,
      "ĠNorimon": 6982,
      "ĠNorowareta": 6983,
      "ĠKino": 6984,
      "ĠKinryou": 6985,
      "ĠKininaru": 6986,
      "ĠDoh": 6987,
      "ĠDoll": 6988,
      "ĠDoji": 6989,
      "ĠDojin": 6990,
      "ĠDollar": 6991,
      "ĠForbid": 6992,
      "ĠMajutsu": 6993,
      "ĠNewsc": 6994,
      "ĠShot": 6995,
      "ĠShojo": 6996,
      "ĠShohoku": 6997,
      "ĠShokuinshi": 6998,
      "ĠKufura": 6999,
      "ĠKarma": 7000,
      "ĠKarura": 7001,
      "ĠKarasu": 7002,
      "ĠGarou": 7003,
      "ĠGaraga": 7004,
      "ĠYakushiji": 7005,
      "2001": 7006,
      "2005": 7007,
      "2006": 7008,
      "2007": 7009,
      "atosphera": 7010,
      "ĠTruth": 7011,
      "ĠTrinity": 7012,
      "ĠTrava": 7013,
      "ĠAsura": 7014,
      "ĠAsagiri": 7015,
      "ĠCried": 7016,
      "ĠHyaku": 7017,
      "ĠWinds": 7018,
      "ĠWindow": 7019,
      "ĠWindmasters": 7020,
      "ĠVampiyan": 7021,
      "ĠTetsuko": 7022,
      "Moon": 7023,
      "ĠKimochi": 7024,
      "ĠKakure": 7025,
      "ĠHotaru": 7026,
      "ĠHotaruko": 7027,
      "ĠHika": 7028,
      "ĠRave": 7029,
      "ĠRamenman": 7030,
      "ĠRyouki": 7031,
      "ĠRyouko": 7032,
      "ĠRyuuki": 7033,
      "ĠRyuuko": 7034,
      "ĠEnders": 7035,
      "ĠStrait": 7036,
      "ĠStratosphera": 7037,
      "ĠNekojiru": 7038,
      "ĠSpirited": 7039,
      "1978": 7040,
      "honica": 7041,
      "nismon": 7042,
      "roman": 7043,
      "ĠSorrow": 7044,
      "ĠSorcer": 7045,
      "ĠMilf": 7046,
      "ĠMeteor": 7047,
      "ĠAgent": 7048,
      "ĠAgerun": 7049,
      "ĠAtama": 7050,
      "ĠGodfather": 7051,
      "ĠGhosts": 7052,
      "ĠParasite": 7053,
      "ĠParallel": 7054,
      "ĠDenki": 7055,
      "ĠDenpa": 7056,
      "ĠBird": 7057,
      "ĠBokumetsu": 7058,
      "ĠJudy": 7059,
      "ĠJuice": 7060,
      "ĠJudo": 7061,
      "ĠJuugo": 7062,
      "ĠJudge": 7063,
      "ĠJuunin": 7064,
      "ĠCyberland": 7065,
      "nition": 7066,
      "nium": 7067,
      "Ġ40": 7068,
      "ĠSoar": 7069,
      "ĠSolitary": 7070,
      "ĠSolid": 7071,
      "ĠSouja": 7072,
      "ĠSoujuu": 7073,
      "ĠSoudatsu": 7074,
      "ĠSoukihei": 7075,
      "ĠSouthern": 7076,
      "ĠTroops": 7077,
      "ĠAkakichi": 7078,
      "ĠNatsuki": 7079,
      "ĠNatsuhiko": 7080,
      "ĠKoujin": 7081,
      "ĠKouenma": 7082,
      "ĠKoutsuu": 7083,
      "ĠCrusher": 7084,
      "ĠCarol": 7085,
      "ĠCarnal": 7086,
      "ĠHoshikuzu": 7087,
      "ĠPluster": 7088,
      "ĠPlastic": 7089,
      "ĠPlatonic": 7090,
      "ĠPluralitas": 7091,
      "ĠPostPet": 7092,
      "ĠPatras": 7093,
      "ĠPatalli": 7094,
      "ĠBokurano": 7095,
      "ĠBokusatsu": 7096,
      "ĠBabel": 7097,
      "ĠFlag": 7098,
      "ĠFlone": 7099,
      "ĠFlare": 7100,
      "ĠFlair": 7101,
      "ĠUltrama": 7102,
      "ĠMugenjou": 7103,
      "ipline": 7104,
      "ohazard": 7105,
      "yuke": 7106,
      "atsusha": 7107,
      "ĠNaugh": 7108,
      "ĠNureru": 7109,
      "ĠKoni": 7110,
      "ĠKonchuu": 7111,
      "ĠKonamaiki": 7112,
      "ĠKonsui": 7113,
      "ĠKagami": 7114,
      "ĠKagayaki": 7115,
      "ĠCooking": 7116,
      "ĠCooler": 7117,
      "ĠCounsel": 7118,
      "ĠHeroes": 7119,
      "ĠPeace": 7120,
      "ĠLyon": 7121,
      "ĠRoman": 7122,
      "ĠRiding": 7123,
      "ĠYork": 7124,
      "ĠYuudou": 7125,
      "ĠYuujinchou": 7126,
      "ĠUrda": 7127,
      "ĠUrarochi": 7128,
      "ĠUrashiman": 7129,
      "ĠChildhood": 7130,
      "ĠGrandmother": 7131,
      "ĠTanpen": 7132,
      "ĠTanuki": 7133,
      "ĠTaneyamaga": 7134,
      "ĠAshioto": 7135,
      "ĠNagisa": 7136,
      "ĠNegai": 7137,
      "ĠKoto": 7138,
      "ĠGeneshaft": 7139,
      "ĠClose": 7140,
      "ĠHaai": 7141,
      "ĠHaoh": 7142,
      "ĠHappiness": 7143,
      "ĠPurin": 7144,
      "ĠPursuit": 7145,
      "ĠPetite": 7146,
      "ĠDorei": 7147,
      "ĠDirector": 7148,
      "ĠDanger": 7149,
      "ĠBizar": 7150,
      "ĠBiohazard": 7151,
      "ĠBugei": 7152,
      "ĠBuBu": 7153,
      "ĠOverloo": 7154,
      "ĠWithin": 7155,
      "ĠWithout": 7156,
      "ĠArcade": 7157,
      "ĠMissing": 7158,
      "1988": 7159,
      "ĠCountry": 7160,
      "ĠCosmoZone": 7161,
      "1991": 7162,
      "1998": 7163,
      "1999": 7164,
      "maro": 7165,
      "marck": 7166,
      "masu": 7167,
      "ĠSakuragi": 7168,
      "ĠSuna": 7169,
      "ĠSunabouzu": 7170,
      "ĠSunadokei": 7171,
      "ĠSugai": 7172,
      "ĠSugoi": 7173,
      "ĠTomatoman": 7174,
      "ĠMamoru": 7175,
      "ĠMako": 7176,
      "ĠMakyuu": 7177,
      "ĠMakendou": 7178,
      "ĠApolon": 7179,
      "ĠNiji": 7180,
      "ĠNihon": 7181,
      "ĠNippon": 7182,
      "ĠKiku": 7183,
      "ĠKikoutei": 7184,
      "ĠKikansetsu": 7185,
      "ĠKikumana": 7186,
      "ĠCorpse": 7187,
      "ĠHansen": 7188,
      "ĠHanamichi": 7189,
      "ĠDunk": 7190,
      "ĠRenkin": 7191,
      "ĠRenpatsu": 7192,
      "ĠObenkyou": 7193,
      "ĠOblivi": 7194,
      "ĠOjikan": 7195,
      "ĠOjousama": 7196,
      "ĠYozak": 7197,
      "ĠYojim": 7198,
      "ĠJuushin": 7199,
      "ĠKissa": 7200,
      "ĠGoldran": 7201,
      "ĠGoldfish": 7202,
      "ĠGuardress": 7203,
      "ningen": 7204,
      "Ġ80": 7205,
      "Ġ88": 7206,
      "ĠTonari": 7207,
      "ĠTonto": 7208,
      "ĠTakoya": 7209,
      "ĠTakarajima": 7210,
      "ĠKitan": 7211,
      "ĠKitten": 7212,
      "ĠGinyuu": 7213,
      "ĠGokinjo": 7214,
      "ĠGokudo": 7215,
      "ĠHoero": 7216,
      "ĠHospital": 7217,
      "ĠHimekishi": 7218,
      "igoe": 7219,
      "ĠBasket": 7220,
      "ĠAffairs": 7221,
      "ĠRyofuko": 7222,
      "ĠFrantic": 7223,
      "ĠFrenzy": 7224,
      "ĠFraction": 7225,
      "ĠFresh": 7226,
      "ĠFrustrated": 7227,
      "ĠOrgus": 7228,
      "ĠOrnismon": 7229,
      "ĠWieder": 7230,
      "ĠStellar": 7231,
      "ĠSteady": 7232,
      "ĠSteamboy": 7233,
      "ĠStellvia": 7234,
      "ĠZenkoku": 7235,
      "ĠZenryoku": 7236,
      "ĠHeavens": 7237,
      "ĠHeavenly": 7238,
      "ĠAngelium": 7239,
      "ĠYumegatari": 7240,
      "ĠYumedamaya": 7241,
      "ĠMachine": 7242,
      "ĠRyuuseiki": 7243,
      "ĠHikarian": 7244,
      "!?,": 7245,
      "Manie": 7246,
      "ailles": 7247,
      "ficent": 7248,
      "scraper": 7249,
      "Ġ%:": 7250,
      "ĠSEX": 7251,
      "ĠScar": 7252,
      "ĠScore": 7253,
      "ĠScienti": 7254,
      "ĠScroll": 7255,
      "ĠSquirrel": 7256,
      "ĠSquadron": 7257,
      "ĠTamashii": 7258,
      "ĠTooi": 7259,
      "ĠTakeki": 7260,
      "ĠMedarot": 7261,
      "ĠMonsters": 7262,
      "ĠMario": 7263,
      "ĠAmida": 7264,
      "ĠNingyou": 7265,
      "ĠKeiraku": 7266,
      "ĠGaine": 7267,
      "ĠCHAG": 7268,
      "ĠChobits": 7269,
      "ĠChoisuji": 7270,
      "ĠComes": 7271,
      "ĠCentral": 7272,
      "ĠCryin": 7273,
      "ĠHonorable": 7274,
      "ĠHonneamise": 7275,
      "ĠBaron": 7276,
      "ĠBarbap": 7277,
      "ĠBurning": 7278,
      "ĠBunkiten": 7279,
      "ĠBannertail": 7280,
      "ĠAndroid": 7281,
      "ĠAnderson": 7282,
      "ĠRingetsu": 7283,
      "ĠWings": 7284,
      "ĠWinged": 7285,
      "ĠWingman": 7286,
      "ĠWanghu": 7287,
      "ĠYamadas": 7288,
      "ĠExe": 7289,
      "ĠExcess": 7290,
      "ĠExkaiser": 7291,
      "ĠExcel": 7292,
      "ĠExperimen": 7293,
      "Ġ2058": 7294,
      "Ġ2010": 7295,
      "ĠStraight": 7296,
      "ĠUtahime": 7297,
      "ĠChinmoku": 7298,
      "ĠShiroi": 7299,
      "ĠKyoushirou": 7300,
      "ĠRecording": 7301,
      "ĠSoulTak": 7302,
      "ĠHousewive": 7303,
      "mpic": 7304,
      "ĠService": 7305,
      "ĠSerenade": 7306,
      "ĠSociety": 7307,
      "ĠTatakai": 7308,
      "ĠThief": 7309,
      "ĠThirte": 7310,
      "ĠMicroman": 7311,
      "ĠMomomo": 7312,
      "ĠMomobin": 7313,
      "ĠMomotarou": 7314,
      "ĠAcademy": 7315,
      "ĠNazca": 7316,
      "ĠKibou": 7317,
      "ĠKokki": 7318,
      "ĠKokoro": 7319,
      "ĠKuukan": 7320,
      "ĠGallery": 7321,
      "ĠLetter": 7322,
      "ĠLolicon": 7323,
      "ĠDepravi": 7324,
      "ĠBox": 7325,
      "ĠBoes": 7326,
      "ĠBakuen": 7327,
      "ĠBakukyuu": 7328,
      "ĠRaijin": 7329,
      "ĠRaikou": 7330,
      "ĠRaideen": 7331,
      "ĠFamous": 7332,
      "ĠFamires": 7333,
      "ĠFamille": 7334,
      "ĠFestival": 7335,
      "ĠOffice": 7336,
      "ĠOffside": 7337,
      "ĠWhistle": 7338,
      "ĠWilly": 7339,
      "Ġ2001": 7340,
      "Ġ2006": 7341,
      "ĠVersailles": 7342,
      "ĠUnit": 7343,
      "ĠUnkai": 7344,
      "ĠUnico": 7345,
      "ĠSubmission": 7346,
      "Ġ044": 7347,
      "ĠTaisenki": 7348,
      "ĠSanshiro": 7349,
      "ĠKinnikusei": 7350,
      "ĠFlashback": 7351,
      "ĠMahoraba": 7352,
      "ougakkou": 7353,
      "ĠSlam": 7354,
      "ĠSlutty": 7355,
      "ĠSyndrome": 7356,
      "ĠSwordsmen": 7357,
      "ĠTerra": 7358,
      "ĠToushou": 7359,
      "ĠMSV": 7360,
      "ĠMuramasa": 7361,
      "ĠMatchless": 7362,
      "ĠMystical": 7363,
      "ĠMysteries": 7364,
      "ĠNarutaru": 7365,
      "ĠKyoko": 7366,
      "ĠKyuushutsu": 7367,
      "ĠKamyla": 7368,
      "ĠKamikakushi": 7369,
      "ĠGakkou": 7370,
      "ĠCantabile": 7371,
      "ĠCassoulet": 7372,
      "ĠCircu": 7373,
      "ĠCardz": 7374,
      "ĠCardliver": 7375,
      "ĠCardcap": 7376,
      "ĠCubix": 7377,
      "ĠHollow": 7378,
      "ĠHandle": 7379,
      "ĠHandsome": 7380,
      "ĠHandicap": 7381,
      "ĠPersonal": 7382,
      "ĠLayer": 7383,
      "ĠLocker": 7384,
      "ĠLocomon": 7385,
      "ĠDuo": 7386,
      "ĠDonburi": 7387,
      "ĠDokkiri": 7388,
      "ĠDokkaan": 7389,
      "ĠDownload": 7390,
      "ĠButa": 7391,
      "ĠBoukyaku": 7392,
      "ĠBowl": 7393,
      "ĠFukusei": 7394,
      "ĠOsaka": 7395,
      "ĠOsamu": 7396,
      "ĠOurin": 7397,
      "ĠWalther": 7398,
      "ĠWalzer": 7399,
      "ĠEscalay": 7400,
      "ĠShuuchuu": 7401,
      "ĠShuukaku": 7402,
      "ĠShuudan": 7403,
      "ĠShuuchak": 7404,
      "ĠMaximum": 7405,
      "ĠBlaze": 7406,
      "ĠMonochrome": 7407,
      "ĠGunsmith": 7408,
      "ĠNekketsu": 7409,
      "ĠShinsou": 7410,
      "ĠShinseikiden": 7411,
      "ĠTsukisase": 7412,
      "ĠDaitoshi": 7413,
      "ĠDaitarn": 7414,
      "ĠGekkou": 7415,
      "ĠGekiga": 7416,
      "ĠSaeba": 7417,
      "ĠProgrammer": 7418,
      "ĠDoubutsuki": 7419,
      "ĠPowerpuff": 7420,
      "ĠUltraviole": 7421,
      "ĠImmorals": 7422,
      "ĠEyeshield": 7423,
      "ĠEarthian": 7424,
      "ĠTatakau": 7425,
      "ORK": 7426,
      "guise": 7427,
      "kuriman": 7428,
      "ratory": 7429,
      "wlers": 7430,
      "ĠItsumo": 7431,
      "ĠItsuwari": 7432,
      "ĠItsutsugo": 7433,
      "ĠSmile": 7434,
      "ĠSweeper": 7435,
      "ĠSepia": 7436,
      "ĠSorezore": 7437,
      "ĠSoreyuke": 7438,
      "ĠShownoid": 7439,
      "ĠSurvive": 7440,
      "ĠSilent": 7441,
      "ĠTsuma": 7442,
      "ĠTsurugi": 7443,
      "ĠTsumamig": 7444,
      "ĠTeikoku": 7445,
      "ĠTotoro": 7446,
      "ĠMutiny": 7447,
      "ĠMamahaha": 7448,
      "lossia": 7449,
      "ĠAssemble": 7450,
      "ĠApproach": 7451,
      "ĠKodoch": 7452,
      "ĠKatekyou": 7453,
      "ĠKousetsu": 7454,
      "ĠKappa": 7455,
      "ĠKappas": 7456,
      "ĠKappei": 7457,
      "ĠGloria": 7458,
      "ĠGravion": 7459,
      "ĠCoCo": 7460,
      "ĠHidden": 7461,
      "ĠHachimitsu": 7462,
      "ĠPerrine": 7463,
      "ĠLingeries": 7464,
      "ĠLibrary": 7465,
      "ĠLadius": 7466,
      "ĠLucario": 7467,
      "ĠDeculture": 7468,
      "ĠDesert": 7469,
      "ĠDelux": 7470,
      "ĠDelinqu": 7471,
      "ĠDeltora": 7472,
      "ĠBavel": 7473,
      "ĠBoueig": 7474,
      "ĠBreed": 7475,
      "ĠBegins": 7476,
      "ĠAnsatsusha": 7477,
      "ĠRobin": 7478,
      "ĠRobby": 7479,
      "ĠRobinson": 7480,
      "ĠReiko": 7481,
      "ĠReijou": 7482,
      "ĠRideBack": 7483,
      "ĠOoatari": 7484,
      "ĠWishing": 7485,
      "ĠYoningumi": 7486,
      "ĠErgo": 7487,
      "ĠErolution": 7488,
      "ĠEikyuu": 7489,
      "ĠEggs": 7490,
      "ĠJotaro": 7491,
      "ĠUmineko": 7492,
      "ĠUtopia": 7493,
      "ĠUtsukushi": 7494,
      "ĠUniversity": 7495,
      "ĠMajogari": 7496,
      "ĠZaion": 7497,
      "ĠZaizen": 7498,
      "ĠZaibatsu": 7499,
      "ĠZeguy": 7500,
      "ĠChamploo": 7501,
      "ĠShikkoku": 7502,
      "ĠShikabane": 7503,
      "ĠShikkoubu": 7504,
      "ĠPrairies": 7505,
      "ĠDebt": 7506,
      "ĠTelepath": 7507,
      "ĠSeijuuden": 7508,
      "ĠMeguriai": 7509,
      "ĠWorks": 7510,
      "ĠGenshiken": 7511,
      "ĠManiax": 7512,
      "ĠViolinist": 7513,
      "ĠMiniPato": 7514,
      "ĠRyouriten": 7515,
      "ĠTondekeman": 7516,
      "ĠTakkyuubin": 7517,
      "Ġ2033": 7518,
      "ĠBeautifu": 7519,
      "ĠCommando": 7520,
      "ĠSymphonia": 7521,
      "ĠIkiteiru": 7522,
      "ĠUndergr": 7523,
      "OVER": 7524,
      "uyoku": 7525,
      "ĠIgano": 7526,
      "ĠIgnition": 7527,
      "ĠIsshuu": 7528,
      "ĠIssenman": 7529,
      "ĠSleeping": 7530,
      "ĠSleazy": 7531,
      "ĠSalad": 7532,
      "ĠSalamander": 7533,
      "ĠSkyscraper": 7534,
      "ĠSwans": 7535,
      "ĠTabidachi": 7536,
      "ĠTabibito": 7537,
      "ĠTongari": 7538,
      "ĠTongues": 7539,
      "ĠTanteidan": 7540,
      "ĠTanteibu": 7541,
      "ĠKashou": 7542,
      "ĠKasumin": 7543,
      "ĠKigyou": 7544,
      "ĠKiganjou": 7545,
      "ĠKunkun": 7546,
      "ĠKunoichi": 7547,
      "ĠKabuto": 7548,
      "ĠKabamaru": 7549,
      "ĠGerad": 7550,
      "ĠGerager": 7551,
      "ĠGassen": 7552,
      "ĠGasshin": 7553,
      "ĠCheong": 7554,
      "ĠChevalier": 7555,
      "ĠHeiki": 7556,
      "ĠHeika": 7557,
      "ĠHakuchou": 7558,
      "ĠHakugei": 7559,
      "ĠPiPo": 7560,
      "ĠPiroppo": 7561,
      "ĠPycal": 7562,
      "ĠPygmal": 7563,
      "ĠPonyo": 7564,
      "ĠPonpoko": 7565,
      "ĠPetoPet": 7566,
      "ĠPiano": 7567,
      "ĠPianist": 7568,
      "ĠLunatic": 7569,
      "ĠLunlun": 7570,
      "ĠLuminous": 7571,
      "ĠDanzai": 7572,
      "ĠDiscode": 7573,
      "ĠDiscipline": 7574,
      "ĠDinosaur": 7575,
      "ĠDinosaurs": 7576,
      "ĠBobby": 7577,
      "ĠBadlands": 7578,
      "ĠBombed": 7579,
      "ĠRasen": 7580,
      "ĠRascal": 7581,
      "ĠRantarou": 7582,
      "ĠRantaro": 7583,
      "ĠWowser": 7584,
      "ĠWandering": 7585,
      "ĠWanderers": 7586,
      "ĠYobikou": 7587,
      "ĠYobigoe": 7588,
      "ĠYokohama": 7589,
      "ĠJinnai": 7590,
      "ĠChuumon": 7591,
      "ĠChuuka": 7592,
      "ĠChuuihou": 7593,
      "ĠIntermezzo": 7594,
      "ĠInteractive": 7595,
      "ĠTowards": 7596,
      "ĠOnmyouji": 7597,
      "ĠMemole": 7598,
      "ĠMemoire": 7599,
      "ĠGeisters": 7600,
      "ĠSeifuku": 7601,
      "ĠSeifukugari": 7602,
      "ĠKannagi": 7603,
      "ĠKannazuki": 7604,
      "ĠQuiet": 7605,
      "ĠQuartet": 7606,
      "ĠAlps": 7607,
      "ĠAlpha": 7608,
      "ĠEnbanseki": 7609,
      "ĠKujira": 7610,
      "ĠKujiratori": 7611,
      "ĠCriminal": 7612,
      "ĠCrimson": 7613,
      "ĠHyakki": 7614,
      "ĠHyakuman": 7615,
      "ĠMillennia": 7616,
      "ĠMillennium": 7617,
      "ĠMakeruna": 7618,
      "ĠKekkou": 7619,
      "ĠKekkon": 7620,
      "ĠChocola": 7621,
      "ĠChocolate": 7622,
      "ĠActress": 7623,
      "ĠBrothers": 7624,
      "ĠBrotherhood": 7625,
      "ĠKerobby": 7626,
      "ĠKerobouru": 7627,
      "ĠVisionary": 7628,
      "ĠChampionship": 7629,
      "ĠSirene": 7630,
      "ĠJikuuden": 7631,
      "Decker": 7632,
      "Eyed": 7633,
      "HOLiC": 7634,
      "Princess": 7635,
      "Speed": 7636,
      "Saurer": 7637,
      "TWORK": 7638,
      "bird": 7639,
      "eenth": 7640,
      "huushou": 7641,
      "mingbird": 7642,
      "nichikan": 7643,
      "prints": 7644,
      "ĠiDOLM": 7645,
      "ĠIriya": 7646,
      "ĠIdeon": 7647,
      "ĠIhoujin": 7648,
      "ĠIntrigue": 7649,
      "ĠIyashite": 7650,
      "ĠIrrespons": 7651,
      "hevious": 7652,
      "ĠSacrilege": 7653,
      "ĠSomaru": 7654,
      "ĠSusie": 7655,
      "ĠSeton": 7656,
      "ĠSituation": 7657,
      "ĠSakebi": 7658,
      "ĠSodom": 7659,
      "ĠSerial": 7660,
      "ĠSabaku": 7661,
      "ĠSousamou": 7662,
      "ĠStyle": 7663,
      "ĠSadness": 7664,
      "ĠSesshoku": 7665,
      "ĠSangokushi": 7666,
      "ĠSoushitsukyou": 7667,
      "ĠSemifinal": 7668,
      "ĠShelled": 7669,
      "ĠTagen": 7670,
      "ĠTattoo": 7671,
      "ĠTensai": 7672,
      "ĠTrophy": 7673,
      "ĠTobira": 7674,
      "ĠTreasure": 7675,
      "ĠTemptation": 7676,
      "ĠTrigun": 7677,
      "ĠTechno": 7678,
      "ĠTegami": 7679,
      "ĠTallac": 7680,
      "ĠTachikoma": 7681,
      "ĠTondera": 7682,
      "ĠTyphoon": 7683,
      "Ġmelodies": 7684,
      "Ġmemories": 7685,
      "ĠMigratory": 7686,
      "ĠMountain": 7687,
      "ĠMiboujin": 7688,
      "ĠMisaki": 7689,
      "ĠMokke": 7690,
      "ĠMaburaho": 7691,
      "ĠMischevious": 7692,
      "ĠMitsusub": 7693,
      "ĠMikami": 7694,
      "ĠMukuro": 7695,
      "ĠMashimaro": 7696,
      "ĠMushishi": 7697,
      "ĠMakafushigi": 7698,
      "ĠMaboroshi": 7699,
      "ĠMOVIE": 7700,
      "loCrois": 7701,
      "ĠArea": 7702,
      "ĠAtsume": 7703,
      "ĠAyaushi": 7704,
      "ĠAkaneiro": 7705,
      "ĠAzuki": 7706,
      "ĠAbyss": 7707,
      "ĠAjisai": 7708,
      "ĠAbandoned": 7709,
      "ĠAjikko": 7710,
      "ĠAwaken": 7711,
      "ĠNecronomicon": 7712,
      "ĠNandarou": 7713,
      "ĠNabari": 7714,
      "ĠNadja": 7715,
      "ĠNikuyoku": 7716,
      "ĠNieA": 7717,
      "ĠNube": 7718,
      "ĠNonsense": 7719,
      "ĠNumeriau": 7720,
      "ĠNonomura": 7721,
      "ĠNouveau": 7722,
      "ĠKoutougakkou": 7723,
      "ĠKameari": 7724,
      "ĠKirara": 7725,
      "ĠKogepan": 7726,
      "ĠKashimashi": 7727,
      "ĠKuppa": 7728,
      "ĠKareinaru": 7729,
      "ĠKatsuragi": 7730,
      "ĠKombock": 7731,
      "ĠKochira": 7732,
      "ĠKratos": 7733,
      "ĠKatsushikaku": 7734,
      "ĠKorashime": 7735,
      "ĠKutabare": 7736,
      "ĠGattai": 7737,
      "ĠGoood": 7738,
      "ĠGaiarth": 7739,
      "ĠGandalla": 7740,
      "ĠGibo": 7741,
      "ĠGatchaman": 7742,
      "ĠGoblins": 7743,
      "ĠGovernment": 7744,
      "ĠGentou": 7745,
      "ĠGavlet": 7746,
      "ĠGestalt": 7747,
      "ĠGrapher": 7748,
      "ĠGoshuushou": 7749,
      "ĠGinyoku": 7750,
      "ĠGoushougun": 7751,
      "ĠGasaraki": 7752,
      "ĠCocoon": 7753,
      "ĠCrossroad": 7754,
      "ĠCerulean": 7755,
      "ĠCorner": 7756,
      "ĠCRIME": 7757,
      "ĠHamax": 7758,
      "ĠHooligan": 7759,
      "ĠHours": 7760,
      "ĠHasshin": 7761,
      "ĠHimiko": 7762,
      "ĠHensoukyoku": 7763,
      "ĠHummingbird": 7764,
      "ĠHashutsujo": 7765,
      "ĠHouteishiki": 7766,
      "ĠHEARTWORK": 7767,
      "ĠNoiseman": 7768,
      "ĠNostradamus": 7769,
      "ĠPastel": 7770,
      "ĠPokaan": 7771,
      "ĠPerformance": 7772,
      "ĠPotemayo": 7773,
      "ĠPopoloCrois": 7774,
      "ĠPiyoko": 7775,
      "ĠPenguin": 7776,
      "ĠLassie": 7777,
      "ĠLulu": 7778,
      "ĠLaputa": 7779,
      "ĠLogbook": 7780,
      "ĠLiebe": 7781,
      "ĠLicensed": 7782,
      "ĠDistant": 7783,
      "ĠDakkan": 7784,
      "ĠDagger": 7785,
      "ĠDendoh": 7786,
      "ĠDisguise": 7787,
      "ĠDemashita": 7788,
      "ĠDuell": 7789,
      "ĠDegeneration": 7790,
      "ĠDotto": 7791,
      "ĠBartender": 7792,
      "ĠBismarck": 7793,
      "ĠBoundary": 7794,
      "ĠBocchan": 7795,
      "ĠBrigadoon": 7796,
      "ĠBuzzer": 7797,
      "ĠBottle": 7798,
      "ĠBikkuriman": 7799,
      "ĠBrawlers": 7800,
      "ĠBucky": 7801,
      "ĠBardock": 7802,
      "ĠBicycle": 7803,
      "ĠBaldr": 7804,
      "ĠBASToF": 7805,
      "ĠBaldios": 7806,
      "ĠBuriburi": 7807,
      "ĠAndersen": 7808,
      "ĠAnniversary": 7809,
      "ĠAncient": 7810,
      "ĠAnnouncer": 7811,
      "ĠAnpanman": 7812,
      "ĠHarukoi": 7813,
      "ĠHarimao": 7814,
      "ĠIsabelle": 7815,
      "ĠRising": 7816,
      "ĠRokunin": 7817,
      "ĠRuler": 7818,
      "ĠRapeman": 7819,
      "ĠRabbit": 7820,
      "ĠRokuon": 7821,
      "ĠReyon": 7822,
      "ĠRegios": 7823,
      "ĠRally": 7824,
      "ĠRakushou": 7825,
      "ĠRancher": 7826,
      "ĠRunaway": 7827,
      "ĠRxxx": 7828,
      "ĠRayearth": 7829,
      "ĠFriends": 7830,
      "ĠFoodons": 7831,
      "ĠFourteenth": 7832,
      "ĠFactor": 7833,
      "ĠFamiliar": 7834,
      "ĠFaraway": 7835,
      "ĠFashion": 7836,
      "ĠFubuki": 7837,
      "ĠFukuin": 7838,
      "ĠFlying": 7839,
      "ĠFootprints": 7840,
      "ĠFinancial": 7841,
      "ĠOugon": 7842,
      "ĠOchiru": 7843,
      "ĠOkane": 7844,
      "ĠOlympic": 7845,
      "ĠOwaranai": 7846,
      "ĠOhanami": 7847,
      "ĠOsananajimi": 7848,
      "ĠOkusama": 7849,
      "ĠWelcome": 7850,
      "ĠWounded": 7851,
      "ĠWords": 7852,
      "ĠWhale": 7853,
      "ĠWakusei": 7854,
      "ĠWrestling": 7855,
      "ĠWakakusa": 7856,
      "ĠYottsu": 7857,
      "ĠYakitate": 7858,
      "ĠYawaraka": 7859,
      "ĠEmpire": 7860,
      "ĠShoukoushi": 7861,
      "ĠShunraiki": 7862,
      "ĠShugogetten": 7863,
      "ĠMogitate": 7864,
      "ĠJogakuin": 7865,
      "ĠJoukan": 7866,
      "ĠJirujiru": 7867,
      "ĠJewel": 7868,
      "ĠStainless": 7869,
      "ĠVariable": 7870,
      "ĠVessels": 7871,
      "ĠVexille": 7872,
      "ĠVacations": 7873,
      "ĠUgoita": 7874,
      "ĠUrikupen": 7875,
      "ĠZERO": 7876,
      "ĠZipang": 7877,
      "ĠChallenge": 7878,
      "ĠSebangou": 7879,
      "ĠSeitokai": 7880,
      "ĠInsert": 7881,
      "ĠInvasion": 7882,
      "ĠIncredible": 7883,
      "ĠGunparade": 7884,
      "ĠShishunki": 7885,
      "ĠShiratori": 7886,
      "ĠShiawase": 7887,
      "ĠShigurui": 7888,
      "ĠToHeart": 7889,
      "ĠTozasareta": 7890,
      "ĠPrescription": 7891,
      "ĠDebauchery": 7892,
      "ĠAraiguma": 7893,
      "ĠNejimaki": 7894,
      "ĠShinshaku": 7895,
      "ĠMizugumo": 7896,
      "ĠKiitemite": 7897,
      "ĠPrintemps": 7898,
      "ĠBeanstalk": 7899,
      "ĠTsuppashire": 7900,
      "ĠDaimajuu": 7901,
      "ĠDairinin": 7902,
      "ĠMeadows": 7903,
      "ĠGeorgie": 7904,
      "ĠXenoglossia": 7905,
      "ĠMagnificent": 7906,
      "ĠMagikano": 7907,
      "ĠYuureisen": 7908,
      "ĠGozaimasu": 7909,
      "ĠChoujuushin": 7910,
      "ĠSaucer": 7911,
      "ĠSawyer": 7912,
      "ĠConcentio": 7913,
      "ĠKyoushoku": 7914,
      "ĠTokuteneizou": 7915,
      "ĠKurozuka": 7916,
      "ĠCombining": 7917,
      "ĠCombattler": 7918,
      "ĠComputer": 7919,
      "ĠLaughing": 7920,
      "ĠKajiba": 7921,
      "ĠMarmalade": 7922,
      "ĠOVALxOVER": 7923,
      "ĠNinomiya": 7924,
      "ĠNinjaboy": 7925,
      "ĠKazahana": 7926,
      "ĠAlternative": 7927,
      "ĠHeartwork": 7928,
      "ĠMuumindani": 7929,
      "ĠPolyphonica": 7930,
      "ĠRecollections": 7931,
      "ĠEncounter": 7932,
      "ĠxxxHOLiC": 7933,
      "ĠFuyuyasumi": 7934,
      "ĠFumoffu": 7935,
      "ĠNorimono": 7936,
      "ĠKinryouku": 7937,
      "ĠForbidden": 7938,
      "ĠNewscaster": 7939,
      "ĠShokuinshitsu": 7940,
      "ĠSorcerer": 7941,
      "ĠGodfathers": 7942,
      "ĠKouenmae": 7943,
      "ĠPatrasche": 7944,
      "ĠPatalliro": 7945,
      "ĠUltramaiden": 7946,
      "ĠNaughty": 7947,
      "ĠCounseling": 7948,
      "ĠTaneyamagahara": 7949,
      "ĠBizarre": 7950,
      "ĠOverlooking": 7951,
      "ĠOblivion": 7952,
      "ĠYozakura": 7953,
      "ĠYojimbo": 7954,
      "ĠTakoyaki": 7955,
      "ĠFractions": 7956,
      "ĠOrguss": 7957,
      "ĠScientific": 7958,
      "ĠCHAGE": 7959,
      "ĠBarbapapa": 7960,
      "ĠExperiments": 7961,
      "ĠSoulTaker": 7962,
      "ĠHousewives": 7963,
      "ĠThirteen": 7964,
      "ĠDepravity": 7965,
      "ĠFamiresu": 7966,
      "ĠCircuit": 7967,
      "ĠCardcaptor": 7968,
      "ĠEscalayer": 7969,
      "ĠShuuchakueki": 7970,
      "ĠUltraviolet": 7971,
      "ĠTsumamigui": 7972,
      "ĠKodocha": 7973,
      "ĠDeluxe": 7974,
      "ĠDelinquent": 7975,
      "ĠBoueigun": 7976,
      "ĠErolutions": 7977,
      "ĠUtsukushii": 7978,
      "ĠTelepathy": 7979,
      "ĠBeautifull": 7980,
      "ĠUnderground": 7981,
      "ĠGeragera": 7982,
      "ĠPiPoPa": 7983,
      "ĠPygmalio": 7984,
      "ĠPetoPeto": 7985,
      "ĠIrresponsible": 7986,
      "ĠMitsusubo": 7987,
      "Ġ\".": 7988,
      "Ġ-,": 7989,
      "...,": 7990,
      "Ġ+,": 7991,
      "!?.": 7992,
      "Ġ%,": 7993,
      "Ġ~,": 7994,
      "Ġ-.": 7995,
      "....": 7996,
      "Ġ+.": 7997,
      "Ġ%.": 7998,
      "Ġ~.": 7999
    },
    "merges": [
      [
        "Ġ",
        "a"
      ],
      [
        "Ġ",
        "t"
      ],
      [
        "Ġ",
        "s"
      ],
      [
        "i",
        "n"
      ],
      [
        "e",
        "r"
      ],
      [
        "Ġ",
        "w"
      ],
      [
        "m",
        "e"
      ],
      [
        "o",
        "r"
      ],
      [
        "in",
        "g"
      ],
      [
        "a",
        "n"
      ],
      [
        "Ġ",
        "i"
      ],
      [
        "Ġ",
        "p"
      ],
      [
        "o",
        "n"
      ],
      [
        "a",
        "t"
      ],
      [
        "Ġ",
        "I"
      ],
      [
        "h",
        "e"
      ],
      [
        "Ġ",
        "b"
      ],
      [
        "o",
        "u"
      ],
      [
        "l",
        "e"
      ],
      [
        "Ġa",
        "n"
      ],
      [
        "a",
        "r"
      ],
      [
        "t",
        "h"
      ],
      [
        "e",
        "n"
      ],
      [
        "Ġ",
        "f"
      ],
      [
        "a",
        "s"
      ],
      [
        "k",
        "e"
      ],
      [
        "Ġ",
        "c"
      ],
      [
        "i",
        "c"
      ],
      [
        "Ġ",
        "m"
      ],
      [
        "a",
        "l"
      ],
      [
        "l",
        "i"
      ],
      [
        "s",
        "t"
      ],
      [
        "Ġ",
        "n"
      ],
      [
        "Ġi",
        "s"
      ],
      [
        "Ġan",
        "d"
      ],
      [
        "Ġn",
        "o"
      ],
      [
        "Ġ",
        "r"
      ],
      [
        "Ġt",
        "he"
      ],
      [
        "Ġ",
        "li"
      ],
      [
        "Ġ",
        "d"
      ],
      [
        "Ġ",
        "o"
      ],
      [
        "h",
        "o"
      ],
      [
        "Ġ",
        "g"
      ],
      [
        "an",
        "t"
      ],
      [
        "t",
        "s"
      ],
      [
        "u",
        "r"
      ],
      [
        "Ġs",
        "t"
      ],
      [
        "Ġ",
        "h"
      ],
      [
        "u",
        "t"
      ],
      [
        "Ġ",
        "S"
      ],
      [
        "Ġ",
        "T"
      ],
      [
        "e",
        "d"
      ],
      [
        "Ġt",
        "h"
      ],
      [
        "a",
        "m"
      ],
      [
        "i",
        "th"
      ],
      [
        "Ġw",
        "ith"
      ],
      [
        "Ġb",
        "ut"
      ],
      [
        "th",
        "ing"
      ],
      [
        "Ġli",
        "ke"
      ],
      [
        "o",
        "me"
      ],
      [
        "a",
        "c"
      ],
      [
        "t",
        "er"
      ],
      [
        "Ġ",
        "me"
      ],
      [
        "l",
        "d"
      ],
      [
        "le",
        "s"
      ],
      [
        "Ġ",
        "M"
      ],
      [
        "v",
        "e"
      ],
      [
        "i",
        "l"
      ],
      [
        "o",
        "m"
      ],
      [
        "l",
        "o"
      ],
      [
        "Ġo",
        "f"
      ],
      [
        "Ġ",
        "A"
      ],
      [
        "t",
        "i"
      ],
      [
        "v",
        "i"
      ],
      [
        "r",
        "o"
      ],
      [
        "Ġ",
        "on"
      ],
      [
        "Ġw",
        "ant"
      ],
      [
        "Ġno",
        "t"
      ],
      [
        "Ġ",
        "N"
      ],
      [
        "e",
        "c"
      ],
      [
        "a",
        "y"
      ],
      [
        "ĠT",
        "he"
      ],
      [
        "Ġ",
        "K"
      ],
      [
        "Ġ",
        "in"
      ],
      [
        "e",
        "p"
      ],
      [
        "u",
        "s"
      ],
      [
        "Ġ",
        "G"
      ],
      [
        "Ġ",
        "C"
      ],
      [
        "e",
        "t"
      ],
      [
        "Ġ",
        "j"
      ],
      [
        "e",
        "s"
      ],
      [
        "h",
        "er"
      ],
      [
        "ic",
        "al"
      ],
      [
        "or",
        "e"
      ],
      [
        "r",
        "i"
      ],
      [
        "u",
        "st"
      ],
      [
        "v",
        "en"
      ],
      [
        "ho",
        "w"
      ],
      [
        "Ġc",
        "h"
      ],
      [
        "Ġs",
        "how"
      ],
      [
        "Ġp",
        "o"
      ],
      [
        "a",
        "g"
      ],
      [
        "Ġa",
        "r"
      ],
      [
        "me",
        "n"
      ],
      [
        "Ġ",
        "H"
      ],
      [
        "h",
        "i"
      ],
      [
        "l",
        "l"
      ],
      [
        "on",
        "e"
      ],
      [
        "i",
        "me"
      ],
      [
        "Ġw",
        "or"
      ],
      [
        "ĠN",
        "o"
      ],
      [
        "Ġ",
        "u"
      ],
      [
        "Ġ",
        "P"
      ],
      [
        "ou",
        "t"
      ],
      [
        "Ġf",
        "or"
      ],
      [
        "i",
        "ve"
      ],
      [
        "Ġt",
        "o"
      ],
      [
        "am",
        "a"
      ],
      [
        "les",
        "s"
      ],
      [
        "Ġi",
        "f"
      ],
      [
        "ou",
        "ld"
      ],
      [
        "y",
        "thing"
      ],
      [
        "Ġ",
        "\""
      ],
      [
        "Ġs",
        "ome"
      ],
      [
        "Ġw",
        "ould"
      ],
      [
        "Ġi",
        "t"
      ],
      [
        "Ġf",
        "in"
      ],
      [
        "Ġh",
        "as"
      ],
      [
        "Ġth",
        "at"
      ],
      [
        "Ġj",
        "ust"
      ],
      [
        "Ġ",
        "e"
      ],
      [
        "Ġs",
        "p"
      ],
      [
        "c",
        "h"
      ],
      [
        "ti",
        "on"
      ],
      [
        "r",
        "ama"
      ],
      [
        "Ġ",
        "L"
      ],
      [
        "i",
        "g"
      ],
      [
        "Ġd",
        "rama"
      ],
      [
        "Ġa",
        "t"
      ],
      [
        "Ġ",
        "vi"
      ],
      [
        "Ġt",
        "one"
      ],
      [
        "at",
        "t"
      ],
      [
        "o",
        "o"
      ],
      [
        "ou",
        "r"
      ],
      [
        "k",
        "i"
      ],
      [
        "Ġr",
        "e"
      ],
      [
        "Ġb",
        "att"
      ],
      [
        "as",
        "t"
      ],
      [
        "a",
        "i"
      ],
      [
        "Ġ",
        "D"
      ],
      [
        "c",
        "e"
      ],
      [
        "f",
        "e"
      ],
      [
        "ou",
        "n"
      ],
      [
        "Ġs",
        "c"
      ],
      [
        "Ġli",
        "fe"
      ],
      [
        "i",
        "t"
      ],
      [
        "Ġt",
        "r"
      ],
      [
        "p",
        "er"
      ],
      [
        "Ġ",
        "B"
      ],
      [
        "er",
        "y"
      ],
      [
        "ur",
        "n"
      ],
      [
        "her",
        "e"
      ],
      [
        "Ġ",
        "ke"
      ],
      [
        "Ġke",
        "ep"
      ],
      [
        "s",
        "s"
      ],
      [
        "s",
        "hi"
      ],
      [
        "ke",
        "d"
      ],
      [
        "d",
        "e"
      ],
      [
        "Ġm",
        "at"
      ],
      [
        "at",
        "i"
      ],
      [
        "Ġp",
        "ac"
      ],
      [
        "Ġpac",
        "ing"
      ],
      [
        "ur",
        "e"
      ],
      [
        "ig",
        "h"
      ],
      [
        "ĠA",
        "n"
      ],
      [
        "Ġan",
        "ime"
      ],
      [
        "Ġin",
        "t"
      ],
      [
        "g",
        "e"
      ],
      [
        "ic",
        "k"
      ],
      [
        "or",
        "ts"
      ],
      [
        "o",
        "l"
      ],
      [
        "Ġsp",
        "orts"
      ],
      [
        "t",
        "ing"
      ],
      [
        "il",
        "l"
      ],
      [
        "our",
        "n"
      ],
      [
        "as",
        "s"
      ],
      [
        "i",
        "m"
      ],
      [
        "i",
        "st"
      ],
      [
        "an",
        "d"
      ],
      [
        "ter",
        "s"
      ],
      [
        "Ġvi",
        "b"
      ],
      [
        "e",
        "ep"
      ],
      [
        "i",
        "d"
      ],
      [
        "y",
        "ou"
      ],
      [
        "Ġc",
        "om"
      ],
      [
        "Ġ",
        "lo"
      ],
      [
        "il",
        "y"
      ],
      [
        "men",
        "t"
      ],
      [
        "Ġwor",
        "ld"
      ],
      [
        "a",
        "k"
      ],
      [
        "Ġst",
        "or"
      ],
      [
        "en",
        "s"
      ],
      [
        "ĠH",
        "ar"
      ],
      [
        "ro",
        "w"
      ],
      [
        "i",
        "b"
      ],
      [
        "b",
        "er"
      ],
      [
        "Ġu",
        "p"
      ],
      [
        "a",
        "ke"
      ],
      [
        "as",
        "e"
      ],
      [
        "Ġg",
        "row"
      ],
      [
        "ar",
        "t"
      ],
      [
        "Ġw",
        "ar"
      ],
      [
        "ĠI",
        "s"
      ],
      [
        "q",
        "u"
      ],
      [
        "Ġ",
        "/"
      ],
      [
        "Ġbatt",
        "les"
      ],
      [
        "l",
        "us"
      ],
      [
        "ĠA",
        "f"
      ],
      [
        "er",
        "e"
      ],
      [
        "g",
        "le"
      ],
      [
        "at",
        "ch"
      ],
      [
        "ro",
        "p"
      ],
      [
        "k",
        "ing"
      ],
      [
        "ib",
        "le"
      ],
      [
        "o",
        "id"
      ],
      [
        "he",
        "ll"
      ],
      [
        "ĠC",
        "an"
      ],
      [
        "m",
        "ber"
      ],
      [
        "ar",
        "ts"
      ],
      [
        "ĠAf",
        "ter"
      ],
      [
        "at",
        "her"
      ],
      [
        "ac",
        "k"
      ],
      [
        "ĠM",
        "ore"
      ],
      [
        "ĠNo",
        "t"
      ],
      [
        "ĠL",
        "oo"
      ],
      [
        "urn",
        "s"
      ],
      [
        "ick",
        "y"
      ],
      [
        "Ġb",
        "e"
      ],
      [
        "le",
        "ase"
      ],
      [
        "ĠS",
        "ome"
      ],
      [
        "ter",
        "ed"
      ],
      [
        "ĠP",
        "lease"
      ],
      [
        "me",
        "mber"
      ],
      [
        "Ġth",
        "an"
      ],
      [
        "ĠK",
        "eep"
      ],
      [
        "ag",
        "g"
      ],
      [
        "oun",
        "c"
      ],
      [
        "ĠHar",
        "d"
      ],
      [
        "ĠLoo",
        "king"
      ],
      [
        "b",
        "out"
      ],
      [
        "k",
        "ay"
      ],
      [
        "n",
        "less"
      ],
      [
        "v",
        "oid"
      ],
      [
        "Ġ",
        "less"
      ],
      [
        "Ġ",
        "you"
      ],
      [
        "Ġa",
        "m"
      ],
      [
        "Ġa",
        "s"
      ],
      [
        "Ġa",
        "ll"
      ],
      [
        "Ġa",
        "bout"
      ],
      [
        "Ġa",
        "void"
      ],
      [
        "Ġt",
        "it"
      ],
      [
        "Ġt",
        "urns"
      ],
      [
        "Ġt",
        "agg"
      ],
      [
        "Ġs",
        "ki"
      ],
      [
        "Ġs",
        "im"
      ],
      [
        "Ġs",
        "hell"
      ],
      [
        "Ġw",
        "here"
      ],
      [
        "Ġw",
        "atch"
      ],
      [
        "Ġi",
        "de"
      ],
      [
        "Ġp",
        "ass"
      ],
      [
        "Ġp",
        "art"
      ],
      [
        "Ġp",
        "lus"
      ],
      [
        "Ġp",
        "icky"
      ],
      [
        "Ġb",
        "ounc"
      ],
      [
        "Ġan",
        "ything"
      ],
      [
        "Ġan",
        "gle"
      ],
      [
        "en",
        "tered"
      ],
      [
        "as",
        "ing"
      ],
      [
        "Ġc",
        "entered"
      ],
      [
        "Ġm",
        "ore"
      ],
      [
        "Ġm",
        "ake"
      ],
      [
        "Ġr",
        "ec"
      ],
      [
        "Ġr",
        "ather"
      ],
      [
        "Ġd",
        "rop"
      ],
      [
        "Ġo",
        "kay"
      ],
      [
        "Ġg",
        "ive"
      ],
      [
        "Ġst",
        "ill"
      ],
      [
        "Ġst",
        "arts"
      ],
      [
        "Ġth",
        "ere"
      ],
      [
        "Ġwith",
        "out"
      ],
      [
        "Ġlike",
        "d"
      ],
      [
        "il",
        "ar"
      ],
      [
        "om",
        "men"
      ],
      [
        "Ġof",
        "f"
      ],
      [
        "ĠG",
        "ive"
      ],
      [
        "Ġch",
        "asing"
      ],
      [
        "Ġpo",
        "ss"
      ],
      [
        "Ġar",
        "t"
      ],
      [
        "Ġwor",
        "ked"
      ],
      [
        "Ġu",
        "nless"
      ],
      [
        "Ġsome",
        "thing"
      ],
      [
        "Ġfin",
        "d"
      ],
      [
        "Ġfin",
        "e"
      ],
      [
        "Ġe",
        "ven"
      ],
      [
        "Ġre",
        "member"
      ],
      [
        "Ġmat",
        "ters"
      ],
      [
        "ĠAn",
        "ything"
      ],
      [
        "Ġint",
        "o"
      ],
      [
        "Ġvib",
        "e"
      ],
      [
        "ĠSome",
        "thing"
      ],
      [
        "Ġtit",
        "le"
      ],
      [
        "Ġtagg",
        "ed"
      ],
      [
        "Ġski",
        "p"
      ],
      [
        "Ġsim",
        "ilar"
      ],
      [
        "Ġide",
        "al"
      ],
      [
        "Ġbounc",
        "ed"
      ],
      [
        "Ġrec",
        "ommen"
      ],
      [
        "Ġposs",
        "ible"
      ],
      [
        "Ġrecommen",
        "d"
      ],
      [
        "Ġ",
        "qu"
      ],
      [
        "Ġs",
        "et"
      ],
      [
        "Ġset",
        "ting"
      ],
      [
        "ati",
        "on"
      ],
      [
        "Ġa",
        "d"
      ],
      [
        "o",
        "d"
      ],
      [
        "Ġc",
        "ast"
      ],
      [
        "Ġ",
        "R"
      ],
      [
        "li",
        "t"
      ],
      [
        "shi",
        "p"
      ],
      [
        "th",
        "er"
      ],
      [
        "Ġt",
        "e"
      ],
      [
        "s",
        "p"
      ],
      [
        "Ġs",
        "u"
      ],
      [
        "ant",
        "as"
      ],
      [
        "antas",
        "y"
      ],
      [
        "Ġ",
        "he"
      ],
      [
        "Ġf",
        "antasy"
      ],
      [
        "o",
        "b"
      ],
      [
        "Ġr",
        "om"
      ],
      [
        "v",
        "al"
      ],
      [
        "or",
        "ical"
      ],
      [
        "Ġh",
        "ist"
      ],
      [
        "Ġhist",
        "orical"
      ],
      [
        "ur",
        "vi"
      ],
      [
        "en",
        "d"
      ],
      [
        "m",
        "o"
      ],
      [
        "urvi",
        "val"
      ],
      [
        "Ġs",
        "urvival"
      ],
      [
        "o",
        "v"
      ],
      [
        "Ġstor",
        "y"
      ],
      [
        "on",
        "d"
      ],
      [
        "lo",
        "w"
      ],
      [
        "u",
        "n"
      ],
      [
        "a",
        "ment"
      ],
      [
        "Ġm",
        "ag"
      ],
      [
        "ourn",
        "ament"
      ],
      [
        "am",
        "ily"
      ],
      [
        "Ġs",
        "low"
      ],
      [
        "Ġh",
        "and"
      ],
      [
        "Ġt",
        "ournament"
      ],
      [
        "Ġ",
        "F"
      ],
      [
        "Ġf",
        "amily"
      ],
      [
        "er",
        "i"
      ],
      [
        "Ġc",
        "ho"
      ],
      [
        "i",
        "s"
      ],
      [
        "ens",
        "e"
      ],
      [
        "ob",
        "o"
      ],
      [
        "y",
        "st"
      ],
      [
        "en",
        "t"
      ],
      [
        "ven",
        "ge"
      ],
      [
        "Ġst",
        "r"
      ],
      [
        "Ġpo",
        "lit"
      ],
      [
        "ri",
        "end"
      ],
      [
        "ar",
        "k"
      ],
      [
        "yst",
        "ery"
      ],
      [
        "Ġf",
        "riend"
      ],
      [
        "Ġch",
        "an"
      ],
      [
        "Ġfriend",
        "ship"
      ],
      [
        "Ġt",
        "ime"
      ],
      [
        "Ġm",
        "ystery"
      ],
      [
        "ho",
        "st"
      ],
      [
        "Ġte",
        "am"
      ],
      [
        "Ġ",
        "O"
      ],
      [
        "u",
        "m"
      ],
      [
        "c",
        "ho"
      ],
      [
        "a",
        "me"
      ],
      [
        "Ġg",
        "host"
      ],
      [
        "Ġgrow",
        "n"
      ],
      [
        "Ġf",
        "igh"
      ],
      [
        "s",
        "y"
      ],
      [
        "Ġtr",
        "a"
      ],
      [
        "Ġd",
        "ark"
      ],
      [
        "Ġ",
        "W"
      ],
      [
        "Ġa",
        "c"
      ],
      [
        "Ġar",
        "ts"
      ],
      [
        "ant",
        "ic"
      ],
      [
        "Ġr",
        "obo"
      ],
      [
        "sy",
        "cho"
      ],
      [
        "Ġrom",
        "antic"
      ],
      [
        "r",
        "e"
      ],
      [
        "w",
        "er"
      ],
      [
        "lo",
        "g"
      ],
      [
        "Ġg",
        "ri"
      ],
      [
        "ur",
        "al"
      ],
      [
        "Ġbatt",
        "le"
      ],
      [
        "Ġp",
        "sycho"
      ],
      [
        "ame",
        "s"
      ],
      [
        "log",
        "ical"
      ],
      [
        "Ġpsycho",
        "logical"
      ],
      [
        "Ġme",
        "ch"
      ],
      [
        "e",
        "m"
      ],
      [
        "Ġg",
        "ames"
      ],
      [
        "ar",
        "ac"
      ],
      [
        "Ġch",
        "arac"
      ],
      [
        "ar",
        "y"
      ],
      [
        "f",
        "or"
      ],
      [
        "Ġpo",
        "wer"
      ],
      [
        "t",
        "ure"
      ],
      [
        "at",
        "ural"
      ],
      [
        "n",
        "atural"
      ],
      [
        "per",
        "natural"
      ],
      [
        "Ġsu",
        "pernatural"
      ],
      [
        "o",
        "k"
      ],
      [
        "an",
        "ce"
      ],
      [
        "d",
        "y"
      ],
      [
        "Ġst",
        "u"
      ],
      [
        "f",
        "i"
      ],
      [
        "n",
        "ce"
      ],
      [
        "us",
        "ic"
      ],
      [
        "Ġm",
        "usic"
      ],
      [
        "u",
        "l"
      ],
      [
        "a",
        "b"
      ],
      [
        "o",
        "le"
      ],
      [
        "a",
        "v"
      ],
      [
        "Ġ",
        "Y"
      ],
      [
        "Ġmag",
        "ic"
      ],
      [
        "ole",
        "nce"
      ],
      [
        "k",
        "ai"
      ],
      [
        "ic",
        "e"
      ],
      [
        "ven",
        "ture"
      ],
      [
        "Ġsc",
        "i"
      ],
      [
        "or",
        "t"
      ],
      [
        "Ġvi",
        "olence"
      ],
      [
        "Ġc",
        "ome"
      ],
      [
        "Ġcome",
        "dy"
      ],
      [
        "Ġhe",
        "av"
      ],
      [
        "Ġheav",
        "y"
      ],
      [
        "at",
        "e"
      ],
      [
        "lo",
        "od"
      ],
      [
        "a",
        "p"
      ],
      [
        "j",
        "o"
      ],
      [
        "u",
        "g"
      ],
      [
        "Ġ",
        "E"
      ],
      [
        "e",
        "l"
      ],
      [
        "l",
        "ice"
      ],
      [
        "o",
        "ther"
      ],
      [
        "Ġb",
        "lood"
      ],
      [
        "ul",
        "t"
      ],
      [
        "Ġad",
        "venture"
      ],
      [
        "Ġs",
        "lice"
      ],
      [
        "an",
        "sp"
      ],
      [
        "Ġan",
        "other"
      ],
      [
        "Ġtr",
        "ansp"
      ],
      [
        "ort",
        "ed"
      ],
      [
        "Ġtransp",
        "orted"
      ],
      [
        "Ġac",
        "tion"
      ],
      [
        "u",
        "e"
      ],
      [
        "Ġad",
        "ult"
      ],
      [
        "ĠS",
        "h"
      ],
      [
        "r",
        "or"
      ],
      [
        "u",
        "u"
      ],
      [
        "ĠM",
        "o"
      ],
      [
        "or",
        "ror"
      ],
      [
        "in",
        "e"
      ],
      [
        "ts",
        "u"
      ],
      [
        "ou",
        "s"
      ],
      [
        "o",
        "p"
      ],
      [
        "e",
        "kai"
      ],
      [
        "Ġh",
        "orror"
      ],
      [
        "Ġh",
        "igh"
      ],
      [
        "i",
        "r"
      ],
      [
        "c",
        "es"
      ],
      [
        "ay",
        "b"
      ],
      [
        "k",
        "en"
      ],
      [
        "ec",
        "e"
      ],
      [
        "Ġp",
        "ayb"
      ],
      [
        "Ġpayb",
        "ack"
      ],
      [
        "Ġo",
        "ther"
      ],
      [
        "s",
        "en"
      ],
      [
        "i",
        "ece"
      ],
      [
        "r",
        "ay"
      ],
      [
        "ov",
        "ing"
      ],
      [
        "Ġm",
        "oving"
      ],
      [
        "Ġkeep",
        "s"
      ],
      [
        "Ġb",
        "le"
      ],
      [
        "Ġat",
        "mo"
      ],
      [
        "sp",
        "here"
      ],
      [
        "Ġble",
        "ak"
      ],
      [
        "Ġatmo",
        "sphere"
      ],
      [
        "oun",
        "d"
      ],
      [
        "in",
        "d"
      ],
      [
        "ho",
        "ol"
      ],
      [
        "Ġsc",
        "hool"
      ],
      [
        "Ġb",
        "et"
      ],
      [
        "Ġd",
        "a"
      ],
      [
        "Ġb",
        "urn"
      ],
      [
        "ray",
        "al"
      ],
      [
        "Ġbet",
        "rayal"
      ],
      [
        "an",
        "ked"
      ],
      [
        "Ġr",
        "anked"
      ],
      [
        "i",
        "et"
      ],
      [
        "Ġis",
        "ekai"
      ],
      [
        "m",
        "y"
      ],
      [
        "Ġqu",
        "iet"
      ],
      [
        "Ġda",
        "ily"
      ],
      [
        "Ġre",
        "venge"
      ],
      [
        "es",
        "per"
      ],
      [
        "esper",
        "ate"
      ],
      [
        "on",
        "g"
      ],
      [
        "Ġd",
        "esperate"
      ],
      [
        "Ġgrow",
        "ing"
      ],
      [
        "Ġf",
        "ound"
      ],
      [
        "f",
        "t"
      ],
      [
        "ac",
        "e"
      ],
      [
        "d",
        "ay"
      ],
      [
        "Ġar",
        "c"
      ],
      [
        "Ġp",
        "ati"
      ],
      [
        "Ġpati",
        "ent"
      ],
      [
        "Ġfigh",
        "ts"
      ],
      [
        "ec",
        "ond"
      ],
      [
        "o",
        "c"
      ],
      [
        "u",
        "z"
      ],
      [
        "ic",
        "es"
      ],
      [
        "Ġghost",
        "s"
      ],
      [
        "Ġ",
        "J"
      ],
      [
        "em",
        "p"
      ],
      [
        "ab",
        "b"
      ],
      [
        "t",
        "y"
      ],
      [
        "oo",
        "d"
      ],
      [
        "v",
        "ery"
      ],
      [
        "Ġb",
        "ack"
      ],
      [
        "st",
        "abb"
      ],
      [
        "Ġe",
        "very"
      ],
      [
        "Ġback",
        "stabb"
      ],
      [
        "Ġevery",
        "day"
      ],
      [
        "Ġbackstabb",
        "ing"
      ],
      [
        "Ġmat",
        "ure"
      ],
      [
        "Ġr",
        "ed"
      ],
      [
        "emp",
        "tion"
      ],
      [
        "Ġred",
        "emption"
      ],
      [
        "eri",
        "od"
      ],
      [
        "or",
        "d"
      ],
      [
        "op",
        "s"
      ],
      [
        "Ġcho",
        "sen"
      ],
      [
        "Ġp",
        "iece"
      ],
      [
        "Ġp",
        "eriod"
      ],
      [
        "ri",
        "g"
      ],
      [
        "ti",
        "me"
      ],
      [
        "Ġwar",
        "time"
      ],
      [
        "Ġcho",
        "ices"
      ],
      [
        "l",
        "ine"
      ],
      [
        "el",
        "f"
      ],
      [
        "Ġlo",
        "ops"
      ],
      [
        "Ġtime",
        "line"
      ],
      [
        "ti",
        "al"
      ],
      [
        "one",
        "ment"
      ],
      [
        "Ġat",
        "onement"
      ],
      [
        "is",
        "c"
      ],
      [
        "o",
        "ft"
      ],
      [
        "Ġs",
        "oft"
      ],
      [
        "al",
        "ing"
      ],
      [
        "Ġhe",
        "aling"
      ],
      [
        "e",
        "st"
      ],
      [
        "Ġstr",
        "ong"
      ],
      [
        "Ġfriendship",
        "s"
      ],
      [
        "ic",
        "s"
      ],
      [
        "ar",
        "tial"
      ],
      [
        "Ġm",
        "ood"
      ],
      [
        "Ġgri",
        "m"
      ],
      [
        "Ġcharac",
        "ter"
      ],
      [
        "Ġm",
        "artial"
      ],
      [
        "o",
        "jo"
      ],
      [
        "Ġa",
        "ge"
      ],
      [
        "Ġcom",
        "ing"
      ],
      [
        "Ġs",
        "elf"
      ],
      [
        "Ġd",
        "isc"
      ],
      [
        "ov",
        "ery"
      ],
      [
        "Ġdisc",
        "overy"
      ],
      [
        "v",
        "ing"
      ],
      [
        "uz",
        "z"
      ],
      [
        "i",
        "on"
      ],
      [
        "ve",
        "l"
      ],
      [
        "e",
        "i"
      ],
      [
        "ĠS",
        "p"
      ],
      [
        "Ġs",
        "econd"
      ],
      [
        "Ġchan",
        "ces"
      ],
      [
        "Ġs",
        "ol"
      ],
      [
        "Ġp",
        "uzz"
      ],
      [
        "um",
        "a"
      ],
      [
        "Ġsol",
        "ving"
      ],
      [
        "Ġpuzz",
        "le"
      ],
      [
        "f",
        "f"
      ],
      [
        "i",
        "ri"
      ],
      [
        "ti",
        "ve"
      ],
      [
        "our",
        "t"
      ],
      [
        "i",
        "es"
      ],
      [
        "g",
        "h"
      ],
      [
        "rig",
        "ue"
      ],
      [
        "Ġb",
        "ond"
      ],
      [
        "Ġbond",
        "ing"
      ],
      [
        "vi",
        "e"
      ],
      [
        "Ġint",
        "rigue"
      ],
      [
        "Ġpolit",
        "ical"
      ],
      [
        "gh",
        "t"
      ],
[...]
