{
  "version": "1.0",
  "truncation": null,
  "padding": null,
  "added_tokens": [
    {
      "id": 0,
      "content": "<PAD>",
      "single_word": false,
      "lstrip": false,
      "rstrip": false,
      "normalized": false,
      "special": true
    },
    {
      "id": 1,
      "content": "<UNK>",
      "single_word": false,
      "lstrip": false,
      "rstrip": false,
      "normalized": false,
      "special": true
    }
  ],
  "normalizer": {
    "type": "Sequence",
    "normalizers": [
      {
        "type": "NFKC"
      },
      {
        "type": "Lowercase"
      }
    ]
  },
  "pre_tokenizer": {
    "type": "ByteLevel",
    "add_prefix_space": true,
    "trim_offsets": true,
    "use_regex": true
  },
  "post_processor": null,
  "decoder": {
    "type": "ByteLevel",
    "add_prefix_space": true,
    "trim_offsets": true,
    "use_regex": true
  },
  "model": {
    "type": "BPE",
    "dropout": null,
    "unk_token": "<UNK>",
    "continuing_subword_prefix": null,
    "end_of_word_suffix": null,
    "fuse_unk": false,
    "byte_fallback": false,
    "ignore_merges": false,
    "vocab": {
      "<PAD>": 0,
      "<UNK>": 1,
      "!": 2,
      "\"": 3,
      "#": 4,
      "$": 5,
      "%": 6,
      "&": 7,
      "'": 8,
      "(": 9,
      ")": 10,
      "*": 11,
      "+": 12,
      ",": 13,
      "-": 14,
      ".": 15,
      "/": 16,
      "0": 17,
      "1": 18,
      "2": 19,
      "3": 20,
      "4": 21,
      "5": 22,
      "6": 23,
      "7": 24,
      "8": 25,
      "9": 26,
      ":": 27,
      ";": 28,
      "<": 29,
      "=": 30,
      ">": 31,
      "?": 32,
      "@": 33,
      "A": 34,
      "B": 35,
      "C": 36,
      "D": 37,
      "E": 38,
      "F": 39,
      "G": 40,
      "H": 41,
      "I": 42,
      "J": 43,
      "K": 44,
      "L": 45,
      "M": 46,
      "N": 47,
      "O": 48,
      "P": 49,
      "Q": 50,
      "R": 51,
      "S": 52,
      "T": 53,
      "U": 54,
      "V": 55,
      "W": 56,
      "X": 57,
      "Y": 58,
      "Z": 59,
      "[": 60,
      "\\": 61,
      "]": 62,
      "^": 63,
      "_": 64,
      "`": 65,
      "a": 66,
      "b": 67,
      "c": 68,
      "d": 69,
      "e": 70,
      "f": 71,
      "g": 72,
      "h": 73,
      "i": 74,
      "j": 75,
      "k": 76,
      "l": 77,
      "m": 78,
      "n": 79,
      "o": 80,
      "p": 81,
      "q": 82,
      "r": 83,
      "s": 84,
      "t": 85,
      "u": 86,
      "v": 87,
      "w": 88,
      "x": 89,
      "y": 90,
      "z": 91,
      "{": 92,
      "|": 93,
      "}": 94,
      "~": 95,
      "¡": 96,
      "¢": 97,
      "£": 98,
      "¤": 99,
      "¥": 100,
      "¦": 101,
      "§": 102,
      "¨": 103,
      "©": 104,
      "ª": 105,
      "«": 106,
      "¬": 107,
      "®": 108,
      "¯": 109,
      "°": 110,
      "±": 111,
      "²": 112,
      "³": 113,
      "´": 114,
      "µ": 115,
      "¶": 116,
      "·": 117,
      "¸": 118,
      "¹": 119,
      "º": 120,
      "»": 121,
      "¼": 122,
      "½": 123,
      "¾": 124,
      "¿": 125,
      "À": 126,
      "Á": 127,
      "Â": 128,
      "Ã": 129,
      "Ä": 130,
      "Å": 131,
      "Æ": 132,
      "Ç": 133,
      "È": 134,
      "É": 135,
      "Ê": 136,
      "Ë": 137,
      "Ì": 138,
      "Í": 139,
      "Î": 140,
      "Ï": 141,
      "Ð": 142,
      "Ñ": 143,
      "Ò": 144,
      "Ó": 145,
      "Ô": 146,
      "Õ": 147,
      "Ö": 148,
      "×": 149,
      "Ø": 150,
      "Ù": 151,
      "Ú": 152,
      "Û": 153,
      "Ü": 154,
      "Ý": 155,
      "Þ": 156,
      "ß": 157,
      "à": 158,
      "á": 159,
      "â": 160,
      "ã": 161,
      "ä": 162,
      "å": 163,
      "æ": 164,
      "ç": 165,
      "è": 166,
      "é": 167,
      "ê": 168,
      "ë": 169,
      "ì": 170,
      "í": 171,
      "î": 172,
      "ï": 173,
      "ð": 174,
      "ñ": 175,
      "ò": 176,
      "ó": 177,
      "ô": 178,
      "õ": 179,
      "ö": 180,
      "÷": 181,
      "ø": 182,
      "ù": 183,
      "ú": 184,
      "û": 185,
      "ü": 186,
      "ý": 187,
      "þ": 188,
      "ÿ": 189,
      "Ā": 190,
      "ā": 191,
      "Ă": 192,
      "ă": 193,
      "Ą": 194,
      "ą": 195,
      "Ć": 196,
      "ć": 197,
      "Ĉ": 198,
      "ĉ": 199,
      "Ċ": 200,
      "ċ": 201,
      "Č": 202,
      "č": 203,
      "Ď": 204,
      "ď": 205,
      "Đ": 206,
      "đ": 207,
      "Ē": 208,
      "ē": 209,
      "Ĕ": 210,
      "ĕ": 211,
      "Ė": 212,
      "ė": 213,
      "Ę": 214,
      "ę": 215,
      "Ě": 216,
      "ě": 217,
      "Ĝ": 218,
      "ĝ": 219,
      "Ğ": 220,
      "ğ": 221,
      "Ġ": 222,
      "ġ": 223,
      "Ģ": 224,
      "ģ": 225,
      "Ĥ": 226,
      "ĥ": 227,
      "Ħ": 228,
      "ħ": 229,
      "Ĩ": 230,
      "ĩ": 231,
      "Ī": 232,
      "ī": 233,
      "Ĭ": 234,
      "ĭ": 235,
      "Į": 236,
      "į": 237,
      "İ": 238,
      "ı": 239,
      "Ĳ": 240,
      "ĳ": 241,
      "Ĵ": 242,
      "ĵ": 243,
      "Ķ": 244,
      "ķ": 245,
      "ĸ": 246,
      "Ĺ": 247,
      "ĺ": 248,
      "Ļ": 249,
      "ļ": 250,
      "Ľ": 251,
      "ľ": 252,
      "Ŀ": 253,
      "ŀ": 254,
      "Ł": 255,
      "ł": 256,
      "Ń": 257,
      "Ġa": 258,
      "Ġt": 259,
      "Ġi": 260,
      "Ġs": 261,
      "on": 262,
      "re": 263,
      "Ġc": 264,
      "he": 265,
      "Ġw": 266,
      "in": 267,
      "en": 268,
      "er": 269,
      "Ġm": 270,
      "or": 271,
      "an": 272,
      "at": 273,
      "Ġthe": 274,
      "ou": 275,
      "Ġd": 276,
      "Ġf": 277,
      "es": 278,
      "al": 279,
      "Ġb": 280,
      "it": 281,
      "om": 282,
      "ing": 283,
      "Ġan": 284,
      "ion": 285,
      "ed": 286,
      "ar": 287,
      "ic": 288,
      "Ġn": 289,
      "Ġp": 290,
      "Ġand": 291,
      "Ġl": 292,
      "ot": 293,
      "ec": 294,
      "Ġre": 295,
      "am": 296,
      "Ġo": 297,
      "us": 298,
      "as": 299,
      "ly": 300,
      "Ġe": 301,
      "Ġth": 302,
      "is": 303,
      "Ġh": 304,
      "le": 305,
      "Ġin": 306,
      "ld": 307,
      "ent": 308,
      "ri": 309,
      "ac": 310,
      "Ġof": 311,
      "Ġto": 312,
      "ant": 313,
      "Ġg": 314,
      "et": 315,
      "Ġit": 316,
      "ho": 317,
      "ve": 318,
      "ould": 319,
      "Ġcon": 320,
      "Ġst": 321,
      "end": 322,
      "ith": 323,
      "ter": 324,
      "Ġwith": 325,
      "Ġk": 326,
      "Ġcom": 327,
      "ut": 328,
      "Ġis": 329,
      "lo": 330,
      "Ġfor": 331,
      "Ġsh": 332,
      "ation": 333,
      "Ġon": 334,
      "Ġmy": 335,
      "out": 336,
      "tion": 337,
      "st": 338,
      "Ġwant": 339,
      "Ġr": 340,
      "Ġme": 341,
      "ur": 342,
      "ai": 343,
      "ce": 344,
      "ain": 345,
      "Ġch": 346,
      "Ġthat": 347,
      "Ġbe": 348,
      "ical": 349,
      "Ġmo": 350,
      "Ġex": 351,
      "ect": 352,
      "Ġnot": 353,
      "de": 354,
      "un": 355,
      "ory": 356,
      "Ġno": 357,
      "Ġwh": 358,
      "Ġsp": 359,
      "gh": 360,
      "Ġli": 361,
      "Ġdo": 362,
      "im": 363,
      "ram": 364,
      "ch": 365,
      "her": 366,
      "ere": 367,
      "ure": 368,
      "ity": 369,
      "Ġab": 370,
      "ver": 371,
      "Ġbut": 372,
      "Ġabout": 373,
      "oc": 374,
      "Ġse": 375,
      "il": 376,
      "Ġtr": 377,
      "Ġdram": 378,
      "Ġdrama": 379,
      "Ġy": 380,
      "se": 381,
      "Ġrec": 382,
      "Ġne": 383,
      "use": 384,
      "Ġwould": 385,
      "Ġits": 386,
      "Ġam": 387,
      "ol": 388,
      "Ġma": 389,
      "Ġas": 390,
      "pt": 391,
      "edy": 392,
      "Ġcomedy": 393,
      "ork": 394,
      "ir": 395,
      "Ġac": 396,
      "res": 397,
      "ong": 398,
      "Ġwhe": 399,
      "omm": 400,
      "Ġrecomm": 401,
      "Ġrecommend": 402,
      "ome": 403,
      "hi": 404,
      "ang": 405,
      "ally": 406,
      "ow": 407,
      "od": 408,
      "ll": 409,
      "Ġad": 410,
      "ist": 411,
      "Ġshould": 412,
      "Ġbec": 413,
      "Ġstory": 414,
      "Ġmore": 415,
      "ab": 416,
      "ap": 417,
      "ough": 418,
      "Ġde": 419,
      "Ġj": 420,
      "ak": 421,
      "Ġsu": 422,
      "Ġexp": 423,
      "ad": 424,
      "Ġint": 425,
      "Ġor": 426,
      "Ġal": 427,
      "ice": 428,
      "ok": 429,
      "ate": 430,
      "vi": 431,
      "um": 432,
      "ave": 433,
      "are": 434,
      "Ġchar": 435,
      "ear": 436,
      "Ġar": 437,
      "qu": 438,
      "acter": 439,
      "Ġcharacter": 440,
      "Ġhe": 441,
      "asy": 442,
      "Ġwho": 443,
      "Ġlik": 444,
      "ause": 445,
      "Ġbecause": 446,
      "vent": 447,
      "Ġco": 448,
      "ess": 449,
      "ies": 450,
      "pp": 451,
      "Ġlo": 452,
      "ime": 453,
      "Ġaf": 454,
      "ive": 455,
      "Ġcan": 456,
      "Ġsc": 457,
      "Ġser": 458,
      "Ġafter": 459,
      "orr": 460,
      "Ġwhat": 461,
      "ial": 462,
      "Ġrecommendation": 463,
      "Ġwork": 464,
      "Ġwas": 465,
      "Ġdis": 466,
      "Ġdes": 467,
      "ame": 468,
      "Ġen": 469,
      "Ġwat": 470,
      "Ġpl": 471,
      "ts": 472,
      "Ġconf": 473,
      "ven": 474,
      "ace": 475,
      "Ġfant": 476,
      "ition": 477,
      "Ġrem": 478,
      "Ġfantasy": 479,
      "ay": 480,
      "reat": 481,
      "Ġapp": 482,
      "rill": 483,
      "ict": 484,
      "Ġthrill": 485,
      "Ġthriller": 486,
      "per": 487,
      "ro": 488,
      "th": 489,
      "gical": 490,
      "Ġdoes": 491,
      "Ġbet": 492,
      "oth": 493,
      "Ġif": 494,
      "Ġdisc": 495,
      "Ġrom": 496,
      "ul": 497,
      "ance": 498,
      "est": 499,
      "ich": 500,
      "tain": 501,
      "velo": 502,
      "one": 503,
      "Ġdevelo": 504,
      "Ġdevelop": 505,
      "rom": 506,
      "Ġsome": 507,
      "Ġwhen": 508,
      "ers": 509,
      "art": 510,
      "Ġun": 511,
      "Ġyou": 512,
      "nd": 513,
      "ress": 514,
      "Ġwhich": 515,
      "riend": 516,
      "Ġthan": 517,
      "Ġboth": 518,
      "Ġfriend": 519,
      "Ġone": 520,
      "ple": 521,
      "Ġem": 522,
      "Ġadvent": 523,
      "Ġcharacters": 524,
      "ces": 525,
      "Ġadventure": 526,
      "Ġthey": 527,
      "Ġide": 528,
      "we": 529,
      "Ġare": 530,
      "ge": 531,
      "Ġconfl": 532,
      "very": 533,
      "Ġconflict": 534,
      "erest": 535,
      "Ġinterest": 536,
      "ase": 537,
      "Ġsho": 538,
      "Ġneed": 539,
      "Ġv": 540,
      "Ġat": 541,
      "Ġstr": 542,
      "Ġfic": 543,
      "Ġhave": 544,
      "Ġfiction": 545,
      "ary": 546,
      "Ġfoc": 547,
      "Ġfocus": 548,
      "ami": 549,
      "Ġshow": 550,
      "id": 551,
      "other": 552,
      "ind": 553,
      "ber": 554,
      "ound": 555,
      "âĢ": 556,
      "âĢĶ": 557,
      "der": 558,
      "ence": 559,
      "Ġpo": 560,
      "ween": 561,
      "Ġx": 562,
      "fe": 563,
      "ning": 564,
      "pl": 565,
      "rib": 566,
      "eren": 567,
      "Ġplot": 568,
      "Ġbetween": 569,
      "jo": 570,
      "crib": 571,
      "ib": 572,
      "Ġdescrib": 573,
      "ous": 574,
      "Ġdec": 575,
      "feren": 576,
      "Ġend": 577,
      "ility": 578,
      "Ġke": 579,
      "ption": 580,
      "Ġlife": 581,
      "if": 582,
      "Ġexam": 583,
      "vie": 584,
      "Ġcomp": 585,
      "Ġtreat": 586,
      "Ġsomeone": 587,
      "uss": 588,
      "Ġseries": 589,
      "Ġdiscuss": 590,
      "ine": 591,
      "Ġconn": 592,
      "Ġcould": 593,
      "hed": 594,
      "ech": 595,
      "ention": 596,
      "Ġple": 597,
      "Ġfrom": 598,
      "ust": 599,
      "ght": 600,
      "su": 601,
      "Ġbel": 602,
      "ason": 603,
      "Ġcomb": 604,
      "Ġgen": 605,
      "Ġplease": 606,
      "Ġfami": 607,
      "and": 608,
      "Ġfamily": 609,
      "Ġpre": 610,
      "ass": 611,
      "ment": 612,
      "king": 613,
      "Ġalth": 614,
      "Ġalthough": 615,
      "Ġremain": 616,
      "Ġexplo": 617,
      "Ġcho": 618,
      "Ġchang": 619,
      "Ġromance": 620,
      "Ġenjo": 621,
      "Ġenjoy": 622,
      "otion": 623,
      "ateg": 624,
      "Ġdescribes": 625,
      "able": 626,
      "Ġcateg": 627,
      "Ġcl": 628,
      "ting": 629,
      "Ġemotion": 630,
      "Ġcategory": 631,
      "ach": 632,
      "Ġz": 633,
      "ao": 634,
      "Ġwithout": 635,
      "me": 636,
      "uc": 637,
      "Ġanime": 638,
      "Ġuse": 639,
      "work": 640,
      "Ġunder": 641,
      "ark": 642,
      "ki": 643,
      "shi": 644,
      "ag": 645,
      "ry": 646,
      "logical": 647,
      "ually": 648,
      "ective": 649,
      "Ġmain": 650,
      "ail": 651,
      "ide": 652,
      "aw": 653,
      "Ġwhere": 654,
      "gin": 655,
      "Ġcare": 656,
      "Ġgir": 657,
      "cept": 658,
      "ard": 659,
      "hing": 660,
      "Ġset": 661,
      "Ġcorr": 662,
      "Ġcorru": 663,
      "atur": 664,
      "Ġcontain": 665,
      "vers": 666,
      "Ġwatc": 667,
      "so": 668,
      "Ġbelong": 669,
      "Ġclass": 670,
      "Ġgirl": 671,
      "Ġlike": 672,
      "Ġappro": 673,
      "ching": 674,
      "Ġexplores": 675,
      "ered": 676,
      "Ġte": 677,
      "Ġalso": 678,
      "Ġbegin": 679,
      "Ġro": 680,
      "Ġliked": 681,
      "entered": 682,
      "Ġdevelops": 683,
      "ather": 684,
      "ster": 685,
      "Ġmus": 686,
      "el": 687,
      "Ġinterested": 688,
      "Ġcle": 689,
      "Ġsim": 690,
      "Ġrather": 691,
      "all": 692,
      "Ġob": 693,
      "Ġeven": 694,
      "ood": 695,
      "Ġasking": 696,
      "hool": 697,
      "em": 698,
      "gy": 699,
      "Ġschool": 700,
      "ight": 701,
      "Ġtime": 702,
      "Ġnow": 703,
      "cho": 704,
      "Ġhum": 705,
      "Ġspace": 706,
      "iz": 707,
      "ious": 708,
      "xt": 709,
      "val": 710,
      "Ġ2": 711,
      "ari": 712,
      "Ġhome": 713,
      "Ġmed": 714,
      "Ġnotes": 715,
      "Ġmem": 716,
      "Ġaction": 717,
      "urai": 718,
      "Ġid": 719,
      "Ġso": 720,
      "sp": 721,
      "Ġmagical": 722,
      "Ġhuman": 723,
      "Ġsam": 724,
      "fect": 725,
      "ris": 726,
      "Ġsoc": 727,
      "view": 728,
      "Ġsamurai": 729,
      "no": 730,
      "aning": 731,
      "Ġim": 732,
      "Ġdark": 733,
      "sy": 734,
      "Ġhorr": 735,
      "Ġhorror": 736,
      "Ġdet": 737,
      "Ġlist": 738,
      "sequ": 739,
      "onger": 740,
      "Ġatt": 741,
      "Ġmeaning": 742,
      "Ġsl": 743,
      "ences": 744,
      "Ġfre": 745,
      "Ġconsequ": 746,
      "Ġconsequences": 747,
      "ying": 748,
      "ines": 749,
      "Ġpsy": 750,
      "Ġ\"": 751,
      "ek": 752,
      "Ġamb": 753,
      "Ġclear": 754,
      "ef": 755,
      "Ġhist": 756,
      "Ġmyster": 757,
      "Ġattention": 758,
      "overy": 759,
      "orts": 760,
      "place": 761,
      "Ġdetective": 762,
      "Ġpsycho": 763,
      "ik": 764,
      "Ġpress": 765,
      "ability": 766,
      "Ġworkplace": 767,
      "Ġpressure": 768,
      "now": 769,
      "Ġwar": 770,
      "Ġsports": 771,
      "unk": 772,
      "Ġhistor": 773,
      "Ġoper": 774,
      "Ġho": 775,
      "Ġanother": 776,
      "ories": 777,
      "Ġopera": 778,
      "Ġchange": 779,
      "aly": 780,
      "Ġlear": 781,
      "Ġsuper": 782,
      "Ġcy": 783,
      "Ġsear": 784,
      "Ġmil": 785,
      "gg": 786,
      "rely": 787,
      "Ġmerely": 788,
      "Ġlearning": 789,
      "Ġteam": 790,
      "ially": 791,
      "Ġsocial": 792,
      "iv": 793,
      "Ġevery": 794,
      "Ġnext": 795,
      "Ġadd": 796,
      "Ġemotional": 797,
      "Ġpsychological": 798,
      "Ġknow": 799,
      "Ġseason": 800,
      "Ġident": 801,
      "Ġhistorical": 802,
      "ither": 803,
      "Ġstories": 804,
      "Ġidentity": 805,
      "Ġvers": 806,
      "Ġversus": 807,
      "Ġpost": 808,
      "Ġcyber": 809,
      "punk": 810,
      "Ġes": 811,
      "ons": 812,
      "Ġcri": 813,
      "itary": 814,
      "ocaly": 815,
      "Ġlove": 816,
      "Ġsci": 817,
      "Ġmilitary": 818,
      "Ġcyberpunk": 819,
      "ptic": 820,
      "apocaly": 821,
      "apocalyptic": 822,
      "cer": 823,
      "Ġhow": 824,
      "Ġarts": 825,
      "Ġcrime": 826,
      "Ġaccept": 827,
      "pec": 828,
      "Ġespec": 829,
      "Ġespecially": 830,
      "Ġexpect": 831,
      "artial": 832,
      "Ġmartial": 833,
      "Ġthr": 834,
      "low": 835,
      "Ġcombine": 836,
      "Ġapproach": 837,
      "omet": 838,
      "'s": 839,
      "Ġdif": 840,
      "Ġthrough": 841,
      "irst": 842,
      "ggest": 843,
      "Ġfirst": 844,
      "centered": 845,
      "ner": 846,
      "Ġsame": 847,
      "Ġfit": 848,
      "Ġconnect": 849,
      "Ġsuggest": 850,
      "Ġexample": 851,
      "Ġmedical": 852,
      "natur": 853,
      "Ġph": 854,
      "Ġsupernatur": 855,
      "Ġsupernatural": 856,
      "Ġsetting": 857,
      "Ġslice": 858,
      "Ġsomet": 859,
      "Ġfind": 860,
      "acle": 861,
      "Ġsomething": 862,
      "Ġle": 863,
      "Ġbelonging": 864,
      "Ġcall": 865,
      "ast": 866,
      "Ġideal": 867,
      "ite": 868,
      "ian": 869,
      "Ġserious": 870,
      "ferent": 871,
      "Ġwatched": 872,
      "Ġdifferent": 873,
      "Ġmystery": 874,
      "Ġtw": 875,
      "Ġonly": 876,
      "Ġname": 877,
      "Ġgr": 878,
      "rief": 879,
      "Ġjust": 880,
      "Ġappear": 881,
      "ectacle": 882,
      "Ġspectacle": 883,
      "Ġremem": 884,
      "Ġremember": 885,
      "Ġphr": 886,
      "Ġwor": 887,
      "Ġidea": 888,
      "Ġmay": 889,
      "wor": 890,
      "Ġwe": 891,
      "Ġwatch": 892,
      "ond": 893,
      "ions": 894,
      "ort": 895,
      "itt": 896,
      "hood": 897,
      "Ġqu": 898,
      "ual": 899,
      "Ġtit": 900,
      "uu": 901,
      "Ġkind": 902,
      "Ġobs": 903,
      "din": 904,
      "Ġri": 905,
      "Ġordin": 906,
      "Ġhop": 907,
      "Ġper": 908,
      "Ġcontains": 909,
      "Ġtitle": 910,
      "Ġordinary": 911,
      "Ġother": 912,
      "Ġtwo": 913,
      "ig": 914,
      "Ġus": 915,
      "ection": 916,
      "Ġisol": 917,
      "int": 918,
      "Ġexamines": 919,
      "Ġact": 920,
      "Ġspec": 921,
      "Ġinto": 922,
      "oking": 923,
      "aling": 924,
      "Ġpers": 925,
      "Ġperson": 926,
      "hen": 927,
      "Ġthough": 928,
      "uth": 929,
      "Ġtruth": 930,
      "Ġmor": 931,
      "ression": 932,
      "ue": 933,
      "Ġdiscussion": 934,
      "ix": 935,
      "Ġca": 936,
      "ans": 937,
      "Ġforg": 938,
      "Ġfriends": 939,
      "hes": 940,
      "Ġpr": 941,
      "Ġcompet": 942,
      "valry": 943,
      "Ġrivalry": 944,
      "Ġisolation": 945,
      "Ġclo": 946,
      "Ġgenre": 947,
      "ep": 948,
      "ower": 949,
      "Ġspe": 950,
      "Ġxi": 951,
      "Ġlead": 952,
      "lf": 953,
      "Ġpower": 954,
      "Ġmemory": 955,
      "fice": 956,
      "Ġu": 957,
      "our": 958,
      "Ġcost": 959,
      "ulner": 960,
      "Ġvulner": 961,
      "Ġvulnerability": 962,
      "Ġsat": 963,
      "Ġpro": 964,
      "Ġrel": 965,
      "Ġconnection": 966,
      "Ġgener": 967,
      "oid": 968,
      "Ġcol": 969,
      "Ġlitt": 970,
      "Ġresp": 971,
      "dem": 972,
      "ibility": 973,
      "onsibility": 974,
      "Ġpersonal": 975,
      "Ġlittle": 976,
      "Ġresponsibility": 977,
      "ful": 978,
      "ality": 979,
      "isf": 980,
      "ations": 981,
      "Ġmak": 982,
      "Ġsatisf": 983,
      "Ġsac": 984,
      "Ġcent": 985,
      "ances": 986,
      "logy": 987,
      "Ġthis": 988,
      "avel": 989,
      "Ġtech": 990,
      "atch": 991,
      "Ġtravel": 992,
      "ship": 993,
      "Ġsatisfying": 994,
      "Ġav": 995,
      "Ġcris": 996,
      "Ġhealing": 997,
      "Ġcrisis": 998,
      "Ġcreat": 999,
      "Ġfear": 1000,
      "Ġbre": 1001,
      "rifice": 1002,
      "veral": 1003,
      "Ġseveral": 1004,
      "Ġcop": 1005,
      "Ġsacrifice": 1006,
      "Ġreven": 1007,
      "Ġhumanity": 1008,
      "nology": 1009,
      "Ġtechnology": 1010,
      "mo": 1011,
      "Ġavoid": 1012,
      "age": 1013,
      "Ġfail": 1014,
      "Ġseriously": 1015,
      "Ġfailure": 1016,
      "Ġnor": 1017,
      "aku": 1018,
      "noc": 1019,
      "ral": 1020,
      "Ġpoint": 1021,
      "Ġcorruption": 1022,
      "Ġrob": 1023,
      "Ġcentral": 1024,
      "Ġstronger": 1025,
      "ible": 1026,
      "Ġsent": 1027,
      "inc": 1028,
      "Ġself": 1029,
      "Ġhope": 1030,
      "Ġgood": 1031,
      "ie": 1032,
      "uty": 1033,
      "ession": 1034,
      "Ġmainly": 1035,
      "Ġrevenge": 1036,
      "Ġduty": 1037,
      "edom": 1038,
      "Ġfreedom": 1039,
      "Ġfound": 1040,
      "Ġinnoc": 1041,
      "oku": 1042,
      "Ġinnocence": 1043,
      "pite": 1044,
      "Ġview": 1045,
      "ote": 1046,
      "Ġstart": 1047,
      "Ġdespite": 1048,
      "Ġviewer": 1049,
      "Ġdiscovery": 1050,
      "Ġcompetition": 1051,
      "Ġacc": 1052,
      "Ġheard": 1053,
      "Ġbreak": 1054,
      "Ġgrief": 1055,
      "ense": 1056,
      "red": 1057,
      "adition": 1058,
      "Ġambition": 1059,
      "ater": 1060,
      "ices": 1061,
      "Ġless": 1062,
      "Ġshap": 1063,
      "Ġtradition": 1064,
      "Ġchoices": 1065,
      "Ġsearching": 1066,
      "Ġobsession": 1067,
      "Ġstarting": 1068,
      "Ġshapes": 1069,
      "acing": 1070,
      "ph": 1071,
      "Ġtreatment": 1072,
      "Ġsur": 1073,
      "Ġbl": 1074,
      "Ġlast": 1075,
      "Ġlos": 1076,
      "Ġcompar": 1077,
      "Ġaccepting": 1078,
      "Ġpacing": 1079,
      "Ġredem": 1080,
      "Ġredemption": 1081,
      "iet": 1082,
      "Ġef": 1083,
      "Ġkept": 1084,
      "Ġmakes": 1085,
      "Ġsentence": 1086,
      "ren": 1087,
      "Ġthen": 1088,
      "Ġbes": 1089,
      "Ġlaw": 1090,
      "Ġni": 1091,
      "Ġbeside": 1092,
      "Ġeffect": 1093,
      "Ġdur": 1094,
      "Ġtrust": 1095,
      "watch": 1096,
      "ack": 1097,
      "Ġpe": 1098,
      "Ġsub": 1099,
      "Ġteamwork": 1100,
      "Ġjustice": 1101,
      "ded": 1102,
      "Ġep": 1103,
      "ill": 1104,
      "Ġneither": 1105,
      "Ġkeep": 1106,
      "Ġsuggested": 1107,
      "ore": 1108,
      "ared": 1109,
      "Ġepis": 1110,
      "Ġlater": 1111,
      "Ġart": 1112,
      "Ġmood": 1113,
      "Ġduring": 1114,
      "ized": 1115,
      "Ġway": 1116,
      "aid": 1117,
      "Ġwhose": 1118,
      "Ġwa": 1119,
      "Ġrely": 1120,
      "Ġcorrupt": 1121,
      "Ġmention": 1122,
      "Ġgive": 1123,
      "Ġemph": 1124,
      "Ġemphas": 1125,
      "ases": 1126,
      "Ġrobot": 1127,
      "Ġyet": 1128,
      "Ġneeds": 1129,
      "Ġmovie": 1130,
      "Ġmade": 1131,
      "Ġphrases": 1132,
      "Ġhand": 1133,
      "Ġmusical": 1134,
      "Ġlong": 1135,
      "Ġreason": 1136,
      "Ġmis": 1137,
      "uct": 1138,
      "Ġspecial": 1139,
      "Ġear": 1140,
      "Ġconcer": 1141,
      "Ġbetter": 1142,
      "led": 1143,
      "ile": 1144,
      "iant": 1145,
      "ose": 1146,
      "ty": 1147,
      "Ġpeo": 1148,
      "Ġhandled": 1149,
      "Ġisek": 1150,
      "Ġstruct": 1151,
      "echa": 1152,
      "Ġconcern": 1153,
      "Ġisekai": 1154,
      "Ġstructure": 1155,
      ",\"": 1156,
      "Ġmecha": 1157,
      "Ġji": 1158,
      "Ġpeople": 1159,
      "vided": 1160,
      "Ġpref": 1161,
      "Ġprovided": 1162,
      "ult": 1163,
      "Ġgame": 1164,
      "ference": 1165,
      "Ġgiant": 1166,
      "Ġnew": 1167,
      "Ġended": 1168,
      "ire": 1169,
      "ono": 1170,
      "Ġchi": 1171,
      "istic": 1172,
      "Ġmusic": 1173,
      "Ġwr": 1174,
      "fore": 1175,
      "Ġbefore": 1176,
      "world": 1177,
      "you": 1178,
      "ving": 1179,
      "aming": 1180,
      "Ġtrail": 1181,
      "Ġag": 1182,
      "Ġmat": 1183,
      "Ġsec": 1184,
      "Ġlab": 1185,
      "Ġworks": 1186,
      "Ġscience": 1187,
      "Ġpart": 1188,
      "Ġarc": 1189,
      "Ġthose": 1190,
      "Ġwrote": 1191,
      "fi": 1192,
      "hu": 1193,
      "ji": 1194,
      "yp": 1195,
      "Ġtyp": 1196,
      "ashi": 1197,
      "Ġfood": 1198,
      "Ġgaming": 1199,
      "Ġcooking": 1200,
      "Ġ(": 1201,
      "Ġslow": 1202,
      "Ġ3": 1203,
      ".\"": 1204,
      "uk": 1205,
      "Ġbu": 1206,
      "Ġxiao": 1207,
      "Ġlabel": 1208,
      "Ġromant": 1209,
      "com": 1210,
      "get": 1211,
      "ically": 1212,
      "!!": 1213,
      "aps": 1214,
      "wn": 1215,
      "Ġhel": 1216,
      "Ġactual": 1217,
      "Ġtak": 1218,
      "urning": 1219,
      "Ġperfect": 1220,
      "Ġsecond": 1221,
      "ma": 1222,
      "Ġwhile": 1223,
      "Ġup": 1224,
      "par": 1225,
      "Ġsaid": 1226,
      "Ġromantic": 1227,
      "line": 1228,
      "orm": 1229,
      "Ġval": 1230,
      "Ġpar": 1231,
      "Ġtrans": 1232,
      "gr": 1233,
      "ted": 1234,
      "Ġtoo": 1235,
      "ia": 1236,
      "Ġwo": 1237,
      "Ġpat": 1238,
      "ise": 1239,
      "Ġemotionally": 1240,
      "Ġadult": 1241,
      "Ġtransition": 1242,
      "Ġadulthood": 1243,
      "Ġ-": 1244,
      "Ġener": 1245,
      "ient": 1246,
      "Ġexpression": 1247,
      "ming": 1248,
      "Ġback": 1249,
      "Ġsepar": 1250,
      "Ġclos": 1251,
      "Ġartistic": 1252,
      "Ġseparate": 1253,
      "pen": 1254,
      "uch": 1255,
      "Ġrequ": 1256,
      "den": 1257,
      "eption": 1258,
      "Ġchances": 1259,
      "Ġdeception": 1260,
      "Ġdri": 1261,
      "Ġfriendly": 1262,
      "Ġda": 1263,
      "Ġreal": 1264,
      "Ġhar": 1265,
      "Ġjo": 1266,
      "day": 1267,
      "eng": 1268,
      "Ġreview": 1269,
      "Ġshi": 1270,
      "unch": 1271,
      "ange": 1272,
      "uction": 1273,
      "rod": 1274,
      "Ġmot": 1275,
      "allow": 1276,
      "iven": 1277,
      "Ġpol": 1278,
      "ationship": 1279,
      "Ġrelationship": 1280,
      "iveness": 1281,
      "cl": 1282,
      "ode": 1283,
      "port": 1284,
      "uan": 1285,
      "Ġall": 1286,
      "Ġover": 1287,
      "Ġforgiveness": 1288,
      "ground": 1289,
      "ble": 1290,
      "Ġred": 1291,
      "Ġhad": 1292,
      "act": 1293,
      "Ġagain": 1294,
      "Ġent": 1295,
      "Ġdang": 1296,
      "estion": 1297,
      "Ġshallow": 1298,
      "Ġquestion": 1299,
      "Ġcoll": 1300,
      "oration": 1301,
      "Ġexpl": 1302,
      "yal": 1303,
      "Ġrese": 1304,
      "Ġintrod": 1305,
      "Ġheld": 1306,
      "Ġuncer": 1307,
      "Ġintroduction": 1308,
      "Ġuncertain": 1309,
      "ught": 1310,
      "Ġsus": 1311,
      "Ġcomple": 1312,
      "ump": 1313,
      "Ġpatient": 1314,
      "form": 1315,
      "ree": 1316,
      "Ġtook": 1317,
      "Ġspecials": 1318,
      "sen": 1319,
      "Ġlonger": 1320,
      "hip": 1321,
      "Ġloyal": 1322,
      "Ġwell": 1323,
      "Ġepisode": 1324,
      "Ġvalue": 1325,
      "Ġloyalty": 1326,
      "Ġold": 1327,
      "Ġeither": 1328,
      "Ġhid": 1329,
      "Ġshort": 1330,
      "Ġroom": 1331,
      "Ġq": 1332,
      "Ġrecovery": 1333,
      "app": 1334,
      "ership": 1335,
      "plif": 1336,
      "Ġfree": 1337,
      "Ġleadership": 1338,
      "Ġchild": 1339,
      "Ġrequest": 1340,
      "nal": 1341,
      "Ġton": 1342,
      "Ġmom": 1343,
      "Ġine": 1344,
      "Ġstrange": 1345,
      "Ġtreated": 1346,
      "Ġchanged": 1347,
      "Ġmaintain": 1348,
      "Ġusually": 1349,
      "Ġec": 1350,
      "Ġevent": 1351,
      "ational": 1352,
      "urance": 1353,
      "chan": 1354,
      "Ġendurance": 1355,
      "Ġimm": 1356,
      "Ġcalled": 1357,
      "Ġcopy": 1358,
      "Ġreduc": 1359,
      "Ġfin": 1360,
      "usion": 1361,
      "Ġrare": 1362,
      "quality": 1363,
      "Ġpred": 1364,
      "Ġenjoys": 1365,
      "Ġwatches": 1366,
      "Ġcaught": 1367,
      "Ġgenerations": 1368,
      "Ġagainst": 1369,
      "Ġinequality": 1370,
      "Ġrarely": 1371,
      "Ġsound": 1372,
      "Ġfle": 1373,
      "Ġdown": 1374,
      "iron": 1375,
      "ictable": 1376,
      "Ġpredictable": 1377,
      "ves": 1378,
      "ward": 1379,
      "ins": 1380,
      "edi": 1381,
      "Ġpri": 1382,
      "Ġstay": 1383,
      "Ġwatching": 1384,
      "Ġdecoration": 1385,
      "Ġclearly": 1386,
      "Ġbackground": 1387,
      "Ġhidden": 1388,
      "Ġmaintaining": 1389,
      "ron": 1390,
      "ui": 1391,
      "Ġbest": 1392,
      "Ġopen": 1393,
      "Ġlies": 1394,
      "ately": 1395,
      "Ġexpectations": 1396,
      "Ġtruths": 1397,
      "Ġchildhood": 1398,
      "Ġimmedi": 1399,
      "Ġimmediately": 1400,
      "eared": 1401,
      "gan": 1402,
      "igh": 1403,
      "ko": 1404,
      "atsu": 1405,
      "ouk": 1406,
      "Ġprom": 1407,
      "Ġforming": 1408,
      "ading": 1409,
      "Ġappeared": 1410,
      "mental": 1411,
      "Ġmeaningful": 1412,
      "Ġsearch": 1413,
      "Ġworth": 1414,
      "Ġspeech": 1415,
      "Ġconnections": 1416,
      "Ġreducing": 1417,
      "ped": 1418,
      "viron": 1419,
      "Ġsay": 1420,
      "ination": 1421,
      "ushi": 1422,
      "Ġthree": 1423,
      "Ġbecom": 1424,
      "Ġlikes": 1425,
      "Ġenviron": 1426,
      "Ġdecline": 1427,
      "Ġmorality": 1428,
      "Ġforgive": 1429,
      "iety": 1430,
      "Ġhelped": 1431,
      "Ġeventually": 1432,
      "Ġenvironmental": 1433,
      "xp": 1434,
      "xible": 1435,
      "Ġfight": 1436,
      "ising": 1437,
      "Ġconcl": 1438,
      "Ġtry": 1439,
      "Ġacting": 1440,
      "Ġjump": 1441,
      "Ġlook": 1442,
      "resses": 1443,
      "Ġshowed": 1444,
      "Ġdescribed": 1445,
      "Ġhomework": 1446,
      "ivation": 1447,
      "Ġaddresses": 1448,
      "Ġmotivation": 1449,
      "Ġentry": 1450,
      "Ġflexible": 1451,
      "Ġconclusion": 1452,
      "ject": 1453,
      "les": 1454,
      "Ġdire": 1455,
      "Ġres": 1456,
      "Ġele": 1457,
      "ilar": 1458,
      "Ġsuit": 1459,
      "Ġrealized": 1460,
      "Ġpatiently": 1461,
      "Ġdirec": 1462,
      "exp": 1463,
      "Ġthem": 1464,
      "Ġanim": 1465,
      "ternal": 1466,
      "Ġexact": 1467,
      "Ġnothing": 1468,
      "ments": 1469,
      "Ġsimilar": 1470,
      "ivity": 1471,
      "Ġgrow": 1472,
      "Ġcreativity": 1473,
      "expression": 1474,
      "Ġexactly": 1475,
      "Ġsimilarly": 1476,
      "oring": 1477,
      "Ġbal": 1478,
      "Ġreference": 1479,
      "Ġcont": 1480,
      "Ġshare": 1481,
      "Ġspend": 1482,
      "Ġchoice": 1483,
      "Ġmentioned": 1484,
      "Ġclosest": 1485,
      "Ġrelationships": 1486,
      "Ġexploring": 1487,
      "ework": 1488,
      "from": 1489,
      "mix": 1490,
      "oper": 1491,
      "ological": 1492,
      "ved": 1493,
      "Ġfram": 1494,
      "Ġna": 1495,
      "Ġnatur": 1496,
      "ison": 1497,
      "Ġinform": 1498,
      "achi": 1499,
      "Ġwithin": 1500,
      "Ġko": 1501,
      "Ġmoving": 1502,
      "Ġspo": 1503,
      "apse": 1504,
      "Ġworking": 1505,
      "ided": 1506,
      "Ġdecided": 1507,
      "ferences": 1508,
      "Ġcombination": 1509,
      "Ġpreferences": 1510,
      "Ġchosen": 1511,
      "Ġgenerational": 1512,
      "Ġcomparing": 1513,
      "Ġreasons": 1514,
      "Ġtakes": 1515,
      "Ġcollapse": 1516,
      "Ġecological": 1517,
      "Ġsounds": 1518,
      "Ġstayed": 1519,
      "Ġpromising": 1520,
      "Ġdirection": 1521,
      "mixes": 1522,
      "Ġframework": 1523,
      "Ġnaturally": 1524,
      "Ġinformation": 1525,
      "itical": 1526,
      "Ġexternal": 1527,
      "Ġplace": 1528,
      "word": 1529,
      "Ġcreates": 1530,
      "Ġdrives": 1531,
      "Ġpolitical": 1532,
      "Ġcompleted": 1533,
      "Ġhear": 1534,
      "igu": 1535,
      "Ġprice": 1536,
      "Ġgrowing": 1537,
      "Ġturning": 1538,
      "esel": 1539,
      "Ġlunch": 1540,
      "Ġeasy": 1541,
      "accept": 1542,
      "Ġonesel": 1543,
      "stly": 1544,
      "Ġwhy": 1545,
      "acceptance": 1546,
      "Ġoneself": 1547,
      "but": 1548,
      "Ġmuch": 1549,
      "eches": 1550,
      "urate": 1551,
      "Ġmostly": 1552,
      "Ġseen": 1553,
      "ilers": 1554,
      "Ġrecommended": 1555,
      "Ġscen": 1556,
      "Ġstrong": 1557,
      "Ġappears": 1558,
      "Ġweek": 1559,
      "Ġspeeches": 1560,
      "Ġcoping": 1561,
      "Ġavoids": 1562,
      "Ġaccurate": 1563,
      "Ġemphasis": 1564,
      "Ġspoilers": 1565,
      "mari": 1566,
      "Ġgo": 1567,
      "vival": 1568,
      "Ġtreats": 1569,
      "Ġmemor": 1570,
      "Ġambigu": 1571,
      "Ġmoral": 1572,
      "Ġblend": 1573,
      "Ġloss": 1574,
      "Ġearning": 1575,
      "Ġdanger": 1576,
      "Ġlooks": 1577,
      "Ġambiguity": 1578,
      "ck": 1579,
      "ds": 1580,
      "ply": 1581,
      "xiety": 1582,
      "Ġdense": 1583,
      "itate": 1584,
      "Ġanxiety": 1585,
      "Ġtrying": 1586,
      "Ġcooper": 1587,
      "Ġafterward": 1588,
      "Ġsimply": 1589,
      "Ġimitate": 1590,
      "Ġcooperation": 1591,
      "haps": 1592,
      "sist": 1593,
      "plot": 1594,
      "Ġeveryday": 1595,
      "Ġactually": 1596,
      "Ġcares": 1597,
      "Ġsurvival": 1598,
      "Ġsubplot": 1599,
      "Ġweekend": 1600,
      "ther": 1601,
      "Ġher": 1602,
      "oun": 1603,
      "ama": 1604,
      "Ġconsist": 1605,
      "Ġwhether": 1606,
      "Ġalmo": 1607,
      "Ġfocused": 1608,
      "Ġacceptable": 1609,
      "Ġclose": 1610,
      "Ġlosing": 1611,
      "Ġtonight": 1612,
      "Ġprimari": 1613,
      "Ġelements": 1614,
      "Ġconsistent": 1615,
      "Ġalmost": 1616,
      "Ġprimarily": 1617,
      "Ġtheir": 1618,
      "Ġreli": 1619,
      "Ġanimation": 1620,
      "Ġmemorable": 1621,
      "Ġtoget": 1622,
      "Ġaround": 1623,
      "Ġtogether": 1624,
      "mble": 1625,
      "Ġman": 1626,
      "Ġnight": 1627,
      "ish": 1628,
      "Ġinst": 1629,
      "vious": 1630,
      "orrow": 1631,
      "Ġinteresting": 1632,
      "Ġobvious": 1633,
      "vinc": 1634,
      "Ġsaw": 1635,
      "ara": 1636,
      "etsu": 1637,
      "hose": 1638,
      "Ġfriendship": 1639,
      "Ġbelie": 1640,
      "Ġgrad": 1641,
      "Ġquestions": 1642,
      "vable": 1643,
      "Ġig": 1644,
      "leading": 1645,
      "Ġga": 1646,
      "Ġgave": 1647,
      "Ġconvinc": 1648,
      "Ġstill": 1649,
      "Ġwanted": 1650,
      "Ġwhereas": 1651,
      "Ġbegins": 1652,
      "Ġfits": 1653,
      "Ġperhaps": 1654,
      "Ġaccess": 1655,
      "Ġcomparison": 1656,
      "Ġmisleading": 1657,
      "Ġenergy": 1658,
      "Ġjoins": 1659,
      "Ġreliability": 1660,
      "Ġbelievable": 1661,
      "Ġconvincing": 1662,
      "Ġlect": 1663,
      "Ġconvent": 1664,
      "Ġtru": 1665,
      "Ġresemble": 1666,
      "Ġopening": 1667,
      "inking": 1668,
      "Ġdone": 1669,
      "Ġborrow": 1670,
      "Ġthinking": 1671,
      "ached": 1672,
      "ilt": 1673,
      "olve": 1674,
      "Ġlooking": 1675,
      "Ġapproached": 1676,
      "Ġphrase": 1677,
      "Ġusual": 1678,
      "ourage": 1679,
      "Ġcorrupting": 1680,
      "Ġlecture": 1681,
      "kai": 1682,
      "pris": 1683,
      "Ġcourage": 1684,
      "Ġbecome": 1685,
      "nored": 1686,
      "Ġadded": 1687,
      "Ġsurpris": 1688,
      "rent": 1689,
      "Ġslowly": 1690,
      "Ġbalances": 1691,
      "Ġhearing": 1692,
      "Ġignored": 1693,
      "ei": 1694,
      "ku": 1695,
      "yles": 1696,
      "orter": 1697,
      "Ġrewatch": 1698,
      "Ġstyles": 1699,
      "ears": 1700,
      "Ġideally": 1701,
      "Ġvari": 1702,
      "Ġimport": 1703,
      "Ġbuilt": 1704,
      "Ġharder": 1705,
      "Ġresolve": 1706,
      "Ġimportant": 1707,
      "Ġ1": 1708,
      "Ġarise": 1709,
      "Ġtypical": 1710,
      "ront": 1711,
      "Ġaccessible": 1712,
      "Ġtruly": 1713,
      "ever": 1714,
      "Ġmer": 1715,
      "Ġmix": 1716,
      "ora": 1717,
      "Ġexpected": 1718,
      "Ġdifferently": 1719,
      "heng": 1720,
      "Ġcolon": 1721,
      "Ġsurprised": 1722,
      "yuu": 1723,
      "herent": 1724,
      "itut": 1725,
      "Ġeach": 1726,
      "Ġshorter": 1727,
      "Ġcoherent": 1728,
      "Ġremains": 1729,
      "Ġinstitut": 1730,
      "Ġgradually": 1731,
      "Ġconventions": 1732,
      "Ġinstitutions": 1733,
      "those": 1734,
      "Ġcr": 1735,
      "Ġche": 1736,
      "Ġcomma": 1737,
      "Ġyu": 1738,
      "Ġlisted": 1739,
      "Ġhowever": 1740,
      "Ġkinds": 1741,
      "Ġbecomes": 1742,
      "ten": 1743,
      "uo": 1744,
      "ya": 1745,
      "Ġcentered": 1746,
      "Ġbo": 1747,
      "Ġmin": 1748,
      "isions": 1749,
      "Ġbey": 1750,
      "Ġmoment": 1751,
      "jou": 1752,
      "Ġreve": 1753,
      "Ġrand": 1754,
      "Ġrecommendations": 1755,
      "Ġdecisions": 1756,
      "Ġappearing": 1757,
      "Ġkeeps": 1758,
      "Ġprefers": 1759,
      "Ġreveal": 1760,
      "Ġrandom": 1761,
      "Ġsen": 1762,
      "ike": 1763,
      "Ġsubject": 1764,
      "gth": 1765,
      "ha": 1766,
      "less": 1767,
      "erred": 1768,
      "omat": 1769,
      "ety": 1770,
      "Ġstren": 1771,
      "pth": 1772,
      "Ġdepth": 1773,
      "Ġcombines": 1774,
      "Ġenjoyed": 1775,
      "Ġpreferred": 1776,
      "Ġvariety": 1777,
      "Ġmomentum": 1778,
      "gths": 1779,
      "Ġstrengths": 1780,
      "ished": 1781,
      "Ġsimplif": 1782,
      "Ġrelying": 1783,
      "Ġfinished": 1784,
      "Ġsimplify": 1785,
      "bo": 1786,
      "cc": 1787,
      "Ġwords": 1788,
      "Ġby": 1789,
      "az": 1790,
      "Ġhide": 1791,
      "ives": 1792,
      "Ġtrailer": 1793,
      "Ġcheck": 1794,
      "ling": 1795,
      "Ġtheme": 1796,
      "Ġgives": 1797,
      "Ġenough": 1798,
      "Ġdist": 1799,
      "Ġreally": 1800,
      "Ġoften": 1801,
      "Ġorgan": 1802,
      "Ġconfront": 1803,
      "Ġkey": 1804,
      "izes": 1805,
      "Ġemphasizes": 1806,
      "Ġtrailers": 1807,
      "Ġbeyond": 1808,
      "Ġorganized": 1809,
      "Ġfu": 1810,
      "Ġrest": 1811,
      "Ġshin": 1812,
      "ume": 1813,
      "ky": 1814,
      "os": 1815,
      "aru": 1816,
      "Ġconvers": 1817,
      "Ġkan": 1818,
      "utomat": 1819,
      "Ġconversation": 1820,
      "kun": 1821,
      "Ġdou": 1822,
      "inct": 1823,
      "Ġocc": 1824,
      "ters": 1825,
      "Ġdistinct": 1826,
      "Ġoccur": 1827,
      "gat": 1828,
      "kip": 1829,
      "ash": 1830,
      "Ġsimple": 1831,
      "Ġquiet": 1832,
      "va": 1833,
      "Ġautomat": 1834,
      "Ġku": 1835,
      "Ġsustain": 1836,
      "Ġautomatically": 1837,
      "both": 1838,
      "man": 1839,
      "Ġmark": 1840,
      "del": 1841,
      "Ġsem": 1842,
      "Ġcompared": 1843,
      "Ġmatching": 1844,
      "Ġkeyword": 1845,
      "Ġskip": 1846,
      "Ġnan": 1847,
      "eted": 1848,
      "odes": 1849,
      "Ġdisapp": 1850,
      "Ġepisodes": 1851,
      "Ġmarketed": 1852,
      "Ġdisappears": 1853,
      "like": 1854,
      "not": 1855,
      "san": 1856,
      "with": 1857,
      "Ġut": 1858,
      "Ġbrief": 1859,
      "Ġmeet": 1860,
      "Ġexplore": 1861,
      "Ġcontaining": 1862,
      "ourn": 1863,
      "Ġscene": 1864,
      "Ġsustained": 1865,
      "side": 1866,
      "Ġmodel": 1867,
      "Ġspans": 1868,
      "ifically": 1869,
      "Ġspecifically": 1870,
      "Ġparts": 1871,
      "Ġmerge": 1872,
      "Ġik": 1873,
      "att": 1874,
      "Ġhas": 1875,
      "Ġends": 1876,
      "agon": 1877,
      "Ġqi": 1878,
      "ita": 1879,
      "lying": 1880,
      "ights": 1881,
      "Ġge": 1882,
      "Ġmao": 1883,
      "Ġworld": 1884,
      "Ġshou": 1885,
      "ake": 1886,
      "Ġunderlying": 1887,
      "ka": 1888,
      "oro": 1889,
      "itsu": 1890,
      "Ġkai": 1891,
      "Ġconfuse": 1892,
      "iong": 1893,
      "Ġhan": 1894,
      "Ġmatter": 1895,
      "Ġcontin": 1896,
      "Ġmeeting": 1897,
      "Ġot": 1898,
      "Ġtsu": 1899,
      "Ġii": 1900,
      "ett": 1901,
      "Ġyo": 1902,
      "Ġzhi": 1903,
      "Ġout": 1904,
      "Ġgu": 1905,
      "hou": 1906,
      "Ġfights": 1907,
      "Ġread": 1908,
      "Ġstar": 1909,
      "Ġcontinu": 1910,
      "Ġer": 1911,
      "Ġdr": 1912,
      "icol": 1913,
      "ishi": 1914,
      "ura": 1915,
      "Ġpreference": 1916,
      "Ġtypes": 1917,
      "Ġsemicol": 1918,
      "Ġreads": 1919,
      "Ġsemicolons": 1920,
      "yu": 1921,
      "Ġmon": 1922,
      "ated": 1923,
      "iro": 1924,
      "Ġten": 1925,
      "Ġha": 1926,
      "Ġgun": 1927,
      "chi": 1928,
      "jin": 1929,
      "Ġ&": 1930,
      "ori": 1931,
      "Ġhero": 1932,
      "onogat": 1933,
      "onogatari": 1934,
      "ip": 1935,
      "Ġzh": 1936,
      "Ġoutside": 1937,
      "ud": 1938,
      "uru": 1939,
      "angu": 1940,
      "Ġmedia": 1941,
      "!,": 1942,
      "fl": 1943,
      "Ġtan": 1944,
      "Ġshen": 1945,
      "Ġdai": 1946,
      "rd": 1947,
      "Ġova": 1948,
      "Ġplay": 1949,
      "Ġobser": 1950,
      "Ġuta": 1951,
      "bu": 1952,
      "sh": 1953,
      "Ġble": 1954,
      "ey": 1955,
      "Ġ4": 1956,
      "ouse": 1957,
      "imi": 1958,
      "oko": 1959,
      "Ġxing": 1960,
      "Ġmi": 1961,
      "Ġfan": 1962,
      "itive": 1963,
      "Ġren": 1964,
      "Ġzhu": 1965,
      "Ġcontinued": 1966,
      "sett": 1967,
      "heet": 1968,
      "Ġbao": 1969,
      "ick": 1970,
      "Ġunsett": 1971,
      "Ġvill": 1972,
      "Ġunsettling": 1973,
      "bi": 1974,
      "ru": 1975,
      "Ġ0": 1976,
      "Ġdi": 1977,
      "Ġlu": 1978,
      "Ġken": 1979,
      "Ġkid": 1980,
      "aph": 1981,
      "Ġprot": 1982,
      "20": 1983,
      "wa": 1984,
      "Ġtense": 1985,
      "Ġfl": 1986,
      "xian": 1987,
      "entle": 1988,
      "Ġgentle": 1989,
      "umi": 1990,
      "sur": 1991,
      "Ġsai": 1992,
      "Ġwan": 1993,
      "eru": 1994,
      "Ġfut": 1995,
      "Ġrefl": 1996,
      "Ġka": 1997,
      "rain": 1998,
      "yo": 1999,
      "Ġmonogatari": 2000,
      "ichi": 2001,
      "oto": 2002,
      "Ġxiong": 2003,
      "Ġmysterious": 2004,
      "Ġsan": 2005,
      "ital": 2006,
      "agr": 2007,
      "emon": 2008,
      "Ġreviewing": 2009,
      "..": 2010,
      "Ġfun": 2011,
      "Ġnar": 2012,
      "aka": 2013,
      "weet": 2014,
      "Ġworksheet": 2015,
      "Ġreflective": 2016,
      "Ġhu": 2017,
      "uma": 2018,
      "Ġendless": 2019,
      "Ġearn": 2020,
      "dam": 2021,
      "ny": 2022,
      "qi": 2023,
      "Ġmar": 2024,
      "Ġfast": 2025,
      "Ġking": 2026,
      "Ġcomm": 2027,
      "Ġshu": 2028,
      "Ġmag": 2029,
      "akus": 2030,
      "Ġbleak": 2031,
      "lated": 2032,
      "related": 2033,
      "Ġkyou": 2034,
      "Ġunrelated": 2035,
      "Ġrestrain": 2036,
      "Ġrestrained": 2037,
      "ade": 2038,
      "gi": 2039,
      "ta": 2040,
      "tachi": 2041,
      "ye": 2042,
      "Ġ5": 2043,
      "Ġside": 2044,
      "Ġwere": 2045,
      "Ġbit": 2046,
      "omo": 2047,
      "Ġrecaps": 2048,
      "Ġparagr": 2049,
      "Ġdragon": 2050,
      "Ġparagraph": 2051,
      "ext": 2052,
      "to": 2053,
      "ream": 2054,
      "Ġcat": 2055,
      "Ġdan": 2056,
      "amag": 2057,
      "Ġts": 2058,
      "Ġmir": 2059,
      "arou": 2060,
      "Ġinter": 2061,
      "air": 2062,
      "aki": 2063,
      "ounded": 2064,
      "Ġgrounded": 2065,
      "moving": 2066,
      "Ġcontext": 2067,
      "Ġwang": 2068,
      "ata": 2069,
      "Ġboku": 2070,
      "Ġpap": 2071,
      "Ġpian": 2072,
      "Ġgirls": 2073,
      "eful": 2074,
      "Ġhopeful": 2075,
      "Ġxia": 2076,
      "Ġboy": 2077,
      "tersweet": 2078,
      "Ġgeki": 2079,
      "Ġobserved": 2080,
      "Ġbittersweet": 2081,
      "na": 2082,
      "og": 2083,
      "zu": 2084,
      "ament": 2085,
      "Ġsekai": 2086,
      "Ġatmo": 2087,
      "Ġending": 2088,
      "getic": 2089,
      "Ġenergetic": 2090,
      "Ġatmosp": 2091,
      "ke": 2092,
      "pin": 2093,
      "te": 2094,
      "Ġcoun": 2095,
      "Ġday": 2096,
      "Ġrep": 2097,
      "antei": 2098,
      "Ġmeg": 2099,
      "Ġass": 2100,
      "Ġjourn": 2101,
      "Ġplain": 2102,
      "Ġwarm": 2103,
      "ouken": 2104,
      "Ġkoi": 2105,
      "Ġgundam": 2106,
      "Ġearnest": 2107,
      "Ġjourney": 2108,
      "ier": 2109,
      "lan": 2110,
      "lic": 2111,
      "langu": 2112,
      "ub": 2113,
      "uri": 2114,
      "Ġpv": 2115,
      "Ġhun": 2116,
      "Ġyi": 2117,
      "hua": 2118,
      "language": 2119,
      "dri": 2120,
      "pense": 2121,
      "ss": 2122,
      "Ġtourn": 2123,
      "Ġfe": 2124,
      "Ġpass": 2125,
      "ushed": 2126,
      "asu": 2127,
      "Ġcomic": 2128,
      "Ġrushed": 2129,
      "Ġnob": 2130,
      "Ġabsur": 2131,
      "olved": 2132,
      "aga": 2133,
      "agi": 2134,
      "Ġhoshi": 2135,
      "ign": 2136,
      "Ġmiss": 2137,
      "Ġsuspense": 2138,
      "Ġmini": 2139,
      "Ġtournament": 2140,
      "Ġabsurd": 2141,
      "Ġsuspenseful": 2142,
      "jie": 2143,
      "note": 2144,
      "tful": 2145,
      "Ġtai": 2146,
      "Ġcity": 2147,
      "ero": 2148,
      "Ġreb": 2149,
      "Ġopt": 2150,
      "Ġgushi": 2151,
      "Ġki": 2152,
      "ima": 2153,
      "imistic": 2154,
      "heric": 2155,
      "Ġthoughtful": 2156,
      "Ġuplif": 2157,
      "uku": 2158,
      "Ġshoujo": 2159,
      "Ġatmospheric": 2160,
      "Ġoptimistic": 2161,
      "Ġuplifting": 2162,
      "burning": 2163,
      "Ġtian": 2164,
      "oru": 2165,
      "Ġbr": 2166,
      "Ġball": 2167,
      "ete": 2168,
      "Ġdiscussed": 2169,
      "incess": 2170,
      "gram": 2171,
      "uel": 2172,
      "Ġai": 2173,
      "ink": 2174,
      "ana": 2175,
      "Ġdin": 2176,
      "Ġdream": 2177,
      "ings": 2178,
      "Ġhao": 2179,
      "Ġtok": 2180,
      "Ġkun": 2181,
      "ibi": 2182,
      "Ġscenes": 2183,
      "driven": 2184,
      "Ġsword": 2185,
      "ord": 2186,
      "Ġdon": 2187,
      "Ġba": 2188,
      "Ġpi": 2189,
      "Ġook": 2190,
      "Ġgho": 2191,
      "Ġlive": 2192,
      "chuu": 2193,
      "lla": 2194,
      "oke": 2195,
      "Ġ20": 2196,
      "Ġidol": 2197,
      "Ġprincess": 2198,
      "Ġsenshi": 2199,
      "Ġplayful": 2200,
      "Ġgekijou": 2201,
      "fu": 2202,
      "land": 2203,
      "ojo": 2204,
      "pe": 2205,
      "Ġou": 2206,
      "Ġak": 2207,
      "Ġtu": 2208,
      "Ġcm": 2209,
      "Ġmist": 2210,
      "arch": 2211,
      "Ġru": 2212,
      "uro": 2213,
      "Ġyume": 2214,
      "pts": 2215,
      "iru": 2216,
      "iku": 2217,
      "akuen": 2218,
      "Ġkanojo": 2219,
      "Ġiii": 2220,
      "rupts": 2221,
      "Ġcommun": 2222,
      "Ġinterrupts": 2223,
      "Ġghost": 2224,
      "Ġcin": 2225,
      "ens": 2226,
      "Ġfire": 2227,
      "Ġkak": 2228,
      "ains": 2229,
      "awa": 2230,
      "butsu": 2231,
      "bou": 2232,
      "gend": 2233,
      "kou": 2234,
      "ret": 2235,
      "Ġdora": 2236,
      "ala": 2237,
      "Ġbatt": 2238,
      "Ġhi": 2239,
      "Ġget": 2240,
      "Ġexc": 2241,
      "Ġye": 2242,
      "Ġnear": 2243,
      "Ġplan": 2244,
      "gel": 2245,
      "Ġneedless": 2246,
      "Ġdarkly": 2247,
      "Ġhello": 2248,
      "Ġcruel": 2249,
      "agonist": 2250,
      "Ġprotagonist": 2251,
      "Ġassign": 2252,
      "Ġpassive": 2253,
      "Ġdoraemon": 2254,
      "bot": 2255,
      "mon": 2256,
      "Ġtou": 2257,
      "Ġsun": 2258,
      "inj": 2259,
      "its": 2260,
      "using": 2261,
      "Ġhai": 2262,
      "Ġmelan": 2263,
      "Ġsei": 2264,
      "Ġmaj": 2265,
      "ira": 2266,
      "resolved": 2267,
      "Ġintro": 2268,
      "Ġunresolved": 2269,
      "Ġxian": 2270,
      "cholic": 2271,
      "spective": 2272,
      "Ġsubplots": 2273,
      "Ġcruelty": 2274,
      "Ġmelancholic": 2275,
      "Ġintrospective": 2276,
      "),": 2277,
      "ced": 2278,
      "han": 2279,
      "kyou": 2280,
      "yuan": 2281,
      "oma": 2282,
      "Ġhik": 2283,
      "ents": 2284,
      "Ġtown": 2285,
      "Ġgod": 2286,
      "ute": 2287,
      "Ġshoun": 2288,
      "dere": 2289,
      "under": 2290,
      "Ġtrain": 2291,
      "Ġrecap": 2292,
      "oushi": 2293,
      "Ġblue": 2294,
      "Ġvillains": 2295,
      "Ġexcess": 2296,
      "af": 2297,
      "ban": 2298,
      "kan": 2299,
      "ration": 2300,
      "sama": 2301,
      "the": 2302,
      "ze": 2303,
      "Ġwit": 2304,
      "Ġmas": 2305,
      "orat": 2306,
      "ats": 2307,
      "Ġdamag": 2308,
      "itai": 2309,
      "Ġreport": 2310,
      "Ġgakuen": 2311,
      "Ġrun": 2312,
      "Ġyuu": 2313,
      "Ġlegend": 2314,
      "Ġblack": 2315,
      "Ġresearch": 2316,
      "Ġnarration": 2317,
      "Ġfeat": 2318,
      "Ġdinner": 2319,
      "Ġexcessive": 2320,
      "Ġdamaged": 2321,
      "Ġed": 2322,
      "Ġtab": 2323,
      "Ġshe": 2324,
      "Ġsou": 2325,
      "Ġhis": 2326,
      "Ġhim": 2327,
      "Ġgreat": 2328,
      "Ġkou": 2329,
      "Ġkami": 2330,
      "Ġkag": 2331,
      "Ġrur": 2332,
      "Ġmoon": 2333,
      "Ġyuan": 2334,
      "Ġmahou": 2335,
      "Ġwatashi": 2336,
      "Ġzero": 2337,
      "iko": 2338,
      "Ġeveryone": 2339,
      "Ġcompetitive": 2340,
      "ashii": 2341,
      "kyo": 2342,
      "Ġmonster": 2343,
      "Ġshounen": 2344,
      "mer": 2345,
      "ni": 2346,
      "yan": 2347,
      "Ġsak": 2348,
      "ona": 2349,
      "Ġcar": 2350,
      "Ġcap": 2351,
      "Ġblo": 2352,
      "Ġangel": 2353,
      "Ġhapp": 2354,
      "etitive": 2355,
      "Ġky": 2356,
      "Ġkimi": 2357,
      "Ġforced": 2358,
      "stand": 2359,
      "ock": 2360,
      "Ġexpos": 2361,
      "ific": 2362,
      "eping": 2363,
      "Ġmisunder": 2364,
      "Ġfunny": 2365,
      "Ġpaper": 2366,
      "Ġrepetitive": 2367,
      "Ġcommunity": 2368,
      "Ġexposition": 2369,
      "Ġmisunderstand": 2370,
      "go": 2371,
      "iao": 2372,
      "vice": 2373,
      "Ġari": 2374,
      "Ġban": 2375,
      "Ġbus": 2376,
      "Ġbouken": 2377,
      "Ġpet": 2378,
      "Ġpil": 2379,
      "Ġland": 2380,
      "Ġoshi": 2381,
      "Ġhouse": 2382,
      "Ġconst": 2383,
      "Ġkis": 2384,
      "Ġshan": 2385,
      "Ġbear": 2386,
      "Ġjing": 2387,
      "Ġservice": 2388,
      "Ġjiang": 2389,
      "Ġ10": 2390,
      "Ġmissing": 2391,
      "Ġconstant": 2392,
      "!:": 2393,
      "be": 2394,
      "cy": 2395,
      "da": 2396,
      "dom": 2397,
      "ju": 2398,
      "pan": 2399,
      "zi": 2400,
      "Ġsi": 2401,
      "ece": 2402,
      "Ġhit": 2403,
      "Ġkara": 2404,
      "chou": 2405,
      "ists": 2406,
      "Ġtwists": 2407,
      "Ġuchuu": 2408,
      "Ġshijie": 2409,
      "Ġstars": 2410,
      "Ġlupin": 2411,
      "Ġbattle": 2412,
      "aur": 2413,
      "back": 2414,
      "hime": 2415,
      "Ġsheng": 2416,
      "inter": 2417,
      "amp": 2418,
      "Ġstud": 2419,
      "outai": 2420,
      "outsu": 2421,
      "Ġbeing": 2422,
      "Ġmob": 2423,
      "Ġjoke": 2424,
      "Ġsched": 2425,
      "Ġconfusing": 2426,
      "Ġclever": 2427,
      "Ġprogram": 2428,
      "Ġrobo": 2429,
      "Ġfinal": 2430,
      "Ġbecoming": 2431,
      "Ġfuture": 2432,
      "Ġcindere": 2433,
      "Ġcinderella": 2434,
      "co": 2435,
      "dou": 2436,
      "tv": 2437,
      "ule": 2438,
      "Ġsora": 2439,
      "Ġcard": 2440,
      "Ġmu": 2441,
      "orn": 2442,
      "ors": 2443,
      "Ġfeng": 2444,
      "Ġhon": 2445,
      "Ġham": 2446,
      "Ġkod": 2447,
      "une": 2448,
      "ung": 2449,
      "Ġlixian": 2450,
      "Ġying": 2451,
      "Ġjin": 2452,
      "umo": 2453,
      "Ġyour": 2454,
      "Ġzheng": 2455,
      "ago": 2456,
      "iken": 2457,
      "Ġproject": 2458,
      "ensei": 2459,
      "atta": 2460,
      "Ġzhan": 2461,
      "Ġvillage": 2462,
      "Ġkingdom": 2463,
      "ba": 2464,
      "oi": 2465,
      "Ġum": 2466,
      "Ġdu": 2467,
      "ale": 2468,
      "Ġben": 2469,
      "Ġbun": 2470,
      "Ġlan": 2471,
      "Ġhong": 2472,
      "Ġgong": 2473,
      "Ġbecame": 2474,
      "Ġarm": 2475,
      "Ġscaling": 2476,
      "rop": 2477,
      "Ġartific": 2478,
      "Ġmany": 2479,
      "ashback": 2480,
      "Ġkuai": 2481,
      "Ġmaoxian": 2482,
      "Ġotoko": 2483,
      "Ġflashback": 2484,
      "zuki": 2485,
      "Ġcount": 2486,
      "Ġpilot": 2487,
      "Ġartificial": 2488,
      "Ġflashbacks": 2489,
      "adem": 2490,
      "br": 2491,
      "ball": 2492,
      "hai": 2493,
      "jim": 2494,
      "vil": 2495,
      "Ġ8": 2496,
      "Ġvi": 2497,
      "Ġta": 2498,
      "onder": 2499,
      "Ġcir": 2500,
      "Ġwu": 2501,
      "Ġdance": 2502,
      "Ġbri": 2503,
      "Ġbab": 2504,
      "Ġok": 2505,
      "asa": 2506,
      "Ġtokyo": 2507,
      "Ġstand": 2508,
      "Ġkitt": 2509,
      "Ġkouk": 2510,
      "Ġshim": 2511,
      "Ġshir": 2512,
      "Ġoni": 2513,
      "Ġspir": 2514,
      "sei": 2515,
      "Ġacadem": 2516,
      "Ġxin": 2517,
      "Ġclub": 2518,
      "Ġzhen": 2519,
      "Ġlesson": 2520,
      "Ġcrow": 2521,
      "Ġike": 2522,
      "Ġkidou": 2523,
      "...": 2524,
      "Ġassigned": 2525,
      "Ġmisunderstandings": 2526,
      "Ġcirc": 2527,
      "99": 2528,
      "bor": 2529,
      "dy": 2530,
      "ne": 2531,
      "part": 2532,
      "shu": 2533,
      "za": 2534,
      "zen": 2535,
      "zou": 2536,
      "Ġ7": 2537,
      "Ġur": 2538,
      "Ġwonder": 2539,
      "Ġfil": 2540,
      "Ġbai": 2541,
      "Ġanpan": 2542,
      "Ġpris": 2543,
      "Ġpunch": 2544,
      "Ġrei": 2545,
      "Ġhy": 2546,
      "Ġconan": 2547,
      "Ġkim": 2548,
      "Ġshad": 2549,
      "cha": 2550,
      "Ġneko": 2551,
      "Ġju": 2552,
      "oki": 2553,
      "Ġxiang": 2554,
      "Ġqian": 2555,
      "aze": 2556,
      "202": 2557,
      "Ġmagic": 2558,
      "Ġpiece": 2559,
      "Ġruin": 2560,
      "Ġhappy": 2561,
      "Ġschedule": 2562,
      "Ġkuaile": 2563,
      "Ġkitty": 2564,
      "Ġanpanman": 2565,
      "'t": 2566,
      "av": 2567,
      "dai": 2568,
      "pic": 2569,
      "zh": 2570,
      "Ġ6": 2571,
      "Ġsa": 2572,
      "Ġwind": 2573,
      "Ġmai": 2574,
      "itious": 2575,
      "itantei": 2576,
      "Ġnatsu": 2577,
      "Ġpand": 2578,
      "Ġlet": 2579,
      "Ġline": 2580,
      "Ġgal": 2581,
      "Ġgek": 2582,
      "Ġkon": 2583,
      "Ġkik": 2584,
      "Ġmeitantei": 2585,
      "Ġjie": 2586,
      "Ġsum": 2587,
      "Ġhen": 2588,
      "Ġconflicted": 2589,
      "awase": 2590,
      "Ġambitious": 2591,
      "Ġquest": 2592,
      "Ġothers": 2593,
      "inted": 2594,
      "Ġmorally": 2595,
      "Ġprinted": 2596,
      "Ġdriven": 2597,
      "uild": 2598,
      "Ġquietly": 2599,
      "Ġhaun": 2600,
      "Ġprotective": 2601,
      "Ġrebuild": 2602,
      "Ġookami": 2603,
      "Ġhimitsu": 2604,
      "Ġshadow": 2605,
      "bit": 2606,
      "bao": 2607,
      "eon": 2608,
      "gen": 2609,
      "la": 2610,
      "op": 2611,
      "tr": 2612,
      "Ġtim": 2613,
      "Ġtong": 2614,
      "Ġtantei": 2615,
      "Ġson": 2616,
      "Ġsong": 2617,
      "Ġcheng": 2618,
      "Ġwill": 2619,
      "erc": 2620,
      "ano": 2621,
      "ating": 2622,
      "Ġfo": 2623,
      "Ġfur": 2624,
      "arm": 2625,
      "ico": 2626,
      "Ġnu": 2627,
      "Ġnik": 2628,
      "amon": 2629,
      "amil": 2630,
      "ister": 2631,
      "Ġhou": 2632,
      "Ġhak": 2633,
      "acity": 2634,
      "Ġkin": 2635,
      "Ġkyo": 2636,
      "Ġmei": 2637,
      "ghu": 2638,
      "Ġlian": 2639,
      "Ġyas": 2640,
      "Ġyoru": 2641,
      "oll": 2642,
      "anga": 2643,
      "ody": 2644,
      "Ġdevil": 2645,
      "Ġjian": 2646,
      "que": 2647,
      "oney": 2648,
      "Ġroad": 2649,
      "Ġsore": 2650,
      "movie": 2651,
      "Ġpeeping": 2652,
      "ushigi": 2653,
      "Ġfull": 2654,
      "Ġzhuang": 2655,
      "qiu": 2656,
      "Ġmirai": 2657,
      "Ġdays": 2658,
      "Ġmegacity": 2659,
      "Ġwitch": 2660,
      "Ġsakura": 2661,
      "Ġruined": 2662,
      "aon": 2663,
      "ell": 2664,
      "haku": 2665,
      "jian": 2666,
      "oved": 2667,
      "Ġtom": 2668,
      "Ġtri": 2669,
      "Ġcuri": 2670,
      "enai": 2671,
      "oup": 2672,
      "Ġfarm": 2673,
      "Ġbang": 2674,
      "Ġanata": 2675,
      "Ġpok": 2676,
      "Ġhot": 2677,
      "Ġtopic": 2678,
      "vel": 2679,
      "Ġwhite": 2680,
      "imono": 2681,
      "Ġdeb": 2682,
      "akes": 2683,
      "Ġremoved": 2684,
      "wei": 2685,
      "Ġshoku": 2686,
      "spital": 2687,
      "Ġhospital": 2688,
      "aiden": 2689,
      "Ġjihua": 2690,
      "Ġsecret": 2691,
      "!!!!": 2692,
      "Ġgold": 2693,
      "kyoku": 2694,
      "Ġdoubutsu": 2695,
      "201": 2696,
      "Ġmistakes": 2697,
      "Ġhaunted": 2698,
      "Ġcurious": 2699,
      "bei": 2700,
      "ca": 2701,
      "cre": 2702,
      "ger": 2703,
      "gong": 2704,
      "gue": 2705,
      "hin": 2706,
      "ien": 2707,
      "kei": 2708,
      "up": 2709,
      "way": 2710,
      "xiao": 2711,
      "yang": 2712,
      "Ġess": 2713,
      "Ġair": 2714,
      "Ġtable": 2715,
      "Ġsal": 2716,
      "Ġseng": 2717,
      "iness": 2718,
      "Ġmachi": 2719,
      "anai": 2720,
      "ica": 2721,
      "icle": 2722,
      "Ġpict": 2723,
      "ott": 2724,
      "usha": 2725,
      "Ġhig": 2726,
      "Ġgou": 2727,
      "Ġste": 2728,
      "Ġkat": 2729,
      "Ġkam": 2730,
      "Ġisland": 2731,
      "Ġshang": 2732,
      "una": 2733,
      "verse": 2734,
      "Ġyao": 2735,
      "Ġneigh": 2736,
      "usei": 2737,
      "ades": 2738,
      "Ġremote": 2739,
      "ayon": 2740,
      "play": 2741,
      "mei": 2742,
      "ryuu": 2743,
      "Ġgroup": 2744,
      "Ġclosed": 2745,
      "Ġdais": 2746,
      "Ġmanag": 2747,
      "Ġrestaur": 2748,
      "Ġ00": 2749,
      "Ġhunter": 2750,
      "outsuu": 2751,
      "Ġbaby": 2752,
      "borhood": 2753,
      "Ġsummer": 2754,
      "Ġpicture": 2755,
      "Ġneighborhood": 2756,
      "Ġrestaurant": 2757,
      "!;": 2758,
      "cure": 2759,
      "fa": 2760,
      "fic": 2761,
      "juu": 2762,
      "ketsu": 2763,
      "lier": 2764,
      "sheng": 2765,
      "vant": 2766,
      "yr": 2767,
      "Ġter": 2768,
      "Ġtetsu": 2769,
      "Ġcor": 2770,
      "Ġwish": 2771,
      "ato": 2772,
      "Ġfushigi": 2773,
      "Ġbir": 2774,
      "Ġning": 2775,
      "Ġpon": 2776,
      "otsu": 2777,
      "Ġhuan": 2778,
      "Ġhigh": 2779,
      "Ġinside": 2780,
      "Ġstation": 2781,
      "Ġkir": 2782,
      "Ġkoutsuu": 2783,
      "utsu": 2784,
      "Ġran": 2785,
      "Ġrain": 2786,
      "Ġchu": 2787,
      "Ġexerc": 2788,
      "Ġdoc": 2789,
      "Ġyan": 2790,
      "Ġyue": 2791,
      "Ġmaze": 2792,
      "Ġasa": 2793,
      "ptain": 2794,
      "Ġdemon": 2795,
      "Ġsuki": 2796,
      "pper": 2797,
      "Ġdesu": 2798,
      "Ġxuan": 2799,
      "iban": 2800,
      "ginal": 2801,
      "Ġgrand": 2802,
      "Ġearlier": 2803,
      "jia": 2804,
      "uka": 2805,
      "Ġtaka": 2806,
      "Ġshiawase": 2807,
      "Ġcomplex": 2808,
      "Ġmanner": 2809,
      "Ġbye": 2810,
      "Ġobservant": 2811,
      "Ġrural": 2812,
      "Ġkodomo": 2813,
      ".,": 2814,
      "au": 2815,
      "ild": 2816,
      "koku": 2817,
      "lin": 2818,
      "oy": 2819,
      "sum": 2820,
      "vol": 2821,
      "xing": 2822,
      "yi": 2823,
      "Ġven": 2824,
      "Ġsk": 2825,
      "Ġsaga": 2826,
      "reme": 2827,
      "Ġcame": 2828,
      "Ġwinter": 2829,
      "ina": 2830,
      "Ġmuse": 2831,
      "ann": 2832,
      "Ġdong": 2833,
      "Ġfile": 2834,
      "itou": 2835,
      "oman": 2836,
      "Ġano": 2837,
      "Ġanaly": 2838,
      "Ġanzen": 2839,
      "Ġpu": 2840,
      "Ġpan": 2841,
      "Ġling": 2842,
      "Ġloc": 2843,
      "Ġel": 2844,
      "lel": 2845,
      "Ġincl": 2846,
      "Ġging": 2847,
      "Ġgaiden": 2848,
      "Ġkok": 2849,
      "lock": 2850,
      "logue": 2851,
      "Ġshig": 2852,
      "Ġrang": 2853,
      "Ġryou": 2854,
      "Ġchr": 2855,
      "Ġchou": 2856,
      "Ġchuan": 2857,
      "Ġchumo": 2858,
      "unen": 2859,
      "Ġdog": 2860,
      "Ġdead": 2861,
      "imeki": 2862,
      "Ġkei": 2863,
      "Ġrope": 2864,
      "Ġsold": 2865,
      "Ġhistoric": 2866,
      "Ġcaptain": 2867,
      "phon": 2868,
      "Ġjia": 2869,
      "Ġjiao": 2870,
      "uko": 2871,
      "Ġotaku": 2872,
      "Ġdaib": 2873,
      "ousei": 2874,
      "Ġtsume": 2875,
      "Ġtokimeki": 2876,
      "Ġ201": 2877,
      "Ġcapital": 2878,
      "Ġpokemon": 2879,
      "Ġdebate": 2880,
      "Ġmuseum": 2881,
      "bye": 2882,
      "che": 2883,
      "fut": 2884,
      "fight": 2885,
      "guo": 2886,
      "joku": 2887,
      "mi": 2888,
      "mono": 2889,
      "meng": 2890,
      "ton": 2891,
      "tong": 2892,
      "van": 2893,
      "xue": 2894,
      "Ġom": 2895,
      "Ġtv": 2896,
      "Ġtam": 2897,
      "Ġtamag": 2898,
      "Ġich": 2899,
      "Ġsm": 2900,
      "Ġsy": 2901,
      "Ġsand": 2902,
      "Ġmam": 2903,
      "Ġmoun": 2904,
      "Ġfai": 2905,
      "Ġfour": 2906,
      "Ġfair": 2907,
      "allel": 2908,
      "Ġbian": 2909,
      "Ġnaka": 2910,
      "Ġninj": 2911,
      "Ġhor": 2912,
      "Ġtoy": 2913,
      "Ġtoki": 2914,
      "Ġgear": 2915,
      "Ġkar": 2916,
      "Ġkita": 2917,
      "Ġkoto": 2918,
      "Ġshaon": 2919,
      "Ġrock": 2920,
      "Ġchik": 2921,
      "Ġmoved": 2922,
      "imon": 2923,
      "Ġmad": 2924,
      "abi": 2925,
      "Ġalice": 2926,
      "room": 2927,
      "Ġneeded": 2928,
      "Ġvangu": 2929,
      "iba": 2930,
      "Ġzhe": 2931,
      "aged": 2932,
      "Ġwarri": 2933,
      "Ġque": 2934,
      "Ġisolated": 2935,
      "Ġspeak": 2936,
      "Ġcostume": 2937,
      "Ġmatsu": 2938,
      "Ġparallel": 2939,
      "Ġnaz": 2940,
      "Ġcrayon": 2941,
      "Ġyuusha": 2942,
      "Ġtsub": 2943,
      "Ġtsuk": 2944,
      "shin": 2945,
      "Ġkidoutai": 2946,
      "Ġhua": 2947,
      "Ġnobita": 2948,
      "Ġkuni": 2949,
      "Ġblood": 2950,
      "Ġcardfight": 2951,
      "Ġcountry": 2952,
      "Ġtimes": 2953,
      "Ġlocal": 2954,
      "future": 2955,
      "Ġmountain": 2956,
      "Ġvanguard": 2957,
      "!.": 2958,
      "bie": 2959,
      "ga": 2960,
      "gao": 2961,
      "hon": 2962,
      "kess": 2963,
      "mit": 2964,
      "oh": 2965,
      "oo": 2966,
      "sai": 2967,
      "tai": 2968,
      "torn": 2969,
      "uation": 2970,
      "wk": 2971,
      "xiong": 2972,
      "Ġapart": 2973,
      "Ġtal": 2974,
      "Ġipp": 2975,
      "Ġiku": 2976,
      "Ġsin": 2977,
      "Ġsouk": 2978,
      "rec": 2979,
      "Ġcase": 2980,
      "Ġmt": 2981,
      "Ġmet": 2982,
      "Ġmond": 2983,
      "Ġmuk": 2984,
      "orce": 2985,
      "ates": 2986,
      "Ġfront": 2987,
      "esis": 2988,
      "ito": 2989,
      "Ġnin": 2990,
      "Ġpao": 2991,
      "Ġlad": 2992,
      "Ġluo": 2993,
      "Ġoj": 2994,
      "Ġguo": 2995,
      "Ġstone": 2996,
      "Ġkous": 2997,
      "Ġkatsu": 2998,
      "Ġform": 2999,
      "Ġrail": 3000,
      "Ġryuu": 3001,
      "urst": 3002,
      "Ġchron": 3003,
      "Ġspre": 3004,
      "Ġlight": 3005,
      "chang": 3006,
      "ureta": 3007,
      "Ġsea": 3008,
      "Ġseven": 3009,
      "Ġseik": 3010,
      "Ġyang": 3011,
      "Ġadmit": 3012,
      "aba": 3013,
      "Ġfictional": 3014,
      "gyou": 3015,
      "izon": 3016,
      "Ġdiffic": 3017,
      "ondo": 3018,
      "Ġblade": 3019,
      "Ġchiis": 3020,
      "Ġlaborat": 3021,
      "ashita": 3022,
      "Ġertong": 3023,
      "Ġheroes": 3024,
      "Ġsaikyou": 3025,
      "Ġfutari": 3026,
      "Ġtaiyou": 3027,
      "Ġidolm": 3028,
      "Ġmistake": 3029,
      "Ġplanet": 3030,
      "Ġtraining": 3031,
      "Ġvide": 3032,
      "Ġkoukaku": 3033,
      "Ġacademia": 3034,
      "Ġreijou": 3035,
      "Ġhimitsukess": 3036,
      "Ġwilling": 3037,
      "Ġkyojin": 3038,
      "Ġhorizon": 3039,
      "Ġapartment": 3040,
      "Ġdifficult": 3041,
      "Ġlaboratory": 3042,
      "Ġhimitsukessha": 3043,
      ").": 3044,
      "bl": 3045,
      "bital": 3046,
      "dist": 3047,
      "famil": 3048,
      "iar": 3049,
      "lion": 3050,
      "ob": 3051,
      "oshi": 3052,
      "sho": 3053,
      "ues": 3054,
      "wu": 3055,
      "Ġver": 3056,
      "Ġour": 3057,
      "Ġult": 3058,
      "Ġaz": 3059,
      "Ġawk": 3060,
      "Ġtarou": 3061,
      "Ġsil": 3062,
      "Ġsensei": 3063,
      "Ġwak": 3064,
      "iny": 3065,
      "ency": 3066,
      "Ġmid": 3067,
      "atre": 3068,
      "Ġtheatre": 3069,
      "Ġdig": 3070,
      "Ġdens": 3071,
      "Ġfr": 3072,
      "Ġbing": 3073,
      "Ġbas": 3074,
      "Ġpip": 3075,
      "Ġlyr": 3076,
      "ased": 3077,
      "Ġhouk": 3078,
      "Ġincre": 3079,
      "ental": 3080,
      "Ġoff": 3081,
      "Ġstri": 3082,
      "Ġkus": 3083,
      "Ġkono": 3084,
      "Ġkapp": 3085,
      "Ġkoro": 3086,
      "uto": 3087,
      "Ġishi": 3088,
      "Ġshima": 3089,
      "Ġonline": 3090,
      "urn": 3091,
      "Ġnote": 3092,
      "Ġnovel": 3093,
      "Ġlibr": 3094,
      "Ġdore": 3095,
      "uren": 3096,
      "Ġame": 3097,
      "Ġask": 3098,
      "Ġsupp": 3099,
      "Ġorbital": 3100,
      "areta": 3101,
      "Ġheart": 3102,
      "Ġcos": 3103,
      "Ġplus": 3104,
      "ross": 3105,
      "Ġunt": 3106,
      "Ġunfamil": 3107,
      "Ġsocially": 3108,
      "Ġpract": 3109,
      "Ġtraveling": 3110,
      "Ġblues": 3111,
      "Ġagency": 3112,
      "uke": 3113,
      "engu": 3114,
      "Ġmomo": 3115,
      "Ġhearts": 3116,
      "ishou": 3117,
      "Ġcolony": 3118,
      "Ġsenki": 3119,
      "Ġkuj": 3120,
      "Ġkaibutsu": 3121,
      "Ġhajim": 3122,
      "Ġrepair": 3123,
      "Ġnobody": 3124,
      "Ġ100": 3125,
      "Ġwonderland": 3126,
      "Ġwindow": 3127,
      "ghua": 3128,
      "Ġlianmeng": 3129,
      "Ġcorrec": 3130,
      "Ġginga": 3131,
      "Ġninja": 3132,
      "Ġchiisana": 3133,
      "distance": 3134,
      "Ġawkward": 3135,
      "Ġdensetsu": 3136,
      "Ġhoukago": 3137,
      "Ġincreased": 3138,
      "Ġlibrary": 3139,
      "Ġunfamiliar": 3140,
      "Ġcorrected": 3141,
      "gu": 3142,
      "ja": 3143,
      "kin": 3144,
      "ken": 3145,
      "kyuu": 3146,
      "mus": 3147,
      "masu": 3148,
      "oha": 3149,
      "obu": 3150,
      "wai": 3151,
      "yaku": 3152,
      "zoku": 3153,
      "zhu": 3154,
      "Ġomo": 3155,
      "Ġoma": 3156,
      "Ġtent": 3157,
      "Ġtomo": 3158,
      "Ġsang": 3159,
      "Ġsnow": 3160,
      "Ġsorat": 3161,
      "Ġmatch": 3162,
      "Ġmaid": 3163,
      "atter": 3164,
      "Ġdun": 3165,
      "Ġfuu": 3166,
      "Ġbad": 3167,
      "Ġann": 3168,
      "ionate": 3169,
      "Ġnai": 3170,
      "Ġnag": 3171,
      "Ġpor": 3172,
      "Ġlake": 3173,
      "amond": 3174,
      "ush": 3175,
      "usagi": 3176,
      "Ġever": 3177,
      "Ġeien": 3178,
      "Ġhap": 3179,
      "Ġhibi": 3180,
      "Ġhats": 3181,
      "let": 3182,
      "Ġoffice": 3183,
      "Ġtofu": 3184,
      "Ġkyuu": 3185,
      "Ġkaz": 3186,
      "chun": 3187,
      "Ġbutton": 3188,
      "ilie": 3189,
      "Ġyama": 3190,
      "irou": 3191,
      "Ġjuch": 3192,
      "Ġjiken": 3193,
      "ako": 3194,
      "Ġalone": 3195,
      "Ġcoast": 3196,
      "Ġenc": 3197,
      "tsu": 3198,
      "Ġremix": 3199,
      "Ġposs": 3200,
      "Ġxilie": 3201,
      "ousen": 3202,
      "Ġkek": 3203,
      "Ġcompass": 3204,
      "Ġze": 3205,
      "Ġzo": 3206,
      "Ġzai": 3207,
      "arium": 3208,
      "Ġwei": 3209,
      "Ġperform": 3210,
      "Ġbread": 3211,
      "Ġbless": 3212,
      "jiu": 3213,
      "pened": 3214,
      "Ġexplain": 3215,
      "Ġopenly": 3216,
      "Ġgoal": 3217,
      "ishun": 3218,
      "Ġminami": 3219,
      "Ġkaijuu": 3220,
      "Ġhana": 3221,
      "Ġdraw": 3222,
      "Ġtenshi": 3223,
      "Ġbaobei": 3224,
      "Ġdiamond": 3225,
      "Ġkids": 3226,
      "Ġkung": 3227,
      "Ġgetsum": 3228,
      "Ġsunday": 3229,
      "Ġedition": 3230,
      "Ġtabi": 3231,
      "Ġpetit": 3232,
      "Ġkiss": 3233,
      "Ġhonest": 3234,
      "Ġprism": 3235,
      "zhang": 3236,
      "Ġyasashii": 3237,
      "Ġdocum": 3238,
      "Ġrangers": 3239,
      "Ġdaibouken": 3240,
      "Ġtsubasa": 3241,
      "Ġmukashi": 3242,
      "Ġsoratobu": 3243,
      "Ġhappened": 3244,
      "Ġjuchang": 3245,
      "Ġcoastal": 3246,
      "Ġcompassionate": 3247,
      "Ġgetsumen": 3248,
      "00": 3249,
      "83": 3250,
      "cil": 3251,
      "ches": 3252,
      "dge": 3253,
      "eki": 3254,
      "gir": 3255,
      "kake": 3256,
      "min": 3257,
      "mas": 3258,
      "nen": 3259,
      "pro": 3260,
      "sis": 3261,
      "sushi": 3262,
      "vis": 3263,
      "yce": 3264,
      "yao": 3265,
      "zora": 3266,
      "Ġ99": 3267,
      "Ġast": 3268,
      "Ġaku": 3269,
      "Ġaoi": 3270,
      "Ġtang": 3271,
      "Ġtatsu": 3272,
      "Ġsle": 3273,
      "Ġsain": 3274,
      "Ġsab": 3275,
      "Ġsono": 3276,
      "Ġsky": 3277,
      "Ġsute": 3278,
      "reaming": 3279,
      "Ġcal": 3280,
      "Ġcast": 3281,
      "era": 3282,
      "Ġmur": 3283,
      "Ġmother": 3284,
      "Ġmach": 3285,
      "Ġmeng": 3286,
      "Ġmama": 3287,
      "Ġdaw": 3288,
      "Ġdrop": 3289,
      "ald": 3290,
      "Ġbi": 3291,
      "Ġbon": 3292,
      "Ġbak": 3293,
      "Ġband": 3294,
      "ingu": 3295,
      "Ġpik": 3296,
      "Ġlone": 3297,
      "Ġreg": 3298,
      "Ġret": 3299,
      "amu": 3300,
      "iss": 3301,
      "isen": 3302,
      "Ġhoney": 3303,
      "Ġtobot": 3304,
      "Ġgan": 3305,
      "hoku": 3306,
      "Ġkong": 3307,
      "utsushi": 3308,
      "Ġshit": 3309,
      "Ġshiro": 3310,
      "outo": 3311,
      "Ġbei": 3312,
      "Ġyears": 3313,
      "sel": 3314,
      "Ġmaou": 3315,
      "Ġmaison": 3316,
      "ongcha": 3317,
      "lls": 3318,
      "Ġja": 3319,
      "Ġjun": 3320,
      "akuro": 3321,
      "aded": 3322,
      "adongcha": 3323,
      "Ġori": 3324,
      "aren": 3325,
      "arete": 3326,
      "Ġcof": 3327,
      "Ġcool": 3328,
      "Ġlost": 3329,
      "geki": 3330,
      "Ġvamp": 3331,
      "idai": 3332,
      "Ġpoi": 3333,
      "Ġxun": 3334,
      "Ġxue": 3335,
      "Ġprecure": 3336,
      "Ġclou": 3337,
      "Ġzuo": 3338,
      "awed": 3339,
      "Ġhumming": 3340,
      "onsinj": 3341,
      "achik": 3342,
      "Ġ11": 3343,
      "Ġbook": 3344,
      "Ġminna": 3345,
      "gatou": 3346,
      "Ġtsuki": 3347,
      "Ġguil": 3348,
      "Ġzhong": 3349,
      "shine": 3350,
      "Ġbleach": 3351,
      "icket": 3352,
      "Ġflawed": 3353,
      "Ġhuang": 3354,
      "Ġdonghua": 3355,
      "Ġouji": 3356,
      "Ġcapable": 3357,
      "Ġarigatou": 3358,
      "Ġoshiri": 3359,
      "Ġmobile": 3360,
      "Ġyingxiong": 3361,
      "Ġshimai": 3362,
      "Ġspirits": 3363,
      "Ġcrowded": 3364,
      "Ġpanda": 3365,
      "Ġnikki": 3366,
      "Ġessay": 3367,
      "Ġshangri": 3368,
      "Ġmanager": 3369,
      "Ġ0083": 3370,
      "Ġsmall": 3371,
      "Ġqueen": 3372,
      "Ġvideo": 3373,
      "music": 3374,
      "Ġcastle": 3375,
      "Ġmachine": 3376,
      "Ġdawn": 3377,
      "onsinjadongcha": 3378,
      "!?": 3379,
      "by": 3380,
      "cz": 3381,
      "goku": 3382,
      "gree": 3383,
      "io": 3384,
      "iades": 3385,
      "jime": 3386,
      "kaku": 3387,
      "lay": 3388,
      "mao": 3389,
      "night": 3390,
      "oon": 3391,
      "sha": 3392,
      "tan": 3393,
      "ug": 3394,
      "uit": 3395,
      "xy": 3396,
      "xin": 3397,
      "yak": 3398,
      "Ġagg": 3399,
      "Ġtor": 3400,
      "Ġtat": 3401,
      "Ġicz": 3402,
      "Ġsqu": 3403,
      "Ġsail": 3404,
      "Ġchen": 3405,
      "Ġwen": 3406,
      "ince": 3407,
      "Ġmen": 3408,
      "Ġmal": 3409,
      "Ġmum": 3410,
      "aned": 3411,
      "ouge": 3412,
      "ouki": 3413,
      "Ġden": 3414,
      "Ġdeng": 3415,
      "Ġfen": 3416,
      "Ġfate": 3417,
      "Ġfive": 3418,
      "Ġfel": 3419,
      "Ġfaf": 3420,
      "eshi": 3421,
      "Ġanni": 3422,
      "icide": 3423,
      "Ġnak": 3424,
      "Ġnaru": 3425,
      "Ġpock": 3426,
      "Ġlink": 3427,
      "Ġrece": 3428,
      "Ġoh": 3429,
      "Ġoch": 3430,
      "Ġoven": 3431,
      "usa": 3432,
      "isama": 3433,
      "Ġhok": 3434,
      "Ġhach": 3435,
      "Ġhaku": 3436,
      "Ġinu": 3437,
      "Ġguru": 3438,
      "Ġkur": 3439,
      "Ġkate": 3440,
      "Ġkoku": 3441,
      "Ġkiet": 3442,
      "uta": 3443,
      "Ġrise": 3444,
      "urum": 3445,
      "Ġmove": 3446,
      "Ġextr": 3447,
      "Ġliving": 3448,
      "Ġdok": 3449,
      "Ġyak": 3450,
      "Ġyuk": 3451,
      "Ġyurum": 3452,
      "Ġrecord": 3453,
      "Ġneo": 3454,
      "Ġnez": 3455,
      "Ġmab": 3456,
      "odachi": 3457,
      "Ġdeai": 3458,
      "Ġdegree": 3459,
      "Ġjit": 3460,
      "Ġjuu": 3461,
      "Ġsui": 3462,
      "Ġsuicide": 3463,
      "okari": 3464,
      "Ġark": 3465,
      "quan": 3466,
      "ichou": 3467,
      "Ġemer": 3468,
      "Ġadventures": 3469,
      "wel": 3470,
      "geon": 3471,
      "Ġvs": 3472,
      "Ġxx": 3473,
      "oush": 3474,
      "Ġpleiades": 3475,
      "Ġchoc": 3476,
      "Ġzi": 3477,
      "Ġzui": 3478,
      "Ġunderground": 3479,
      "arden": 3480,
      "versary": 3481,
      "elion": 3482,
      "Ġcleaned": 3483,
      "Ġsociety": 3484,
      "Ġmillion": 3485,
      "itten": 3486,
      "Ġusagi": 3487,
      "Ġprince": 3488,
      "Ġuchi": 3489,
      "Ġnipp": 3490,
      "Ġnihon": 3491,
      "Ġwritten": 3492,
      "Ġparty": 3493,
      "huan": 3494,
      "!!:": 3495,
      "Ġqing": 3496,
      "Ġfinish": 3497,
      "Ġanimal": 3498,
      "Ġkob": 3499,
      "Ġweekends": 3500,
      "Ġyuki": 3501,
      "board": 3502,
      "Ġdouble": 3503,
      "Ġnanoha": 3504,
      "Ġotog": 3505,
      "Ġcontinuing": 3506,
      "Ġheroine": 3507,
      "Ġfutago": 3508,
      "yeon": 3509,
      "Ġtsun": 3510,
      "Ġcouncil": 3511,
      "Ġrebell": 3512,
      "Ġbrother": 3513,
      "Ġdreams": 3514,
      "Ġassignment": 3515,
      "Ġwitches": 3516,
      "Ġshell": 3517,
      "Ġsoul": 3518,
      "Ġkamiusagi": 3519,
      "Ġbusiness": 3520,
      "Ġarmor": 3521,
      "Ġcircuit": 3522,
      "Ġshadowverse": 3523,
      "Ġsales": 3524,
      "Ġningen": 3525,
      "Ġexercise": 3526,
      "Ġchuanqi": 3527,
      "Ġfrontier": 3528,
      "Ġlyrical": 3529,
      "Ġsupport": 3530,
      "Ġkujira": 3531,
      "Ġdungeon": 3532,
      "Ġpossible": 3533,
      "Ġlonely": 3534,
      "Ġoriginal": 3535,
      "Ġsailor": 3536,
      "Ġanniversary": 3537,
      "Ġpocket": 3538,
      "Ġkieta": 3539,
      "Ġyurumates": 3540,
      "Ġrebellion": 3541,
      "19": 3542,
      "bow": 3543,
      "cient": 3544,
      "do": 3545,
      "dan": 3546,
      "ding": 3547,
      "fang": 3548,
      "feng": 3549,
      "fureta": 3550,
      "gaku": 3551,
      "hind": 3552,
      "ique": 3553,
      "jing": 3554,
      "key": 3555,
      "light": 3556,
      "met": 3557,
      "ored": 3558,
      "ozuki": 3559,
      "pi": 3560,
      "pr": 3561,
      "pu": 3562,
      "son": 3563,
      "time": 3564,
      "uded": 3565,
      "Ġage": 3566,
      "Ġakai": 3567,
      "Ġti": 3568,
      "Ġil": 3569,
      "Ġir": 3570,
      "Ġiv": 3571,
      "Ġsag": 3572,
      "Ġcut": 3573,
      "Ġmr": 3574,
      "Ġming": 3575,
      "Ġmac": 3576,
      "Ġmiku": 3577,
      "Ġmanga": 3578,
      "orage": 3579,
      "Ġthere": 3580,
      "Ġdive": 3581,
      "Ġdao": 3582,
      "Ġdui": 3583,
      "Ġfang": 3584,
      "Ġflow": 3585,
      "Ġfuk": 3586,
      "Ġfish": 3587,
      "Ġbig": 3588,
      "iter": 3589,
      "ities": 3590,
      "omi": 3591,
      "ombie": 3592,
      "Ġana": 3593,
      "Ġancient": 3594,
      "arn": 3595,
      "Ġnet": 3596,
      "Ġnur": 3597,
      "Ġnetsu": 3598,
      "Ġpin": 3599,
      "Ġpengu": 3600,
      "Ġlang": 3601,
      "Ġluna": 3602,
      "otto": 3603,
      "otte": 3604,
      "aman": 3605,
      "Ġos": 3606,
      "asou": 3607,
      "Ġey": 3608,
      "Ġequ": 3609,
      "Ġelf": 3610,
      "Ġeater": 3611,
      "Ġegao": 3612,
      "isan": 3613,
      "ised": 3614,
      "Ġhol": 3615,
      "Ġinit": 3616,
      "ries": 3617,
      "Ġgot": 3618,
      "Ġgao": 3619,
      "Ġstep": 3620,
      "Ġshins": 3621,
      "Ġram": 3622,
      "Ġrab": 3623,
      "Ġmew": 3624,
      "Ġcha": 3625,
      "Ġchong": 3626,
      "Ġchap": 3627,
      "Ġchao": 3628,
      "Ġbehind": 3629,
      "Ġmofa": 3630,
      "imo": 3631,
      "vern": 3632,
      "Ġyona": 3633,
      "Ġrecor": 3634,
      "aboration": 3635,
      "apa": 3636,
      "Ġje": 3637,
      "Ġjig": 3638,
      "Ġsup": 3639,
      "okon": 3640,
      "okunen": 3641,
      "via": 3642,
      "Ġlog": 3643,
      "Ġdisplay": 3644,
      "Ġyoun": 3645,
      "Ġemp": 3646,
      "Ġvis": 3647,
      "idoki": 3648,
      "ibito": 3649,
      "iforce": 3650,
      "ustr": 3651,
      "suk": 3652,
      "andou": 3653,
      "Ġchob": 3654,
      "Ġzombie": 3655,
      "agn": 3656,
      "agure": 3657,
      "ryou": 3658,
      "ails": 3659,
      "Ġcareful": 3660,
      "Ġtele": 3661,
      "allen": 3662,
      "izu": 3663,
      "izoku": 3664,
      "Ġslay": 3665,
      "Ġhoozuki": 3666,
      "Ġteams": 3667,
      "akug": 3668,
      "isei": 3669,
      "Ġharu": 3670,
      "Ġenter": 3671,
      "Ġcollection": 3672,
      "Ġcollaboration": 3673,
      "Ġsusume": 3674,
      "Ġmomot": 3675,
      "ouni": 3676,
      "Ġvariable": 3677,
      "Ġminiforce": 3678,
      "boy": 3679,
      "boshi": 3680,
      "Ġrestored": 3681,
      "Ġshink": 3682,
      "Ġnana": 3683,
      "Ġnanami": 3684,
      "Ġqihuan": 3685,
      "Ġyoshi": 3686,
      "Ġerr": 3687,
      "Ġmonkey": 3688,
      "ipment": 3689,
      "Ġtanoshi": 3690,
      "Ġshenqi": 3691,
      "Ġutaou": 3692,
      "Ġmiyan": 3693,
      "Ġ03": 3694,
      "Ġtensei": 3695,
      "Ġkyoudai": 3696,
      "Ġmiracle": 3697,
      "Ġbrave": 3698,
      "alaxy": 3699,
      "Ġgetter": 3700,
      "Ġhikaru": 3701,
      "Ġmaster": 3702,
      "nival": 3703,
      "Ġcarbot": 3704,
      "Ġcarnival": 3705,
      "Ġarifureta": 3706,
      "bee": 3707,
      "Ġbunny": 3708,
      "Ġgongzhu": 3709,
      "Ġbridge": 3710,
      "Ġspirit": 3711,
      "Ġxinchun": 3712,
      "Ġurban": 3713,
      "Ġfilm": 3714,
      "Ġhyak": 3715,
      "Ġtomodachi": 3716,
      "Ġtetsudou": 3717,
      "Ġrainbow": 3718,
      "Ġbyeonsinjadongcha": 3719,
      "volut": 3720,
      "Ġvenue": 3721,
      "Ġanalysis": 3722,
      "Ġincluded": 3723,
      "Ġwarriors": 3724,
      "Ġpipi": 3725,
      "Ġdorei": 3726,
      "Ġhatsune": 3727,
      "Ġdocuments": 3728,
      "Ġ999": 3729,
      "Ġastro": 3730,
      "Ġguilty": 3731,
      "Ġpenguin": 3732,
      "Ġequipment": 3733,
      "Ġcarefully": 3734,
      "Ġtanoshii": 3735,
      "'ll": 3736,
      "):": 3737,
      ");": 3738,
      ".:": 3739,
      "cheng": 3740,
      "gun": 3741,
      "goto": 3742,
      "hong": 3743,
      "huu": 3744,
      "ipt": 3745,
      "jirou": 3746,
      "kor": 3747,
      "kotsu": 3748,
      "mal": 3749,
      "mai": 3750,
      "maid": 3751,
      "maru": 3752,
      "mashita": 3753,
      "nel": 3754,
      "namon": 3755,
      "pa": 3756,
      "ring": 3757,
      "ti": 3758,
      "tiny": 3759,
      "wan": 3760,
      "yas": 3761,
      "Ġaish": 3762,
      "Ġtsur": 3763,
      "Ġtachik": 3764,
      "Ġice": 3765,
      "Ġsant": 3766,
      "Ġsession": 3767,
      "onie": 3768,
      "reed": 3769,
      "Ġcur": 3770,
      "Ġcoc": 3771,
      "Ġwawa": 3772,
      "inn": 3773,
      "enu": 3774,
      "Ġmind": 3775,
      "Ġmono": 3776,
      "Ġmaru": 3777,
      "Ġmimi": 3778,
      "Ġmiko": 3779,
      "Ġmoney": 3780,
      "orou": 3781,
      "ath": 3782,
      "atos": 3783,
      "Ġtheater": 3784,
      "Ġdot": 3785,
      "Ġdake": 3786,
      "Ġfine": 3787,
      "alia": 3788,
      "Ġbin": 3789,
      "Ġbar": 3790,
      "Ġbok": 3791,
      "Ġbaku": 3792,
      "Ġbono": 3793,
      "Ġbaka": 3794,
      "Ġbott": 3795,
      "Ġbishou": 3796,
      "iteru": 3797,
      "oms": 3798,
      "omen": 3799,
      "inger": 3800,
      "arok": 3801,
      "arara": 3802,
      "Ġnao": 3803,
      "Ġnatta": 3804,
      "Ġpres": 3805,
      "Ġpink": 3806,
      "Ġlao": 3807,
      "Ġlef": 3808,
      "otchi": 3809,
      "Ġreinc": 3810,
      "Ġeve": 3811,
      "Ġebit": 3812,
      "Ġhib": 3813,
      "Ġhyou": 3814,
      "Ġhui": 3815,
      "Ġhuo": 3816,
      "Ġinsp": 3817,
      "Ġinaz": 3818,
      "action": 3819,
      "Ġgarden": 3820,
      "Ġgalaxy": 3821,
      "eta": 3822,
      "Ġkaw": 3823,
      "Ġketsu": 3824,
      "Ġkuma": 3825,
      "Ġshishun": 3826,
      "Ġragn": 3827,
      "Ġbeen": 3828,
      "Ġext": 3829,
      "ected": 3830,
      "Ġliu": 3831,
      "ramis": 3832,
      "Ġyin": 3833,
      "Ġyong": 3834,
      "Ġyami": 3835,
      "Ġnem": 3836,
      "oli": 3837,
      "olu": 3838,
      "olate": 3839,
      "istmas": 3840,
      "Ġjorm": 3841,
      "Ġjimi": 3842,
      "umono": 3843,
      "Ġarg": 3844,
      "quar": 3845,
      "Ġcover": 3846,
      "Ġafterno": 3847,
      "Ġdesk": 3848,
      "Ġdestiny": 3849,
      "aya": 3850,
      "ayo": 3851,
      "Ġstratos": 3852,
      "inda": 3853,
      "Ġcompu": 3854,
      "Ġchopper": 3855,
      "Ġzut": 3856,
      "Ġzun": 3857,
      "agami": 3858,
      "aware": 3859,
      "ardian": 3860,
      "Ġclassroom": 3861,
      "emo": 3862,
      "Ġmemories": 3863,
      "Ġimouto": 3864,
      "ikan": 3865,
      "Ġwars": 3866,
      "omete": 3867,
      "Ġtitan": 3868,
      "Ġusing": 3869,
      "Ġpersonnel": 3870,
      "ixing": 3871,
      "ouraged": 3872,
      "Ġprologue": 3873,
      "Ġdurarara": 3874,
      "Ġsubm": 3875,
      "Ġartwork": 3876,
      "onos": 3877,
      "Ġagreed": 3878,
      "Ġpartner": 3879,
      "Ġbuild": 3880,
      "Ġvalky": 3881,
      "Ġparade": 3882,
      "Ġrequi": 3883,
      "Ġharm": 3884,
      "Ġpolice": 3885,
      "koi": 3886,
      "Ġeleven": 3887,
      "Ġ15": 3888,
      "Ġmera": 3889,
      "Ġmermaid": 3890,
      "Ġboonie": 3891,
      "Ġbeybl": 3892,
      "Ġsenlin": 3893,
      "book": 3894,
      "Ġfuji": 3895,
      "osa": 3896,
      "Ġdouwa": 3897,
      "ips": 3898,
      "Ġmieru": 3899,
      "Ġbaozou": 3900,
      "Ġdiqiu": 3901,
      "Ġkenshin": 3902,
      "akusen": 3903,
      "Ġdanshi": 3904,
      "Ġpapa": 3905,
      "Ġmega": 3906,
      "Ġookina": 3907,
      "Ġ202": 3908,
      "Ġcinnamon": 3909,
      "Ġmajim": 3910,
      "Ġrurouni": 3911,
      "Ġkisetsu": 3912,
      "Ġbears": 3913,
      "Ġstudents": 3914,
      "ungand": 3915,
      "Ġbride": 3916,
      "Ġshiranai": 3917,
      "Ġacademy": 3918,
      "Ġsonyeon": 3919,
      "Ġponkotsu": 3920,
      "Ġkiroku": 3921,
      "ibanashi": 3922,
      "Ġkokoro": 3923,
      "Ġchristmas": 3924,
      "Ġfairies": 3925,
      "Ġshaonian": 3926,
      "Ġnazo": 3927,
      "Ġsoukyuu": 3928,
      "Ġdigimon": 3929,
      "Ġfrustr": 3930,
      "Ġoffline": 3931,
      "Ġishikor": 3932,
      "Ġnotebook": 3933,
      "Ġasked": 3934,
      "Ġwindows": 3935,
      "Ġomae": 3936,
      "Ġencouraged": 3937,
      "Ġtatsuya": 3938,
      "Ġmurder": 3939,
      "Ġdropout": 3940,
      "Ġregister": 3941,
      "Ġshiroi": 3942,
      "Ġfafner": 3943,
      "Ġreceipt": 3944,
      "Ġhakuouki": 3945,
      "Ġchocolate": 3946,
      "Ġrabbit": 3947,
      "Ġsupreme": 3948,
      "Ġyounger": 3949,
      "Ġerrors": 3950,
      "Ġaishiteru": 3951,
      "Ġsanta": 3952,
      "Ġbishoujo": 3953,
      "Ġleft": 3954,
      "Ġreincarn": 3955,
      "Ġebiten": 3956,
      "Ġinspected": 3957,
      "Ġinazuma": 3958,
      "Ġshishunki": 3959,
      "Ġragnarok": 3960,
      "Ġjormungand": 3961,
      "Ġafternoon": 3962,
      "Ġvalkyri": 3963,
      "Ġbeyblade": 3964,
      "Ġfrustrating": 3965,
      "Ġishikorosa": 3966,
      "!âĢĶ": 3967,
      ".;": 3968,
      "aised": 3969,
      "baka": 3970,
      "don": 3971,
      "fin": 3972,
      "hichi": 3973,
      "houtsu": 3974,
      "iki": 3975,
      "jita": 3976,
      "jitsu": 3977,
      "jeon": 3978,
      "kit": 3979,
      "kuu": 3980,
      "kko": 3981,
      "li": 3982,
      "lord": 3983,
      "myu": 3984,
      "oice": 3985,
      "ova": 3986,
      "po": 3987,
      "pst": 3988,
      "puu": 3989,
      "shou": 3990,
      "tor": 3991,
      "vd": 3992,
      "xi": 3993,
      "yone": 3994,
      "yue": 3995,
      "yoku": 3996,
      "yama": 3997,
      "youshi": 3998,
      "zhan": 3999,
      "Ġ'": 4000,
      "Ġ9": 4001,
      "Ġue": 4002,
      "Ġau": 4003,
      "Ġaot": 4004,
      "Ġtre": 4005,
      "Ġtus": 4006,
      "Ġtail": 4007,
      "Ġticket": 4008,
      "Ġichi": 4009,
      "Ġsd": 4010,
      "Ġsis": 4011,
      "Ġsix": 4012,
      "Ġsolved": 4013,
      "onb": 4014,
      "oni": 4015,
      "onian": 4016,
      "Ġcai": 4017,
      "Ġcara": 4018,
      "Ġcities": 4019,
      "hei": 4020,
      "Ġwol": 4021,
      "Ġwild": 4022,
      "inar": 4023,
      "Ġmic": 4024,
      "Ġmich": 4025,
      "Ġmust": 4026,
      "Ġmari": 4027,
      "Ġmitsu": 4028,
      "Ġmeshi": 4029,
      "Ġmizu": 4030,
      "ane": 4031,
      "atic": 4032,
      "atora": 4033,
      "ouble": 4034,
      "Ġdar": 4035,
      "Ġdad": 4036,
      "Ġdreaming": 4037,
      "Ġdvd": 4038,
      "Ġflo": 4039,
      "Ġfixing": 4040,
      "alk": 4041,
      "Ġbill": 4042,
      "Ġburst": 4043,
      "iting": 4044,
      "Ġanquan": 4045,
      "arashii": 4046,
      "iced": 4047,
      "ication": 4048,
      "Ġnui": 4049,
      "Ġpain": 4050,
      "Ġpang": 4051,
      "Ġpick": 4052,
      "Ġpub": 4053,
      "Ġluan": 4054,
      "otori": 4055,
      "Ġrelo": 4056,
      "Ġrexue": 4057,
      "amor": 4058,
      "Ġoku": 4059,
      "Ġopin": 4060,
      "asan": 4061,
      "Ġeu": 4062,
      "Ġeating": 4063,
      "Ġhour": 4064,
      "Ġhato": 4065,
      "lege": 4066,
      "Ġinfin": 4067,
      "acher": 4068,
      "Ġgar": 4069,
      "Ġgur": 4070,
      "Ġgatch": 4071,
      "hop": 4072,
      "Ġstard": 4073,
      "Ġkom": 4074,
      "Ġkow": 4075,
      "Ġkum": 4076,
      "Ġkick": 4077,
      "Ġkata": 4078,
      "Ġkuro": 4079,
      "Ġkaze": 4080,
      "uten": 4081,
      "loye": 4082,
      "Ġshik": 4083,
      "Ġshared": 4084,
      "Ġshuo": 4085,
      "outh": 4086,
      "Ġry": 4087,
      "Ġrich": 4088,
      "Ġrouge": 4089,
      "Ġraised": 4090,
      "Ġmeik": 4091,
      "ainu": 4092,
      "Ġchib": 4093,
      "Ġchunk": 4094,
      "Ġchibi": 4095,
      "Ġchallen": 4096,
      "Ġbeach": 4097,
      "Ġbegan": 4098,
      "Ġbells": 4099,
      "Ġnoz": 4100,
      "Ġligh": 4101,
      "Ġdoll": 4102,
      "imasu": 4103,
      "imental": 4104,
      "chu": 4105,
      "chhichi": 4106,
      "Ġsee": 4107,
      "Ġtrouble": 4108,
      "Ġyum": 4109,
      "abira": 4110,
      "aper": 4111,
      "Ġdepart": 4112,
      "Ġjour": 4113,
      "Ġsug": 4114,
      "Ġsucc": 4115,
      "Ġorange": 4116,
      "uman": 4117,
      "ument": 4118,
      "Ġarale": 4119,
      "Ġcoat": 4120,
      "Ġcook": 4121,
      "ppet": 4122,
      "Ġaff": 4123,
      "ayashi": 4124,
      "Ġyoushi": 4125,
      "ressor": 4126,
      "Ġvir": 4127,
      "Ġvoice": 4128,
      "idori": 4129,
      "ibou": 4130,
      "Ġkemono": 4131,
      "ift": 4132,
      "iful": 4133,
      "Ġgenesis": 4134,
      "assh": 4135,
      "Ġteacher": 4136,
      "Ġmusashi": 4137,
      "gya": 4138,
      "izi": 4139,
      "Ġmemo": 4140,
      "spell": 4141,
      "Ġsoccer": 4142,
      "Ġimag": 4143,
      "Ġslide": 4144,
      "Ġslump": 4145,
      "Ġsliced": 4146,
      "ikyoushi": 4147,
      "Ġwarashi": 4148,
      "Ġphant": 4149,
      "Ġmayu": 4150,
      "Ġweather": 4151,
      "Ġmori": 4152,
      "Ġprinter": 4153,
      "Ġgeneral": 4154,
      "Ġcollege": 4155,
      "Ġsentai": 4156,
      "Ġniu": 4157,
      "Ġearth": 4158,
      "ukin": 4159,
      "Ġromantan": 4160,
      "graph": 4161,
      "uchi": 4162,
      "Ġopened": 4163,
      "atsuri": 4164,
      "atsuki": 4165,
      "oukyu": 4166,
      "Ġheroman": 4167,
      "ishuu": 4168,
      "Ġgraduation": 4169,
      "Ġyubi": 4170,
      "Ġmina": 4171,
      "bobo": 4172,
      "azu": 4173,
      "azukin": 4174,
      "Ġchecked": 4175,
      "Ġkeys": 4176,
      "Ġkanjita": 4177,
      "ashite": 4178,
      "Ġkuus": 4179,
      "Ġnanbaka": 4180,
      "Ġmeets": 4181,
      "Ġikkoku": 4182,
      "Ġikkit": 4183,
      "Ġhanabira": 4184,
      "Ġtsukai": 4185,
      "ette": 4186,
      "Ġguardian": 4187,
      "Ġguonian": 4188,
      "Ġstarmyu": 4189,
      "Ġmonth": 4190,
      "Ġmonchhichi": 4191,
      "Ġtensai": 4192,
      "Ġhajime": 4193,
      "Ġgunjou": 4194,
      "Ġmiao": 4195,
      "Ġmienu": 4196,
      "Ġfanwai": 4197,
      "Ġfuni": 4198,
      "Ġearned": 4199,
      "Ġmars": 4200,
      "Ġmagus": 4201,
      "akusa": 4202,
      "Ġkyoukai": 4203,
      "Ġdanchi": 4204,
      "Ġwangguo": 4205,
      "Ġmegami": 4206,
      "licly": 4207,
      "Ġhoshizora": 4208,
      "Ġtokoro": 4209,
      "Ġakazukin": 4210,
      "Ġplanning": 4211,
      "bots": 4212,
      "Ġhikari": 4213,
      "Ġkouza": 4214,
      "Ġshanhai": 4215,
      "Ġhito": 4216,
      "Ġshengxiao": 4217,
      "Ġstudy": 4218,
      "Ġstudent": 4219,
      "Ġumasou": 4220,
      "Ġgongyu": 4221,
      "Ġkoukou": 4222,
      "zhong": 4223,
      "Ġletter": 4224,
      "Ġfoot": 4225,
      "Ġmeiji": 4226,
      "Ġtrip": 4227,
      "Ġbirth": 4228,
      "Ġasahi": 4229,
      "Ġskill": 4230,
      "Ġryoujoku": 4231,
      "Ġchrono": 4232,
      "Ġtamagotchi": 4233,
      "Ġmatsue": 4234,
      "Ġsinbi": 4235,
      "Ġchronicle": 4236,
      "Ġplanetarium": 4237,
      "Ġwakakusa": 4238,
      "Ġstrike": 4239,
      "Ġuntil": 4240,
      "Ġannual": 4241,
      "Ġperformance": 4242,
      "Ġexplaining": 4243,
      "Ġdrawer": 4244,
      "vision": 4245,
      "Ġakuyaku": 4246,
      "Ġsuteki": 4247,
      "Ġganb": 4248,
      "Ġaggressor": 4249,
      "Ġkateikyoushi": 4250,
      "Ġextra": 4251,
      "Ġnippon": 4252,
      "Ġkobayashi": 4253,
      "Ġemploye": 4254,
      "Ġchobits": 4255,
      "Ġtelevision": 4256,
      "Ġmiyanishi": 4257,
      "Ġhyakki": 4258,
      "Ġhyouryuu": 4259,
      "Ġcomputers": 4260,
      "Ġrequired": 4261,
      "Ġmajimun": 4262,
      "houtsukai": 4263,
      "Ġaotu": 4264,
      "Ġsisters": 4265,
      "Ġcaravan": 4266,
      "Ġpublicly": 4267,
      "otoriyama": 4268,
      "Ġopinion": 4269,
      "Ġstardust": 4270,
      "Ġkumotoriyama": 4271,
      "Ġmeikyuu": 4272,
      "Ġchallenge": 4273,
      "Ġdepartments": 4274,
      "Ġjournal": 4275,
      "spelled": 4276,
      "oukyuusei": 4277,
      "Ġikkitousen": 4278,
      "Ġemployee": 4279,
      "bs": 4280,
      "bid": 4281,
      "bble": 4282,
      "burst": 4283,
      "cher": 4284,
      "case": 4285,
      "coll": 4286,
      "du": 4287,
      "dream": 4288,
      "ee": 4289,
      "eo": 4290,
      "ff": 4291,
      "fo": 4292,
      "friend": 4293,
      "gumi": 4294,
      "hy": 4295,
      "hatsu": 4296,
      "hita": 4297,
      "ium": 4298,
      "jure": 4299,
      "jima": 4300,
      "jiko": 4301,
      "kichou": 4302,
      "mist": 4303,
      "mphon": 4304,
      "ness": 4305,
      "nian": 4306,
      "opp": 4307,
      "sensei": 4308,
      "tic": 4309,
      "uya": 4310,
      "won": 4311,
      "wer": 4312,
      "zhe": 4313,
      "zed": 4314,
      "zhi": 4315,
      "Ġ~": 4316,
      "Ġouk": 4317,
      "Ġura": 4318,
      "Ġaa": 4319,
      "Ġaik": 4320,
      "Ġaramis": 4321,
      "Ġtun": 4322,
      "Ġtame": 4323,
      "Ġtul": 4324,
      "Ġturn": 4325,
      "Ġsn": 4326,
      "Ġss": 4327,
      "Ġsas": 4328,
      "Ġslo": 4329,
      "Ġsol": 4330,
      "Ġsaru": 4331,
      "Ġsheet": 4332,
      "Ġsweet": 4333,
      "onoke": 4334,
      "onents": 4335,
      "rest": 4336,
      "Ġcow": 4337,
      "Ġcab": 4338,
      "Ġcao": 4339,
      "Ġcatch": 4340,
      "Ġcross": 4341,
      "hest": 4342,
      "Ġwix": 4343,
      "inet": 4344,
      "ening": 4345,
      "Ġmess": 4346,
      "Ġmami": 4347,
      "Ġmight": 4348,
      "Ġmura": 4349,
      "orc": 4350,
      "orim": 4351,
      "atal": 4352,
      "atting": 4353,
      "Ġduo": 4354,
      "Ġdash": 4355,
      "Ġdud": 4356,
      "Ġfly": 4357,
      "Ġface": 4358,
      "Ġfest": 4359,
      "Ġfamil": 4360,
      "Ġfatal": 4361,
      "ali": 4362,
      "Ġbou": 4363,
      "Ġbul": 4364,
      "Ġbond": 4365,
      "ingyou": 4366,
      "icles": 4367,
      "icca": 4368,
      "Ġnen": 4369,
      "Ġnine": 4370,
      "Ġpa": 4371,
      "Ġpot": 4372,
      "Ġpage": 4373,
      "Ġlin": 4374,
      "Ġlion": 4375,
      "Ġlun": 4376,
      "Ġlol": 4377,
      "Ġlap": 4378,
      "Ġlag": 4379,
      "Ġlicca": 4380,
      "oten": 4381,
      "otome": 4382,
      "Ġreach": 4383,
      "Ġod": 4384,
      "Ġow": 4385,
      "ushou": 4386,
      "aser": 4387,
      "asaku": 4388,
      "Ġeto": 4389,
      "ises": 4390,
      "isyce": 4391,
      "Ġhal": 4392,
      "Ġhir": 4393,
      "Ġhang": 4394,
      "Ġhair": 4395,
      "lease": 4396,
      "Ġinjure": 4397,
      "ential": 4398,
      "aced": 4399,
      "Ġgam": 4400,
      "Ġgang": 4401,
      "Ġgok": 4402,
      "Ġgag": 4403,
      "Ġgears": 4404,
      "Ġstorage": 4405,
      "Ġkit": 4406,
      "Ġkyu": 4407,
      "Ġkawa": 4408,
      "Ġkumo": 4409,
      "Ġknight": 4410,
      "Ġshak": 4411,
      "Ġshine": 4412,
      "Ġshite": 4413,
      "Ġshidai": 4414,
      "Ġoniz": 4415,
      "Ġoningyou": 4416,
      "star": 4417,
      "Ġrap": 4418,
      "Ġrondo": 4419,
      "Ġroni": 4420,
      "Ġmez": 4421,
      "Ġmeishi": 4422,
      "ury": 4423,
      "aia": 4424,
      "aim": 4425,
      "aide": 4426,
      "cel": 4427,
      "Ġchan": 4428,
      "Ġchiro": 4429,
      "Ġchichi": 4430,
      "Ġchamp": 4431,
      "Ġexorc": 4432,
      "unh": 4433,
      "Ġlipst": 4434,
      "Ġdoko": 4435,
      "Ġdokan": 4436,
      "imate": 4437,
      "ocab": 4438,
      "Ġseed": 4439,
      "iling": 4440,
      "Ġyakus": 4441,
      "seol": 4442,
      "Ġnever": 4443,
      "Ġmaz": 4444,
      "Ġmajo": 4445,
      "Ġmahoutsukai": 4446,
      "Ġaccel": 4447,
      "ape": 4448,
      "Ġdelay": 4449,
      "adai": 4450,
      "Ġorder": 4451,
      "Ġalter": 4452,
      "Ġalche": 4453,
      "oka": 4454,
      "vid": 4455,
      "areru": 4456,
      "Ġcharity": 4457,
      "Ġheya": 4458,
      "Ġheav": 4459,
      "vented": 4460,
      "Ġcode": 4461,
      "Ġaffect": 4462,
      "Ġcandy": 4463,
      "Ġscore": 4464,
      "Ġplaced": 4465,
      "roid": 4466,
      "uli": 4467,
      "ulary": 4468,
      "Ġva": 4469,
      "Ġvar": 4470,
      "Ġvocab": 4471,
      "Ġxu": 4472,
      "ousan": 4473,
      "Ġdecades": 4474,
      "Ġkexue": 4475,
      "Ġcomponents": 4476,
      "Ġprevented": 4477,
      "achu": 4478,
      "Ġzetsu": 4479,
      "Ġzett": 4480,
      "Ġzhou": 4481,
      "Ġzeon": 4482,
      "ucational": 4483,
      "Ġuseful": 4484,
      "Ġbelongs": 4485,
      "Ġcleaning": 4486,
      "spaper": 4487,
      "Ġdetails": 4488,
      "eko": 4489,
      "Ġwarau": 4490,
      "Ġseasons": 4491,
      "Ġphoto": 4492,
      "Ġword": 4493,
      "Ġmayo": 4494,
      "uuchuu": 4495,
      "igan": 4496,
      "Ġcausing": 4497,
      "Ġmakk": 4498,
      "mos": 4499,
      "Ġnorakuro": 4500,
      "Ġsentimental": 4501,
      "Ġaccord": 4502,
      "Ġarticle": 4503,
      "Ġmisspelled": 4504,
      "Ġearly": 4505,
      "Ġconcerned": 4506,
      "Ġjiu": 4507,
      "Ġnewspaper": 4508,
      "Ġchiki": 4509,
      "jiang": 4510,
      "Ġbubble": 4511,
      "Ġxiaozi": 4512,
      "!!,": 4513,
      "Ġpatr": 4514,
      "Ġrequire": 4515,
      "Ġdaishuu": 4516,
      "Ġharuk": 4517,
      "Ġjob": 4518,
      "Ġjoe": 4519,
      "Ġoverlord": 4520,
      "ushii": 4521,
      "Ġsuitcase": 4522,
      "hosei": 4523,
      "Ġyuure": 4524,
      "Ġbox": 4525,
      "Ġminor": 4526,
      "Ġfujiko": 4527,
      "Ġshinsei": 4528,
      "kyu": 4529,
      "oss": 4530,
      "osaur": 4531,
      "Ġnani": 4532,
      "Ġnanatsu": 4533,
      "Ġutsuk": 4534,
      "Ġikimono": 4535,
      "oroshi": 4536,
      "Ġkaigan": 4537,
      "Ġhane": 4538,
      "Ġhanashi": 4539,
      "Ġotome": 4540,
      "Ġguai": 4541,
      "Ġmononoke": 4542,
      "Ġzhang": 4543,
      "uda": 4544,
      "udes": 4545,
      "Ġtanpen": 4546,
      "Ġshenmi": 4547,
      "Ġdaiou": 4548,
      "Ġdaily": 4549,
      "Ġplayers": 4550,
      "Ġxingren": 4551,
      "Ġrent": 4552,
      "Ġbaobao": 4553,
      "Ġflame": 4554,
      "Ġflag": 4555,
      "Ġfunds": 4556,
      "Ġmarch": 4557,
      "Ġmarginal": 4558,
      "Ġkings": 4559,
      "Ġshufa": 4560,
      "Ġmagister": 4561,
      "akushuu": 4562,
      "told": 4563,
      "Ġxiaod": 4564,
      "Ġballad": 4565,
      "Ġkungya": 4566,
      "ordance": 4567,
      "Ġbaitou": 4568,
      "Ġookiku": 4569,
      "Ġcommunication": 4570,
      "ension": 4571,
      "Ġfireball": 4572,
      "Ġkakeru": 4573,
      "Ġmajor": 4574,
      "Ġmajutsushi": 4575,
      "Ġxianyou": 4576,
      "Ġrunning": 4577,
      "Ġyuuki": 4578,
      "Ġeducational": 4579,
      "Ġshelf": 4580,
      "Ġkouhosei": 4581,
      "Ġkaguya": 4582,
      "Ġbloom": 4583,
      "Ġhappiness": 4584,
      "Ġbush": 4585,
      "Ġoshiete": 4586,
      "Ġjingling": 4587,
      "Ġhamt": 4588,
      "Ġzhengcheng": 4589,
      "jimu": 4590,
      "Ġtaishi": 4591,
      "Ġcrowds": 4592,
      "Ġcircle": 4593,
      "shuunen": 4594,
      "Ġbaike": 4595,
      "Ġkimagure": 4596,
      "2022": 4597,
      "2023": 4598,
      "Ġnatsuyas": 4599,
      "Ġpandora": 4600,
      "Ġshadows": 4601,
      "gency": 4602,
      "lax": 4603,
      "Ġnikkichou": 4604,
      "Ġmeijian": 4605,
      "Ġhotel": 4606,
      "2019": 4607,
      "Ġessential": 4608,
      "Ġairport": 4609,
      "Ġsengoku": 4610,
      "Ġhighest": 4611,
      "Ġmanagers": 4612,
      "Ġterm": 4613,
      "Ġterr": 4614,
      "Ġbird": 4615,
      "Ġexercises": 4616,
      "Ġanalyzed": 4617,
      "Ġelse": 4618,
      "Ġincludes": 4619,
      "Ġshigeru": 4620,
      "Ġtamat": 4621,
      "Ġsymphon": 4622,
      "Ġshaonu": 4623,
      "Ġchikyuu": 4624,
      "Ġtales": 4625,
      "Ġlady": 4626,
      "Ġformatting": 4627,
      "Ġchronicles": 4628,
      "Ġspreading": 4629,
      "Ġultimate": 4630,
      "Ġsilver": 4631,
      "urenai": 4632,
      "Ġcosmos": 4633,
      "Ġpractical": 4634,
      "Ġpractice": 4635,
      "Ġhajimeru": 4636,
      "Ġfuuka": 4637,
      "Ġpororo": 4638,
      "Ġkazoku": 4639,
      "Ġgoals": 4640,
      "Ġslept": 4641,
      "Ġsaint": 4642,
      "Ġsabaku": 4643,
      "Ġbonyuu": 4644,
      "Ġbandage": 4645,
      "Ġpikachu": 4646,
      "ission": 4647,
      "Ġvampire": 4648,
      "Ġiczelion": 4649,
      "Ġmalta": 4650,
      "Ġmumako": 4651,
      "Ġfenzhong": 4652,
      "Ġfelt": 4653,
      "Ġhokuto": 4654,
      "Ġkokuhaku": 4655,
      "Ġyukid": 4656,
      "Ġemergency": 4657,
      "198": 4658,
      "Ġmaca": 4659,
      "Ġnurse": 4660,
      "Ġinitial": 4661,
      "Ġramen": 4662,
      "Ġmomotarou": 4663,
      "volution": 4664,
      "Ġbottom": 4665,
      "Ġpresent": 4666,
      "Ġhibike": 4667,
      "Ġkawai": 4668,
      "Ġextreme": 4669,
      "Ġnemesis": 4670,
      "Ġargument": 4671,
      "Ġsubmission": 4672,
      "Ġfujio": 4673,
      "Ġwolf": 4674,
      "Ġfloat": 4675,
      "Ġgatchaman": 4676,
      "Ġaffordance": 4677,
      "Ġguardians": 4678,
      "Ġfootball": 4679,
      "Ġganbare": 4680,
      "collection": 4681,
      "Ġoukoku": 4682,
      "Ġaikatsu": 4683,
      "Ġtunshu": 4684,
      "Ġtulip": 4685,
      "Ġslogan": 4686,
      "Ġcowboy": 4687,
      "Ġcabinet": 4688,
      "Ġwixoss": 4689,
      "Ġdashitai": 4690,
      "Ġlapis": 4691,
      "Ġlagann": 4692,
      "isycell": 4693,
      "Ġinjured": 4694,
      "Ġlipstick": 4695,
      "Ġyakusoku": 4696,
      "Ġdelayed": 4697,
      "Ġalchemist": 4698,
      "Ġheavy": 4699,
      "Ġaffected": 4700,
      "Ġvocabulary": 4701,
      "Ġzettai": 4702,
      "Ġphotograph": 4703,
      "Ġaccording": 4704,
      "Ġnatsuyasumi": 4705,
      "'m": 4706,
      ")âĢĶ": 4707,
      "65": 4708,
      "aven": 4709,
      "bis": 4710,
      "bum": 4711,
      "cle": 4712,
      "dess": 4713,
      "duo": 4714,
      "eh": 4715,
      "ead": 4716,
      "eul": 4717,
      "fong": 4718,
      "fast": 4719,
      "fuku": 4720,
      "gs": 4721,
      "gam": 4722,
      "gang": 4723,
      "guru": 4724,
      "ham": 4725,
      "himo": 4726,
      "ius": 4727,
      "kon": 4728,
      "kare": 4729,
      "kete": 4730,
      "lon": 4731,
      "lip": 4732,
      "my": 4733,
      "mor": 4734,
      "mak": 4735,
      "nao": 4736,
      "nights": 4737,
      "oom": 4738,
      "ooper": 4739,
      "ochi": 4740,
      "ps": 4741,
      "ping": 4742,
      "pret": 4743,
      "ric": 4744,
      "rai": 4745,
      "row": 4746,
      "riter": 4747,
      "rumono": 4748,
      "sc": 4749,
      "sou": 4750,
      "sed": 4751,
      "slan": 4752,
      "uis": 4753,
      "uki": 4754,
      "vation": 4755,
      "vous": 4756,
      "wi": 4757,
      "waku": 4758,
      "writer": 4759,
      "xs": 4760,
      "yar": 4761,
      "yore": 4762,
      "zz": 4763,
      "zan": 4764,
      "zill": 4765,
      "Ġ/": 4766,
      "Ġumi": 4767,
      "Ġao": 4768,
      "Ġaquar": 4769,
      "Ġtar": 4770,
      "Ġtur": 4771,
      "Ġtag": 4772,
      "Ġtears": 4773,
      "Ġtora": 4774,
      "Ġtott": 4775,
      "Ġirod": 4776,
      "Ġiru": 4777,
      "Ġsit": 4778,
      "Ġsection": 4779,
      "Ġsigh": 4780,
      "Ġsouth": 4781,
      "onia": 4782,
      "onara": 4783,
      "Ġcult": 4784,
      "Ġwrest": 4785,
      "ena": 4786,
      "Ġmc": 4787,
      "Ġmou": 4788,
      "Ġmit": 4789,
      "Ġmik": 4790,
      "ani": 4791,
      "anya": 4792,
      "anzhi": 4793,
      "ougen": 4794,
      "Ġdant": 4795,
      "Ġdend": 4796,
      "Ġdoma": 4797,
      "Ġdoushi": 4798,
      "Ġdamon": 4799,
      "Ġfa": 4800,
      "Ġfigh": 4801,
      "esday": 4802,
      "alion": 4803,
      "Ġbor": 4804,
      "Ġbim": 4805,
      "Ġboun": 4806,
      "Ġbakus": 4807,
      "Ġbto": 4808,
      "omin": 4809,
      "ingeki": 4810,
      "Ġane": 4811,
      "Ġanyone": 4812,
      "edrop": 4813,
      "arlet": 4814,
      "icy": 4815,
      "Ġnant": 4816,
      "Ġnono": 4817,
      "Ġnuk": 4818,
      "Ġneng": 4819,
      "Ġnuku": 4820,
      "Ġnyan": 4821,
      "Ġnomi": 4822,
      "Ġnyar": 4823,
      "Ġpen": 4824,
      "Ġpes": 4825,
      "Ġpal": 4826,
      "Ġphi": 4827,
      "Ġport": 4828,
      "Ġpuch": 4829,
      "Ġlou": 4830,
      "Ġlar": 4831,
      "Ġluc": 4832,
      "Ġlala": 4833,
      "ots": 4834,
      "othes": 4835,
      "otoms": 4836,
      "ecute": 4837,
      "Ġreno": 4838,
      "Ġreading": 4839,
      "Ġrelease": 4840,
      "amune": 4841,
      "Ġoo": 4842,
      "Ġode": 4843,
      "Ġosh": 4844,
      "asai": 4845,
      "asco": 4846,
      "Ġev": 4847,
      "Ġeko": 4848,
      "isa": 4849,
      "ism": 4850,
      "isho": 4851,
      "Ġhin": 4852,
      "Ġhul": 4853,
      "Ġhitsu": 4854,
      "Ġhima": 4855,
      "Ġinv": 4856,
      "lded": 4857,
      "right": 4858,
      "riel": 4859,
      "riya": 4860,
      "Ġtoaru": 4861,
      "Ġtowa": 4862,
      "Ġtowel": 4863,
      "Ġgri": 4864,
      "Ġgain": 4865,
      "Ġgab": 4866,
      "Ġgoku": 4867,
      "Ġgash": 4868,
      "Ġguli": 4869,
      "etang": 4870,
      "Ġitta": 4871,
      "Ġstorm": 4872,
      "Ġkk": 4873,
      "Ġkure": 4874,
      "Ġkour": 4875,
      "Ġknoc": 4876,
      "Ġkill": 4877,
      "Ġkore": 4878,
      "Ġkise": 4879,
      "Ġkuch": 4880,
      "loso": 4881,
      "Ġshich": 4882,
      "Ġshishi": 4883,
      "Ġshiru": 4884,
      "Ġshingeki": 4885,
      "Ġonsen": 4886,
      "stair": 4887,
      "Ġrally": 4888,
      "Ġrhaps": 4889,
      "Ġmegan": 4890,
      "Ġchin": 4891,
      "Ġchic": 4892,
      "Ġchim": 4893,
      "Ġchingu": 4894,
      "Ġbea": 4895,
      "Ġmooo": 4896,
      "Ġexecute": 4897,
      "Ġnoisycell": 4898,
      "Ġliang": 4899,
      "imaru": 4900,
      "imonogatari": 4901,
      "hero": 4902,
      "occhan": 4903,
      "Ġsel": 4904,
      "Ġsex": 4905,
      "Ġtrooper": 4906,
      "Ġyun": 4907,
      "Ġyome": 4908,
      "Ġyori": 4909,
      "Ġyatter": 4910,
      "irl": 4911,
      "Ġstorywriter": 4912,
      "abe": 4913,
      "Ġdeath": 4914,
      "Ġjou": 4915,
      "Ġjue": 4916,
      "Ġjung": 4917,
      "Ġjeon": 4918,
      "akute": 4919,
      "akatta": 4920,
      "Ġsuik": 4921,
      "Ġsuvia": 4922,
      "Ġexpress": 4923,
      "adise": 4924,
      "Ġalbum": 4925,
      "umaru": 4926,
      "Ġarslan": 4927,
      "Ġheading": 4928,
      "Ġheaven": 4929,
      "essen": 4930,
      "Ġloose": 4931,
      "Ġloaded": 4932,
      "Ġscre": 4933,
      "Ġscarlet": 4934,
      "Ġwashimo": 4935,
      "Ġdesign": 4936,
      "amelon": 4937,
      "Ġremark": 4938,
      "ayome": 4939,
      "ayuan": 4940,
      "road": 4941,
      "rogram": 4942,
      "ules": 4943,
      "tainment": 4944,
      "arty": 4945,
      "Ġyouko": 4946,
      "nds": 4947,
      "Ġoneech": 4948,
      "aseo": 4949,
      "Ġshoot": 4950,
      "Ġvoy": 4951,
      "Ġvotoms": 4952,
      "Ġatarashii": 4953,
      "idental": 4954,
      "Ġpoly": 4955,
      "fege": 4956,
      "Ġdecamelon": 4957,
      "Ġkeibi": 4958,
      "Ġchangshi": 4959,
      "Ġchangsheng": 4960,
      "Ġcategories": 4961,
      "Ġclips": 4962,
      "Ġclothes": 4963,
      "Ġzan": 4964,
      "Ġzong": 4965,
      "Ġzone": 4966,
      "mem": 4967,
      "shibi": 4968,
      "agashi": 4969,
      "Ġsetsu": 4970,
      "Ġclasses": 4971,
      "Ġtem": 4972,
      "Ġtegong": 4973,
      "Ġmusume": 4974,
      "Ġmuskete": 4975,
      "Ġevenings": 4976,
      "Ġsoba": 4977,
      "Ġattack": 4978,
      "Ġslime": 4979,
      "ekko": 4980,
      "ekwon": 4981,
      "Ġwarui": 4982,
      "unka": 4983,
      "Ġlevi": 4984,
      "ittee": 4985,
      "Ġquick": 4986,
      "Ġquanzhi": 4987,
      "Ġusage": 4988,
      "Ġspeed": 4989,
      "Ġcenter": 4990,
      "Ġrobin": 4991,
      "Ġroboc": 4992,
      "Ġgoodbye": 4993,
      "Ġaccidental": 4994,
      "phy": 4995,
      "Ġsuru": 4996,
      "Ġblaz": 4997,
      "Ġjiayuan": 4998,
      "ultroom": 4999,
      "Ġagents": 5000,
      "Ġworkshop": 5001,
      "huo": 5002,
      "jiki": 5003,
      "Ġ365": 5004,
      "Ġtaken": 5005,
      "Ġupstair": 5006,
      "para": 5007,
      "Ġparadise": 5008,
      "iah": 5009,
      "Ġclosing": 5010,
      "Ġjojo": 5011,
      "Ġjoshi": 5012,
      "engumi": 5013,
      "Ġshijiu": 5014,
      "Ġshiokari": 5015,
      "Ġpolar": 5016,
      "Ġentire": 5017,
      "Ġhidam": 5018,
      "Ġqiong": 5019,
      "Ġtonari": 5020,
      "Ġecchi": 5021,
      "Ġsayonara": 5022,
      "ushigoto": 5023,
      "Ġkobo": 5024,
      "Ġgohan": 5025,
      "Ġmanual": 5026,
      "Ġinstead": 5027,
      "Ġconvention": 5028,
      "Ġcraz": 5029,
      "Ġyuzuki": 5030,
      "Ġboo": 5031,
      "Ġsenyuu": 5032,
      "bop": 5033,
      "Ġfuri": 5034,
      "osh": 5035,
      "Ġkanketsu": 5036,
      "Ġseminar": 5037,
      "Ġutaware": 5038,
      "Ġikusa": 5039,
      "Ġshouhu": 5040,
      "Ġhanayome": 5041,
      "Ġotsu": 5042,
      "Ġguizi": 5043,
      "Ġstarshine": 5044,
      "Ġerom": 5045,
      "buki": 5046,
      "shang": 5047,
      "Ġfannao": 5048,
      "Ġsaigo": 5049,
      "Ġwanna": 5050,
      "Ġkais": 5051,
      "Ġxiongmao": 5052,
      "Ġsanri": 5053,
      "daman": 5054,
      "Ġcommittee": 5055,
      "Ġkyouryuu": 5056,
      "Ġcats": 5057,
      "Ġcatman": 5058,
      "Ġtsum": 5059,
      "Ġinterpret": 5060,
      "Ġxiaot": 5061,
      "Ġcounsel": 5062,
      "Ġhunters": 5063,
      "Ġfeel": 5064,
      "Ġmission": 5065,
      "Ġbra": 5066,
      "Ġoum": 5067,
      "Ġoujo": 5068,
      "Ġakatsuki": 5069,
      "Ġtuesday": 5070,
      "Ġkakushigoto": 5071,
      "Ġhiiro": 5072,
      "Ġtoumei": 5073,
      "Ġsunshine": 5074,
      "Ġmajuu": 5075,
      "Ġhikoutai": 5076,
      "Ġgoddess": 5077,
      "Ġgodzill": 5078,
      "Ġmask": 5079,
      "Ġyuuhi": 5080,
      "Ġyuugi": 5081,
      "Ġtabekko": 5082,
      "Ġkamik": 5083,
      "Ġkyoush": 5084,
      "Ġmisunderstanding": 5085,
      "Ġbanana": 5086,
      "Ġbananya": 5087,
      "dae": 5088,
      "Ġsiwei": 5089,
      "Ġmuyou": 5090,
      "Ġhamatora": 5091,
      "Ġtaught": 5092,
      "Ġtaekwon": 5093,
      "Ġcircus": 5094,
      "Ġfiles": 5095,
      "Ġfilena": 5096,
      "Ġprison": 5097,
      "Ġreiwa": 5098,
      "Ġqianfang": 5099,
      "Ġletters": 5100,
      "Ġgalverse": 5101,
      "Ġkonjiki": 5102,
      "Ġfolded": 5103,
      "Ġwhiteboard": 5104,
      "Ġshokuhin": 5105,
      "!!!!!!!!": 5106,
      "Ġgolden": 5107,
      "Ġdoubutsuen": 5108,
      "ways": 5109,
      "Ġstew": 5110,
      "Ġkamen": 5111,
      "Ġkamisama": 5112,
      "Ġningyou": 5113,
      "Ġvenus": 5114,
      "Ġsket": 5115,
      "Ġ2010": 5116,
      "Ġichiban": 5117,
      "Ġfairy": 5118,
      "Ġkitaa": 5119,
      "Ġkotobuki": 5120,
      "Ġwarrior": 5121,
      "Ġspeaker": 5122,
      "Ġluoji": 5123,
      "changing": 5124,
      "Ġultram": 5125,
      "Ġkappou": 5126,
      "Ġshimajirou": 5127,
      "Ġcosplay": 5128,
      "Ġuntarou": 5129,
      "Ġmomoiro": 5130,
      "Ġhajimete": 5131,
      "Ġomoide": 5132,
      "Ġtomoshibi": 5133,
      "Ġporong": 5134,
      "Ġkekkon": 5135,
      "Ġweiji": 5136,
      "Ġblessing": 5137,
      "Ġpetitcure": 5138,
      "Ġhonestly": 5139,
      "girl": 5140,
      "Ġreturn": 5141,
      "Ġjunjou": 5142,
      "Ġxueyuan": 5143,
      "yakou": 5144,
      "Ġsquare": 5145,
      "Ġnakama": 5146,
      "Ġnezha": 5147,
      "Ġmaboroshi": 5148,
      "Ġjitaku": 5149,
      "Ġtsundere": 5150,
      "Ġtiara": 5151,
      "Ġiruma": 5152,
      "Ġflower": 5153,
      "Ġpinch": 5154,
      "Ġeyedrop": 5155,
      "Ġchaj": 5156,
      "Ġrecorded": 5157,
      "Ġvisual": 5158,
      "Ġslayers": 5159,
      "Ġentertainment": 5160,
      "Ġshinkalion": 5161,
      "Ġzutto": 5162,
      "Ġreincarnation": 5163,
      "Ġvalkyrie": 5164,
      "Ġtrends": 5165,
      "Ġmizuiro": 5166,
      "Ġchunks": 5167,
      "Ġkuusou": 5168,
      "Ġchronoir": 5169,
      "Ġhyakkiyakou": 5170,
      "Ġsolfege": 5171,
      "Ġmessiah": 5172,
      "orimidori": 5173,
      "Ġlunatic": 5174,
      "Ġodoru": 5175,
      "Ġmezam": 5176,
      "Ġmazinger": 5177,
      "Ġvaultroom": 5178,
      "Ġvarga": 5179,
      "Ġpatrol": 5180,
      "Ġhamtarou": 5181,
      "Ġsymphony": 5182,
      "ehwa": 5183,
      "Ġaquarion": 5184,
      "Ġtags": 5185,
      "Ġirodorimidori": 5186,
      "Ġsituation": 5187,
      "Ġdendrogram": 5188,
      "Ġbimil": 5189,
      "Ġbounty": 5190,
      "Ġbakusou": 5191,
      "Ġbtooom": 5192,
      "Ġnyaruko": 5193,
      "Ġphiloso": 5194,
      "Ġrenovation": 5195,
      "Ġodekake": 5196,
      "Ġoshiro": 5197,
      "Ġtowels": 5198,
      "Ġgabriel": 5199,
      "Ġkuremashita": 5200,
      "Ġknock": 5201,
      "Ġkiseki": 5202,
      "Ġkuchiz": 5203,
      "Ġshishido": 5204,
      "Ġrhapsody": 5205,
      "Ġmegane": 5206,
      "Ġmooooon": 5207,
      "Ġjeonseol": 5208,
      "Ġheadings": 5209,
      "Ġremarks": 5210,
      "Ġoneechan": 5211,
      "Ġkeibiin": 5212,
      "Ġmusketeers": 5213,
      "Ġquickly": 5214,
      "Ġupstairs": 5215,
      "Ġcrazy": 5216,
      "Ġutawarerumono": 5217,
      "Ġinterpretation": 5218,
      "Ġcounselor": 5219,
      "Ġgodzilland": 5220,
      "Ġeyedrops": 5221,
      "Ġphilosophy": 5222,
      "**": 5223,
      "//": 5224,
      "11": 5225,
      "ae": 5226,
      "automat": 5227,
      "ava": 5228,
      "aichi": 5229,
      "bono": 5230,
      "betsu": 5231,
      "come": 5232,
      "cinn": 5233,
      "dow": 5234,
      "dress": 5235,
      "dred": 5236,
      "gami": 5237,
      "gia": 5238,
      "giru": 5239,
      "hr": 5240,
      "hack": 5241,
      "hyou": 5242,
      "hara": 5243,
      "hishi": 5244,
      "ihan": 5245,
      "jisama": 5246,
      "ket": 5247,
      "kka": 5248,
      "kinj": 5249,
      "ler": 5250,
      "lish": 5251,
      "mes": 5252,
      "march": 5253,
      "nin": 5254,
      "nit": 5255,
      "nec": 5256,
      "ners": 5257,
      "nensei": 5258,
      "of": 5259,
      "oge": 5260,
      "obi": 5261,
      "ror": 5262,
      "shen": 5263,
      "tz": 5264,
      "wich": 5265,
      "yori": 5266,
      "yagi": 5267,
      "zun": 5268,
      "zhou": 5269,
      "zvous": 5270,
      "Ġ.": 5271,
      "Ġomete": 5272,
      "Ġ**": 5273,
      "Ġap": 5274,
      "Ġax": 5275,
      "Ġay": 5276,
      "Ġako": 5277,
      "Ġazuki": 5278,
      "Ġajimu": 5279,
      "Ġtot": 5280,
      "Ġtao": 5281,
      "Ġtte": 5282,
      "Ġtats": 5283,
      "Ġtape": 5284,
      "Ġiro": 5285,
      "Ġiyagi": 5286,
      "Ġsor": 5287,
      "Ġsher": 5288,
      "Ġsad": 5289,
      "Ġswe": 5290,
      "Ġseren": 5291,
      "Ġsister": 5292,
      "Ġsousei": 5293,
      "Ġsakug": 5294,
      "ones": 5295,
      "reet": 5296,
      "Ġcher": 5297,
      "Ġcable": 5298,
      "Ġcry": 5299,
      "Ġcup": 5300,
      "Ġwel": 5301,
      "Ġwake": 5302,
      "Ġwangu": 5303,
      "Ġwaga": 5304,
      "Ġwomen": 5305,
      "inawa": 5306,
      "enkyou": 5307,
      "ert": 5308,
      "erou": 5309,
      "Ġmim": 5310,
      "Ġmote": 5311,
      "Ġmike": 5312,
      "Ġmouse": 5313,
      "Ġmings": 5314,
      "Ġmale": 5315,
      "ororo": 5316,
      "orokon": 5317,
      "anation": 5318,
      "oul": 5319,
      "Ġdim": 5320,
      "Ġdate": 5321,
      "Ġdare": 5322,
      "Ġdiv": 5323,
      "Ġdoush": 5324,
      "Ġdomin": 5325,
      "Ġfus": 5326,
      "Ġfall": 5327,
      "Ġfashi": 5328,
      "Ġfusion": 5329,
      "Ġfei": 5330,
      "Ġfright": 5331,
      "esan": 5332,
      "als": 5333,
      "Ġbushi": 5334,
      "Ġbicy": 5335,
      "iten": 5336,
      "itation": 5337,
      "omao": 5338,
      "omareta": 5339,
      "aruma": 5340,
      "ics": 5341,
      "icass": 5342,
      "icia": 5343,
      "Ġng": 5344,
      "Ġnec": 5345,
      "Ġnam": 5346,
      "Ġnara": 5347,
      "Ġnabe": 5348,
      "Ġpork": 5349,
      "Ġpear": 5350,
      "Ġpingu": 5351,
      "Ġpicass": 5352,
      "Ġla": 5353,
      "Ġlay": 5354,
      "Ġlord": 5355,
      "otl": 5356,
      "otic": 5357,
      "otani": 5358,
      "ecca": 5359,
      "Ġretold": 5360,
      "amoto": 5361,
      "Ġore": 5362,
      "Ġoishi": 5363,
      "aset": 5364,
      "asarete": 5365,
      "Ġeter": 5366,
      "Ġevelo": 5367,
      "Ġeiken": 5368,
      "Ġeunh": 5369,
      "Ġebis": 5370,
      "Ġthir": 5371,
      "ishen": 5372,
      "Ġhant": 5373,
      "Ġhami": 5374,
      "Ġhashi": 5375,
      "Ġhakus": 5376,
      "Ġins": 5377,
      "Ġinde": 5378,
      "ldonia": 5379,
      "enteng": 5380,
      "Ġtoji": 5381,
      "Ġgris": 5382,
      "Ġgour": 5383,
      "Ġstage": 5384,
      "Ġstamp": 5385,
      "Ġstopp": 5386,
      "Ġstreet": 5387,
      "Ġkare": 5388,
      "Ġkari": 5389,
      "Ġkage": 5390,
      "Ġkaid": 5391,
      "Ġkire": 5392,
      "Ġkasa": 5393,
      "Ġkibou": 5394,
      "Ġkurenai": 5395,
      "Ġkhr": 5396,
      "Ġcomet": 5397,
      "Ġcommem": 5398,
      "utou": 5399,
      "utiful": 5400,
      "Ġissho": 5401,
      "love": 5402,
      "loween": 5403,
      "loss": 5404,
      "loco": 5405,
      "Ġshark": 5406,
      "Ġshatt": 5407,
      "Ġshuku": 5408,
      "Ġshunka": 5409,
      "Ġonce": 5410,
      "Ġonig": 5411,
      "ste": 5412,
      "Ġrin": 5413,
      "Ġring": 5414,
      "Ġrok": 5415,
      "Ġroku": 5416,
      "Ġruri": 5417,
      "Ġrakuen": 5418,
      "Ġrakug": 5419,
      "Ġmel": 5420,
      "Ġmelo": 5421,
      "Ġmeow": 5422,
      "Ġchous": 5423,
      "Ġchag": 5424,
      "Ġchotto": 5425,
      "Ġmoey": 5426,
      "Ġmowai": 5427,
      "dezvous": 5428,
      "unaga": 5429,
      "Ġspyce": 5430,
      "Ġlily": 5431,
      "Ġdoji": 5432,
      "chic": 5433,
      "Ġbutsu": 5434,
      "Ġseis": 5435,
      "Ġseif": 5436,
      "Ġseiz": 5437,
      "Ġtrash": 5438,
      "Ġtrick": 5439,
      "Ġya": 5440,
      "Ġyam": 5441,
      "Ġyaku": 5442,
      "Ġyorokon": 5443,
      "Ġnekko": 5444,
      "Ġitsuka": 5445,
      "Ġaman": 5446,
      "Ġamoun": 5447,
      "Ġamagami": 5448,
      "Ġmap": 5449,
      "Ġmaomao": 5450,
      "Ġashita": 5451,
      "irin": 5452,
      "resh": 5453,
      "odome": 5454,
      "abu": 5455,
      "apuro": 5456,
      "Ġdeep": 5457,
      "Ġdeka": 5458,
      "Ġjam": 5459,
      "Ġjim": 5460,
      "Ġjag": 5461,
      "Ġjidai": 5462,
      "akano": 5463,
      "Ġsuk": 5464,
      "Ġsuz": 5465,
      "Ġsuku": 5466,
      "Ġsuke": 5467,
      "Ġsugu": 5468,
      "Ġsuizoku": 5469,
      "Ġoracle": 5470,
      "Ġorgel": 5471,
      "okoma": 5472,
      "ateuk": 5473,
      "umaki": 5474,
      "umog": 5475,
      "arekake": 5476,
      "areboshi": 5477,
      "Ġarth": 5478,
      "Ġarmo": 5479,
      "Ġheti": 5480,
      "Ġheiki": 5481,
      "Ġheshang": 5482,
      "Ġcoloco": 5483,
      "essed": 5484,
      "essary": 5485,
      "ppa": 5486,
      "ppi": 5487,
      "Ġscale": 5488,
      "Ġdesert": 5489,
      "Ġwatson": 5490,
      "Ġconferen": 5491,
      "ayou": 5492,
      "ayoku": 5493,
      "pers": 5494,
      "peror": 5495,
      "rope": 5496,
      "ults": 5497,
      "oneko": 5498,
      "artoon": 5499,
      "Ġunnec": 5500,
      "Ġyouji": 5501,
      "Ġemperor": 5502,
      "Ġvol": 5503,
      "Ġposter": 5504,
      "fee": 5505,
      "ibang": 5506,
      "ibatch": 5507,
      "Ġkeik": 5508,
      "Ġkeibatch": 5509,
      "anda": 5510,
      "andao": 5511,
      "Ġchoi": 5512,
      "Ġchok": 5513,
      "Ġclann": 5514,
      "Ġzoid": 5515,
      "Ġzakuro": 5516,
      "Ġzibang": 5517,
      "ryaku": 5518,
      "Ġgirlfriend": 5519,
      "Ġtebie": 5520,
      "Ġtegami": 5521,
      "Ġmushoku": 5522,
      "Ġmushishi": 5523,
      "Ġobenkyou": 5524,
      "emi": 5525,
      "gyu": 5526,
      "Ġ24": 5527,
      "Ġimpro": 5528,
      "Ġhistory": 5529,
      "Ġlearn": 5530,
      "Ġlovely": 5531,
      "Ġconnected": 5532,
      "Ġphones": 5533,
      "Ġlevel": 5534,
      "Ġquwei": 5535,
      "Ġriji": 5536,
      "Ġordinal": 5537,
      "igo": 5538,
      "igayo": 5539,
      "Ġused": 5540,
      "Ġusav": 5541,
      "ansha": 5542,
      "demo": 5543,
      "Ġmake": 5544,
      "Ġcreative": 5545,
      "Ġrevenger": 5546,
      "Ġnormal": 5547,
      "okugoku": 5548,
      "Ġbreakfast": 5549,
      "renyu": 5550,
      "Ġnier": 5551,
      "Ġwaiting": 5552,
      "Ġchih": 5553,
      "Ġchijoku": 5554,
      "youji": 5555,
      "Ġagent": 5556,
      "jiao": 5557,
      "ukuru": 5558,
      "Ġbuji": 5559,
      "Ġupapuro": 5560,
      "Ġtooi": 5561,
      "Ġdahong": 5562,
      "Ġharlock": 5563,
      "english": 5564,
      "Ġshiodome": 5565,
      "Ġexplanation": 5566,
      "Ġtony": 5567,
      "Ġecho": 5568,
      "Ġreduced": 5569,
      "Ġprix": 5570,
      "Ġlooked": 5571,
      "Ġresc": 5572,
      "Ġresults": 5573,
      "Ġnaisho": 5574,
      "Ġkoib": 5575,
      "Ġkoibito": 5576,
      "kuang": 5577,
      "Ġ18": 5578,
      "Ġmercy": 5579,
      "Ġcrus": 5580,
      "Ġsenr": 5581,
      "Ġshinya": 5582,
      "Ġshinmai": 5583,
      "Ġkanata": 5584,
      "Ġdouya": 5585,
      "Ġdousei": 5586,
      "gata": 5587,
      "mannen": 5588,
      "Ġsemare": 5589,
      "Ġqiu": 5590,
      "Ġshoumei": 5591,
      "kaishi": 5592,
      "Ġkaiki": 5593,
      "Ġkaizoku": 5594,
      "Ġzhizun": 5595,
      "Ġtenmon": 5596,
      "Ġtenkuu": 5597,
      "Ġzhandou": 5598,
      "flava": 5599,
      "Ġtanjou": 5600,
      "Ġshenhua": 5601,
      "Ġutahime": 5602,
      "shite": 5603,
      "shuu": 5604,
      "Ġrenkinj": 5605,
      "Ġrenshen": 5606,
      "Ġrendezvous": 5607,
      "Ġ02": 5608,
      "Ġdiary": 5609,
      "Ġkenichi": 5610,
      "Ġsaima": 5611,
      "Ġsaikin": 5612,
      "Ġsaimin": 5613,
      "Ġsanchou": 5614,
      "agrange": 5615,
      "akae": 5616,
      "Ġmargin": 5617,
      "Ġmaruko": 5618,
      "Ġshuide": 5619,
      "Ġshuutou": 5620,
      "Ġmirmo": 5621,
      "Ġmirror": 5622,
      "Ġwangzi": 5623,
      "Ġpiano": 5624,
      "Ġxiaolu": 5625,
      "kee": 5626,
      "Ġassessed": 5627,
      "Ġpvs": 5628,
      "Ġhundred": 5629,
      "Ġyiq": 5630,
      "Ġyijia": 5631,
      "asugiru": 5632,
      "Ġnobunaga": 5633,
      "Ġtaiman": 5634,
      "Ġrebecca": 5635,
      "Ġtokei": 5636,
      "Ġtokidoki": 5637,
      "Ġ2020": 5638,
      "Ġoujisama": 5639,
      "Ġakiba": 5640,
      "Ġrule": 5641,
      "Ġruyi": 5642,
      "Ġkakera": 5643,
      "Ġkakomareta": 5644,
      "koujo": 5645,
      "Ġhihou": 5646,
      "Ġyeong": 5647,
      "Ġhaiku": 5648,
      "Ġhaiyore": 5649,
      "Ġseiki": 5650,
      "Ġxiansheng": 5651,
      "Ġmasters": 5652,
      "Ġtabibito": 5653,
      "Ġkagay": 5654,
      "Ġkagerou": 5655,
      "niang": 5656,
      "Ġangels": 5657,
      "Ġangelique": 5658,
      "Ġkyoto": 5659,
      "Ġjingche": 5660,
      "Ġsildonia": 5661,
      "Ġhitotsu": 5662,
      "Ġhitokoma": 5663,
      "Ġcardboard": 5664,
      "Ġfengkuang": 5665,
      "Ġkodai": 5666,
      "Ġzhengjiu": 5667,
      "Ġbenling": 5668,
      "Ġlanhua": 5669,
      "Ġarmaged": 5670,
      "Ġ84": 5671,
      "Ġokinawa": 5672,
      "Ġshimashita": 5673,
      "Ġshironeko": 5674,
      "Ġcrown": 5675,
      "Ġurano": 5676,
      "Ġhyper": 5677,
      "Ġkimigayo": 5678,
      "Ġjuice": 5679,
      "Ġjufeng": 5680,
      "Ġsae": 5681,
      "Ġgekkei": 5682,
      "Ġgekitou": 5683,
      "Ġkikai": 5684,
      "Ġkikansha": 5685,
      "Ġtiming": 5686,
      "Ġchengzhang": 5687,
      "Ġfurnit": 5688,
      "Ġfuriten": 5689,
      "Ġnuhai": 5690,
      "Ġhougen": 5691,
      "Ġhakase": 5692,
      "Ġhakimono": 5693,
      "Ġmeirenyu": 5694,
      "Ġdevilman": 5695,
      "Ġhotori": 5696,
      "Ġshokupan": 5697,
      "gongdae": 5698,
      "Ġsengen": 5699,
      "Ġkaturi": 5700,
      "Ġkamin": 5701,
      "Ġdaisakusen": 5702,
      "Ġdaisuki": 5703,
      "Ġdaisougen": 5704,
      "Ġ007": 5705,
      "Ġchuang": 5706,
      "Ġdoctor": 5707,
      "Ġyankee": 5708,
      "Ġxuanzhe": 5709,
      "Ġchoujin": 5710,
      "Ġsoldier": 5711,
      "phonium": 5712,
      "Ġomou": 5713,
      "Ġtamago": 5714,
      "Ġichirin": 5715,
      "Ġsandwich": 5716,
      "Ġtoyama": 5717,
      "Ġkotoba": 5718,
      "Ġrocks": 5719,
      "imonryou": 5720,
      "Ġmatsuri": 5721,
      "Ġtsukumog": 5722,
      "ohamu": 5723,
      "Ġmeta": 5724,
      "Ġmondai": 5725,
      "Ġladies": 5726,
      "Ġojisan": 5727,
      "Ġkousou": 5728,
      "Ġrailways": 5729,
      "Ġseikatsu": 5730,
      "Ġyangyang": 5731,
      "Ġsilent": 5732,
      "Ġbasket": 5733,
      "Ġkusohamu": 5734,
      "Ġkappapa": 5735,
      "Ġmomoya": 5736,
      "Ġtententeng": 5737,
      "Ġsanguo": 5738,
      "Ġnagisa": 5739,
      "Ġnagareboshi": 5740,
      "Ġkyuukyoku": 5741,
      "Ġjikenbo": 5742,
      "Ġkekkaishi": 5743,
      "Ġperformer": 5744,
      "Ġexplained": 5745,
      "Ġsleeping": 5746,
      "Ġsaints": 5747,
      "Ġkongque": 5748,
      "Ġcoffee": 5749,
      "Ġcloud": 5750,
      "ugawa": 5751,
      "Ġtatakae": 5752,
      "Ġochibi": 5753,
      "Ġdokidoki": 5754,
      "Ġyakkyoku": 5755,
      "Ġnezumi": 5756,
      "Ġarknights": 5757,
      "Ġotogibanashi": 5758,
      "Ġbrothers": 5759,
      "jingle": 5760,
      "metal": 5761,
      "piece": 5762,
      "Ġmangaehwa": 5763,
      "Ġholmes": 5764,
      "Ġshinsengumi": 5765,
      "Ġchapter": 5766,
      "Ġjigokugoku": 5767,
      "Ġyoshida": 5768,
      "Ġtsurasugiru": 5769,
      "Ġtachikoma": 5770,
      "Ġcurry": 5771,
      "Ġbonobono": 5772,
      "Ġpinkfong": 5773,
      "Ġketsui": 5774,
      "Ġ2024": 5775,
      "puuchou": 5776,
      "Ġtusukuru": 5777,
      "Ġtailang": 5778,
      "Ġichiya": 5779,
      "Ġpaint": 5780,
      "amoroll": 5781,
      "Ġeuphonium": 5782,
      "Ġinfinite": 5783,
      "Ġgurren": 5784,
      "Ġkowarekake": 5785,
      "chuushou": 5786,
      "Ġseeing": 5787,
      "Ġsugite": 5788,
      "Ġmemoire": 5789,
      "Ġphantasy": 5790,
      "Ġmayuge": 5791,
      "Ġyubiwa": 5792,
      "Ġhajimemasu": 5793,
      "Ġhyouryuuki": 5794,
      "Ġurahara": 5795,
      "Ġcaoyuan": 5796,
      "Ġmighty": 5797,
      "Ġbullet": 5798,
      "Ġhairpin": 5799,
      "Ġonizuka": 5800,
      "Ġzetsubou": 5801,
      "Ġyuurei": 5802,
      "Ġterrarium": 5803,
      "Ġyukidaruma": 5804,
      "Ġmitasarete": 5805,
      "Ġborder": 5806,
      "Ġpengyou": 5807,
      "Ġlarva": 5808,
      "Ġkouritsu": 5809,
      "Ġbeautiful": 5810,
      "Ġvoyage": 5811,
      "Ġmezameru": 5812,
      "automata": 5813,
      "cinnamoroll": 5814,
      "down": 5815,
      "Ġometeotl": 5816,
      "Ġakog": 5817,
      "Ġsorotani": 5818,
      "Ġsherlock": 5819,
      "Ġsweat": 5820,
      "Ġserenade": 5821,
      "Ġsakugasaku": 5822,
      "Ġcherry": 5823,
      "Ġwelcome": 5824,
      "Ġmingsheng": 5825,
      "Ġdimension": 5826,
      "Ġdominique": 5827,
      "Ġfalling": 5828,
      "Ġfrightening": 5829,
      "Ġbicycle": 5830,
      "Ġnecchuushou": 5831,
      "Ġpearl": 5832,
      "Ġpicasso": 5833,
      "asetai": 5834,
      "Ġetern": 5835,
      "Ġevelogia": 5836,
      "Ġeunhateuk": 5837,
      "Ġebisugawa": 5838,
      "Ġthird": 5839,
      "Ġhantsu": 5840,
      "Ġhakushaku": 5841,
      "Ġindex": 5842,
      "Ġgrisaia": 5843,
      "Ġgourmet": 5844,
      "Ġstopped": 5845,
      "Ġkarei": 5846,
      "Ġkaidan": 5847,
      "Ġkhronos": 5848,
      "Ġshattered": 5849,
      "Ġshukufuku": 5850,
      "Ġrakugaki": 5851,
      "Ġchoushoku": 5852,
      "Ġmoeyo": 5853,
      "Ġseifuku": 5854,
      "Ġtrickster": 5855,
      "Ġyorokonde": 5856,
      "Ġamount": 5857,
      "Ġjagainu": 5858,
      "Ġsuizokukan": 5859,
      "Ġarthur": 5860,
      "Ġarmored": 5861,
      "Ġcolocolo": 5862,
      "Ġconference": 5863,
      "Ġunnecessary": 5864,
      "Ġkeikaku": 5865,
      "Ġkeibatchi": 5866,
      "Ġclannad": 5867,
      "Ġzoids": 5868,
      "Ġimproved": 5869,
      "Ġusavich": 5870,
      "Ġtenmonbu": 5871,
      "Ġrenkinjutsushi": 5872,
      "Ġsanchoume": 5873,
      "Ġarmageddon": 5874,
      "Ġuranof": 5875,
      "Ġgekkeiju": 5876,
      "Ġfurniture": 5877,
      "Ġtsukumogami": 5878,
      "Ġtententengoku": 5879,
      "Ġeunhateukgongdae": 5880,
      "!,\"": 5881,
      ")?": 5882,
      ".)": 5883,
      "21": 5884,
      "67": 5885,
      "74": 5886,
      "ait": 5887,
      "ael": 5888,
      "aenai": 5889,
      "blo": 5890,
      "bers": 5891,
      "bef": 5892,
      "biro": 5893,
      "cur": 5894,
      "cers": 5895,
      "cartoon": 5896,
      "di": 5897,
      "dec": 5898,
      "dence": 5899,
      "dose": 5900,
      "dashi": 5901,
      "eong": 5902,
      "evolution": 5903,
      "fy": 5904,
      "fet": 5905,
      "ffe": 5906,
      "flow": 5907,
      "fort": 5908,
      "gatsu": 5909,
      "gade": 5910,
      "gmal": 5911,
      "hitsu": 5912,
      "hyr": 5913,
      "hito": 5914,
      "iation": 5915,
      "ires": 5916,
      "ife": 5917,
      "ival": 5918,
      "iyan": 5919,
      "ieping": 5920,
      "igeki": 5921,
      "jang": 5922,
      "jwi": 5923,
      "ker": 5924,
      "kab": 5925,
      "kok": 5926,
      "kill": 5927,
      "kara": 5928,
      "kishi": 5929,
      "kale": 5930,
      "kpu": 5931,
      "lu": 5932,
      "lam": 5933,
      "lia": 5934,
      "lara": 5935,
      "mare": 5936,
      "mid": 5937,
      "mallow": 5938,
      "mits": 5939,
      "nasai": 5940,
      "pg": 5941,
      "pon": 5942,
      "pou": 5943,
      "paku": 5944,
      "pose": 5945,
      "poko": 5946,
      "sachi": 5947,
      "soka": 5948,
      "tou": 5949,
      "tty": 5950,
      "tara": 5951,
      "tori": 5952,
      "talia": 5953,
      "tette": 5954,
      "ugg": 5955,
      "vance": 5956,
      "wo": 5957,
      "wald": 5958,
      "waser": 5959,
      "yy": 5960,
      "yok": 5961,
      "yaki": 5962,
      "ygmal": 5963,
      "zai": 5964,
      "zak": 5965,
      "zero": 5966,
      "zwald": 5967,
      "Ġ[": 5968,
      "Ġuma": 5969,
      "Ġace": 5970,
      "Ġape": 5971,
      "Ġaiko": 5972,
      "Ġaoy": 5973,
      "Ġtight": 5974,
      "Ġtour": 5975,
      "Ġtia": 5976,
      "Ġteng": 5977,
      "Ġtomat": 5978,
      "Ġtengu": 5979,
      "Ġttori": 5980,
      "Ġsing": 5981,
      "Ġsid": 5982,
      "Ġsans": 5983,
      "Ġsaku": 5984,
      "Ġsins": 5985,
      "Ġsotsu": 5986,
      "Ġsorce": 5987,
      "onic": 5988,
      "onyuu": 5989,
      "rer": 5990,
      "read": 5991,
      "rets": 5992,
      "rero": 5993,
      "Ġci": 5994,
      "Ġcam": 5995,
      "Ġcation": 5996,
      "Ġcass": 5997,
      "Ġcuis": 5998,
      "here": 5999,
      "heme": 6000,
      "Ġwiz": 6001,
      "Ġwadai": 6002,
      "Ġwife": 6003,
      "ini": 6004,
      "inde": 6005,
      "enix": 6006,
      "enog": 6007,
      "enieping": 6008,
      "erk": 6009,
      "Ġmang": 6010,
      "Ġmary": 6011,
      "Ġmous": 6012,
      "Ġmian": 6013,
      "Ġmint": 6014,
      "Ġmiet": 6015,
      "Ġmash": 6016,
      "orig": 6017,
      "oroid": 6018,
      "oria": 6019,
      "orita": 6020,
      "anaru": 6021,
      "anken": 6022,
      "athan": 6023,
      "oumaru": 6024,
      "Ġdam": 6025,
      "Ġdame": 6026,
      "Ġdian": 6027,
      "Ġdie": 6028,
      "Ġdorm": 6029,
      "Ġdatt": 6030,
      "Ġdata": 6031,
      "Ġdna": 6032,
      "Ġduel": 6033,
      "Ġdassh": 6034,
      "Ġdoukyuusei": 6035,
      "Ġdororo": 6036,
      "Ġfather": 6037,
      "Ġfig": 6038,
      "Ġfore": 6039,
      "Ġfuru": 6040,
      "Ġfru": 6041,
      "Ġfuku": 6042,
      "ese": 6043,
      "esus": 6044,
      "aler": 6045,
      "alian": 6046,
      "Ġbam": 6047,
      "Ġbare": 6048,
      "Ġbrill": 6049,
      "Ġbers": 6050,
      "Ġbase": 6051,
      "Ġbib": 6052,
      "Ġbiz": 6053,
      "Ġbump": 6054,
      "Ġbaz": 6055,
      "omu": 6056,
      "omom": 6057,
      "omil": 6058,
      "omong": 6059,
      "omatsu": 6060,
      "Ġans": 6061,
      "Ġanju": 6062,
      "Ġanti": 6063,
      "ione": 6064,
      "edet": 6065,
      "ediz": 6066,
      "edaya": 6067,
      "ars": 6068,
      "arre": 6069,
      "aries": 6070,
      "arish": 6071,
      "arumaru": 6072,
      "iclo": 6073,
      "icorn": 6074,
      "Ġner": 6075,
      "Ġnou": 6076,
      "Ġnend": 6077,
      "Ġnul": 6078,
      "Ġnite": 6079,
      "Ġnaku": 6080,
      "Ġnyu": 6081,
      "Ġnats": 6082,
      "Ġniss": 6083,
      "Ġps": 6084,
      "Ġpit": 6085,
      "Ġpho": 6086,
      "Ġpur": 6087,
      "Ġpark": 6088,
      "Ġpitt": 6089,
      "Ġpig": 6090,
      "Ġpygmal": 6091,
      "Ġleng": 6092,
      "Ġlens": 6093,
      "Ġloll": 6094,
      "Ġlamune": 6095,
      "Ġlagrange": 6096,
      "echi": 6097,
      "Ġrepl": 6098,
      "Ġreiken": 6099,
      "Ġreinde": 6100,
      "amura": 6101,
      "amori": 6102,
      "Ġoe": 6103,
      "Ġoli": 6104,
      "usato": 6105,
      "usuke": 6106,
      "aster": 6107,
      "asog": 6108,
      "asaren": 6109,
      "asagashi": 6110,
      "aspers": 6111,
      "lya": 6112,
      "Ġeight": 6113,
      "Ġeico": 6114,
      "Ġthorn": 6115,
      "isy": 6116,
      "isma": 6117,
      "isatsu": 6118,
      "isheme": 6119,
      "Ġhur": 6120,
      "Ġhab": 6121,
      "Ġhate": 6122,
      "Ġhime": 6123,
      "Ġhaid": 6124,
      "Ġhyu": 6125,
      "Ġhoushi": 6126,
      "Ġhatter": 6127,
      "ley": 6128,
      "leon": 6129,
      "Ġinai": 6130,
      "Ġinad": 6131,
      "Ġinari": 6132,
      "Ġingoku": 6133,
      "entou": 6134,
      "entine": 6135,
      "riarty": 6136,
      "acer": 6137,
      "Ġtobid": 6138,
      "Ġtower": 6139,
      "Ġtorero": 6140,
      "antly": 6141,
      "Ġgl": 6142,
      "Ġgon": 6143,
      "Ġgak": 6144,
      "Ġgem": 6145,
      "Ġgint": 6146,
      "Ġgaku": 6147,
      "Ġguan": 6148,
      "Ġgomen": 6149,
      "Ġgassh": 6150,
      "Ġgakushuu": 6151,
      "etemo": 6152,
      "Ġitaz": 6153,
      "enda": 6154,
      "Ġkab": 6155,
      "Ġkame": 6156,
      "Ġkiz": 6157,
      "Ġkake": 6158,
      "Ġkawase": 6159,
      "Ġkanga": 6160,
      "Ġkizoku": 6161,
      "Ġkomete": 6162,
      "Ġkakusen": 6163,
      "Ġkessen": 6164,
      "Ġklara": 6165,
      "Ġkaspers": 6166,
      "Ġkenda": 6167,
      "utte": 6168,
      "loo": 6169,
      "Ġshr": 6170,
      "Ġshans": 6171,
      "Ġshouk": 6172,
      "Ġshachi": 6173,
      "Ġshura": 6174,
      "Ġshitai": 6175,
      "Ġshoutai": 6176,
      "Ġshift": 6177,
      "Ġshuuchuu": 6178,
      "Ġonto": 6179,
      "tions": 6180,
      "Ġrol": 6181,
      "Ġrak": 6182,
      "Ġrad": 6183,
      "Ġrising": 6184,
      "Ġrpg": 6185,
      "urou": 6186,
      "urashi": 6187,
      "aimasu": 6188,
      "airesh": 6189,
      "ainai": 6190,
      "Ġchun": 6191,
      "Ġchame": 6192,
      "Ġchick": 6193,
      "Ġchaon": 6194,
      "Ġbeast": 6195,
      "Ġbebef": 6196,
      "Ġmoden": 6197,
      "Ġmoku": 6198,
      "ector": 6199,
      "unos": 6200,
      "Ġspy": 6201,
      "Ġspot": 6202,
      "Ġspring": 6203,
      "ghuan": 6204,
      "Ġlifet": 6205,
      "Ġlimits": 6206,
      "Ġdoa": 6207,
      "Ġdoor": 6208,
      "Ġdosu": 6209,
      "Ġdodo": 6210,
      "imou": 6211,
      "imatsu": 6212,
      "imitsu": 6213,
      "chor": 6214,
      "chchor": 6215,
      "hers": 6216,
      "uretette": 6217,
      "Ġbuta": 6218,
      "ocore": 6219,
      "Ġseishun": 6220,
      "ilu": 6221,
      "Ġyes": 6222,
      "Ġyout": 6223,
      "Ġyad": 6224,
      "Ġyay": 6225,
      "Ġyel": 6226,
      "Ġyans": 6227,
      "Ġyode": 6228,
      "Ġyoro": 6229,
      "seki": 6230,
      "seung": 6231,
      "Ġnee": 6232,
      "Ġneon": 6233,
      "Ġneedy": 6234,
      "Ġamen": 6235,
      "Ġamakano": 6236,
      "Ġamaenai": 6237,
      "Ġmajin": 6238,
      "Ġmaico": 6239,
      "Ġmaolu": 6240,
      "irth": 6241,
      "Ġacro": 6242,
      "Ġacross": 6243,
      "hiki": 6244,
      "angelion": 6245,
      "owei": 6246,
      "odon": 6247,
      "oden": 6248,
      "odian": 6249,
      "Ġadachi": 6250,
      "Ġadvance": 6251,
      "aby": 6252,
      "apon": 6253,
      "Ġdear": 6254,
      "Ġdeki": 6255,
      "Ġjm": 6256,
      "Ġjok": 6257,
      "Ġjul": 6258,
      "Ġjack": 6259,
      "Ġjuku": 6260,
      "Ġjoukyuusei": 6261,
      "Ġjesus": 6262,
      "akushi": 6263,
      "akamon": 6264,
      "Ġorion": 6265,
      "Ġorbots": 6266,
      "Ġalps": 6267,
      "vive": 6268,
      "umon": 6269,
      "umei": 6270,
      "umanga": 6271,
      "umairesh": 6272,
      "Ġcharming": 6273,
      "Ġcharisma": 6274,
      "Ġaru": 6275,
      "Ġarab": 6276,
      "Ġaraw": 6277,
      "Ġarbe": 6278,
      "Ġheid": 6279,
      "Ġhesoka": 6280,
      "Ġhetalia": 6281,
      "Ġcoji": 6282,
      "ppy": 6283,
      "ppete": 6284,
      "Ġcanary": 6285,
      "Ġcanonic": 6286,
      "Ġwasure": 6287,
      "Ġdeshi": 6288,
      "Ġdestr": 6289,
      "Ġenrai": 6290,
      "Ġwater": 6291,
      "Ġwataru": 6292,
      "Ġplug": 6293,
      "Ġremi": 6294,
      "ayaf": 6295,
      "roia": 6296,
      "thouse": 6297,
      "Ġbetsu": 6298,
      "estroia": 6299,
      "ichan": 6300,
      "Ġunion": 6301,
      "Ġunicorn": 6302,
      "Ġyoukai": 6303,
      "Ġyoube": 6304,
      "Ġyousei": 6305,
      "Ġoneesan": 6306,
      "Ġemi": 6307,
      "Ġemble": 6308,
      "Ġarea": 6309,
      "Ġvet": 6310,
      "Ġvsp": 6311,
      "Ġvestroia": 6312,
      "Ġstrateg": 6313,
      "Ġstrugg": 6314,
      "Ġpopl": 6315,
      "Ġxenog": 6316,
      "riburi": 6317,
      "joshou": 6318,
      "Ġendro": 6319,
      "Ġkeie": 6320,
      "Ġkeibanashi": 6321,
      "Ġkeisatsu": 6322,
      "Ġcouldn": 6323,
      "echaimasu": 6324,
      "sui": 6325,
      "asonic": 6326,
      "Ġgenius": 6327,
      "ando": 6328,
      "anders": 6329,
      "Ġpretty": 6330,
      "Ġzep": 6331,
      "Ġzoku": 6332,
      "Ġzushi": 6333,
      "Ġzeta": 6334,
      "uck": 6335,
      "Ġunderco": 6336,
      "Ġundercur": 6337,
      "agira": 6338,
      "awari": 6339,
      "Ġgiragira": 6340,
      "ards": 6341,
      "Ġteki": 6342,
      "Ġteenieping": 6343,
      "Ġrosh": 6344,
      "Ġmusabi": 6345,
      "Ġobentou": 6346,
      "gyoku": 6347,
      "izou": 6348,
      "arian": 6349,
      "Ġsoshite": 6350,
      "spring": 6351,
      "Ġhumane": 6352,
      "rise": 6353,
      "Ġsockpu": 6354,
      "Ġima": 6355,
      "ikko": 6356,
      "ikano": 6357,
      "nown": 6358,
      "Ġwarai": 6359,
      "unknown": 6360,
      "Ġhopper": 6361,
      "iteiru": 6362,
      "Ġtwink": 6363,
      "Ġgrav": 6364,
      "Ġworm": 6365,
      "Ġmayday": 6366,
      "Ġmayumi": 6367,
      "Ġweisheme": 6368,
      "Ġkindaichi": 6369,
      "Ġrider": 6370,
      "Ġriyuu": 6371,
      "iga": 6372,
      "Ġmormor": 6373,
      "ansen": 6374,
      "anshuo": 6375,
      "Ġxiu": 6376,
      "Ġxiqu": 6377,
      "Ġxiyang": 6378,
      "Ġufo": 6379,
      "ouran": 6380,
      "Ġsatsu": 6381,
      "Ġreluct": 6382,
      "Ġmaken": 6383,
      "Ġmakura": 6384,
      "Ġmakiba": 6385,
      "Ġsatisfaction": 6386,
      "Ġcentury": 6387,
      "Ġcreature": 6388,
      "Ġnorman": 6389,
      "Ġnorasco": 6390,
      "akuhatsu": 6391,
      "okuchi": 6392,
      "Ġblast": 6393,
      "Ġeffort": 6394,
      "Ġpeppy": 6395,
      "Ġarte": 6396,
      "Ġwaza": 6397,
      "Ġmiso": 6398,
      "ilet": 6399,
      "ileflow": 6400,
      "Ġjiok": 6401,
      "Ġjijin": 6402,
      "Ġjijie": 6403,
      "Ġjiazu": 6404,
      "Ġagechaimasu": 6405,
      "Ġparticle": 6406,
      "hup": 6407,
      "ashiki": 6408,
      "Ġbuchou": 6409,
      "Ġburiburi": 6410,
      "Ġxiaohua": 6411,
      "Ġxiaojie": 6412,
      "Ġxiaoyuan": 6413,
      "Ġxiaohai": 6414,
      "Ġtakara": 6415,
      "Ġtakibi": 6416,
      "Ġtakoy": 6417,
      "Ġvalentine": 6418,
      "grand": 6419,
      "Ġwozwald": 6420,
      "Ġpata": 6421,
      "Ġclosers": 6422,
      "Ġdaze": 6423,
      "Ġjogaku": 6424,
      "Ġship": 6425,
      "Ġshijou": 6426,
      "Ġshiriarty": 6427,
      "Ġmotsu": 6428,
      "Ġmotenai": 6429,
      "Ġoverlay": 6430,
      "Ġoverdose": 6431,
      "Ġredreaming": 6432,
      "Ġdangan": 6433,
      "Ġdangorou": 6434,
      "Ġqwaser": 6435,
      "appona": 6436,
      "Ġtonbou": 6437,
      "Ġmomi": 6438,
      "Ġmomoko": 6439,
      "Ġfleur": 6440,
      "koshi": 6441,
      "oukaku": 6442,
      "oukyoku": 6443,
      "ushika": 6444,
      "Ġgrown": 6445,
      "Ġbaltic": 6446,
      "Ġnaare": 6447,
      "Ġnaze": 6448,
      "Ġkojou": 6449,
      "Ġkohaku": 6450,
      "Ġspoon": 6451,
      "Ġgovern": 6452,
      "Ġmemorial": 6453,
      "Ġherlock": 6454,
      "Ġrelife": 6455,
      "Ġnightmare": 6456,
      "Ġtruffe": 6457,
      "kuzu": 6458,
      "Ġ16": 6459,
      "Ġ19": 6460,
      "Ġcraf": 6461,
      "Ġcricket": 6462,
      "Ġcronos": 6463,
      "Ġcheating": 6464,
      "Ġbobobo": 6465,
      "omatic": 6466,
      "Ġfuwa": 6467,
      "Ġfuxing": 6468,
      "Ġshinki": 6469,
      "Ġshinzou": 6470,
      "Ġkanan": 6471,
      "Ġkanji": 6472,
      "Ġkankou": 6473,
      "Ġdougram": 6474,
      "Ġkud": 6475,
      "Ġkubr": 6476,
      "Ġnanashi": 6477,
      "Ġutage": 6478,
      "Ġikka": 6479,
      "Ġikenai": 6480,
      "Ġikedaya": 6481,
      "Ġhasunos": 6482,
      "Ġqiao": 6483,
      "Ġqiyu": 6484,
      "Ġshougong": 6485,
      "Ġshougeki": 6486,
      "Ġkaiju": 6487,
      "Ġkaixin": 6488,
      "Ġhanasu": 6489,
      "Ġhanimaru": 6490,
      "Ġotona": 6491,
      "Ġtsuri": 6492,
      "Ġtsuigeki": 6493,
      "Ġguang": 6494,
      "hougyoku": 6495,
      "Ġerog": 6496,
      "ishika": 6497,
      "Ġtenri": 6498,
      "Ġtenchi": 6499,
      "Ġtenpo": 6500,
      "Ġhait": 6501,
      "Ġhaha": 6502,
      "Ġgunma": 6503,
      "ipop": 6504,
      "ipuchi": 6505,
      "Ġzhand": 6506,
      "Ġzhimou": 6507,
      "udi": 6508,
      "Ġtank": 6509,
      "Ġtansu": 6510,
      "Ġtanki": 6511,
      "Ġshenlin": 6512,
      "Ġdaigo": 6513,
      "buri": 6514,
      "buyaki": 6515,
      "shmallow": 6516,
      "ousel": 6517,
      "Ġxingfu": 6518,
      "Ġmiishika": 6519,
      "Ġrenketsu": 6520,
      "Ġrenxing": 6521,
      "Ġzhuan": 6522,
      "Ġbaoxiao": 6523,
      "Ġbaosheng": 6524,
      "Ġdiver": 6525,
      "Ġdiaries": 6526,
      "Ġkenkyuu": 6527,
      "Ġflanders": 6528,
      "Ġwana": 6529,
      "Ġwanmei": 6530,
      "Ġwanjia": 6531,
      "Ġwanpaku": 6532,
      "Ġkaite": 6533,
      "Ġkaisen": 6534,
      "Ġkaasan": 6535,
      "Ġmarshmallow": 6536,
      "Ġmagn": 6537,
      "Ġmagikano": 6538,
      "Ġkyoufu": 6539,
      "Ġcatcher": 6540,
      "Ġdanbi": 6541,
      "Ġdancers": 6542,
      "Ġtsurai": 6543,
      "Ġtsuretette": 6544,
      "Ġboys": 6545,
      "Ġatmosphere": 6546,
      "Ġmeguru": 6547,
      "Ġassass": 6548,
      "ubus": 6549,
      "Ġyige": 6550,
      "Ġnobara": 6551,
      "Ġhoshikuzu": 6552,
      "Ġtaiho": 6553,
      "Ġkihei": 6554,
      "Ġkiriya": 6555,
      "Ġtianxin": 6556,
      "Ġdinosaur": 6557,
      "Ġdonbei": 6558,
      "Ġbaodian": 6559,
      "peia": 6560,
      "Ġakagi": 6561,
      "uroya": 6562,
      "Ġyumejin": 6563,
      "Ġkakko": 6564,
      "Ġtouch": 6565,
      "Ġtouhai": 6566,
      "Ġsunred": 6567,
      "Ġseiya": 6568,
      "Ġmajutsu": 6569,
      "Ġmashup": 6570,
      "orative": 6571,
      "Ġyuuwaku": 6572,
      "Ġblacklam": 6573,
      "Ġeden": 6574,
      "Ġsoudou": 6575,
      "Ġhimawari": 6576,
      "Ġgreatest": 6577,
      "Ġkagami": 6578,
      "Ġkagaku": 6579,
      "Ġkagura": 6580,
      "Ġrururu": 6581,
      "Ġmoonlight": 6582,
      "Ġcarousel": 6583,
      "Ġbloss": 6584,
      "Ġkyoku": 6585,
      "Ġkyonyuu": 6586,
      "Ġaria": 6587,
      "Ġbusy": 6588,
      "Ġbusou": 6589,
      "Ġpets": 6590,
      "Ġpilseung": 6591,
      "Ġshankou": 6592,
      "Ġshanmao": 6593,
      "Ġjiangmo": 6594,
      "Ġhitorig": 6595,
      "Ġhitokuchi": 6596,
      "Ġmobami": 6597,
      "Ġmobage": 6598,
      "Ġschedules": 6599,
      "coji": 6600,
      "Ġmug": 6601,
      "Ġmuushika": 6602,
      "Ġjinyi": 6603,
      "Ġumakatta": 6604,
      "Ġbenediz": 6605,
      "Ġotokogi": 6606,
      "Ġcountdown": 6607,
      "Ġ88": 6608,
      "Ġvivid": 6609,
      "Ġbrigade": 6610,
      "Ġokashi": 6611,
      "Ġokarish": 6612,
      "Ġshimamura": 6613,
      "new": 6614,
      "neun": 6615,
      "Ġprisma": 6616,
      "Ġqianxian": 6617,
      "Ġ667": 6618,
      "Ġmairi": 6619,
      "Ġmaiorita": 6620,
      "Ġgekken": 6621,
      "Ġkikou": 6622,
      "Ġkikaku": 6623,
      "Ġhenkei": 6624,
      "Ġhenkaku": 6625,
      "Ġhensachi": 6626,
      "Ġtongnian": 6627,
      "Ġsonic": 6628,
      "Ġsonna": 6629,
      "Ġsongshu": 6630,
      "Ġfool": 6631,
      "Ġfurusato": 6632,
      "Ġkinpoko": 6633,
      "Ġkyozou": 6634,
      "Ġyasumi": 6635,
      "Ġdevils": 6636,
      "Ġfullmetal": 6637,
      "Ġtomorrow": 6638,
      "Ġtripper": 6639,
      "Ġshokugyou": 6640,
      "Ġmachiko": 6641,
      "Ġhigashi": 6642,
      "Ġhigurashi": 6643,
      "Ġsteel": 6644,
      "Ġstella": 6645,
      "Ġkatachi": 6646,
      "Ġkatayoku": 6647,
      "Ġcorner": 6648,
      "Ġchuanshuo": 6649,
      "Ġyanbou": 6650,
      "Ġyanyan": 6651,
      "Ġxuanfeng": 6652,
      "summer": 6653,
      "Ġdongxi": 6654,
      "Ġpuppet": 6655,
      "Ġpuppete": 6656,
      "Ġpanasonic": 6657,
      "Ġelect": 6658,
      "Ġkokomom": 6659,
      "Ġshigan": 6660,
      "Ġdeadly": 6661,
      "Ġkeiichi": 6662,
      "phonica": 6663,
      "Ġdaibakuhatsu": 6664,
      "Ġ2015": 6665,
      "Ġomedet": 6666,
      "Ġtamashii": 6667,
      "Ġsmileflow": 6668,
      "Ġmamoru": 6669,
      "Ġfourth": 6670,
      "Ġkarma": 6671,
      "Ġkarappona": 6672,
      "Ġmado": 6673,
      "Ġmadlax": 6674,
      "Ġqueens": 6675,
      "Ġtsukurou": 6676,
      "Ġhuajia": 6677,
      "Ġippatsu": 6678,
      "Ġipponb": 6679,
      "Ġikuiku": 6680,
      "Ġsoukou": 6681,
      "Ġmondainai": 6682,
      "Ġfrontline": 6683,
      "Ġninbou": 6684,
      "Ġninpuuchou": 6685,
      "Ġojikan": 6686,
      "Ġojarumaru": 6687,
      "Ġkousaku": 6688,
      "Ġkoushin": 6689,
      "Ġkatsuko": 6690,
      "Ġryuuhougyoku": 6691,
      "Ġspread": 6692,
      "Ġsprechchor": 6693,
      "Ġseikimatsu": 6694,
      "Ġsaikyouiku": 6695,
      "blue": 6696,
      "obori": 6697,
      "Ġazar": 6698,
      "Ġazumanga": 6699,
      "inyue": 6700,
      "Ġmidnight": 6701,
      "Ġmidsummer": 6702,
      "Ġdiggy": 6703,
      "Ġfranken": 6704,
      "Ġbingqiu": 6705,
      "Ġbastions": 6706,
      "Ġpipilu": 6707,
      "Ġdoremi": 6708,
      "Ġomoi": 6709,
      "Ġomaera": 6710,
      "Ġtentai": 6711,
      "prologue": 6712,
      "Ġakubi": 6713,
      "Ġtangshi": 6714,
      "Ġpikatta": 6715,
      "Ġkongjian": 6716,
      "Ġcoffy": 6717,
      "Ġvampiyan": 6718,
      "Ġclouds": 6719,
      "!?,": 6720,
      "iopeia": 6721,
      "Ġtoriko": 6722,
      "Ġtatanai": 6723,
      "Ġiczer": 6724,
      "Ġwenzi": 6725,
      "Ġmenghuan": 6726,
      "Ġmalay": 6727,
      "Ġdengon": 6728,
      "Ġhokkyoku": 6729,
      "Ġhachiclo": 6730,
      "Ġhachimitsu": 6731,
      "Ġkuroko": 6732,
      "Ġkokuin": 6733,
      "Ġdokgo": 6734,
      "Ġmabushii": 6735,
      "Ġjuubee": 6736,
      "Ġemerald": 6737,
      "Ġnihonshi": 6738,
      "Ġillya": 6739,
      "Ġsagase": 6740,
      "Ġmingyue": 6741,
      "Ġflowers": 6742,
      "Ġfukusuke": 6743,
      "Ġnetwork": 6744,
      "Ġpinky": 6745,
      "Ġosomatsu": 6746,
      "Ġeyes": 6747,
      "Ġrecords": 6748,
      "Ġslayer": 6749,
      "Ġshinkansen": 6750,
      "Ġtachikomatic": 6751,
      "Ġcursed": 6752,
      "Ġcocomong": 6753,
      "Ġdotten": 6754,
      "Ġbinetsu": 6755,
      "Ġbarakamon": 6756,
      "Ġbakugan": 6757,
      "Ġyonggan": 6758,
      "Ġzunda": 6759,
      "Ġbuilding": 6760,
      "Ġsonyeonjang": 6761,
      "Ġueki": 6762,
      "Ġsdgs": 6763,
      "Ġmichael": 6764,
      "Ġdadi": 6765,
      "Ġpickles": 6766,
      "Ġreload": 6767,
      "Ġreloaded": 6768,
      "Ġhours": 6769,
      "Ġkomachi": 6770,
      "Ġnozoki": 6771,
      "Ġnozomu": 6772,
      "Ġlighthouse": 6773,
      "Ġsuccubus": 6774,
      "Ġimagin": 6775,
      "Ġcatchball": 6776,
      "Ġdudu": 6777,
      "Ġfestival": 6778,
      "Ġfamilies": 6779,
      "Ġbouei": 6780,
      "Ġbondage": 6781,
      "Ġnenechi": 6782,
      "Ġliner": 6783,
      "Ġowar": 6784,
      "Ġhalloween": 6785,
      "Ġhirosh": 6786,
      "Ġgangjwi": 6787,
      "Ġkyupi": 6788,
      "Ġchamploo": 6789,
      "Ġexorcist": 6790,
      "Ġxuzhang": 6791,
      "Ġmakkuro": 6792,
      "Ġjiuyuan": 6793,
      "Ġharukanaru": 6794,
      "Ġutsukushi": 6795,
      "Ġguaiwu": 6796,
      "Ġxiaodui": 6797,
      "Ġtamatomo": 6798,
      "1984": 6799,
      "Ġkawaii": 6800,
      "Ġtottoko": 6801,
      "Ġdantian": 6802,
      "Ġfighter": 6803,
      "Ġnyanpara": 6804,
      "Ġpalm": 6805,
      "Ġpuchipuchi": 6806,
      "Ġevangelion": 6807,
      "Ġhinobori": 6808,
      "Ġhula": 6809,
      "Ġhitsuji": 6810,
      "Ġgokud": 6811,
      "Ġkkt": 6812,
      "Ġkorea": 6813,
      "Ġshichau": 6814,
      "Ġchickip": 6815,
      "Ġchimimonryou": 6816,
      "Ġselector": 6817,
      "Ġtroopers": 6818,
      "Ġsuikoden": 6819,
      "Ġyoukoso": 6820,
      "Ġpolyphonica": 6821,
      "Ġzankoku": 6822,
      "Ġleviathan": 6823,
      "Ġblazblue": 6824,
      "Ġhidamari": 6825,
      "Ġfurikab": 6826,
      "Ġeromame": 6827,
      "Ġbravern": 6828,
      "Ġoujosama": 6829,
      "Ġkyoushirou": 6830,
      "Ġsketch": 6831,
      "Ġreturns": 6832,
      "Ġoshirobots": 6833,
      "Ġayatsuri": 6834,
      "Ġdoushite": 6835,
      "Ġfusu": 6836,
      "Ġoishiku": 6837,
      "Ġhashibiro": 6838,
      "Ġcommemorative": 6839,
      "lossia": 6840,
      "stein": 6841,
      "Ġmelty": 6842,
      "Ġmelody": 6843,
      "Ġchihayaf": 6844,
      "Ġrescue": 6845,
      "Ġkoibana": 6846,
      "Ġ1874": 6847,
      "Ġsenran": 6848,
      "Ġkagayaki": 6849,
      "Ġkaminari": 6850,
      "kaleid": 6851,
      "Ġaoyun": 6852,
      "Ġsidae": 6853,
      "Ġsorcerer": 6854,
      "Ġcamomil": 6855,
      "Ġcassiopeia": 6856,
      "Ġcuisine": 6857,
      "Ġwadaiko": 6858,
      "Ġmietchi": 6859,
      "Ġmashumairesh": 6860,
      "Ġdamasaren": 6861,
      "Ġdatte": 6862,
      "Ġdasshutsu": 6863,
      "Ġfigure": 6864,
      "Ġfukuin": 6865,
      "Ġbrilliant": 6866,
      "Ġberserk": 6867,
      "Ġbaseball": 6868,
      "Ġbiblia": 6869,
      "Ġbizarre": 6870,
      "Ġantihero": 6871,
      "Ġnendoroid": 6872,
      "Ġnulu": 6873,
      "Ġnyuumon": 6874,
      "Ġnissin": 6875,
      "Ġphoenix": 6876,
      "Ġpygmalio": 6877,
      "Ġlollipop": 6878,
      "Ġreplacer": 6879,
      "Ġreikenzan": 6880,
      "Ġreindeer": 6881,
      "Ġolivia": 6882,
      "asogare": 6883,
      "Ġhaidi": 6884,
      "Ġhyuuma": 6885,
      "Ġhoushiki": 6886,
      "Ġinadan": 6887,
      "Ġgakkou": 6888,
      "Ġgintama": 6889,
      "Ġgakuin": 6890,
      "Ġgomennasai": 6891,
      "Ġgasshapon": 6892,
      "Ġitazura": 6893,
      "Ġkawasemi": 6894,
      "Ġkangaetemo": 6895,
      "Ġkakusenou": 6896,
      "Ġkaspersky": 6897,
      "Ġshanshei": 6898,
      "Ġshachiku": 6899,
      "Ġontology": 6900,
      "Ġrolling": 6901,
      "Ġrakko": 6902,
      "Ġchameleon": 6903,
      "Ġchicken": 6904,
      "Ġchaonu": 6905,
      "Ġbebefinn": 6906,
      "Ġlifetime": 6907,
      "Ġdosukoi": 6908,
      "Ġyadokari": 6909,
      "Ġyayoi": 6910,
      "Ġyellow": 6911,
      "Ġyanshen": 6912,
      "Ġyodel": 6913,
      "Ġamaenaide": 6914,
      "Ġdekiai": 6915,
      "Ġjuliet": 6916,
      "Ġjukujo": 6917,
      "Ġheidi": 6918,
      "Ġdestruction": 6919,
      "Ġemblem": 6920,
      "Ġvspo": 6921,
      "Ġstrategy": 6922,
      "Ġstruggle": 6923,
      "Ġpoplar": 6924,
      "Ġxenoglossia": 6925,
      "Ġkeiei": 6926,
      "Ġzephyr": 6927,
      "Ġzushioumaru": 6928,
      "Ġundercover": 6929,
      "Ġundercurrent": 6930,
      "Ġroshutsu": 6931,
      "Ġsockpuppet": 6932,
      "Ġtwinkle": 6933,
      "Ġmormorando": 6934,
      "Ġreluctantly": 6935,
      "Ġtakoyaki": 6936,
      "Ġjogakuin": 6937,
      "Ġgovernment": 6938,
      "Ġcraft": 6939,
      "Ġkubrick": 6940,
      "Ġhasunosora": 6941,
      "Ġerogame": 6942,
      "Ġkenkyuukai": 6943,
      "Ġblacklambs": 6944,
      "Ġhitorigoto": 6945,
      "Ġjinyiwei": 6946,
      "Ġbenedizione": 6947,
      "Ġokarishimasu": 6948,
      "Ġpuppeteer": 6949,
      "Ġomedetou": 6950,
      "Ġsmileflower": 6951,
      "Ġipponbashi": 6952,
      "Ġfrankenstein": 6953,
      "Ġsonyeonjangsu": 6954,
      "Ġmichaela": 6955,
      "Ġhiroshima": 6956,
      "Ġfurikabutte": 6957,
      "Ġchihayafuru": 6958,
      "Ġcamomillo": 6959,
      "Ġdamasarenaide": 6960,
      "!-": 6961,
      ".?": 6962,
      "13": 6963,
      "15": 6964,
      "39": 6965,
      "43": 6966,
      "66": 6967,
      "75": 6968,
      "aen": 6969,
      "aan": 6970,
      "aus": 6971,
      "aite": 6972,
      "bre": 6973,
      "bun": 6974,
      "bian": 6975,
      "bond": 6976,
      "bling": 6977,
      "buku": 6978,
      "bali": 6979,
      "bini": 6980,
      "cw": 6981,
      "cat": 6982,
      "cal": 6983,
      "chen": 6984,
      "caf": 6985,
      "dot": 6986,
      "dang": 6987,
      "dans": 6988,
      "dog": 6989,
      "drop": 6990,
      "dalk": 6991,
      "dousan": 6992,
      "disy": 6993,
      "een": 6994,
      "eed": 6995,
      "ebi": 6996,
      "evan": 6997,
      "euta": 6998,
      "fon": 6999,
      "fly": 7000,
      "fish": 7001,
      "fura": 7002,
      "frain": 7003,
      "fuda": 7004,
      "gou": 7005,
      "gur": 7006,
      "gai": 7007,
      "gers": 7008,
      "gence": 7009,
      "gry": 7010,
      "ggy": 7011,
      "gaim": 7012,
      "hun": 7013,
      "hand": 7014,
      "hana": 7015,
      "iri": 7016,
      "iang": 7017,
      "iod": 7018,
      "iers": 7019,
      "iple": 7020,
      "ience": 7021,
      "iand": 7022,
      "iards": 7023,
      "je": 7024,
      "jal": 7025,
      "jab": 7026,
      "jag": 7027,
      "jik": 7028,
      "jiban": 7029,
      "kono": 7030,
      "kichi": 7031,
      "kata": 7032,
      "kousei": 7033,
      "kakushi": 7034,
      "lec": 7035,
      "lvan": 7036,
      "men": 7037,
      "mura": 7038,
      "mouse": 7039,
      "mson": 7040,
      "myouji": 7041,
      "nan": 7042,
      "nis": 7043,
      "nical": 7044,
      "nition": 7045,
      "nigh": 7046,
      "nyuu": 7047,
      "oly": 7048,
      "ole": 7049,
      "ofu": 7050,
      "oban": 7051,
      "oeuta": 7052,
      "pect": 7053,
      "pice": 7054,
      "pest": 7055,
      "paw": 7056,
      "pari": 7057,
      "phen": 7058,
      "punch": 7059,
      "pui": 7060,
      "phose": 7061,
      "paka": 7062,
      "papa": 7063,
      "roc": 7064,
      "rui": 7065,
      "rock": 7066,
      "rouge": 7067,
      "rait": 7068,
      "sa": 7069,
      "si": 7070,
      "sation": 7071,
      "sol": 7072,
      "soku": 7073,
      "sman": 7074,
      "sna": 7075,
      "squar": 7076,
      "tu": 7077,
      "tar": 7078,
      "tun": 7079,
      "tian": 7080,
      "ubu": 7081,
      "ubi": 7082,
      "uze": 7083,
      "ugata": 7084,
      "von": 7085,
      "vate": 7086,
      "vine": 7087,
      "wit": 7088,
      "wab": 7089,
      "waru": 7090,
      "wano": 7091,
      "xed": 7092,
      "xlip": 7093,
      "yn": 7094,
      "yin": 7095,
      "yun": 7096,
      "yay": 7097,
      "yari": 7098,
      "yatsu": 7099,
      "yake": 7100,
      "yoro": 7101,
      "yakus": 7102,
      "yashii": 7103,
      "yakushuu": 7104,
      "yamoto": 7105,
      "zuo": 7106,
      "zaru": 7107,
      "zuru": 7108,
      "zrock": 7109,
      "Ġve": 7110,
      "Ġest": 7111,
      "Ġaest": 7112,
      "Ġauction": 7113,
      "Ġayu": 7114,
      "Ġtin": 7115,
      "Ġting": 7116,
      "Ġted": 7117,
      "Ġtec": 7118,
      "Ġtaw": 7119,
      "Ġtori": 7120,
      "Ġtune": 7121,
      "Ġtale": 7122,
      "Ġtico": 7123,
      "Ġtwel": 7124,
      "Ġtotto": 7125,
      "Ġtayo": 7126,
      "Ġtadai": 7127,
      "Ġtousan": 7128,
      "Ġtasogare": 7129,
      "Ġiin": 7130,
      "Ġiron": 7131,
      "Ġijime": 7132,
      "Ġievan": 7133,
      "Ġsons": 7134,
      "Ġsite": 7135,
      "Ġsaki": 7136,
      "Ġsareru": 7137,
      "Ġsxs": 7138,
      "onut": 7139,
      "onance": 7140,
      "onaka": 7141,
      "onkyou": 7142,
      "oniao": 7143,
      "Ġcp": 7144,
      "Ġcou": 7145,
      "Ġcuc": 7146,
      "Ġcike": 7147,
      "Ġcub": 7148,
      "Ġcret": 7149,
      "Ġcors": 7150,
      "Ġccw": 7151,
      "heom": 7152,
      "heart": 7153,
      "heos": 7154,
      "Ġwand": 7155,
      "Ġward": 7156,
      "Ġwien": 7157,
      "Ġwalk": 7158,
      "inin": 7159,
      "inum": 7160,
      "ints": 7161,
      "inaga": 7162,
      "inpo": 7163,
      "enashi": 7164,
      "enced": 7165,
      "ern": 7166,
      "eric": 7167,
      "erus": 7168,
      "erry": 7169,
      "eria": 7170,
      "erva": 7171,
      "Ġmec": 7172,
      "Ġmichi": 7173,
      "Ġmbs": 7174,
      "orlax": 7175,
      "any": 7176,
      "anjie": 7177,
      "atar": 7178,
      "atam": 7179,
      "atical": 7180,
      "atless": 7181,
      "atoki": 7182,
      "atina": 7183,
      "ataba": 7184,
      "atinum": 7185,
      "atanjie": 7186,
      "oud": 7187,
      "Ġded": 7188,
      "Ġdress": 7189,
      "Ġdand": 7190,
      "Ġdag": 7191,
      "Ġdry": 7192,
      "Ġdual": 7193,
      "Ġduan": 7194,
      "Ġdoro": 7195,
      "Ġdarou": 7196,
      "Ġdatta": 7197,
      "Ġddot": 7198,
      "Ġdyn": 7199,
      "Ġfal": 7200,
      "Ġfro": 7201,
      "Ġflying": 7202,
      "esh": 7203,
      "alt": 7204,
      "alala": 7205,
      "Ġbis": 7206,
      "Ġbate": 7207,
      "Ġbid": 7208,
      "Ġbite": 7209,
      "Ġbible": 7210,
      "Ġburning": 7211,
      "Ġbouk": 7212,
      "Ġbumi": 7213,
      "Ġbousei": 7214,
      "Ġbatter": 7215,
      "Ġbazu": 7216,
      "Ġbocchan": 7217,
      "Ġberry": 7218,
      "itage": 7219,
      "itose": 7220,
      "itama": 7221,
      "itetsu": 7222,
      "itters": 7223,
      "itondo": 7224,
      "oming": 7225,
      "omag": 7226,
      "omeru": 7227,
      "omiga": 7228,
      "omdalk": 7229,
      "Ġange": 7230,
      "Ġanthe": 7231,
      "ede": 7232,
      "edal": 7233,
      "edama": 7234,
      "aro": 7235,
      "arai": 7236,
      "arushi": 7237,
      "arick": 7238,
      "aroo": 7239,
      "arrow": 7240,
      "Ġnus": 7241,
      "Ġnis": 7242,
      "Ġnong": 7243,
      "Ġnib": 7244,
      "Ġnage": 7245,
      "Ġnie": 7246,
      "Ġnaid": 7247,
      "Ġnational": 7248,
      "Ġnink": 7249,
      "Ġnitou": 7250,
      "Ġnonb": 7251,
      "Ġpac": 7252,
      "Ġpant": 7253,
      "Ġpiz": 7254,
      "Ġpari": 7255,
      "Ġpast": 7256,
      "Ġpaid": 7257,
      "Ġpita": 7258,
      "Ġpud": 7259,
      "Ġpedal": 7260,
      "Ġandroid": 7261,
      "Ġlant": 7262,
      "Ġlite": 7263,
      "Ġlau": 7264,
      "Ġlinda": 7265,
      "ota": 7266,
      "otondo": 7267,
      "otheos": 7268,
      "ecchou": 7269,
      "echers": 7270,
      "Ġrevol": 7271,
      "Ġrevolut": 7272,
      "Ġrefrain": 7273,
      "Ġreitetsu": 7274,
      "amet": 7275,
      "amise": 7276,
      "amushi": 7277,
      "Ġoce": 7278,
      "Ġores": 7279,
      "Ġoome": 7280,
      "Ġoint": 7281,
      "Ġoka": 7282,
      "Ġooi": 7283,
      "Ġoyay": 7284,
      "ushu": 7285,
      "usamet": 7286,
      "asing": 7287,
      "asure": 7288,
      "ashing": 7289,
      "asia": 7290,
      "asobi": 7291,
      "aspect": 7292,
      "Ġeg": 7293,
      "Ġeternal": 7294,
      "Ġego": 7295,
      "Ġevil": 7296,
      "Ġezuo": 7297,
      "Ġthunder": 7298,
      "ishu": 7299,
      "isoushi": 7300,
      "iswit": 7301,
      "Ġhash": 7302,
      "Ġhaka": 7303,
      "Ġhagure": 7304,
      "Ġhatar": 7305,
      "legend": 7306,
      "Ġind": 7307,
      "Ġinyoku": 7308,
      "Ġinochi": 7309,
      "entless": 7310,
      "entaite": 7311,
      "riage": 7312,
      "rimono": 7313,
      "Ġofuroya": 7314,
      "Ġtoday": 7315,
      "Ġtoku": 7316,
      "Ġtoppa": 7317,
      "anto": 7318,
      "Ġgg": 7319,
      "Ġgai": 7320,
      "Ġgest": 7321,
      "Ġglow": 7322,
      "Ġgig": 7323,
      "Ġgui": 7324,
      "Ġgatt": 7325,
      "Ġgret": 7326,
      "Ġgiao": 7327,
      "Ġgyak": 7328,
      "Ġgorou": 7329,
      "Ġgoli": 7330,
      "Ġgyakushuu": 7331,
      "etan": 7332,
      "etatam": 7333,
      "Ġitalian": 7334,
      "Ġconcre": 7335,
      "Ġstaf": 7336,
      "Ġstop": 7337,
      "endar": 7338,
      "teru": 7339,
      "Ġkj": 7340,
      "Ġkang": 7341,
      "Ġkreat": 7342,
      "Ġkro": 7343,
      "Ġkuu": 7344,
      "Ġkashi": 7345,
      "Ġkachi": 7346,
      "Ġkatt": 7347,
      "Ġkka": 7348,
      "Ġkishi": 7349,
      "Ġkni": 7350,
      "Ġkousei": 7351,
      "Ġkabi": 7352,
      "Ġkiba": 7353,
      "Ġkureta": 7354,
      "Ġkaba": 7355,
      "Ġkaren": 7356,
      "Ġkachik": 7357,
      "Ġkandou": 7358,
      "Ġkigan": 7359,
      "Ġketang": 7360,
      "Ġketatam": 7361,
      "utu": 7362,
      "Ġissen": 7363,
      "Ġisog": 7364,
      "loon": 7365,
      "Ġforma": 7366,
      "Ġforbid": 7367,
      "Ġshiz": 7368,
      "Ġshuk": 7369,
      "Ġshita": 7370,
      "Ġshinda": 7371,
      "Ġshibou": 7372,
      "Ġshatanjie": 7373,
      "Ġonag": 7374,
      "Ġonkai": 7375,
      "Ġonna": 7376,
      "Ġonyan": 7377,
      "Ġonmyouji": 7378,
      "outa": 7379,
      "outine": 7380,
      "outoku": 7381,
      "station": 7382,
      "Ġroc": 7383,
      "Ġrice": 7384,
      "Ġrum": 7385,
      "Ġrul": 7386,
      "Ġrink": 7387,
      "Ġroutine": 7388,
      "ural": 7389,
      "uramori": 7390,
      "aiba": 7391,
      "Ġchir": 7392,
      "Ġchuu": 7393,
      "Ġchill": 7394,
      "Ġchui": 7395,
      "Ġchiko": 7396,
      "Ġchitose": 7397,
      "Ġchasing": 7398,
      "Ġbeam": 7399,
      "Ġbell": 7400,
      "Ġbeva": 7401,
      "Ġbebop": 7402,
      "Ġbeerus": 7403,
      "Ġbeatless": 7404,
      "Ġmole": 7405,
      "Ġmovi": 7406,
      "Ġmoshi": 7407,
      "Ġmofu": 7408,
      "Ġmokei": 7409,
      "Ġmoburi": 7410,
      "Ġmoetan": 7411,
      "deiru": 7412,
      "unai": 7413,
      "orymer": 7414,
      "Ġnoir": 7415,
      "Ġnopp": 7416,
      "Ġsparrow": 7417,
      "ghing": 7418,
      "ghai": 7419,
      "ghuo": 7420,
      "ghwan": 7421,
      "Ġlied": 7422,
      "Ġlieren": 7423,
      "Ġliek": 7424,
      "Ġliye": 7425,
      "Ġdoom": 7426,
      "Ġdoge": 7427,
      "Ġdoki": 7428,
      "Ġdokyou": 7429,
      "Ġdoby": 7430,
      "Ġdooly": 7431,
      "imim": 7432,
      "chans": 7433,
      "chuan": 7434,
      "uretsu": 7435,
      "Ġabel": 7436,
      "Ġabsol": 7437,
      "Ġabunai": 7438,
      "Ġbutouk": 7439,
      "Ġseisen": 7440,
      "Ġseoul": 7441,
      "ilai": 7442,
      "ilala": 7443,
      "Ġtray": 7444,
      "Ġtracing": 7445,
      "Ġtrop": 7446,
      "Ġdramatical": 7447,
      "Ġyow": 7448,
      "Ġyab": 7449,
      "Ġyok": 7450,
      "Ġyases": 7451,
      "Ġyarou": 7452,
      "Ġyats": 7453,
      "Ġyocchan": 7454,
      "Ġyinyue": 7455,
      "Ġyonkyou": 7456,
      "Ġyomiga": 7457,
      "Ġyarushi": 7458,
      "Ġyaiba": 7459,
      "sea": 7460,
      "semble": 7461,
      "Ġrecital": 7462,
      "useishu": 7463,
      "Ġamagi": 7464,
      "Ġamemi": 7465,
      "Ġamedama": 7466,
      "olis": 7467,
      "Ġmaki": 7468,
      "Ġmawaru": 7469,
      "Ġashi": 7470,
      "Ġasuk": 7471,
      "pto": 7472,
      "ptor": 7473,
      "irt": 7474,
      "irish": 7475,
      "resan": 7476,
      "anger": 7477,
      "odu": 7478,
      "oduo": 7479,
      "Ġbecky": 7480,
      "aboro": 7481,
      "apan": 7482,
      "Ġdek": 7483,
      "Ġdem": 7484,
      "Ġdeer": 7485,
      "Ġdeus": 7486,
      "Ġdevi": 7487,
      "Ġdelin": 7488,
      "Ġjr": 7489,
      "Ġjote": 7490,
      "Ġjins": 7491,
      "Ġjud": 7492,
      "Ġjink": 7493,
      "Ġjikan": 7494,
      "Ġjoukaku": 7495,
      "Ġjoutoku": 7496,
      "Ġjapan": 7497,
      "akan": 7498,
      "akai": 7499,
      "akung": 7500,
      "Ġsuenai": 7501,
      "Ġsukuu": 7502,
      "ada": 7503,
      "adakung": 7504,
      "Ġora": 7505,
      "Ġorig": 7506,
      "Ġorphen": 7507,
      "Ġalien": 7508,
      "Ġalgu": 7509,
      "oket": 7510,
      "okare": 7511,
      "okem": 7512,
      "okashite": 7513,
      "vius": 7514,
      "umatsu": 7515,
      "umori": 7516,
      "areuchi": 7517,
      "Ġcharon": 7518,
      "Ġarno": 7519,
      "Ġarashi": 7520,
      "quent": 7521,
      "Ġhead": 7522,
      "Ġheik": 7523,
      "Ġheming": 7524,
      "Ġhells": 7525,
      "Ġcore": 7526,
      "Ġcobop": 7527,
      "ppou": 7528,
      "pple": 7529,
      "Ġloop": 7530,
      "Ġafro": 7531,
      "Ġcanghai": 7532,
      "Ġworkers": 7533,
      "Ġwasuren": 7534,
      "Ġdisk": 7535,
      "amewo": 7536,
      "Ġenget": 7537,
      "Ġengi": 7538,
      "Ġenchou": 7539,
      "Ġensoku": 7540,
      "Ġensemble": 7541,
      "Ġplatinum": 7542,
      "aceous": 7543,
      "Ġfantast": 7544,
      "itional": 7545,
      "Ġremast": 7546,
      "ictoria": 7547,
      "Ġbetel": 7548,
      "Ġdisciple": 7549,
      "Ġroman": 7550,
      "ulie": 7551,
      "ulby": 7552,
      "Ġuni": 7553,
      "Ġyousu": 7554,
      "Ġyouzhou": 7555,
      "Ġemono": 7556,
      "gege": 7557,
      "gejab": 7558,
      "geuze": 7559,
      "Ġconflated": 7560,
      "Ġshock": 7561,
      "Ġshozoku": 7562,
      "Ġvaz": 7563,
      "Ġvictoria": 7564,
      "Ġatel": 7565,
      "Ġstray": 7566,
      "Ġstranger": 7567,
      "amikakushi": 7568,
      "Ġshowtime": 7569,
      "iday": 7570,
      "idao": 7571,
      "idama": 7572,
      "Ġpojin": 7573,
      "Ġpoinpo": 7574,
      "Ġxion": 7575,
      "Ġxpice": 7576,
      "Ġxulie": 7577,
      "ousama": 7578,
      "ousoukyoku": 7579,
      "Ġdeca": 7580,
      "Ġkeke": 7581,
      "ifa": 7582,
      "ifeng": 7583,
      "Ġcompany": 7584,
      "inez": 7585,
      "hedoro": 7586,
      "Ġgenya": 7587,
      "Ġclay": 7588,
      "Ġclamp": 7589,
      "Ġclaus": 7590,
      "Ġzou": 7591,
      "Ġzwei": 7592,
      "Ġzann": 7593,
      "Ġzecchou": 7594,
      "Ġzentaite": 7595,
      "meishi": 7596,
      "Ġundersea": 7597,
      "kie": 7598,
      "kiyo": 7599,
      "shiba": 7600,
      "agumi": 7601,
      "agusa": 7602,
      "agatoki": 7603,
      "awareta": 7604,
      "Ġgirs": 7605,
      "Ġgiratina": 7606,
      "Ġgiromag": 7607,
      "Ġgirotondo": 7608,
      "Ġsetora": 7609,
      "Ġtea": 7610,
      "Ġteles": 7611,
      "Ġteaser": 7612,
      "Ġtefuda": 7613,
      "Ġtelec": 7614,
      "Ġroyal": 7615,
      "sterie": 7616,
      "Ġmushin": 7617,
      "Ġevening": 7618,
      "emotion": 7619,
      "emita": 7620,
      "emonogatari": 7621,
      "gyaku": 7622,
      "Ġtimeline": 7623,
      "ize": 7624,
      "izoushi": 7625,
      "Ġ23": 7626,
      "Ġidoman": 7627,
      "space": 7628,
      "speed": 7629,
      "Ġsamyang": 7630,
      "nover": 7631,
      "Ġimo": 7632,
      "Ġimawa": 7633,
      "sys": 7634,
      "Ġslave": 7635,
      "Ġslaim": 7636,
      "Ġfreya": 7637,
      "Ġpsychic": 7638,
      "ekoi": 7639,
      "ekomdalk": 7640,
      "Ġoperation": 7641,
      "Ġcybor": 7642,
      "Ġcybers": 7643,
      "Ġcynical": 7644,
      "ggi": 7645,
      "gger": 7646,
      "Ġadditional": 7647,
      "Ġesper": 7648,
      "Ġescaf": 7649,
      "onsaen": 7650,
      "Ġcrimson": 7651,
      "Ġthrott": 7652,
      "lowne": 7653,
      "Ġphot": 7654,
      "Ġlequ": 7655,
      "Ġleifeng": 7656,
      "iteiku": 7657,
      "Ġtwin": 7658,
      "Ġgray": 7659,
      "Ġjusteen": 7660,
      "Ġmayfly": 7661,
      "Ġmayonaka": 7662,
      "Ġweishi": 7663,
      "Ġweilai": 7664,
      "Ġquiz": 7665,
      "Ġqualia": 7666,
      "Ġrikei": 7667,
      "Ġripple": 7668,
      "Ġperiod": 7669,
      "igi": 7670,
      "Ġusa": 7671,
      "ixiang": 7672,
      "Ġproud": 7673,
      "Ġclock": 7674,
      "Ġxiandao": 7675,
      "lfriend": 7676,
      "Ġpowerpu": 7677,
      "Ġuda": 7678,
      "Ġuju": 7679,
      "Ġuwab": 7680,
      "Ġukiyo": 7681,
      "ours": 7682,
      "Ġcolor": 7683,
      "Ġcolors": 7684,
      "Ġcolours": 7685,
      "Ġmakyou": 7686,
      "Ġtechou": 7687,
      "Ġavant": 7688,
      "Ġcopihan": 7689,
      "Ġrevengers": 7690,
      "agehime": 7691,
      "Ġnori": 7692,
      "Ġnoragami": 7693,
      "Ġroboket": 7694,
      "Ġsentenced": 7695,
      "Ġselfish": 7696,
      "okuden": 7697,
      "Ġlessons": 7698,
      "Ġsurf": 7699,
      "Ġblaze": 7700,
      "Ġartiswit": 7701,
      "Ġmisui": 7702,
      "Ġmisaki": 7703,
      "oseo": 7704,
      "Ġwrong": 7705,
      "Ġmatier": 7706,
      "Ġmattsu": 7707,
      "fia": 7708,
      "huang": 7709,
      "huishen": 7710,
      "Ġ30": 7711,
      "Ġ300": 7712,
      "Ġbuding": 7713,
      "Ġbuggy": 7714,
      "Ġxiaojiang": 7715,
      "comb": 7716,
      "getters": 7717,
      "!!.": 7718,
      "Ġvalis": 7719,
      "Ġvalha": 7720,
      "Ġvalley": 7721,
      "Ġtransform": 7722,
      "Ġpatron": 7723,
      "iseon": 7724,
      "Ġdrive": 7725,
      "Ġdaisei": 7726,
      "Ġdavid": 7727,
      "Ġrealize": 7728,
      "Ġharada": 7729,
      "Ġshiki": 7730,
      "Ġshiofu": 7731,
      "Ġmoto": 7732,
      "Ġmotomeru": 7733,
      "Ġpoli": 7734,
      "Ġpolkka": 7735,
      "Ġallstar": 7736,
      "Ġoverman": 7737,
      "Ġoverblo": 7738,
      "Ġoverkill": 7739,
      "Ġdangdai": 7740,
      "Ġdangjia": 7741,
      "Ġsushe": 7742,
      "Ġqimi": 7743,
      "appe": 7744,
      "Ġtonakai": 7745,
      "Ġmomon": 7746,
      "Ġpride": 7747,
      "Ġprivate": 7748,
      "koos": 7749,
      "kopon": 7750,
      "Ġpromotion": 7751,
      "Ġresonance": 7752,
      "Ġsuitai": 7753,
      "Ġdirector": 7754,
      "Ġcontact": 7755,
      "Ġkoe": 7756,
      "Ġkosho": 7757,
      "Ġkozaru": 7758,
      "Ġkosys": 7759,
      "iguang": 7760,
      "Ġstrongest": 7761,
      "Ġgoing": 7762,
      "Ġgogejab": 7763,
      "isha": 7764,
      "ishang": 7765,
      "arazu": 7766,
      "Ġignition": 7767,
      "Ġgaeko": 7768,
      "Ġsurprise": 7769,
      "Ġ17": 7770,
      "yuuki": 7771,
      "Ġcrush": 7772,
      "Ġcritters": 7773,
      "Ġyuuna": 7774,
      "Ġyugao": 7775,
      "Ġyuush": 7776,
      "yaji": 7777,
      "Ġbob": 7778,
      "Ġboin": 7779,
      "Ġbohyou": 7780,
      "Ġminerva": 7781,
      "Ġminarai": 7782,
      "Ġmomentary": 7783,
      "Ġsenya": 7784,
      "Ġsenjou": 7785,
      "Ġsenkyo": 7786,
      "Ġsensha": 7787,
      "Ġsennyuu": 7788,
      "Ġsensation": 7789,
      "hahime": 7790,
      "haisha": 7791,
      "box": 7792,
      "Ġbyulby": 7793,
      "azou": 7794,
      "Ġdistance": 7795,
      "Ġfuuto": 7796,
      "Ġfuyao": 7797,
      "Ġfudousan": 7798,
      "Ġfufon": 7799,
      "Ġshinja": 7800,
      "Ġshinoban": 7801,
      "osm": 7802,
      "oshin": 7803,
      "Ġkanong": 7804,
      "Ġkanip": 7805,
      "Ġkanamewo": 7806,
      "Ġdoudou": 7807,
      "gatte": 7808,
      "Ġkudan": 7809,
      "Ġkuppi": 7810,
      "Ġkufura": 7811,
      "Ġkuyashii": 7812,
      "Ġsustainable": 7813,
      "delion": 7814,
      "Ġsemen": 7815,
      "Ġnanaf": 7816,
      "Ġnanmono": 7817,
      "Ġikin": 7818,
      "Ġikoku": 7819,
      "Ġikeru": 7820,
      "Ġikiru": 7821,
      "Ġikareru": 7822,
      "Ġqiang": 7823,
      "Ġgegege": 7824,
      "Ġshouzou": 7825,
      "karesan": 7826,
      "oroi": 7827,
      "itsukare": 7828,
      "Ġhanyou": 7829,
      "Ġhanny": 7830,
      "Ġhanabi": 7831,
      "Ġhanako": 7832,
      "Ġhansel": 7833,
      "Ġhanataba": 7834,
      "Ġmatteru": 7835,
      "Ġcontinent": 7836,
      "Ġotsuk": 7837,
      "Ġtsuzu": 7838,
      "Ġtsuyok": 7839,
      "Ġtsubuyaki": 7840,
      "Ġyoake": 7841,
      "Ġyoasobi": 7842,
      "Ġguoming": 7843,
      "Ġguodu": 7844,
      "Ġstarway": 7845,
      "Ġstarlight": 7846,
      "Ġcontinuation": 7847,
      "Ġerotic": 7848,
      "Ġmononogatari": 7849,
      "Ġtenpou": 7850,
      "Ġtenkousei": 7851,
      "Ġgundan": 7852,
      "jinbali": 7853,
      "iping": 7854,
      "Ġzhao": 7855,
      "Ġzhiling": 7856,
      "udou": 7857,
      "uruhi": 7858,
      "Ġtanitsu": 7859,
      "Ġtanbou": 7860,
      "Ġtankou": 7861,
      "Ġshenbian": 7862,
      "Ġshenghuo": 7863,
      "Ġdaima": 7864,
      "Ġdaimak": 7865,
      "Ġdaimid": 7866,
      "Ġplayground": 7867,
      "Ġplaystation": 7868,
      "Ġutae": 7869,
      "Ġutau": 7870,
      "Ġ44": 7871,
      "Ġ45": 7872,
      "okoi": 7873,
      "Ġxingqiu": 7874,
      "Ġxingxing": 7875,
      "Ġmiyamoto": 7876,
      "Ġrenjian": 7877,
      "Ġrenkin": 7878,
      "Ġzhui": 7879,
      "ruel": 7880,
      "Ġkenzen": 7881,
      "Ġkenkaku": 7882,
      "2000": 7883,
      "Ġsaibou": 7884,
      "Ġsaiyuuki": 7885,
      "Ġwani": 7886,
      "Ġreflect": 7887,
      "Ġkaji": 7888,
      "Ġkaitai": 7889,
      "Ġkajitsu": 7890,
      "Ġkaodon": 7891,
      "Ġkaede": 7892,
      "yop": 7893,
      "Ġxiongxiong": 7894,
      "Ġsanka": 7895,
      "Ġsankare": 7896,
      "Ġsanjiao": 7897,
      "Ġsankichi": 7898,
      "Ġnaritai": 7899,
      "Ġnaranai": 7900,
      "Ġnaraba": 7901,
      "Ġnaruto": 7902,
      "Ġmaroko": 7903,
      "Ġmarche": 7904,
      "Ġmarriage": 7905,
      "Ġkingyo": 7906,
      "Ġcommon": 7907,
      "Ġcommerc": 7908,
      "Ġshua": 7909,
      "Ġshuumatsu": 7910,
      "Ġmagma": 7911,
      "akushou": 7912,
      "yeok": 7913,
      "yeog": 7914,
      "Ġ575": 7915,
      "Ġbites": 7916,
      "top": 7917,
      "Ġdandelion": 7918,
      "Ġmira": 7919,
      "Ġxiaoniao": 7920,
      "Ġgekiga": 7921,
      "Ġgekigang": 7922,
      "zugir": 7923,
      "Ġdaydream": 7924,
      "Ġhungry": 7925,
      "driver": 7926,
      "Ġpasses": 7927,
      "Ġnoboru": 7928,
      "Ġtaiqiu": 7929,
      "Ġtaiyang": 7930,
      "Ġkiki": 7931,
      "Ġkioku": 7932,
      "Ġkijoku": 7933,
      "Ġtianbao": 7934,
      "Ġbring": 7935,
      "Ġdreamer": 7936,
      "Ġswordsman": 7937,
      "Ġdonyatsu": 7938,
      "Ġdonghwan": 7939,
      "Ġbaokem": 7940,
      "Ġpiace": 7941,
      "Ġidolish": 7942,
      "Ġakira": 7943,
      "Ġakuruhi": 7944,
      "Ġtuzi": 7945,
      "Ġyumehito": 7946,
      "Ġkakuren": 7947,
      "Ġbattles": 7948,
      "Ġhiyori": 7949,
      "Ġyeban": 7950,
      "Ġtoubou": 7951,
      "Ġseiren": 7952,
      "Ġseiiki": 7953,
      "Ġhika": 7954,
      "Ġhikkoshi": 7955,
      "Ġbluepr": 7956,
      "afro": 7957,
      "kanai": 7958,
      "Ġmasque": 7959,
      "atsush": 7960,
      "atsuman": 7961,
      "Ġrunner": 7962,
      "Ġlegendary": 7963,
      "Ġedge": 7964,
      "Ġsheimi": 7965,
      "Ġsoup": 7966,
      "Ġsoudans": 7967,
      "Ġhissei": 7968,
      "Ġkouya": 7969,
      "Ġkouryaku": 7970,
      "Ġkamige": 7971,
      "Ġkyousoukyoku": 7972,
      "Ġbanjinbali": 7973,
      "Ġlandlock": 7974,
      "Ġoshioki": 7975,
      "Ġoshigoto": 7976,
      "Ġkisaku": 7977,
      "Ġkisob": 7978,
      "Ġjingi": 7979,
      "Ġjingji": 7980,
      "Ġuchuujin": 7981,
      "Ġuchuugun": 7982,
      "cope": 7983,
      "Ġcardca": 7984,
      "Ġfengbao": 7985,
      "Ġhonki": 7986,
      "Ġhonkai": 7987,
      "Ġhonne": 7988,
      "Ġhamatta": 7989,
      "Ġkodots": 7990,
      "Ġjinrui": 7991,
      "Ġyoursel": 7992,
      "ikenai": 7993,
      "Ġumami": 7994,
      "Ġumarete": 7995,
      "Ġduoduo": 7996,
      "Ġbunbuku": 7997,
      "Ġlane": 7998,
      "Ġarmitage": 7999
    },
    "merges": [
      [
        "Ġ",
        "a"
      ],
      [
        "Ġ",
        "t"
      ],
      [
        "Ġ",
        "i"
      ],
      [
        "Ġ",
        "s"
      ],
      [
        "o",
        "n"
      ],
      [
        "r",
        "e"
      ],
      [
        "Ġ",
        "c"
      ],
      [
        "h",
        "e"
      ],
      [
        "Ġ",
        "w"
      ],
      [
        "i",
        "n"
      ],
      [
        "e",
        "n"
      ],
      [
        "e",
        "r"
      ],
      [
        "Ġ",
        "m"
      ],
      [
        "o",
        "r"
      ],
      [
        "a",
        "n"
      ],
      [
        "a",
        "t"
      ],
      [
        "Ġt",
        "he"
      ],
      [
        "o",
        "u"
      ],
      [
        "Ġ",
        "d"
      ],
      [
        "Ġ",
        "f"
      ],
      [
        "e",
        "s"
      ],
      [
        "a",
        "l"
      ],
      [
        "Ġ",
        "b"
      ],
      [
        "i",
        "t"
      ],
      [
        "o",
        "m"
      ],
      [
        "in",
        "g"
      ],
      [
        "Ġa",
        "n"
      ],
      [
        "i",
        "on"
      ],
      [
        "e",
        "d"
      ],
      [
        "a",
        "r"
      ],
      [
        "i",
        "c"
      ],
      [
        "Ġ",
        "n"
      ],
      [
        "Ġ",
        "p"
      ],
      [
        "Ġan",
        "d"
      ],
      [
        "Ġ",
        "l"
      ],
      [
        "o",
        "t"
      ],
      [
        "e",
        "c"
      ],
      [
        "Ġ",
        "re"
      ],
      [
        "a",
        "m"
      ],
      [
        "Ġ",
        "o"
      ],
      [
        "u",
        "s"
      ],
      [
        "a",
        "s"
      ],
      [
        "l",
        "y"
      ],
      [
        "Ġ",
        "e"
      ],
      [
        "Ġt",
        "h"
      ],
      [
        "i",
        "s"
      ],
      [
        "Ġ",
        "h"
      ],
      [
        "l",
        "e"
      ],
      [
        "Ġi",
        "n"
      ],
      [
        "l",
        "d"
      ],
      [
        "en",
        "t"
      ],
      [
        "r",
        "i"
      ],
      [
        "a",
        "c"
      ],
      [
        "Ġo",
        "f"
      ],
      [
        "Ġt",
        "o"
      ],
      [
        "an",
        "t"
      ],
      [
        "Ġ",
        "g"
      ],
      [
        "e",
        "t"
      ],
      [
        "Ġi",
        "t"
      ],
      [
        "h",
        "o"
      ],
      [
        "v",
        "e"
      ],
      [
        "ou",
        "ld"
      ],
      [
        "Ġc",
        "on"
      ],
      [
        "Ġs",
        "t"
      ],
      [
        "en",
        "d"
      ],
      [
        "it",
        "h"
      ],
      [
        "t",
        "er"
      ],
      [
        "Ġw",
        "ith"
      ],
      [
        "Ġ",
        "k"
      ],
      [
        "Ġc",
        "om"
      ],
      [
        "u",
        "t"
      ],
      [
        "Ġi",
        "s"
      ],
      [
        "l",
        "o"
      ],
      [
        "Ġf",
        "or"
      ],
      [
        "Ġs",
        "h"
      ],
      [
        "at",
        "ion"
      ],
      [
        "Ġ",
        "on"
      ],
      [
        "Ġm",
        "y"
      ],
      [
        "ou",
        "t"
      ],
      [
        "t",
        "ion"
      ],
      [
        "s",
        "t"
      ],
      [
        "Ġw",
        "ant"
      ],
      [
        "Ġ",
        "r"
      ],
      [
        "Ġm",
        "e"
      ],
      [
        "u",
        "r"
      ],
      [
        "a",
        "i"
      ],
      [
        "c",
        "e"
      ],
      [
        "a",
        "in"
      ],
      [
        "Ġc",
        "h"
      ],
      [
        "Ġth",
        "at"
      ],
      [
        "Ġb",
        "e"
      ],
      [
        "ic",
        "al"
      ],
      [
        "Ġm",
        "o"
      ],
      [
        "Ġe",
        "x"
      ],
      [
        "ec",
        "t"
      ],
      [
        "Ġn",
        "ot"
      ],
      [
        "d",
        "e"
      ],
      [
        "u",
        "n"
      ],
      [
        "or",
        "y"
      ],
      [
        "Ġn",
        "o"
      ],
      [
        "Ġw",
        "h"
      ],
      [
        "Ġs",
        "p"
      ],
      [
        "g",
        "h"
      ],
      [
        "Ġl",
        "i"
      ],
      [
        "Ġd",
        "o"
      ],
      [
        "i",
        "m"
      ],
      [
        "r",
        "am"
      ],
      [
        "c",
        "h"
      ],
      [
        "he",
        "r"
      ],
      [
        "e",
        "re"
      ],
      [
        "u",
        "re"
      ],
      [
        "it",
        "y"
      ],
      [
        "Ġa",
        "b"
      ],
      [
        "v",
        "er"
      ],
      [
        "Ġb",
        "ut"
      ],
      [
        "Ġab",
        "out"
      ],
      [
        "o",
        "c"
      ],
      [
        "Ġs",
        "e"
      ],
      [
        "i",
        "l"
      ],
      [
        "Ġt",
        "r"
      ],
      [
        "Ġd",
        "ram"
      ],
      [
        "Ġdram",
        "a"
      ],
      [
        "Ġ",
        "y"
      ],
      [
        "s",
        "e"
      ],
      [
        "Ġre",
        "c"
      ],
      [
        "Ġn",
        "e"
      ],
      [
        "us",
        "e"
      ],
      [
        "Ġw",
        "ould"
      ],
      [
        "Ġit",
        "s"
      ],
      [
        "Ġa",
        "m"
      ],
      [
        "o",
        "l"
      ],
      [
        "Ġm",
        "a"
      ],
      [
        "Ġa",
        "s"
      ],
      [
        "p",
        "t"
      ],
      [
        "ed",
        "y"
      ],
      [
        "Ġcom",
        "edy"
      ],
      [
        "or",
        "k"
      ],
      [
        "i",
        "r"
      ],
      [
        "Ġa",
        "c"
      ],
      [
        "re",
        "s"
      ],
      [
        "on",
        "g"
      ],
      [
        "Ġw",
        "he"
      ],
      [
        "om",
        "m"
      ],
      [
        "Ġrec",
        "omm"
      ],
      [
        "Ġrecomm",
        "end"
      ],
      [
        "om",
        "e"
      ],
      [
        "h",
        "i"
      ],
      [
        "an",
        "g"
      ],
      [
        "al",
        "ly"
      ],
      [
        "o",
        "w"
      ],
      [
        "o",
        "d"
      ],
      [
        "l",
        "l"
      ],
      [
        "Ġa",
        "d"
      ],
      [
        "is",
        "t"
      ],
      [
        "Ġsh",
        "ould"
      ],
      [
        "Ġb",
        "ec"
      ],
      [
        "Ġst",
        "ory"
      ],
      [
        "Ġmo",
        "re"
      ],
      [
        "a",
        "b"
      ],
      [
        "a",
        "p"
      ],
      [
        "ou",
        "gh"
      ],
      [
        "Ġd",
        "e"
      ],
      [
        "Ġ",
        "j"
      ],
      [
        "a",
        "k"
      ],
      [
        "Ġs",
        "u"
      ],
      [
        "Ġex",
        "p"
      ],
      [
        "a",
        "d"
      ],
      [
        "Ġin",
        "t"
      ],
      [
        "Ġ",
        "or"
      ],
      [
        "Ġa",
        "l"
      ],
      [
        "ic",
        "e"
      ],
      [
        "o",
        "k"
      ],
      [
        "at",
        "e"
      ],
      [
        "v",
        "i"
      ],
      [
        "u",
        "m"
      ],
      [
        "a",
        "ve"
      ],
      [
        "a",
        "re"
      ],
      [
        "Ġch",
        "ar"
      ],
      [
        "e",
        "ar"
      ],
      [
        "Ġa",
        "r"
      ],
      [
        "q",
        "u"
      ],
      [
        "ac",
        "ter"
      ],
      [
        "Ġchar",
        "acter"
      ],
      [
        "Ġ",
        "he"
      ],
      [
        "as",
        "y"
      ],
      [
        "Ġw",
        "ho"
      ],
      [
        "Ġli",
        "k"
      ],
      [
        "a",
        "use"
      ],
      [
        "Ġbec",
        "ause"
      ],
      [
        "v",
        "ent"
      ],
      [
        "Ġc",
        "o"
      ],
      [
        "es",
        "s"
      ],
      [
        "i",
        "es"
      ],
      [
        "p",
        "p"
      ],
      [
        "Ġl",
        "o"
      ],
      [
        "im",
        "e"
      ],
      [
        "Ġa",
        "f"
      ],
      [
        "i",
        "ve"
      ],
      [
        "Ġc",
        "an"
      ],
      [
        "Ġs",
        "c"
      ],
      [
        "Ġs",
        "er"
      ],
      [
        "Ġaf",
        "ter"
      ],
      [
        "or",
        "r"
      ],
      [
        "Ġwh",
        "at"
      ],
      [
        "i",
        "al"
      ],
      [
        "Ġrecommend",
        "ation"
      ],
      [
        "Ġw",
        "ork"
      ],
      [
        "Ġw",
        "as"
      ],
      [
        "Ġd",
        "is"
      ],
      [
        "Ġd",
        "es"
      ],
      [
        "am",
        "e"
      ],
      [
        "Ġ",
        "en"
      ],
      [
        "Ġw",
        "at"
      ],
      [
        "Ġp",
        "l"
      ],
      [
        "t",
        "s"
      ],
      [
        "Ġcon",
        "f"
      ],
      [
        "v",
        "en"
      ],
      [
        "ac",
        "e"
      ],
      [
        "Ġf",
        "ant"
      ],
      [
        "it",
        "ion"
      ],
      [
        "Ġre",
        "m"
      ],
      [
        "Ġfant",
        "asy"
      ],
      [
        "a",
        "y"
      ],
      [
        "re",
        "at"
      ],
      [
        "Ġa",
        "pp"
      ],
      [
        "ri",
        "ll"
      ],
      [
        "ic",
        "t"
      ],
      [
        "Ġth",
        "rill"
      ],
      [
        "Ġthrill",
        "er"
      ],
      [
        "p",
        "er"
      ],
      [
        "r",
        "o"
      ],
      [
        "t",
        "h"
      ],
      [
        "g",
        "ical"
      ],
      [
        "Ġdo",
        "es"
      ],
      [
        "Ġb",
        "et"
      ],
      [
        "ot",
        "h"
      ],
      [
        "Ġi",
        "f"
      ],
      [
        "Ġdis",
        "c"
      ],
      [
        "Ġr",
        "om"
      ],
      [
        "u",
        "l"
      ],
      [
        "an",
        "ce"
      ],
      [
        "es",
        "t"
      ],
      [
        "ic",
        "h"
      ],
      [
        "t",
        "ain"
      ],
      [
        "ve",
        "lo"
      ],
      [
        "on",
        "e"
      ],
      [
        "Ġde",
        "velo"
      ],
      [
        "Ġdevelo",
        "p"
      ],
      [
        "r",
        "om"
      ],
      [
        "Ġs",
        "ome"
      ],
      [
        "Ġwhe",
        "n"
      ],
      [
        "er",
        "s"
      ],
      [
        "ar",
        "t"
      ],
      [
        "Ġ",
        "un"
      ],
      [
        "Ġy",
        "ou"
      ],
      [
        "n",
        "d"
      ],
      [
        "res",
        "s"
      ],
      [
        "Ġwh",
        "ich"
      ],
      [
        "ri",
        "end"
      ],
      [
        "Ġth",
        "an"
      ],
      [
        "Ġb",
        "oth"
      ],
      [
        "Ġf",
        "riend"
      ],
      [
        "Ġon",
        "e"
      ],
      [
        "p",
        "le"
      ],
      [
        "Ġe",
        "m"
      ],
      [
        "Ġad",
        "vent"
      ],
      [
        "Ġcharacter",
        "s"
      ],
      [
        "c",
        "es"
      ],
      [
        "Ġadvent",
        "ure"
      ],
      [
        "Ġthe",
        "y"
      ],
      [
        "Ġi",
        "de"
      ],
      [
        "w",
        "e"
      ],
      [
        "Ġa",
        "re"
      ],
      [
        "g",
        "e"
      ],
      [
        "Ġconf",
        "l"
      ],
      [
        "ver",
        "y"
      ],
      [
        "Ġconfl",
        "ict"
      ],
      [
        "ere",
        "st"
      ],
      [
        "Ġint",
        "erest"
      ],
      [
        "as",
        "e"
      ],
      [
        "Ġs",
        "ho"
      ],
      [
        "Ġne",
        "ed"
      ],
      [
        "Ġ",
        "v"
      ],
      [
        "Ġa",
        "t"
      ],
      [
        "Ġst",
        "r"
      ],
      [
        "Ġf",
        "ic"
      ],
      [
        "Ġh",
        "ave"
      ],
      [
        "Ġfic",
        "tion"
      ],
      [
        "ar",
        "y"
      ],
      [
        "Ġf",
        "oc"
      ],
      [
        "Ġfoc",
        "us"
      ],
      [
        "am",
        "i"
      ],
      [
        "Ġsho",
        "w"
      ],
      [
        "i",
        "d"
      ],
      [
        "ot",
        "her"
      ],
      [
        "in",
        "d"
      ],
      [
        "b",
        "er"
      ],
      [
        "ou",
        "nd"
      ],
      [
        "â",
        "Ģ"
      ],
      [
        "âĢ",
        "Ķ"
      ],
      [
        "d",
        "er"
      ],
      [
        "en",
        "ce"
      ],
      [
        "Ġp",
        "o"
      ],
      [
        "we",
        "en"
      ],
      [
        "Ġ",
        "x"
      ],
      [
        "f",
        "e"
      ],
      [
        "n",
        "ing"
      ],
      [
        "p",
        "l"
      ],
      [
        "ri",
        "b"
      ],
      [
        "ere",
        "n"
      ],
      [
        "Ġpl",
        "ot"
      ],
      [
        "Ġbet",
        "ween"
      ],
      [
        "j",
        "o"
      ],
      [
        "c",
        "rib"
      ],
      [
        "i",
        "b"
      ],
      [
        "Ġdes",
        "crib"
      ],
      [
        "ou",
        "s"
      ],
      [
        "Ġd",
        "ec"
      ],
      [
        "f",
        "eren"
      ],
      [
        "Ġ",
        "end"
      ],
      [
        "il",
        "ity"
      ],
      [
        "Ġk",
        "e"
      ],
      [
        "p",
        "tion"
      ],
      [
        "Ġli",
        "fe"
      ],
      [
        "i",
        "f"
      ],
      [
        "Ġex",
        "am"
      ],
      [
        "vi",
        "e"
      ],
      [
        "Ġcom",
        "p"
      ],
      [
        "Ġt",
        "reat"
      ],
      [
        "Ġsome",
        "one"
      ],
      [
        "us",
        "s"
      ],
      [
        "Ġser",
        "ies"
      ],
      [
        "Ġdisc",
        "uss"
      ],
      [
        "in",
        "e"
      ],
      [
        "Ġcon",
        "n"
      ],
      [
        "Ġc",
        "ould"
      ],
      [
        "he",
        "d"
      ],
      [
        "ec",
        "h"
      ],
      [
        "ent",
        "ion"
      ],
      [
        "Ġp",
        "le"
      ],
      [
        "Ġf",
        "rom"
      ],
      [
        "us",
        "t"
      ],
      [
        "gh",
        "t"
      ],
      [
        "s",
        "u"
      ],
      [
        "Ġbe",
        "l"
      ],
      [
        "as",
        "on"
      ],
      [
        "Ġcom",
        "b"
      ],
      [
        "Ġg",
        "en"
      ],
      [
        "Ġple",
        "ase"
      ],
      [
        "Ġf",
        "ami"
      ],
      [
        "an",
        "d"
      ],
      [
        "Ġfami",
        "ly"
      ],
      [
        "Ġp",
        "re"
      ],
      [
        "as",
        "s"
      ],
      [
        "m",
        "ent"
      ],
      [
        "k",
        "ing"
      ],
      [
        "Ġal",
        "th"
      ],
      [
        "Ġalth",
        "ough"
      ],
      [
        "Ġrem",
        "ain"
      ],
      [
        "Ġexp",
        "lo"
      ],
      [
        "Ġc",
        "ho"
      ],
      [
        "Ġch",
        "ang"
      ],
      [
        "Ġrom",
        "ance"
      ],
      [
        "Ġen",
        "jo"
      ],
      [
        "Ġenjo",
        "y"
      ],
      [
        "ot",
        "ion"
      ],
      [
        "ate",
        "g"
      ],
      [
        "Ġdescrib",
        "es"
      ],
      [
        "ab",
        "le"
      ],
      [
        "Ġc",
        "ateg"
      ],
      [
        "Ġc",
        "l"
      ],
      [
        "t",
        "ing"
      ],
      [
        "Ġem",
        "otion"
      ],
      [
        "Ġcateg",
        "ory"
      ],
      [
        "ac",
        "h"
      ],
      [
        "Ġ",
        "z"
      ],
      [
        "a",
        "o"
      ],
      [
        "Ġwith",
        "out"
      ],
      [
        "m",
        "e"
      ],
      [
        "u",
        "c"
      ],
      [
        "Ġan",
        "ime"
      ],
      [
        "Ġ",
        "use"
      ],
      [
        "w",
        "ork"
      ],
      [
        "Ġun",
        "der"
      ],
      [
        "ar",
        "k"
      ],
      [
        "k",
        "i"
      ],
      [
        "s",
        "hi"
      ],
      [
        "a",
        "g"
      ],
      [
        "r",
        "y"
      ],
      [
        "lo",
        "gical"
      ],
      [
        "u",
        "ally"
      ],
      [
        "ect",
        "ive"
      ],
      [
        "Ġm",
        "ain"
      ],
      [
        "ai",
        "l"
      ],
      [
        "i",
        "de"
      ],
      [
        "a",
        "w"
      ],
      [
        "Ġwhe",
        "re"
      ],
      [
        "g",
        "in"
      ],
      [
        "Ġc",
        "are"
      ],
      [
        "Ġg",
        "ir"
      ],
      [
        "ce",
        "pt"
      ],
      [
        "ar",
        "d"
      ],
      [
        "h",
        "ing"
      ],
      [
        "Ġs",
        "et"
      ],
      [
        "Ġc",
        "orr"
      ],
      [
        "Ġcorr",
        "u"
      ],
      [
        "at",
        "ur"
      ],
      [
        "Ġcon",
        "tain"
      ],
      [
        "ver",
        "s"
      ],
      [
        "Ġwat",
        "c"
      ],
      [
        "s",
        "o"
      ],
      [
        "Ġbel",
        "ong"
      ],
      [
        "Ġcl",
        "ass"
      ],
      [
        "Ġgir",
        "l"
      ],
      [
        "Ġlik",
        "e"
      ],
      [
        "Ġapp",
        "ro"
      ],
      [
        "ch",
        "ing"
      ],
      [
        "Ġexplo",
        "res"
      ],
      [
        "ere",
        "d"
      ],
      [
        "Ġt",
        "e"
      ],
      [
        "Ġal",
        "so"
      ],
      [
        "Ġbe",
        "gin"
      ],
      [
        "Ġr",
        "o"
      ],
      [
        "Ġlik",
        "ed"
      ],
      [
        "ent",
        "ered"
      ],
      [
        "Ġdevelop",
        "s"
      ],
      [
        "at",
        "her"
      ],
      [
        "s",
        "ter"
      ],
      [
        "Ġm",
        "us"
      ],
      [
        "e",
        "l"
      ],
      [
        "Ġinterest",
        "ed"
      ],
      [
        "Ġc",
        "le"
      ],
      [
        "Ġs",
        "im"
      ],
      [
        "Ġr",
        "ather"
      ],
      [
        "al",
        "l"
      ],
      [
        "Ġo",
        "b"
      ],
      [
        "Ġe",
        "ven"
      ],
      [
        "o",
        "od"
      ],
      [
        "Ġas",
        "king"
      ],
      [
        "ho",
        "ol"
      ],
      [
        "e",
        "m"
      ],
      [
        "g",
        "y"
      ],
      [
        "Ġsc",
        "hool"
      ],
      [
        "i",
        "ght"
      ],
      [
        "Ġt",
        "ime"
      ],
      [
        "Ġno",
        "w"
      ],
      [
        "c",
        "ho"
      ],
      [
        "Ġh",
        "um"
      ],
      [
        "Ġsp",
        "ace"
      ],
      [
        "i",
        "z"
      ],
      [
        "i",
        "ous"
      ],
      [
        "x",
        "t"
      ],
      [
        "v",
        "al"
      ],
      [
        "Ġ",
        "2"
      ],
      [
        "ar",
        "i"
      ],
      [
        "Ġh",
        "ome"
      ],
      [
        "Ġm",
        "ed"
      ],
      [
        "Ġnot",
        "es"
      ],
      [
        "Ġme",
        "m"
      ],
      [
        "Ġac",
        "tion"
      ],
      [
        "ur",
        "ai"
      ],
      [
        "Ġi",
        "d"
      ],
      [
        "Ġs",
        "o"
      ],
      [
        "s",
        "p"
      ],
      [
        "Ġma",
        "gical"
      ],
      [
        "Ġhum",
        "an"
      ],
      [
        "Ġs",
        "am"
      ],
      [
        "f",
        "ect"
      ],
      [
        "r",
        "is"
      ],
      [
        "Ġs",
        "oc"
      ],
      [
        "vie",
        "w"
      ],
      [
        "Ġsam",
        "urai"
      ],
      [
        "n",
        "o"
      ],
      [
        "an",
        "ing"
      ],
      [
        "Ġi",
        "m"
      ],
      [
        "Ġd",
        "ark"
      ],
      [
        "s",
        "y"
      ],
      [
        "Ġh",
        "orr"
      ],
      [
        "Ġhorr",
        "or"
      ],
      [
        "Ġd",
        "et"
      ],
      [
        "Ġl",
        "ist"
      ],
      [
        "se",
        "qu"
      ],
      [
        "ong",
        "er"
      ],
      [
        "Ġat",
        "t"
      ],
      [
        "Ġme",
        "aning"
      ],
      [
        "Ġs",
        "l"
      ],
      [
        "en",
        "ces"
      ],
      [
        "Ġf",
        "re"
      ],
      [
        "Ġcon",
        "sequ"
      ],
      [
        "Ġconsequ",
        "ences"
      ],
      [
        "y",
        "ing"
      ],
      [
        "in",
        "es"
      ],
      [
        "Ġp",
        "sy"
      ],
      [
        "Ġ",
        "\""
      ],
      [
        "e",
        "k"
      ],
      [
        "Ġam",
        "b"
      ],
      [
        "Ġcle",
        "ar"
      ],
      [
        "e",
        "f"
      ],
      [
        "Ġh",
        "ist"
      ],
      [
        "Ġmy",
        "ster"
      ],
      [
        "Ġatt",
        "ention"
      ],
      [
        "o",
        "very"
      ],
      [
        "or",
        "ts"
      ],
      [
        "pl",
        "ace"
      ],
      [
        "Ġdet",
        "ective"
      ],
      [
        "Ġpsy",
        "cho"
      ],
      [
        "i",
        "k"
      ],
      [
        "Ġp",
        "ress"
      ],
      [
        "ab",
        "ility"
      ],
      [
        "Ġwork",
        "place"
      ],
      [
        "Ġpress",
        "ure"
      ],
      [
        "n",
        "ow"
      ],
      [
        "Ġw",
        "ar"
      ],
      [
        "Ġsp",
        "orts"
      ],
      [
        "un",
        "k"
      ],
      [
        "Ġhist",
        "or"
      ],
      [
        "Ġo",
        "per"
      ],
      [
        "Ġh",
        "o"
      ],
      [
        "Ġan",
        "other"
      ],
      [
        "or",
        "ies"
      ],
      [
        "Ġoper",
        "a"
      ],
      [
        "Ġchang",
        "e"
      ],
      [
        "al",
        "y"
      ],
      [
        "Ġl",
        "ear"
      ],
      [
        "Ġsu",
        "per"
      ],
      [
        "Ġc",
        "y"
      ],
      [
        "Ġse",
        "ar"
      ],
      [
        "Ġm",
        "il"
      ],
      [
        "g",
        "g"
      ],
      [
        "re",
        "ly"
      ],
      [
        "Ġme",
        "rely"
      ],
      [
        "Ġlear",
        "ning"
      ],
      [
        "Ġte",
        "am"
      ],
      [
        "i",
        "ally"
      ],
      [
        "Ġsoc",
        "ial"
      ],
      [
        "i",
        "v"
      ],
      [
        "Ġe",
        "very"
      ],
      [
        "Ġne",
        "xt"
      ],
      [
        "Ġad",
        "d"
      ],
      [
        "Ġemotion",
        "al"
      ],
      [
        "Ġpsycho",
        "logical"
      ],
      [
        "Ġk",
        "now"
      ],
      [
        "Ġse",
        "ason"
      ],
      [
        "Ġid",
        "ent"
      ],
      [
        "Ġhistor",
        "ical"
      ],
      [
        "it",
        "her"
      ],
      [
        "Ġst",
        "ories"
      ],
      [
        "Ġident",
        "ity"
      ],
      [
        "Ġ",
        "vers"
      ],
      [
        "Ġvers",
        "us"
      ],
      [
        "Ġpo",
        "st"
      ],
      [
        "Ġcy",
        "ber"
      ],
      [
        "p",
        "unk"
      ],
      [
        "Ġ",
        "es"
      ],
      [
        "on",
        "s"
      ],
      [
        "Ġc",
        "ri"
      ],
      [
        "it",
        "ary"
      ],
      [
        "oc",
        "aly"
      ],
      [
        "Ġlo",
        "ve"
      ],
      [
        "Ġsc",
        "i"
      ],
      [
        "Ġmil",
        "itary"
      ],
      [
        "Ġcyber",
        "punk"
      ],
      [
        "pt",
        "ic"
      ],
      [
        "ap",
        "ocaly"
      ],
      [
        "apocaly",
        "ptic"
      ],
      [
        "c",
        "er"
      ],
      [
        "Ġh",
        "ow"
      ],
      [
        "Ġar",
        "ts"
      ],
      [
        "Ġcri",
        "me"
      ],
      [
        "Ġac",
        "cept"
      ],
      [
        "p",
        "ec"
      ],
      [
        "Ġes",
        "pec"
      ],
      [
        "Ġespec",
        "ially"
      ],
      [
        "Ġexp",
        "ect"
      ],
      [
        "art",
        "ial"
      ],
      [
        "Ġm",
        "artial"
      ],
      [
        "Ġth",
        "r"
      ],
      [
        "lo",
        "w"
      ],
      [
        "Ġcomb",
        "ine"
      ],
      [
        "Ġappro",
        "ach"
      ],
      [
        "om",
        "et"
      ],
      [
        "'",
        "s"
      ],
      [
        "Ġd",
        "if"
      ],
      [
        "Ġthr",
        "ough"
      ],
      [
        "ir",
        "st"
      ],
      [
        "gg",
        "est"
      ],
      [
        "Ġf",
        "irst"
      ],
      [
        "c",
        "entered"
      ],
      [
        "n",
        "er"
      ],
      [
        "Ġs",
        "ame"
      ],
      [
        "Ġf",
        "it"
      ],
      [
        "Ġconn",
        "ect"
      ],
      [
        "Ġsu",
        "ggest"
      ],
      [
        "Ġexam",
        "ple"
      ],
      [
        "Ġmed",
        "ical"
      ],
      [
        "n",
        "atur"
      ],
      [
        "Ġp",
        "h"
      ],
      [
        "Ġsuper",
        "natur"
      ],
      [
        "Ġsupernatur",
        "al"
      ],
      [
        "Ġset",
        "ting"
      ],
      [
        "Ġsl",
        "ice"
      ],
      [
        "Ġs",
        "omet"
      ],
      [
        "Ġf",
        "ind"
      ],
      [
        "ac",
        "le"
      ],
      [
        "Ġsomet",
        "hing"
      ],
      [
        "Ġl",
        "e"
      ],
      [
        "Ġbelong",
        "ing"
      ],
      [
        "Ġc",
        "all"
      ],
      [
        "as",
        "t"
      ],
      [
        "Ġide",
        "al"
      ],
      [
        "it",
        "e"
      ],
      [
        "i",
        "an"
      ],
      [
        "Ġser",
        "ious"
      ],
      [
        "feren",
        "t"
      ],
      [
        "Ġwatc",
        "hed"
      ],
      [
        "Ġdif",
        "ferent"
      ],
      [
        "Ġmyster",
        "y"
      ],
      [
        "Ġt",
        "w"
      ],
      [
        "Ġon",
        "ly"
      ],
      [
        "Ġn",
        "ame"
      ],
      [
        "Ġg",
        "r"
      ],
      [
        "ri",
        "ef"
      ],
      [
        "Ġj",
        "ust"
      ],
      [
        "Ġapp",
        "ear"
      ],
      [
        "ect",
[...]
