{
  "version": "1.0",
  "truncation": null,
  "padding": null,
  "added_tokens": [
    {
      "id": 0,
      "content": "<PAD>",
      "single_word": false,
      "lstrip": false,
      "rstrip": false,
      "normalized": false,
      "special": true
    },
    {
      "id": 1,
      "content": "<UNK>",
      "single_word": false,
      "lstrip": false,
      "rstrip": false,
      "normalized": false,
      "special": true
    }
  ],
  "normalizer": {
    "type": "Sequence",
    "normalizers": [
      {
        "type": "NFKC"
      },
      {
        "type": "Lowercase"
      }
    ]
  },
  "pre_tokenizer": {
    "type": "ByteLevel",
    "add_prefix_space": true,
    "trim_offsets": true,
    "use_regex": true
  },
  "post_processor": null,
  "decoder": {
    "type": "ByteLevel",
    "add_prefix_space": true,
    "trim_offsets": true,
    "use_regex": true
  },
  "model": {
    "type": "BPE",
    "dropout": null,
    "unk_token": "<UNK>",
    "continuing_subword_prefix": null,
    "end_of_word_suffix": null,
    "fuse_unk": false,
    "byte_fallback": false,
    "ignore_merges": false,
    "vocab": {
      "<PAD>": 0,
      "<UNK>": 1,
      "!": 2,
      "\"": 3,
      "#": 4,
      "$": 5,
      "%": 6,
      "&": 7,
      "'": 8,
      "(": 9,
      ")": 10,
      "*": 11,
      "+": 12,
      ",": 13,
      "-": 14,
      ".": 15,
      "/": 16,
      "0": 17,
      "1": 18,
      "2": 19,
      "3": 20,
      "4": 21,
      "5": 22,
      "6": 23,
      "7": 24,
      "8": 25,
      "9": 26,
      ":": 27,
      ";": 28,
      "<": 29,
      "=": 30,
      ">": 31,
      "?": 32,
      "@": 33,
      "A": 34,
      "B": 35,
      "C": 36,
      "D": 37,
      "E": 38,
      "F": 39,
      "G": 40,
      "H": 41,
      "I": 42,
      "J": 43,
      "K": 44,
      "L": 45,
      "M": 46,
      "N": 47,
      "O": 48,
      "P": 49,
      "Q": 50,
      "R": 51,
      "S": 52,
      "T": 53,
      "U": 54,
      "V": 55,
      "W": 56,
      "X": 57,
      "Y": 58,
      "Z": 59,
      "[": 60,
      "\\": 61,
      "]": 62,
      "^": 63,
      "_": 64,
      "`": 65,
      "a": 66,
      "b": 67,
      "c": 68,
      "d": 69,
      "e": 70,
      "f": 71,
      "g": 72,
      "h": 73,
      "i": 74,
      "j": 75,
      "k": 76,
      "l": 77,
      "m": 78,
      "n": 79,
      "o": 80,
      "p": 81,
      "q": 82,
      "r": 83,
      "s": 84,
      "t": 85,
      "u": 86,
      "v": 87,
      "w": 88,
      "x": 89,
      "y": 90,
      "z": 91,
      "{": 92,
      "|": 93,
      "}": 94,
      "~": 95,
      "¡": 96,
      "¢": 97,
      "£": 98,
      "¤": 99,
      "¥": 100,
      "¦": 101,
      "§": 102,
      "¨": 103,
      "©": 104,
      "ª": 105,
      "«": 106,
      "¬": 107,
      "®": 108,
      "¯": 109,
      "°": 110,
      "±": 111,
      "²": 112,
      "³": 113,
      "´": 114,
      "µ": 115,
      "¶": 116,
      "·": 117,
      "¸": 118,
      "¹": 119,
      "º": 120,
      "»": 121,
      "¼": 122,
      "½": 123,
      "¾": 124,
      "¿": 125,
      "À": 126,
      "Á": 127,
      "Â": 128,
      "Ã": 129,
      "Ä": 130,
      "Å": 131,
      "Æ": 132,
      "Ç": 133,
      "È": 134,
      "É": 135,
      "Ê": 136,
      "Ë": 137,
      "Ì": 138,
      "Í": 139,
      "Î": 140,
      "Ï": 141,
      "Ð": 142,
      "Ñ": 143,
      "Ò": 144,
      "Ó": 145,
      "Ô": 146,
      "Õ": 147,
      "Ö": 148,
      "×": 149,
      "Ø": 150,
      "Ù": 151,
      "Ú": 152,
      "Û": 153,
      "Ü": 154,
      "Ý": 155,
      "Þ": 156,
      "ß": 157,
      "à": 158,
      "á": 159,
      "â": 160,
      "ã": 161,
      "ä": 162,
      "å": 163,
      "æ": 164,
      "ç": 165,
      "è": 166,
      "é": 167,
      "ê": 168,
      "ë": 169,
      "ì": 170,
      "í": 171,
      "î": 172,
      "ï": 173,
      "ð": 174,
      "ñ": 175,
      "ò": 176,
      "ó": 177,
      "ô": 178,
      "õ": 179,
      "ö": 180,
      "÷": 181,
      "ø": 182,
      "ù": 183,
      "ú": 184,
      "û": 185,
      "ü": 186,
      "ý": 187,
      "þ": 188,
      "ÿ": 189,
      "Ā": 190,
      "ā": 191,
      "Ă": 192,
      "ă": 193,
      "Ą": 194,
      "ą": 195,
      "Ć": 196,
      "ć": 197,
      "Ĉ": 198,
      "ĉ": 199,
      "Ċ": 200,
      "ċ": 201,
      "Č": 202,
      "č": 203,
      "Ď": 204,
      "ď": 205,
      "Đ": 206,
      "đ": 207,
      "Ē": 208,
      "ē": 209,
      "Ĕ": 210,
      "ĕ": 211,
      "Ė": 212,
      "ė": 213,
      "Ę": 214,
      "ę": 215,
      "Ě": 216,
      "ě": 217,
      "Ĝ": 218,
      "ĝ": 219,
      "Ğ": 220,
      "ğ": 221,
      "Ġ": 222,
      "ġ": 223,
      "Ģ": 224,
      "ģ": 225,
      "Ĥ": 226,
      "ĥ": 227,
      "Ħ": 228,
      "ħ": 229,
      "Ĩ": 230,
      "ĩ": 231,
      "Ī": 232,
      "ī": 233,
      "Ĭ": 234,
      "ĭ": 235,
      "Į": 236,
      "į": 237,
      "İ": 238,
      "ı": 239,
      "Ĳ": 240,
      "ĳ": 241,
      "Ĵ": 242,
      "ĵ": 243,
      "Ķ": 244,
      "ķ": 245,
      "ĸ": 246,
      "Ĺ": 247,
      "ĺ": 248,
      "Ļ": 249,
      "ļ": 250,
      "Ľ": 251,
      "ľ": 252,
      "Ŀ": 253,
      "ŀ": 254,
      "Ł": 255,
      "ł": 256,
      "Ń": 257,
      "an": 258,
      "Ġs": 259,
      "me": 260,
      "Ġan": 261,
      "in": 262,
      "th": 263,
      "Ġw": 264,
      "or": 265,
      "ar": 266,
      "Ġl": 267,
      "er": 268,
      "Ġn": 269,
      "Ġand": 270,
      "Ġi": 271,
      "Ġb": 272,
      "Ġno": 273,
      "Ġm": 274,
      "ke": 275,
      "ing": 276,
      "ut": 277,
      "Ġa": 278,
      "ant": 279,
      "Ġf": 280,
      "Ġli": 281,
      "Ġc": 282,
      "Ġd": 283,
      "Ġr": 284,
      "Ġg": 285,
      "Ġlike": 286,
      "en": 287,
      "ho": 288,
      "Ġbut": 289,
      "as": 290,
      "Ġt": 291,
      "al": 292,
      "ome": 293,
      "Ġh": 294,
      "on": 295,
      "Ġp": 296,
      "at": 297,
      "ts": 298,
      "Ġwant": 299,
      "Ġwi": 300,
      "Ġme": 301,
      "Ġwith": 302,
      "es": 303,
      "thing": 304,
      "ime": 305,
      "Ġanime": 306,
      "om": 307,
      "ve": 308,
      "ic": 309,
      "ur": 310,
      "ow": 311,
      "Ġre": 312,
      "il": 313,
      "Ġk": 314,
      "Ġth": 315,
      "Ġor": 316,
      "Ġgi": 317,
      "Ġnot": 318,
      "Ġsome": 319,
      "Ġsomething": 320,
      "Ġto": 321,
      "us": 322,
      "id": 323,
      "Ġst": 324,
      "ol": 325,
      "Ġsc": 326,
      "ou": 327,
      "Ġse": 328,
      "im": 329,
      "Ġthe": 330,
      "gh": 331,
      "Ġliked": 332,
      "Ġsu": 333,
      "ter": 334,
      "ch": 335,
      "Ġgive": 336,
      "se": 337,
      "em": 338,
      "nd": 339,
      "oo": 340,
      "am": 341,
      "is": 342,
      "Ġo": 343,
      "ion": 344,
      "Ġsho": 345,
      "un": 346,
      "igh": 347,
      "Ġdr": 348,
      "Ġsim": 349,
      "ilar": 350,
      "Ġsimilar": 351,
      "vi": 352,
      "ind": 353,
      "per": 354,
      "Ġj": 355,
      "Ġsuper": 356,
      "Ġrec": 357,
      "ac": 358,
      "ower": 359,
      "ical": 360,
      "Ġstu": 361,
      "vo": 362,
      "ure": 363,
      "Ġpower": 364,
      "mend": 365,
      "ob": 366,
      "hool": 367,
      "ommend": 368,
      "Ġrecommend": 369,
      "Ġavo": 370,
      "Ġavoid": 371,
      "Ġschool": 372,
      "ore": 373,
      "Ġad": 374,
      "ary": 375,
      "Ġma": 376,
      "ast": 377,
      "Ġvi": 378,
      "ven": 379,
      "ff": 380,
      "obo": 381,
      "Ġch": 382,
      "Ġrobo": 383,
      "Ġsp": 384,
      "Ġstuff": 385,
      "Ġcast": 386,
      "ec": 387,
      "it": 388,
      "ting": 389,
      "Ġy": 390,
      "out": 391,
      "ly": 392,
      "ama": 393,
      "dy": 394,
      "ad": 395,
      "Ġcome": 396,
      "Ġwithout": 397,
      "Ġshow": 398,
      "ki": 399,
      "Ġof": 400,
      "Ġvib": 401,
      "Ġlo": 402,
      "ce": 403,
      "Ġvibes": 404,
      "Ġdo": 405,
      "tion": 406,
      "hol": 407,
      "ai": 408,
      "ial": 409,
      "hi": 410,
      "Ġchar": 411,
      "antas": 412,
      "Ġfantas": 413,
      "Ġfantasy": 414,
      "Ġhar": 415,
      "acter": 416,
      "Ġcharacter": 417,
      "Ġpowers": 418,
      "Ġdrama": 419,
      "Ġin": 420,
      "Ġfor": 421,
      "Ġkid": 422,
      "Ġfigh": 423,
      "Ġharem": 424,
      "ense": 425,
      "Ġkids": 426,
      "ld": 427,
      "re": 428,
      "le": 429,
      "Ġsl": 430,
      "Ġcomedy": 431,
      "Ġac": 432,
      "Ġga": 433,
      "ark": 434,
      "Ġrobots": 435,
      "Ġdark": 436,
      "Ġmore": 437,
      "Ġslow": 438,
      "ust": 439,
      "Ġrom": 440,
      "gical": 441,
      "Ġjust": 442,
      "Ġmech": 443,
      "Ġfind": 444,
      "Ġlove": 445,
      "ook": 446,
      "ul": 447,
      "Ġset": 448,
      "Ġsetting": 449,
      "ed": 450,
      "ist": 451,
      "ak": 452,
      "Ġyou": 453,
      "art": 454,
      "Ġlook": 455,
      "Ġlooking": 456,
      "Ġmy": 457,
      "ture": 458,
      "Ġadven": 459,
      "ver": 460,
      "Ġgame": 461,
      "ything": 462,
      "Ġadventure": 463,
      "Ġanything": 464,
      "ea": 465,
      "Ġcan": 466,
      "ri": 467,
      "Ġ2": 468,
      "sy": 469,
      "Ġspor": 470,
      "Ġmat": 471,
      "Ġsports": 472,
      "Ġbl": 473,
      "Ġscary": 474,
      "ult": 475,
      "nat": 476,
      "Ġpsy": 477,
      "Ġmil": 478,
      "chi": 479,
      "Ġpsyc": 480,
      "unn": 481,
      "Ġmature": 482,
      "Ġgiant": 483,
      "itary": 484,
      "Ġmilitary": 485,
      "unny": 486,
      "Ġhist": 487,
      "Ġadult": 488,
      "Ġhistor": 489,
      "Ġhistorical": 490,
      "Ġfunny": 491,
      "ason": 492,
      "Ġseason": 493,
      "ural": 494,
      "Ġsupernat": 495,
      "Ġsupernatural": 496,
      "Ġgames": 497,
      "ogical": 498,
      "hological": 499,
      "Ġpsychological": 500,
      "Ġar": 501,
      "Ġski": 502,
      "Ġskip": 503,
      "ood": 504,
      "Ġwor": 505,
      "Ġaction": 506,
      "Ġe": 507,
      "ation": 508,
      "ecial": 509,
      "Ġmind": 510,
      "Ġthat": 511,
      "ok": 512,
      "ep": 513,
      "ag": 514,
      "ster": 515,
      "ase": 516,
      "est": 517,
      "der": 518,
      "Ġhor": 519,
      "ls": 520,
      "Ġdat": 521,
      "ther": 522,
      "ess": 523,
      "ord": 524,
      "Ġworld": 525,
      "Ġhigh": 526,
      "fer": 527,
      "Ġec": 528,
      "ror": 529,
      "ory": 530,
      "Ġecchi": 531,
      "Ġhorror": 532,
      "Ġis": 533,
      "ance": 534,
      "verse": 535,
      "Ġstory": 536,
      "Ġint": 537,
      "Ġreverse": 538,
      "Ġsad": 539,
      "Ġmag": 540,
      "ab": 541,
      "emo": 542,
      "Ġgore": 543,
      "Ġjo": 544,
      "Ġsus": 545,
      "Ġdating": 546,
      "Ġmyster": 547,
      "Ġmecha": 548,
      "inen": 549,
      "pense": 550,
      "Ġsuspense": 551,
      "Ġfighting": 552,
      "Ġdri": 553,
      "Ġseinen": 554,
      "Ġmart": 555,
      "Ġarts": 556,
      "Ġmartial": 557,
      "Ġemo": 558,
      "tional": 559,
      "Ġintense": 560,
      "Ġmystery": 561,
      "Ġemotional": 562,
      "Ġcl": 563,
      "unen": 564,
      "Ġol": 565,
      "Ġshounen": 566,
      "Ġromance": 567,
      "oc": 568,
      "Ġwhol": 569,
      "esome": 570,
      "Ġwholesome": 571,
      "Ġolder": 572,
      "Ġsw": 573,
      "Ġmagic": 574,
      "Ġdriven": 575,
      "su": 576,
      "Ġsword": 577,
      "Ġhea": 578,
      "shi": 579,
      "Ġromant": 580,
      "Ġple": 581,
      "Ġplease": 582,
      "et": 583,
      "Ġromantic": 584,
      "Ġpre": 585,
      "Ġhas": 586,
      "one": 587,
      "ro": 588,
      "vy": 589,
      "Ġheavy": 590,
      "Ġbe": 591,
      "Ġprefer": 592,
      "Ġrobot": 593,
      "ould": 594,
      "Ġshows": 595,
      "Ġano": 596,
      "Ġmo": 597,
      "Ġsh": 598,
      "Ġfoc": 599,
      "used": 600,
      "Ġfocused": 601,
      "Ġanother": 602,
      "jo": 603,
      "Ġfights": 604,
      "Ġu": 605,
      "Ġas": 606,
      "ay": 607,
      "el": 608,
      "ably": 609,
      "Ġpreferably": 610,
      "Ġreal": 611,
      "ear": 612,
      "qu": 613,
      "Ġes": 614,
      "Ġtoo": 615,
      "uu": 616,
      "pecial": 617,
      "Ġespecial": 618,
      "Ġespecially": 619,
      "Ġwould": 620,
      "ent": 621,
      "ang": 622,
      "ence": 623,
      "Ġreally": 624,
      "fe": 625,
      "li": 626,
      "'s": 627,
      "ine": 628,
      "ass": 629,
      "um": 630,
      "tal": 631,
      "vie": 632,
      "Ġho": 633,
      "Ġit": 634,
      "its": 635,
      "adem": 636,
      "Ġacadem": 637,
      "Ġspecial": 638,
      "Ġke": 639,
      "Ġgr": 640,
      "Ġen": 641,
      "Ġex": 642,
      "oku": 643,
      "Ġz": 644,
      "Ġmovie": 645,
      "Ġqu": 646,
      "Ġlife": 647,
      "Ġdis": 648,
      "iri": 649,
      "Ġout": 650,
      "kai": 651,
      "ne": 652,
      "Ġblood": 653,
      "att": 654,
      "ir": 655,
      "Ġmood": 656,
      "Ġwa": 657,
      "Ġcom": 658,
      "Ġgho": 659,
      "like": 660,
      "Ġdislike": 661,
      "use": 662,
      "od": 663,
      "Ġbatt": 664,
      "ero": 665,
      "ky": 666,
      "Ġsin": 667,
      "own": 668,
      "Ġtw": 669,
      "Ġghos": 670,
      "nts": 671,
      "Ġni": 672,
      "Ġfr": 673,
      "aku": 674,
      "Ġbattle": 675,
      "Ġne": 676,
      "erk": 677,
      "Ġfe": 678,
      "pl": 679,
      "Ġmome": 680,
      "ill": 681,
      "Ġtone": 682,
      "ress": 683,
      "Ġgir": 684,
      "Ġligh": 685,
      "Ġlight": 686,
      "ney": 687,
      "Ġviol": 688,
      "Ġmoments": 689,
      "Ġmen": 690,
      "Ġspiri": 691,
      "Ġspirits": 692,
      "Ġmagical": 693,
      "Ġjour": 694,
      "Ġquest": 695,
      "Ġ3": 696,
      "Ġtri": 697,
      "Ġde": 698,
      "dent": 699,
      "Ġstudent": 700,
      "room": 701,
      "enes": 702,
      "Ġdep": 703,
      "ari": 704,
      "Ġjourney": 705,
      "ry": 706,
      "Ġcharacters": 707,
      "Ġclass": 708,
      "les": 709,
      "oody": 710,
      "Ġbloody": 711,
      "Ġviolence": 712,
      "Ġacademy": 713,
      "ice": 714,
      "Ġmental": 715,
      "Ġtear": 716,
      "dic": 717,
      "kes": 718,
      "ists": 719,
      "Ġcomedic": 720,
      "Ġclassroom": 721,
      "ik": 722,
      "jerk": 723,
      "Ġtearjerk": 724,
      "Ġtearjerker": 725,
      "fy": 726,
      "Ġgoo": 727,
      "Ġgoofy": 728,
      "lation": 729,
      "Ġghosts": 730,
      "bat": 731,
      "Ġjokes": 732,
      "Ġtwists": 733,
      "Ġals": 734,
      "Ġalso": 735,
      "Ġswords": 736,
      "Ġup": 737,
      "ressing": 738,
      "Ġdepressing": 739,
      "ig": 740,
      "Ġcombat": 741,
      "ush": 742,
      "Ġfight": 743,
      "ship": 744,
      "tsu": 745,
      "Ġpac": 746,
      "Ġpacing": 747,
      "oration": 748,
      "Ġexpl": 749,
      "Ġsince": 750,
      "Ġexploration": 751,
      "epy": 752,
      "Ġrelation": 753,
      "Ġscenes": 754,
      "Ġrelationship": 755,
      "and": 756,
      "Ġcre": 757,
      "Ġcreepy": 758,
      "Ġworlds": 759,
      "Ġam": 760,
      "Ġlea": 761,
      "key": 762,
      "atsu": 763,
      "angles": 764,
      "Ġtriangles": 765,
      "Ġlots": 766,
      "Ġsuits": 767,
      "ono": 768,
      "Ġwh": 769,
      "Ġlow": 770,
      "ough": 771,
      "Ġlowkey": 772,
      "Ġpar": 773,
      "Ġgrown": 774,
      "els": 775,
      "Ġfine": 776,
      "st": 777,
      "Ġkind": 778,
      "Ġfeels": 779,
      "ia": 780,
      "Ġfrom": 781,
      "Ġleave": 782,
      "Ġab": 783,
      "ack": 784,
      "Ġclo": 785,
      "Ġon": 786,
      "ko": 787,
      "Ġii": 788,
      "Ġra": 789,
      "Ġpl": 790,
      "Ġhero": 791,
      "ashi": 792,
      "Ġnice": 793,
      "yb": 794,
      "ard": 795,
      "Ġless": 796,
      "ara": 797,
      "Ġstill": 798,
      "Ġal": 799,
      "Ġsen": 800,
      "Ġshi": 801,
      "Ġclose": 802,
      "Ġparts": 803,
      "ka": 804,
      "Ġget": 805,
      "Ġaf": 806,
      "ku": 807,
      "Ġhon": 808,
      "!!": 809,
      "yed": 810,
      "Ġgirl": 811,
      "ot": 812,
      "Ġafter": 813,
      "Ġmayb": 814,
      "Ġmaybe": 815,
      "ate": 816,
      "joyed": 817,
      "Ġenjoyed": 818,
      "all": 819,
      "Ġv": 820,
      "san": 821,
      "'m": 822,
      "Ġuse": 823,
      "Ġshou": 824,
      "Ġx": 825,
      "ushi": 826,
      "os": 827,
      "Ġky": 828,
      "'t": 829,
      "gg": 830,
      "ura": 831,
      "aw": 832,
      "Ġwat": 833,
      "hou": 834,
      "ge": 835,
      "estly": 836,
      "Ġhonestly": 837,
      "mon": 838,
      "ji": 839,
      "Ġ(": 840,
      "ami": 841,
      "va": 842,
      "Ġdrag": 843,
      "Ġdragon": 844,
      "Ġtsu": 845,
      "ap": 846,
      "Ġif": 847,
      "iz": 848,
      "ori": 849,
      "Ġpr": 850,
      "ano": 851,
      "end": 852,
      "Ġthough": 853,
      "ick": 854,
      "Ġsa": 855,
      "aru": 856,
      "Ġko": 857,
      "Ġpart": 858,
      "ong": 859,
      "Ġgu": 860,
      "Ġova": 861,
      "Ġrefer": 862,
      "Ġdon": 863,
      "Ġ1": 864,
      "Ġwo": 865,
      "Ġkeep": 866,
      "iy": 867,
      "Ġone": 868,
      "!,": 869,
      "ond": 870,
      "Ġkur": 871,
      "ish": 872,
      "ire": 873,
      "ute": 874,
      "Ġten": 875,
      "Ġrather": 876,
      "Ġrecommendation": 877,
      "Ġyu": 878,
      "Ġblack": 879,
      "Ġha": 880,
      "Ġwhat": 881,
      "ana": 882,
      "ta": 883,
      "ite": 884,
      "hen": 885,
      "kun": 886,
      "age": 887,
      "Ġwork": 888,
      "Ġat": 889,
      "Ġka": 890,
      "Ġda": 891,
      "op": 892,
      "Ġstr": 893,
      "amp": 894,
      "are": 895,
      "Ġgood": 896,
      "Ġfin": 897,
      "utsu": 898,
      "ken": 899,
      "Ġking": 900,
      "Ġ&": 901,
      "Ġbase": 902,
      "Ġpick": 903,
      "jou": 904,
      "Ġball": 905,
      "Ġwatch": 906,
      "jin": 907,
      "aki": 908,
      "sol": 909,
      "Ġabsol": 910,
      "Ġabsolute": 911,
      "Ġcould": 912,
      "ers": 913,
      "ight": 914,
      "te": 915,
      "gy": 916,
      "ra": 917,
      "ue": 918,
      "Ġabsolutely": 919,
      "Ġyo": 920,
      "iss": 921,
      "sekai": 922,
      "riend": 923,
      "Ġplus": 924,
      "Ġken": 925,
      "ichi": 926,
      "Ġte": 927,
      "Ġshin": 928,
      "bor": 929,
      "Ġisekai": 930,
      "Ġmake": 931,
      "ora": 932,
      "Ġkim": 933,
      "Ġhai": 934,
      "up": 935,
      "Ġdead": 936,
      "Ġacademia": 937,
      "Ġsugg": 938,
      "Ġsuggest": 939,
      "Ġmas": 940,
      "Ġhun": 941,
      "Ġreference": 942,
      "Ġworks": 943,
      "Ġdi": 944,
      "chan": 945,
      "Ġwar": 946,
      "Ġhan": 947,
      "ensei": 948,
      "Ġhunter": 949,
      "gat": 950,
      "ss": 951,
      "Ġna": 952,
      "onogat": 953,
      "onogatari": 954,
      "Ġtry": 955,
      "oy": 956,
      "Ġsak": 957,
      "Ġgod": 958,
      "go": 959,
      "Ġtow": 960,
      "Ġpush": 961,
      "Ġstart": 962,
      "Ġtoward": 963,
      "inc": 964,
      "Ġkam": 965,
      "ell": 966,
      "Ġkou": 967,
      "oko": 968,
      "ash": 969,
      "ma": 970,
      "Ã©": 971,
      "ergy": 972,
      "Ġboku": 973,
      "Ġenergy": 974,
      "Ġot": 975,
      "Ġsai": 976,
      "Ġanim": 977,
      "oro": 978,
      "hood": 979,
      "oll": 980,
      "int": 981,
      "aga": 982,
      "ian": 983,
      "you": 984,
      "Ġtak": 985,
      "usei": 986,
      "Ġgirls": 987,
      "Ġle": 988,
      "Ġlong": 989,
      "ound": 990,
      "ndam": 991,
      "Ġgundam": 992,
      "gi": 993,
      "âĺ": 994,
      "Ġser": 995,
      "Ġbas": 996,
      "Ġkano": 997,
      "Ġseven": 998,
      "zu": 999,
      "bi": 1000,
      "'d": 1001,
      "Ġcr": 1002,
      "Ġfl": 1003,
      "usha": 1004,
      "Ġkanojo": 1005,
      "Ġmon": 1006,
      "ide": 1007,
      "Ġanimation": 1008,
      "uy": 1009,
      "ace": 1010,
      "oto": 1011,
      "ect": 1012,
      "Ġmahou": 1013,
      "ame": 1014,
      "eki": 1015,
      "ive": 1016,
      "though": 1017,
      "Ġnear": 1018,
      "ket": 1019,
      "Ġalthough": 1020,
      "Ġfinal": 1021,
      "kk": 1022,
      "00": 1023,
      "ron": 1024,
      "tch": 1025,
      "Ġ-": 1026,
      "Ġwitch": 1027,
      "ighbor": 1028,
      "ade": 1029,
      "Ġblue": 1030,
      "Ġneighbor": 1031,
      "Ġkai": 1032,
      "Ġkimi": 1033,
      "nt": 1034,
      "Ġthing": 1035,
      "vil": 1036,
      "ous": 1037,
      "omo": 1038,
      "aka": 1039,
      "ata": 1040,
      "uc": 1041,
      "Ġkn": 1042,
      "agi": 1043,
      "pp": 1044,
      "ub": 1045,
      "urai": 1046,
      "Ġdan": 1047,
      "ise": 1048,
      "Ġkuro": 1049,
      "Ġmaid": 1050,
      "Ġshoujo": 1051,
      "Ġou": 1052,
      "Ġcare": 1053,
      "Ġmain": 1054,
      "Ġabout": 1055,
      "Ġdes": 1056,
      "Ġ4": 1057,
      "Ġfriend": 1058,
      "uru": 1059,
      "Ġsei": 1060,
      "Ġneighborhood": 1061,
      "Ġdog": 1062,
      "oke": 1063,
      "way": 1064,
      "Ġstar": 1065,
      "Ġman": 1066,
      "Ġmin": 1067,
      "Ġpls": 1068,
      "iya": 1069,
      "Ġkoi": 1070,
      "Ġspecials": 1071,
      "Ġlive": 1072,
      "itsu": 1073,
      "rd": 1074,
      "Ġdem": 1075,
      "Ġel": 1076,
      "âĺĨ": 1077,
      "Ġao": 1078,
      "Ġpok": 1079,
      "Ġsekai": 1080,
      "Ã©mon": 1081,
      "ĠpokÃ©mon": 1082,
      "ume": 1083,
      "Ġday": 1084,
      "kyou": 1085,
      "Ġmus": 1086,
      "Ġrn": 1087,
      "Ġlost": 1088,
      "Ġkinda": 1089,
      "ity": 1090,
      "Ġtensei": 1091,
      "Ġmaster": 1092,
      "den": 1093,
      "fu": 1094,
      "Ġkyo": 1095,
      "Ġprinc": 1096,
      "Ġbasket": 1097,
      "Ġro": 1098,
      "Ġhe": 1099,
      "Ġhaiky": 1100,
      "uto": 1101,
      "Ġmoon": 1102,
      "Ġnan": 1103,
      "man": 1104,
      "asu": 1105,
      "Ġover": 1106,
      "ita": 1107,
      "ishi": 1108,
      "Ġyuu": 1109,
      "ull": 1110,
      "Ġprincess": 1111,
      "Ġadd": 1112,
      "kyo": 1113,
      "Ġun": 1114,
      "ild": 1115,
      "Ġmob": 1116,
      "Ġthis": 1117,
      "Ġbun": 1118,
      "mo": 1119,
      "ile": 1120,
      "ima": 1121,
      "uma": 1122,
      "Ġfriends": 1123,
      "Ġsam": 1124,
      "Ġsamurai": 1125,
      "yo": 1126,
      "Ġatt": 1127,
      "Ġkyou": 1128,
      "Ġdogs": 1129,
      "Ġminus": 1130,
      "ru": 1131,
      "zai": 1132,
      "Ġsaga": 1133,
      "sh": 1134,
      "itan": 1135,
      "Ġund": 1136,
      "Ġnatsu": 1137,
      "Ġvamp": 1138,
      "Ġvampire": 1139,
      "na": 1140,
      "Ġpi": 1141,
      "Ġbook": 1142,
      "Ġcard": 1143,
      "Ġgen": 1144,
      "Ġsec": 1145,
      "Ġtrying": 1146,
      "Ġchi": 1147,
      "kan": 1148,
      "Ġchron": 1149,
      "Ġchronic": 1150,
      "Ġlast": 1151,
      "Ġyour": 1152,
      "ty": 1153,
      "Ġren": 1154,
      "Ġstray": 1155,
      "ni": 1156,
      "Ġdig": 1157,
      "Ġdevil": 1158,
      "ies": 1159,
      "Ġstone": 1160,
      "Ġyuusha": 1161,
      "Ġ0": 1162,
      "orc": 1163,
      "Ġmonster": 1164,
      "20": 1165,
      "Ġhit": 1166,
      "Ġkan": 1167,
      "Ġtokyo": 1168,
      "land": 1169,
      "Ġmar": 1170,
      "Ġfull": 1171,
      "Ġore": 1172,
      "Ġattack": 1173,
      "Ġdesu": 1174,
      "Ġut": 1175,
      "Ġdemon": 1176,
      "Ġreven": 1177,
      "imon": 1178,
      "ces": 1179,
      "Ġaway": 1180,
      "Ġmiss": 1181,
      "Ġred": 1182,
      "Ġkara": 1183,
      "eling": 1184,
      "Ġfeeling": 1185,
      "Ġsuit": 1186,
      "ah": 1187,
      "Ġang": 1188,
      "ren": 1189,
      "uri": 1190,
      "Ġshing": 1191,
      "Ġzero": 1192,
      "Ġim": 1193,
      "Ġaround": 1194,
      "Ġinto": 1195,
      "Ġzom": 1196,
      "ier": 1197,
      "Ġmad": 1198,
      "bu": 1199,
      "Ġnew": 1200,
      "Ġhave": 1201,
      "Ġpiec": 1202,
      "ain": 1203,
      "Ġbr": 1204,
      "ilor": 1205,
      "isen": 1206,
      "Ġsailor": 1207,
      "ba": 1208,
      "Ġsora": 1209,
      "Ġtr": 1210,
      "Ġju": 1211,
      "Ġharu": 1212,
      "Ġshit": 1213,
      "Ġexorc": 1214,
      "Ġboy": 1215,
      "Ġfut": 1216,
      "reak": 1217,
      "gan": 1218,
      "Ġmobile": 1219,
      "Ġnar": 1220,
      "Ġgre": 1221,
      "Ġtitan": 1222,
      "Ġsum": 1223,
      "Ġmaou": 1224,
      "Ġshingeki": 1225,
      "tv": 1226,
      "ily": 1227,
      "Ġdigimon": 1228,
      "lord": 1229,
      "sou": 1230,
      "Ġoverlord": 1231,
      "Ġsou": 1232,
      "kou": 1233,
      "Ġsecond": 1234,
      "Ġpiece": 1235,
      "Ġdea": 1236,
      "Ġta": 1237,
      "Ġpro": 1238,
      "Ġdays": 1239,
      "vers": 1240,
      "ode": 1241,
      "ei": 1242,
      "tor": 1243,
      "elion": 1244,
      "jutsu": 1245,
      "Ġjun": 1246,
      "Ġshould": 1247,
      "Ġak": 1248,
      "Ġgint": 1249,
      "Ġsenshi": 1250,
      "Ġangel": 1251,
      "Ġgintama": 1252,
      "Ġbaki": 1253,
      "Ġpoke": 1254,
      "Ġkono": 1255,
      "Ġexorcist": 1256,
      "Ġpokemon": 1257,
      "if": 1258,
      "ll": 1259,
      "Ġher": 1260,
      "ona": 1261,
      "Ġchild": 1262,
      "Ġspir": 1263,
      "Ġjojo": 1264,
      "Ġiii": 1265,
      "Ġnatsume": 1266,
      "ows": 1267,
      "Ġchronicle": 1268,
      "juu": 1269,
      "Ġfam": 1270,
      "Ġfate": 1271,
      "irst": 1272,
      "ble": 1273,
      "Ġ5": 1274,
      "Ġfai": 1275,
      "Ġco": 1276,
      "Ġry": 1277,
      "aby": 1278,
      "Ġwhen": 1279,
      "Ġzombi": 1280,
      "Ġfairy": 1281,
      "ves": 1282,
      "Ġson": 1283,
      "Ġgol": 1284,
      "Ġtom": 1285,
      "une": 1286,
      "ister": 1287,
      "koku": 1288,
      "Ġlord": 1289,
      "Ġdown": 1290,
      "Ġsakura": 1291,
      "Ġev": 1292,
      "Ġchildren": 1293,
      "!:": 1294,
      "Ġdate": 1295,
      "Ġmusume": 1296,
      "zum": 1297,
      "ences": 1298,
      "urashi": 1299,
      "iru": 1300,
      "Ġreferences": 1301,
      "Ġdeath": 1302,
      "dom": 1303,
      "Ġâ": 1304,
      "Ġart": 1305,
      "Ġla": 1306,
      "Ġhi": 1307,
      "Ġkingdom": 1308,
      "Ġnow": 1309,
      "Ġkami": 1310,
      "ree": 1311,
      "Ġpsycho": 1312,
      "kin": 1313,
      "Ġtakagi": 1314,
      "Ġkyojin": 1315,
      "!?": 1316,
      "Ġge": 1317,
      "Ġseik": 1318,
      "Ġplan": 1319,
      "Ġcry": 1320,
      "chem": 1321,
      "sei": 1322,
      "unch": 1323,
      "Ġever": 1324,
      "tsuji": 1325,
      "Ġalchem": 1326,
      "Ġval": 1327,
      "Ġkuroko": 1328,
      "Ġwatashi": 1329,
      "Ġspirit": 1330,
      "line": 1331,
      "ze": 1332,
      "Ġph": 1333,
      "Ġarc": 1334,
      "Ġmu": 1335,
      "Ġfoll": 1336,
      "Ġtai": 1337,
      "Ġheaven": 1338,
      "Ġ100": 1339,
      "ished": 1340,
      "Ġfinished": 1341,
      "Ġfollow": 1342,
      "),": 1343,
      "achi": 1344,
      "orm": 1345,
      "arre": 1346,
      "Ġbiz": 1347,
      "Ġgal": 1348,
      "Ġtime": 1349,
      "Ġkak": 1350,
      "Ġbizarre": 1351,
      "ber": 1352,
      "Ġmir": 1353,
      "Ġtest": 1354,
      "Ġkill": 1355,
      "Ġend": 1356,
      "iku": 1357,
      "Ġbo": 1358,
      "Ġfirst": 1359,
      "Ġhig": 1360,
      "Ġku": 1361,
      "Ġstage": 1362,
      "ib": 1363,
      "Ġrevenge": 1364,
      "Ġalchemist": 1365,
      "Ġinuy": 1366,
      "angelion": 1367,
      "Ġwhite": 1368,
      "Ġelse": 1369,
      "Ġfuture": 1370,
      "Ġevangelion": 1371,
      "tt": 1372,
      "Ġbok": 1373,
      "Ġres": 1374,
      "Ġkidou": 1375,
      "aning": 1376,
      "aret": 1377,
      "Ġmori": 1378,
      "Ġcamp": 1379,
      "Ġkag": 1380,
      "Ġshu": 1381,
      "Ġleaning": 1382,
      "Ġnanatsu": 1383,
      "Ġtaizai": 1384,
      "ach": 1385,
      "gun": 1386,
      "Ġble": 1387,
      "Ġdance": 1388,
      "Ġkiz": 1389,
      "Ġnaruto": 1390,
      "Ġbleach": 1391,
      "bl": 1392,
      "oshi": 1393,
      "Ġsun": 1394,
      "Ġonline": 1395,
      "Ġhaikyuu": 1396,
      "Ġplanet": 1397,
      "bou": 1398,
      "Ġcon": 1399,
      "Ġtan": 1400,
      "chuu": 1401,
      "ead": 1402,
      "ats": 1403,
      "Ġnex": 1404,
      "friend": 1405,
      "ako": 1406,
      "ross": 1407,
      "uman": 1408,
      "koi": 1409,
      "app": 1410,
      "Ġzombie": 1411,
      "orn": 1412,
      "Ġir": 1413,
      "Ġseries": 1414,
      "Ġbungo": 1415,
      "201": 1416,
      "Ġgolden": 1417,
      "ler": 1418,
      "ere": 1419,
      "Ġkiss": 1420,
      "Ġmirai": 1421,
      "han": 1422,
      "less": 1423,
      "Ġdun": 1424,
      "Ġghost": 1425,
      "ament": 1426,
      "Ġkyoukai": 1427,
      "bit": 1428,
      "ini": 1429,
      "Ġbou": 1430,
      "Ġfree": 1431,
      "Ġblade": 1432,
      "Ġclub": 1433,
      ".,": 1434,
      "Ġcode": 1435,
      "urn": 1436,
      "Ġmagi": 1437,
      "ane": 1438,
      "anai": 1439,
      "Ġwind": 1440,
      "Ġmonogatari": 1441,
      "Ġheroes": 1442,
      "Ġflower": 1443,
      "Ġhigurashi": 1444,
      "af": 1445,
      "Ġter": 1446,
      "Ġkar": 1447,
      "Ġwars": 1448,
      "ja": 1449,
      "Ġden": 1450,
      "Ġdet": 1451,
      "Ġkok": 1452,
      "Ġkaisen": 1453,
      "Ġjujutsu": 1454,
      "Ġbro": 1455,
      "Ġnever": 1456,
      "Ġsenki": 1457,
      "Ġsakam": 1458,
      "gou": 1459,
      "val": 1460,
      "Ģĵ": 1461,
      "Ġkuma": 1462,
      "Ġseire": 1463,
      "ock": 1464,
      "Ġfru": 1465,
      "Ġsaikyou": 1466,
      "ĠâĢĵ": 1467,
      "Ġed": 1468,
      "Ġfil": 1469,
      "Ġtal": 1470,
      "usen": 1471,
      "Ġhoriz": 1472,
      "Ġplay": 1473,
      "tachi": 1474,
      "Ġhaikyu": 1475,
      "Ġhorizon": 1476,
      "eam": 1477,
      "ann": 1478,
      "Ġwon": 1479,
      "Ġnag": 1480,
      "Ġtor": 1481,
      "Ġrei": 1482,
      "Ġtou": 1483,
      "Ġste": 1484,
      "Ġthey": 1485,
      "Ġoff": 1486,
      "Ġdream": 1487,
      "ection": 1488,
      "Ġdatta": 1489,
      "oss": 1490,
      "Ġagg": 1491,
      "Ġbutler": 1492,
      "tern": 1493,
      "let": 1494,
      "Ġetern": 1495,
      "tsuko": 1496,
      "geon": 1497,
      "Ġhaj": 1498,
      "Ġserv": 1499,
      "Ġtail": 1500,
      "Ġdungeon": 1501,
      "Ġur": 1502,
      "mer": 1503,
      "ketsu": 1504,
      "Ġton": 1505,
      "rior": 1506,
      "abol": 1507,
      "shitsuji": 1508,
      "Ġshad": 1509,
      "akugan": 1510,
      "Ġdiabol": 1511,
      "Ġkuroshitsuji": 1512,
      "Ġsummer": 1513,
      "cap": 1514,
      "Ġso": 1515,
      "ins": 1516,
      "Ġfu": 1517,
      "houtsu": 1518,
      "Ġorder": 1519,
      "Ġmahoutsu": 1520,
      "Ġhoshi": 1521,
      "Ġcardcap": 1522,
      "Ġmahoutsukai": 1523,
      "Ġcardcaptor": 1524,
      "kaku": 1525,
      "Ġran": 1526,
      "Ġright": 1527,
      "Ġmetal": 1528,
      "uro": 1529,
      "imasu": 1530,
      "Ġchain": 1531,
      "Ġgirlfriend": 1532,
      "bas": 1533,
      "ness": 1534,
      "Ġcol": 1535,
      "Ġmem": 1536,
      "Ġthan": 1537,
      "isama": 1538,
      "ushitsu": 1539,
      "Ġtsubas": 1540,
      "Ġtsubasa": 1541,
      "Ġdaw": 1542,
      "Ġhat": 1543,
      "imo": 1544,
      "artet": 1545,
      "Ġquartet": 1546,
      "Ġbrother": 1547,
      "Ġwonder": 1548,
      "Ġdawn": 1549,
      "pai": 1550,
      "ple": 1551,
      "Ġmary": 1552,
      "hoku": 1553,
      "Ġkishi": 1554,
      "Ġsuzum": 1555,
      "ited": 1556,
      "Ġyak": 1557,
      "Ġstrong": 1558,
      "nium": 1559,
      "Ġharuhi": 1560,
      "Ġsuzumiya": 1561,
      "fin": 1562,
      "Ġsay": 1563,
      "metal": 1564,
      "Ġgun": 1565,
      "Ġpan": 1566,
      "Ġneko": 1567,
      "Ġfullmetal": 1568,
      "Ġnext": 1569,
      "Ġfilm": 1570,
      "da": 1571,
      "goto": 1572,
      "Ġsister": 1573,
      "Ġbaby": 1574,
      "Ġmew": 1575,
      "Ġok": 1576,
      "Ġtsuki": 1577,
      "areta": 1578,
      "ious": 1579,
      "pass": 1580,
      "Ġbers": 1581,
      "Ġcou": 1582,
      "Ġgo": 1583,
      "Ġstri": 1584,
      "Ġshoku": 1585,
      "Ġact": 1586,
      "tain": 1587,
      "asha": 1588,
      "Ġinuyasha": 1589,
      "Ġfruits": 1590,
      "Ġberserk": 1591,
      "Ġstrike": 1592,
      "gai": 1593,
      "zaki": 1594,
      "Ġ8": 1595,
      "Ġts": 1596,
      "Ġtomo": 1597,
      "Ġmajo": 1598,
      "Ġonly": 1599,
      "Ġhitori": 1600,
      "now": 1601,
      "oh": 1602,
      "Ġow": 1603,
      "Ġsnow": 1604,
      "Ġapp": 1605,
      "Ġdou": 1606,
      "Ġhak": 1607,
      "Ġpunch": 1608,
      "amat": 1609,
      "Ġlovers": 1610,
      "aria": 1611,
      "ya": 1612,
      "yond": 1613,
      "Ġwe": 1614,
      "Ġaster": 1615,
      "Ġfuu": 1616,
      "ale": 1617,
      "Ġbeyond": 1618,
      "umo": 1619,
      "Ġhow": 1620,
      "ective": 1621,
      "Ġcool": 1622,
      "Ġdetective": 1623,
      "Ġseirei": 1624,
      "ud": 1625,
      "yak": 1626,
      "ortal": 1627,
      "antei": 1628,
      "Ġcer": 1629,
      "ouzu": 1630,
      "Ġos": 1631,
      "agn": 1632,
      "Ġdanshi": 1633,
      "blood": 1634,
      "Ġsakamoto": 1635,
      "Ġem": 1636,
      "Ġwan": 1637,
      "Ġmichi": 1638,
      "isk": 1639,
      "umonogatari": 1640,
      "osh": 1641,
      "Ġkizumonogatari": 1642,
      "Ġhajime": 1643,
      "bun": 1644,
      "ball": 1645,
      "ha": 1646,
      "Ġfire": 1647,
      "imono": 1648,
      "Ġspace": 1649,
      "each": 1650,
      "ashii": 1651,
      "Ġkamisama": 1652,
      "Ġundead": 1653,
      "Ġgreat": 1654,
      "Ġfamily": 1655,
      "hime": 1656,
      "ling": 1657,
      "antom": 1658,
      "Ġtoaru": 1659,
      "Ġinv": 1660,
      "Ġdarker": 1661,
      "Ġkoukou": 1662,
      "Ġphantom": 1663,
      "goku": 1664,
      "sama": 1665,
      "Ġsensei": 1666,
      "Ġwol": 1667,
      "oru": 1668,
      "Ġris": 1669,
      "Ġrum": 1670,
      "asing": 1671,
      "amond": 1672,
      "Ġslime": 1673,
      "Ġshana": 1674,
      "Ġshakugan": 1675,
      "Ġteasing": 1676,
      "Ġdiamond": 1677,
      "Ġknight": 1678,
      "fuku": 1679,
      "Ġwolf": 1680,
      "rin": 1681,
      "Ġult": 1682,
      "arnat": 1683,
      "Ġnichi": 1684,
      "Ġgl": 1685,
      "Ġhell": 1686,
      "Ġreinc": 1687,
      "ism": 1688,
      "Ġaria": 1689,
      "Ġhouse": 1690,
      "Ġimm": 1691,
      "Ġnichijou": 1692,
      "Ġreincarnat": 1693,
      "break": 1694,
      "xd": 1695,
      "Ġq": 1696,
      "Ġfo": 1697,
      "Ġdxd": 1698,
      "Ġjig": 1699,
      "geki": 1700,
      "Ġsaint": 1701,
      "Ġshitara": 1702,
      "wa": 1703,
      "yaku": 1704,
      "Ġras": 1705,
      "ada": 1706,
      "ikaku": 1707,
      "Ġclover": 1708,
      "Ġmushoku": 1709,
      "gin": 1710,
      "lf": 1711,
      "lim": 1712,
      "matsu": 1713,
      "Ġsky": 1714,
      "Ġsna": 1715,
      "Ġluc": 1716,
      "eru": 1717,
      "Ġmer": 1718,
      "uran": 1719,
      "Ġkon": 1720,
      "ters": 1721,
      "Ġyama": 1722,
      "outai": 1723,
      "Ġlog": 1724,
      "Ġshuu": 1725,
      "Ġtenshi": 1726,
      "Ġteen": 1727,
      "Ġknows": 1728,
      "Ġuta": 1729,
      "limited": 1730,
      "Ġsnafu": 1731,
      "Ġshuumatsu": 1732,
      "cal": 1733,
      "ger": 1734,
      "jitsu": 1735,
      "Ġbra": 1736,
      "honium": 1737,
      "imetsu": 1738,
      "Ġgaku": 1739,
      "Ġeup": 1740,
      "igami": 1741,
      "Ġeuphonium": 1742,
      "kki": 1743,
      "rite": 1744,
      "tier": 1745,
      "write": 1746,
      "Ġbak": 1747,
      "Ġrewrite": 1748,
      "amune": 1749,
      "Ġvs": 1750,
      "Ġmasamune": 1751,
      "Ġgensou": 1752,
      "ave": 1753,
      "ip": 1754,
      "Ġichi": 1755,
      "Ġother": 1756,
      "cel": 1757,
      "occhi": 1758,
      "Ġgrand": 1759,
      "arden": 1760,
      "awa": 1761,
      "Ġpris": 1762,
      "Ġdaily": 1763,
      "kkon": 1764,
      "gend": 1765,
      "oon": 1766,
      "Ġsama": 1767,
      "Ġsqu": 1768,
      "Ġlitt": 1769,
      "Ġreb": 1770,
      "Ġrecord": 1771,
      "red": 1772,
      "kyri": 1773,
      "kaima": 1774,
      "Ġtsukaima": 1775,
      "ories": 1776,
      "Ġotome": 1777,
      "Ġlegend": 1778,
      "Ġvalkyri": 1779,
      "Ġstrongest": 1780,
      "Ġlittle": 1781,
      "Ã¤": 1782,
      "Ġmur": 1783,
      "Ġcat": 1784,
      "Ġseed": 1785,
      "Ġjouzu": 1786,
      "Ġinfin": 1787,
      "Ġasob": 1788,
      "Ġkamuy": 1789,
      "Ġbungou": 1790,
      "daka": 1791,
      "nen": 1792,
      "satsu": 1793,
      "Ġsac": 1794,
      "Ġbis": 1795,
      "Ġbec": 1796,
      "Ġbah": 1797,
      "Ġnon": 1798,
      "Ġhis": 1799,
      "Ġpass": 1800,
      "Ġmedaka": 1801,
      "Ġtod": 1802,
      "usoku": 1803,
      "amut": 1804,
      "adora": 1805,
      "Ġkess": 1806,
      "Ġryu": 1807,
      "Ġnagat": 1808,
      "Ġtoradora": 1809,
      "Ġbahamut": 1810,
      "tra": 1811,
      "ars": 1812,
      "Ġlel": 1813,
      "Ġmushi": 1814,
      "Ġgenes": 1815,
      "Ġkob": 1816,
      "ouch": 1817,
      "imate": 1818,
      "Ġsub": 1819,
      "oka": 1820,
      "Ġbeast": 1821,
      "Ġsenpai": 1822,
      "Ġshitai": 1823,
      "Ġgeass": 1824,
      "Ġcertain": 1825,
      "Ġrumble": 1826,
      "Ġultimate": 1827,
      "Ġlelouch": 1828,
      "Ġgenesis": 1829,
      "gir": 1830,
      "gate": 1831,
      "io": 1832,
      "ient": 1833,
      "lin": 1834,
      "pa": 1835,
      "Ġnight": 1836,
      "enai": 1837,
      "asts": 1838,
      "unib": 1839,
      "Ġjik": 1840,
      "Ġbeasts": 1841,
      "iko": 1842,
      "Ġoto": 1843,
      "Ġbasketball": 1844,
      "Ġtales": 1845,
      "Ġsteins": 1846,
      "Ġowar": 1847,
      "Ġimmortal": 1848,
      "!.": 1849,
      "dess": 1850,
      "Ġsil": 1851,
      "Ġdai": 1852,
      "Ġdel": 1853,
      "Ġpop": 1854,
      "urvi": 1855,
      "isan": 1856,
      "Ġoce": 1857,
      "Ġoshi": 1858,
      "akai": 1859,
      "Ġear": 1860,
      "Ġevil": 1861,
      "kyuu": 1862,
      "Ġgoddess": 1863,
      "isei": 1864,
      "Ġocean": 1865,
      "mi": 1866,
      "und": 1867,
      "Ġpat": 1868,
      "Ġkaw": 1869,
      "imi": 1870,
      "ights": 1871,
      "Ġmaj": 1872,
      "Ġare": 1873,
      "Ġsins": 1874,
      "ott": 1875,
      "Ġotosh": 1876,
      "Ġkawai": 1877,
      "Ġotoshimono": 1878,
      "ex": 1879,
      "xy": 1880,
      "Ġ7": 1881,
      "Ġver": 1882,
      "Ġnor": 1883,
      "Ġaki": 1884,
      "Ġhear": 1885,
      "Ġhik": 1886,
      "Ġkik": 1887,
      "self": 1888,
      "isai": 1889,
      "itai": 1890,
      "Ġins": 1891,
      "otte": 1892,
      "Ġvan": 1893,
      "Ġouji": 1894,
      "Ġcolor": 1895,
      "ray": 1896,
      "zak": 1897,
      "Ġvo": 1898,
      "iny": 1899,
      "Ġbreak": 1900,
      "Ġlives": 1901,
      "ali": 1902,
      "Ġhatsu": 1903,
      "imonogatari": 1904,
      "Ġsuiri": 1905,
      "Ġmachi": 1906,
      "arty": 1907,
      "arten": 1908,
      "dering": 1909,
      "ete": 1910,
      "Ġyozak": 1911,
      "ashita": 1912,
      "Ġheart": 1913,
      "Ġdevils": 1914,
      "Ġsoul": 1915,
      "Ġmoriarty": 1916,
      "Ġrising": 1917,
      "Ġbakuman": 1918,
      "Ġsquad": 1919,
      "Ġhatsukoi": 1920,
      "Ġyozakura": 1921,
      "..": 1922,
      "dou": 1923,
      "gami": 1924,
      "Ġsan": 1925,
      "ince": 1926,
      "Ġace": 1927,
      "Ġhid": 1928,
      "itas": 1929,
      "Ġeat": 1930,
      "izou": 1931,
      "Ġprince": 1932,
      "Ġkanata": 1933,
      "Ġshadow": 1934,
      "?,": 1935,
      "tty": 1936,
      "zero": 1937,
      "Ġbus": 1938,
      "Ġbaka": 1939,
      "Ġcle": 1940,
      "Ġrun": 1941,
      "Ġhim": 1942,
      "Ġprior": 1943,
      "perty": 1944,
      "Ġdoes": 1945,
      "Ġmysterious": 1946,
      "Ġpretty": 1947,
      "Ġash": 1948,
      "elc": 1949,
      "Ġ13": 1950,
      "Ġtens": 1951,
      "Ġhanma": 1952,
      "ella": 1953,
      "Ġproperty": 1954,
      "Ġbouken": 1955,
      "Ġasterisk": 1956,
      "Ġrascal": 1957,
      "Ġpriority": 1958,
      "eld": 1959,
      "so": 1960,
      "sushi": 1961,
      "arara": 1962,
      "utsushi": 1963,
      "Ġdar": 1964,
      "Ġdur": 1965,
      "Ġrou": 1966,
      "Ġgar": 1967,
      "Ġretsuko": 1968,
      "Ġyome": 1969,
      "aika": 1970,
      "elier": 1971,
      "Ġkem": 1972,
      "Ġkekkon": 1973,
      "ressive": 1974,
      "onoke": 1975,
      "Ġshipp": 1976,
      "Ġprom": 1977,
      "Ġatelier": 1978,
      "Ġmononoke": 1979,
      "Ġmahouka": 1980,
      "Ġroom": 1981,
      "Ġtestament": 1982,
      "Ġaggressive": 1983,
      "Ġglass": 1984,
      "Ġdurarara": 1985,
      "Ġrouge": 1986,
      "by": 1987,
      "band": 1988,
      "cho": 1989,
      "Ġsound": 1990,
      "ina": 1991,
      "Ġmush": 1992,
      "Ġhag": 1993,
      "Ġkab": 1994,
      "usion": 1995,
      "usband": 1996,
      "ayashi": 1997,
      "umi": 1998,
      "Ġquint": 1999,
      "Ġnikki": 2000,
      "Ġrain": 2001,
      "aph": 2002,
      "Ġsummon": 2003,
      "Ġbokura": 2004,
      "Ġmurder": 2005,
      "Ġtodoke": 2006,
      "Ġkessen": 2007,
      "Ġkobayashi": 2008,
      "Ġmushishi": 2009,
      "aur": 2010,
      "ek": 2011,
      "etsu": 2012,
      "sion": 2013,
      "Ġwak": 2014,
      "Ġiro": 2015,
      "Ġboo": 2016,
      "Ġcross": 2017,
      "Ġdest": 2018,
      "Ġdand": 2019,
      "Ġtab": 2020,
      "Ġhapp": 2021,
      "Ġpic": 2022,
      "Ġmeshi": 2023,
      "usama": 2024,
      "oly": 2025,
      "Ġspy": 2026,
      "adan": 2027,
      "Ġdarkness": 2028,
      "epop": 2029,
      "Ġzoku": 2030,
      "giepop": 2031,
      "Ġseiken": 2032,
      "Ġunlimited": 2033,
      "Ġshokugeki": 2034,
      "Ġboogiepop": 2035,
      "Ġhappy": 2036,
      "day": 2037,
      "iki": 2038,
      "lan": 2039,
      "Ġer": 2040,
      "Ġsol": 2041,
      "men": 2042,
      "Ġland": 2043,
      "Ġid": 2044,
      "Ġmou": 2045,
      "Ġame": 2046,
      "Ġcho": 2047,
      "Ġdense": 2048,
      "Ġkimetsu": 2049,
      "itial": 2050,
      "Ġyai": 2051,
      "Ġinitial": 2052,
      "Ġep": 2053,
      "Ġum": 2054,
      "Ġhair": 2055,
      "Ġbride": 2056,
      "Ġhibi": 2057,
      "Ġvalkyria": 2058,
      "Ġdensetsu": 2059,
      "Ġyaiba": 2060,
      "ake": 2061,
      "col": 2062,
      "ject": 2063,
      "sen": 2064,
      "yr": 2065,
      "âĸ": 2066,
      "Ġnaru": 2067,
      "Ġyur": 2068,
      "outo": 2069,
      "Ġinu": 2070,
      "Ġzo": 2071,
      "Ġmaiden": 2072,
      "ude": 2073,
      "Ġsacred": 2074,
      "âĸ³": 2075,
      "cre": 2076,
      "nc": 2077,
      "ning": 2078,
      "ui": 2079,
      "yss": 2080,
      "Ġsom": 2081,
      "oria": 2082,
      "Ġald": 2083,
      "Ġcut": 2084,
      "Ġdu": 2085,
      "Ġros": 2086,
      "Ġtantei": 2087,
      "Ġhime": 2088,
      "atar": 2089,
      "Ġseit": 2090,
      "chine": 2091,
      "Ġmachine": 2092,
      "Ġ20": 2093,
      "Ġrealist": 2094,
      "ario": 2095,
      "Ġabyss": 2096,
      "Ġrave": 2097,
      "Ġkyuu": 2098,
      "Ġgods": 2099,
      "ellion": 2100,
      "Ġmade": 2101,
      "Ġbox": 2102,
      "Ġyakusoku": 2103,
      "Ġrebellion": 2104,
      "Ġrosario": 2105,
      "99": 2106,
      "lade": 2107,
      "pan": 2108,
      "time": 2109,
      "uunib": 2110,
      "ink": 2111,
      "Ġwho": 2112,
      "Ġnin": 2113,
      "Ġap": 2114,
      "Ġasu": 2115,
      "Ġdemo": 2116,
      "Ġrai": 2117,
      "Ġhand": 2118,
      "Ġkuu": 2119,
      "ternat": 2120,
      "Ġjin": 2121,
      "Ġchr": 2122,
      "Ġchuunib": 2123,
      "Ġyuru": 2124,
      "Ġbeyb": 2125,
      "Ġalternat": 2126,
      "!!,": 2127,
      "Ġtsuu": 2128,
      "Ġhanay": 2129,
      "Ġkoukaku": 2130,
      "Ġkyoushitsu": 2131,
      "Ġyuuutsu": 2132,
      "Ġmarch": 2133,
      "Ġeden": 2134,
      "Ġservice": 2135,
      "blooded": 2136,
      "Ġinfinite": 2137,
      "Ġchuunibyou": 2138,
      "Ġbeyblade": 2139,
      "Ġalternative": 2140,
      "ds": 2141,
      "hai": 2142,
      "Ġ00": 2143,
      "Ġsk": 2144,
      "Ġsas": 2145,
      "Ġfood": 2146,
      "Ġroku": 2147,
      "Ġhal": 2148,
      "Ġpian": 2149,
      "Ġret": 2150,
      "Ġtop": 2151,
      "Ġscore": 2152,
      "anger": 2153,
      "Ġnise": 2154,
      "Ġshoukan": 2155,
      "Ġtsukai": 2156,
      "Ġdeadman": 2157,
      "Ġkaiji": 2158,
      "Ġeverything": 2159,
      "Ġwonderland": 2160,
      "bo": 2161,
      "gima": 2162,
      "no": 2163,
      "ment": 2164,
      "Ġlag": 2165,
      "Ġback": 2166,
      "Ġder": 2167,
      "Ġgoku": 2168,
      "Ġpu": 2169,
      "aten": 2170,
      "Ġsciss": 2171,
      "Ġcastle": 2172,
      "Ġforce": 2173,
      "Ġele": 2174,
      "Ġshim": 2175,
      "lip": 2176,
      "Ġnegima": 2177,
      "Ġdake": 2178,
      "Ġkamigami": 2179,
      "Ġseijo": 2180,
      "Ġrenkin": 2181,
      "Ġreijou": 2182,
      "Ġ86": 2183,
      "Ġgakuen": 2184,
      "Ġkawaii": 2185,
      "Ġscissor": 2186,
      "chou": 2187,
      "gu": 2188,
      "nemo": 2189,
      "son": 2190,
      "tara": 2191,
      "zen": 2192,
      "Ġomo": 2193,
      "inity": 2194,
      "Ġmnemo": 2195,
      "Ġaka": 2196,
      "Ġajin": 2197,
      "Ġcoll": 2198,
      "urou": 2199,
      "Ġthere": 2200,
      "imson": 2201,
      "Ġsuzu": 2202,
      "una": 2203,
      "Ġdoor": 2204,
      "syne": 2205,
      "agami": 2206,
      "umono": 2207,
      "odachi": 2208,
      "jinchou": 2209,
      "Ġshinsei": 2210,
      "âĺħ": 2211,
      "Ġcrimson": 2212,
      "Ġyuujinchou": 2213,
      "Ġtrinity": 2214,
      "Ġtomodachi": 2215,
      "Ġmemories": 2216,
      "Ġwandering": 2217,
      "Ġjigoku": 2218,
      "Ġdestiny": 2219,
      "Ġmnemosyne": 2220,
      "Ġcollection": 2221,
      "ful": 2222,
      "Ġ6": 2223,
      "Ļ¥": 2224,
      "Ġwang": 2225,
      "Ġaku": 2226,
      "Ġride": 2227,
      "hon": 2228,
      "akusha": 2229,
      "Ġegg": 2230,
      "estiri": 2231,
      "Ġbeats": 2232,
      "Ġzestiri": 2233,
      "atte": 2234,
      "stic": 2235,
      "Ġsengoku": 2236,
      "isha": 2237,
      "Ġdaima": 2238,
      "rain": 2239,
      "Ġseraph": 2240,
      "shine": 2241,
      "Ġsunshine": 2242,
      "Ġkarakai": 2243,
      "Ġprison": 2244,
      "Ġjikan": 2245,
      "Ġtensai": 2246,
      "Ġzestiria": 2247,
      "garden": 2248,
      "Ġwelc": 2249,
      "Ġnana": 2250,
      "Ġmid": 2251,
      "ica": 2252,
      "emon": 2253,
      "Ġyaku": 2254,
      "rous": 2255,
      "Ġshe": 2256,
      "Ġhot": 2257,
      "Ġviolet": 2258,
      "Ġplace": 2259,
      "ops": 2260,
      "Ġdemi": 2261,
      "Ġtomare": 2262,
      "Ġevergarden": 2263,
      "Ġiruma": 2264,
      "Ġeternal": 2265,
      "Ġdiabolism": 2266,
      "girl": 2267,
      "Ġwelcome": 2268,
      "ike": 2269,
      "pe": 2270,
      "ran": 2271,
      "zan": 2272,
      "Ġwas": 2273,
      "Ġbarten": 2274,
      "Ġms": 2275,
      "kei": 2276,
      "Ġay": 2277,
      "antz": 2278,
      "Ġcop": 2279,
      "Ġryo": 2280,
      "Ġgem": 2281,
      "Ġgyak": 2282,
      "Ġgantz": 2283,
      "Ġpet": 2284,
      "Ġgiven": 2285,
      "Ġtourn": 2286,
      "Ġseiya": 2287,
      "aman": 2288,
      "Ġvir": 2289,
      "able": 2290,
      "Ġjoshi": 2291,
      "Ġgrap": 2292,
      "Ġghoul": 2293,
      "pler": 2294,
      "kousei": 2295,
      "Ġshikk": 2296,
      "Ġdiary": 2297,
      "uya": 2298,
      "Ġwitches": 2299,
      "Ġkaguya": 2300,
      "Ġdenpa": 2301,
      "Ġeternity": 2302,
      "Ġyamada": 2303,
      "Ġowarimonogatari": 2304,
      "Ġbartender": 2305,
      "Ġtournament": 2306,
      "Ġgrappler": 2307,
      "giru": 2308,
      "king": 2309,
      "zoku": 2310,
      "Ġansatsu": 2311,
      "arish": 2312,
      "eren": 2313,
      "Ġfri": 2314,
      "Ġlion": 2315,
      "Ġdasu": 2316,
      "Ġwist": 2317,
      "uni": 2318,
      "Ġmayo": 2319,
      "okai": 2320,
      "Ġsusume": 2321,
      "Ġshell": 2322,
      "Ġtwo": 2323,
      "houjo": 2324,
      "Ġtenj": 2325,
      "Ġkings": 2326,
      "gyou": 2327,
      "ised": 2328,
      "Ġgreen": 2329,
      "Ġflowers": 2330,
      "Ġneverland": 2331,
      "Ġdiabolik": 2332,
      "Ġokarish": 2333,
      "Ġbishoujo": 2334,
      "Ġpromised": 2335,
      "Ġfrieren": 2336,
      "Ġwistoria": 2337,
      "Ġokarishimasu": 2338,
      "eet": 2339,
      "fect": 2340,
      "ior": 2341,
      "ousei": 2342,
      "row": 2343,
      "Ġwal": 2344,
      "Ġits": 2345,
      "Ġfar": 2346,
      "Ġhyou": 2347,
      "Ġpeach": 2348,
      "omi": 2349,
      "oman": 2350,
      "ices": 2351,
      "Ġrett": 2352,
      "ilgun": 2353,
      "Ġour": 2354,
      "Ġjob": 2355,
      "ureka": 2356,
      "Ġchaika": 2357,
      "Ġeureka": 2358,
      "inence": 2359,
      "Ġsweet": 2360,
      "ushu": 2361,
      "Ġrailgun": 2362,
      "Ġxian": 2363,
      "Ġtanya": 2364,
      "Ġbrotherhood": 2365,
      "Ġeminence": 2366,
      "Ġreincarnation": 2367,
      "Ġgensouki": 2368,
      "Ġhikaru": 2369,
      "Ġvoices": 2370,
      "Ġdandadan": 2371,
      "Ġwalk": 2372,
      "Ġrettousei": 2373,
      "Ġjobless": 2374,
      "iro": 2375,
      "jir": 2376,
      "yaru": 2377,
      "arashii": 2378,
      "Ġnyaru": 2379,
      "Ġbul": 2380,
      "Ġraku": 2381,
      "Ġrock": 2382,
      "Ġhana": 2383,
      "Ġpon": 2384,
      "Ġwill": 2385,
      "Ġstig": 2386,
      "teru": 2387,
      "ureta": 2388,
      "Ġyouko": 2389,
      "Ġzetsu": 2390,
      "Ġcomple": 2391,
      "Ġshir": 2392,
      "Ġshiro": 2393,
      "Ġyume": 2394,
      "ope": 2395,
      "Ġleve": 2396,
      "Ġseih": 2397,
      "Ġhito": 2398,
      "Ġryuu": 2399,
      "Ġpanic": 2400,
      "Ġnagatoro": 2401,
      "Ġsubarashii": 2402,
      "Ġnyaruko": 2403,
      "Ġbullet": 2404,
      "Ġyoukoso": 2405,
      "gand": 2406,
      "mai": 2407,
      "oom": 2408,
      "Ġice": 2409,
      "Ġbig": 2410,
      "Ġcir": 2411,
      "Ġru": 2412,
      "Ġrond": 2413,
      "Ġrev": 2414,
      "ungand": 2415,
      "Ġjorm": 2416,
      "Ġyar": 2417,
      "Ġslay": 2418,
      "very": 2419,
      "Ġbloom": 2420,
      "atsuki": 2421,
      "Ġall": 2422,
      "iyuu": 2423,
      "Ġhanam": 2424,
      "Ġstars": 2425,
      "sha": 2426,
      "Ġmission": 2427,
      "Ġtomozaki": 2428,
      "Ġninja": 2429,
      "Ġcirc": 2430,
      "Ġrondo": 2431,
      "Ġjormungand": 2432,
      ".:": 2433,
      "cc": 2434,
      "doll": 2435,
      "ga": 2436,
      "hy": 2437,
      "nir": 2438,
      "nsion": 2439,
      "oushi": 2440,
      "was": 2441,
      "yuu": 2442,
      "zy": 2443,
      "Ġoo": 2444,
      "Ġsurvi": 2445,
      "Ġbuc": 2446,
      "Ġmac": 2447,
      "Ġtem": 2448,
      "Ġtower": 2449,
      "onara": 2450,
      "imension": 2451,
      "unk": 2452,
      "Ġmajutsu": 2453,
      "rei": 2454,
      "Ġgakk": 2455,
      "okou": 2456,
      "eps": 2457,
      "Ġbear": 2458,
      "Ġshind": 2459,
      "ells": 2460,
      "Ġgrisai": 2461,
      "odate": 2462,
      "place": 2463,
      "Ġsennen": 2464,
      "!!:": 2465,
      "Ġparty": 2466,
      "Ġkenja": 2467,
      "Ġoukoku": 2468,
      "Ġunder": 2469,
      "Ġsouma": 2470,
      "Ġkakur": 2471,
      "bito": 2472,
      "Ġterra": 2473,
      "Ġkokka": 2474,
      "Ġsayonara": 2475,
      "Ġtsure": 2476,
      "Ġqwas": 2477,
      "Ġbravo": 2478,
      "Ġmacross": 2479,
      "Ġgakkou": 2480,
      "Ġgrisaia": 2481,
      "Ġqwaser": 2482,
      "gar": 2483,
      "ie": 2484,
      "kuro": 2485,
      "lude": 2486,
      "punch": 2487,
      "to": 2488,
      "tou": 2489,
      "vatar": 2490,
      "za": 2491,
      "ination": 2492,
      "Ġaqu": 2493,
      "Ġaish": 2494,
      "Ġavatar": 2495,
      "Ġfle": 2496,
      "Ġcase": 2497,
      "ontier": 2498,
      "Ġpup": 2499,
      "atch": 2500,
      "ich": 2501,
      "isper": 2502,
      "Ġstudy": 2503,
      "Ġforest": 2504,
      "Ġaccel": 2505,
      "Ġclann": 2506,
      "Ġprelude": 2507,
      "Ġhou": 2508,
      "Ġfrontier": 2509,
      "Ġtrigun": 2510,
      "Ġwhisper": 2511,
      "ardian": 2512,
      "Ġguardian": 2513,
      "Ġchronicles": 2514,
      "Ġmissing": 2515,
      "Ġproject": 2516,
      "Ġhibike": 2517,
      "Ġclannad": 2518,
      "az": 2519,
      "boutai": 2520,
      "lotte": 2521,
      "oil": 2522,
      "vra": 2523,
      "Ġ\"": 2524,
      "Ġ[": 2525,
      "Ġind": 2526,
      "Ġsid": 2527,
      "Ġsara": 2528,
      "mei": 2529,
      "Ġwea": 2530,
      "arlet": 2531,
      "Ġlad": 2532,
      "Ġmight": 2533,
      "Ġcap": 2534,
      "Ġgin": 2535,
      "onia": 2536,
      "ator": 2537,
      "Ġkatsu": 2538,
      "Ġkini": 2539,
      "Ġscarlet": 2540,
      "Ġsuki": 2541,
      "Ġyona": 2542,
      "adise": 2543,
      "holic": 2544,
      "Ġcharlotte": 2545,
      "akuro": 2546,
      "Ġmill": 2547,
      "Ġdata": 2548,
      "aba": 2549,
      "Ġuma": 2550,
      "Ġenen": 2551,
      "Ġzu": 2552,
      "ryou": 2553,
      "ryuu": 2554,
      "Ġparadise": 2555,
      "Ġshiru": 2556,
      "Ġshield": 2557,
      "Ġshouboutai": 2558,
      "Ġsaek": 2559,
      "Ġkoe": 2560,
      "Ġdao": 2561,
      "Ġotoko": 2562,
      "uction": 2563,
      "Ġroad": 2564,
      "Ġvalvra": 2565,
      "Ġkakushi": 2566,
      "Ġtonikaku": 2567,
      "Ġcounc": 2568,
      "Ġluck": 2569,
      "Ġnoragami": 2570,
      "Ġeater": 2571,
      "Ġiroha": 2572,
      "Ġameku": 2573,
      "Ġnisekoi": 2574,
      "Ġindex": 2575,
      "Ġsidonia": 2576,
      "Ġkiniro": 2577,
      "Ġsaekano": 2578,
      "Ġvalvrave": 2579,
      "Ġcouncil": 2580,
      "!;": 2581,
      "200": 2582,
      "ca": 2583,
      "fl": 2584,
      "giz": 2585,
      "iant": 2586,
      "Ġway": 2587,
      "Ġwara": 2588,
      "Ġiz": 2589,
      "uten": 2590,
      "Ġair": 2591,
      "Ġcord": 2592,
      "Ġrad": 2593,
      "Ġgate": 2594,
      "asai": 2595,
      "Ġtada": 2596,
      "alle": 2597,
      "Ġper": 2598,
      "ury": 2599,
      "Ġkin": 2600,
      "Ġorig": 2601,
      "Ġstamp": 2602,
      "lya": 2603,
      "Ġacca": 2604,
      "ede": 2605,
      "Ġadvent": 2606,
      "Ġars": 2607,
      "Ġromantica": 2608,
      "eland": 2609,
      "Ġzan": 2610,
      "Ġtrigg": 2611,
      "Ġheroine": 2612,
      "Ġprimo": 2613,
      "Ġunbreak": 2614,
      "Ġossan": 2615,
      "Ġfour": 2616,
      "Ġasobi": 2617,
      "Ġpasso": 2618,
      "Ġkemono": 2619,
      "Ġraise": 2620,
      "Ġhanayome": 2621,
      "Ġcorda": 2622,
      "Ġradiant": 2623,
      "Ġstampede": 2624,
      "Ġtrigger": 2625,
      "Ġunbreakable": 2626,
      "cl": 2627,
      "gen": 2628,
      "uku": 2629,
      "uden": 2630,
      "Ġus": 2631,
      "Ġook": 2632,
      "Ġsab": 2633,
      "Ġwing": 2634,
      "Ġby": 2635,
      "Ġbann": 2636,
      "Ġrebor": 2637,
      "Ġregi": 2638,
      "Ġkod": 2639,
      "Ġkot": 2640,
      "ido": 2641,
      "amine": 2642,
      "Ġousama": 2643,
      "reet": 2644,
      "agari": 2645,
      "Ġneon": 2646,
      "ign": 2647,
      "Ġkoush": 2648,
      "Ġtakamine": 2649,
      "Ġflcl": 2650,
      "Ġoreimo": 2651,
      "Ġimouto": 2652,
      "Ġdenki": 2653,
      "Ġmaryoku": 2654,
      "Ġoshigoto": 2655,
      "Ġakiba": 2656,
      "Ġinsp": 2657,
      "Ġshippuden": 2658,
      "Ġookami": 2659,
      "Ġbannou": 2660,
      "Ġreborn": 2661,
      "Ġregios": 2662,
      "Ġkodomo": 2663,
      "afer": 2664,
      "dle": 2665,
      "gr": 2666,
      "gant": 2667,
      "gre": 2668,
      "gers": 2669,
      "ience": 2670,
      "iji": 2671,
      "kata": 2672,
      "race": 2673,
      "vor": 2674,
      "xx": 2675,
      "Ġ~": 2676,
      "Ġvers": 2677,
      "Ġsand": 2678,
      "inal": 2679,
      "Ġnari": 2680,
      "Ġiv": 2681,
      "Ġiron": 2682,
      "Ġbea": 2683,
      "utif": 2684,
      "Ġcent": 2685,
      "Ġcaf": 2686,
      "aled": 2687,
      "Ġkomi": 2688,
      "Ġnote": 2689,
      "Ġsealed": 2690,
      "amura": 2691,
      "Ġdrop": 2692,
      "Ġyash": 2693,
      "Ġloafer": 2694,
      "Ġyoujo": 2695,
      "Ġaru": 2696,
      "agaru": 2697,
      "Ġisland": 2698,
      "Ġmago": 2699,
      "Ġbegin": 2700,
      "Ġdisapp": 2701,
      "Ġplate": 2702,
      "Ġalice": 2703,
      "Ġyuki": 2704,
      "Ġyuuna": 2705,
      "Ġhaven": 2706,
      "Ġstranger": 2707,
      "ousou": 2708,
      "Ġrevengers": 2709,
      "ahime": 2710,
      "Ġterrace": 2711,
      "Ġapple": 2712,
      "amatora": 2713,
      "Ġheard": 2714,
      "Ġgargant": 2715,
      "Ġvirgin": 2716,
      "Ġbeautif": 2717,
      "Ġcentaur": 2718,
      "ĠcafÃ©": 2719,
      "Ġyashahime": 2720,
      "Ġbeginning": 2721,
      "Ġdisappear": 2722,
      "Ġgargantia": 2723,
      "Ġbeautiful": 2724,
      "br": 2725,
      "bub": 2726,
      "ctor": 2727,
      "gal": 2728,
      "araku": 2729,
      "ervo": 2730,
      "Ġipp": 2731,
      "Ġbur": 2732,
      "Ġmiy": 2733,
      "Ġtama": 2734,
      "idai": 2735,
      "Ġyamat": 2736,
      "Ġdoctor": 2737,
      "retsuko": 2738,
      "istant": 2739,
      "Ġbeel": 2740,
      "Ġuzai": 2741,
      "Ġsaidai": 2742,
      "Ġcrus": 2743,
      "Ġheal": 2744,
      "moon": 2745,
      "202": 2746,
      "zebub": 2747,
      "Ġreset": 2748,
      "Ġreservo": 2749,
      "Ġdreaming": 2750,
      "Ġaggretsuko": 2751,
      "Ġhataraku": 2752,
      "Ġguns": 2753,
      "Ġsilver": 2754,
      "mental": 2755,
      "Ġsasaki": 2756,
      "Ġelemental": 2757,
      "Ġcomplex": 2758,
      "Ġippo": 2759,
      "Ġburst": 2760,
      "Ġyamato": 2761,
      "Ġbeelzebub": 2762,
      "Ġreservoir": 2763,
      "bum": 2764,
      "don": 2765,
      "human": 2766,
      "ijin": 2767,
      "jisan": 2768,
      "mmo": 2769,
      "rmmo": 2770,
      "Ġsite": 2771,
      "Ġlet": 2772,
      "Ġbu": 2773,
      "Ġmig": 2774,
      "Ġdali": 2775,
      "Ġgou": 2776,
      "Ġgent": 2777,
      "Ġteach": 2778,
      "Ġhyak": 2779,
      "Ġpori": 2780,
      "atos": 2781,
      "Ġkitan": 2782,
      "Ġkijin": 2783,
      "ider": 2784,
      "Ġod": 2785,
      "Ġojisan": 2786,
      "ione": 2787,
      "Ġji": 2788,
      "itory": 2789,
      "Ġyuri": 2790,
      "Ġyats": 2791,
      "ades": 2792,
      "Ġforte": 2793,
      "Ġblame": 2794,
      "Ġudon": 2795,
      "ears": 2796,
      "ump": 2797,
      "Ġkeikaku": 2798,
      "Ġalbum": 2799,
      "Ġvrmmo": 2800,
      "Ġstratos": 2801,
      "Ġhanako": 2802,
      "Ġknights": 2803,
      "ific": 2804,
      "Ġseikatsu": 2805,
      "Ġcampione": 2806,
      "Ġkokoro": 2807,
      "Ġurusei": 2808,
      "Ġbrothers": 2809,
      "Ġseitokai": 2810,
      "Ġreturn": 2811,
      "Ġgemini": 2812,
      "omania": 2813,
      "Ġmigi": 2814,
      "Ġteacher": 2815,
      "Ġporiomania": 2816,
      "Ġyatsura": 2817,
      "back": 2818,
      "ck": 2819,
      "dg": 2820,
      "gue": 2821,
      "Ġwand": 2822,
      "Ġwagn": 2823,
      "arok": 2824,
      "Ġil": 2825,
      "Ġiru": 2826,
      "Ġbunny": 2827,
      "Ġragn": 2828,
      "Ġgot": 2829,
      "ony": 2830,
      "Ġpe": 2831,
      "uryaku": 2832,
      "Ġkaku": 2833,
      "Ġord": 2834,
      "Ġscient": 2835,
      "chin": 2836,
      "add": 2837,
      "adis": 2838,
      "Ġlock": 2839,
      "Ġkidoutai": 2840,
      "ret": 2841,
      "Ġdriver": 2842,
      "ochou": 2843,
      "view": 2844,
      "neval": 2845,
      "Ġtwin": 2846,
      "Ġalone": 2847,
      "Ġ14": 2848,
      "Ġwarrior": 2849,
      "Ġsecret": 2850,
      "Ġ01": 2851,
      "Ġgalko": 2852,
      "Ġkarneval": 2853,
      "Ġhatchin": 2854,
      "Ġmichiko": 2855,
      "Ġvanadis": 2856,
      "Ġmononokean": 2857,
      "Ġhalf": 2858,
      "Ġlagoon": 2859,
      "Ġperfect": 2860,
      "Ġwagnaria": 2861,
      "Ġragnarok": 2862,
      "Ġscientific": 2863,
      "-,": 2864,
      "cr": 2865,
      "kusen": 2866,
      "nan": 2867,
      "âĻ¥": 2868,
      "Ġss": 2869,
      "thet": 2870,
      "thod": 2871,
      "Ġlaby": 2872,
      "Ġnet": 2873,
      "Ġnaku": 2874,
      "Ġbor": 2875,
      "Ġbar": 2876,
      "Ġbet": 2877,
      "Ġmaria": 2878,
      "Ġaes": 2879,
      "Ġfal": 2880,
      "Ġrin": 2881,
      "Ġrott": 2882,
      "Ġmethod": 2883,
      "Ġkoro": 2884,
      "Ġkata": 2885,
      "Ġtoshi": 2886,
      "Ġje": 2887,
      "Ġspoil": 2888,
      "Ġyami": 2889,
      "lyss": 2890,
      "ado": 2891,
      "Ġgakusen": 2892,
      "Ġmats": 2893,
      "Ġmove": 2894,
      "Ġulyss": 2895,
      "Ġass": 2896,
      "umu": 2897,
      "Ġworking": 2898,
      "Ġdeadly": 2899,
      "Ġdies": 2900,
      "Ġdandy": 2901,
      "Ġrozen": 2902,
      "Ġgener": 2903,
      "Ġ08": 2904,
      "bitch": 2905,
      "Ġtonari": 2906,
      "Ġshadows": 2907,
      "Ġranbu": 2908,
      "Ġranking": 2909,
      "rinth": 2910,
      "Ġearth": 2911,
      "Ġgoddesses": 2912,
      "rayal": 2913,
      "Ġ2099": 2914,
      "Ġayumu": 2915,
      "Ġfarce": 2916,
      "Ġlevel": 2917,
      "thetica": 2918,
      "Ġlabyrinth": 2919,
      "Ġbetrayal": 2920,
      "Ġaesthetica": 2921,
      "Ġrotten": 2922,
      "Ġspoils": 2923,
      "Ġulysses": 2924,
      "bop": 2925,
      "boy": 2926,
      "demon": 2927,
      "hashi": 2928,
      "iet": 2929,
      "qi": 2930,
      "roku": 2931,
      "smi": 2932,
      "tw": 2933,
      "toro": 2934,
      "uqi": 2935,
      "inbou": 2936,
      "Ġwu": 2937,
      "eram": 2938,
      "Ġijir": 2939,
      "Ġban": 2940,
      "Ġbub": 2941,
      "Ġnobun": 2942,
      "Ġnomi": 2943,
      "Ġmik": 2944,
      "utai": 2945,
      "Ġai": 2946,
      "Ġfaf": 2947,
      "Ġliuqi": 2948,
      "Ġcow": 2949,
      "Ġron": 2950,
      "Ġrurou": 2951,
      "Ġgj": 2952,
      "asumi": 2953,
      "Ġpor": 2954,
      "ester": 2955,
      "velation": 2956,
      "Ġrema": 2957,
      "Ġrevelation": 2958,
      "Ġtotoro": 2959,
      "Ġsteps": 2960,
      "Ġsuisei": 2961,
      "chic": 2962,
      "Ġshoutai": 2963,
      "Ġjul": 2964,
      "Ġjap": 2965,
      "ecce": 2966,
      "Ġyester": 2967,
      "Ġpsychic": 2968,
      "Ġarif": 2969,
      "Ġbebop": 2970,
      "Ġzhi": 2971,
      "Ġzet": 2972,
      "onohashi": 2973,
      "Ġxia": 2974,
      "Ġkurage": 2975,
      "Ġblacksmi": 2976,
      "Ġhaecce": 2977,
      "anaide": 2978,
      "Ġkensh": 2979,
      "Ġkamonohashi": 2980,
      "Ġkouho": 2981,
      "maid": 2982,
      "Ġflops": 2983,
      "ector": 2984,
      "Ġelf": 2985,
      "Ġsekaiichi": 2986,
      "Ġrose": 2987,
      "Ġyuukoku": 2988,
      "2016": 2989,
      "Ġreincarnated": 2990,
      "Ġmermaid": 2991,
      "Ġmajutsushi": 2992,
      "Ġalderam": 2993,
      "Ġijiranaide": 2994,
      "Ġbubble": 2995,
      "Ġfafnir": 2996,
      "Ġcowboy": 2997,
      "Ġrurouni": 2998,
      "Ġremake": 2999,
      "Ġrevelations": 3000,
      "Ġjuliet": 3001,
      "Ġjapan": 3002,
      "Ġyesterday": 3003,
      "Ġarifureta": 3004,
      "Ġblacksmith": 3005,
      "Ġhaecceitas": 3006,
      "Ġkenshin": 3007,
      "Ġalderamin": 3008,
      "ae": 3009,
      "ban": 3010,
      "biku": 3011,
      "hw": 3012,
      "kkai": 3013,
      "poko": 3014,
      "rough": 3015,
      "saw": 3016,
      "zes": 3017,
      "Ġsiri": 3018,
      "arzes": 3019,
      "Ġbocchi": 3020,
      "Ġbott": 3021,
      "Ġnova": 3022,
      "Ġaoy": 3023,
      "antal": 3024,
      "Ġcall": 3025,
      "Ġdantal": 3026,
      "Ġgob": 3027,
      "enger": 3028,
      "hop": 3029,
      "Ġtame": 3030,
      "Ġhang": 3031,
      "Ġhusband": 3032,
      "Ġpap": 3033,
      "Ġmelan": 3034,
      "ico": 3035,
      "Ġschw": 3036,
      "imashita": 3037,
      "Ġmair": 3038,
      "Ġmabor": 3039,
      "Ġchall": 3040,
      "Ġyab": 3041,
      "Ġyoru": 3042,
      "adou": 3043,
      "Ġloved": 3044,
      "ular": 3045,
      "Ġarpe": 3046,
      "Ġbeat": 3047,
      "Ġshaman": 3048,
      "Ġkekkai": 3049,
      "Ġextra": 3050,
      "Ġsensen": 3051,
      "Ġshitsuji": 3052,
      "!!!": 3053,
      "Ġxy": 3054,
      "Ġkyokou": 3055,
      "ggio": 3056,
      "Ġkengan": 3057,
      "Ġteam": 3058,
      "Ġtegami": 3059,
      "Ġworkshop": 3060,
      "Ġkoukousei": 3061,
      "Ġbasara": 3062,
      "Ġflows": 3063,
      "Ġkyoushi": 3064,
      "Ġbroly": 3065,
      "Ġtrick": 3066,
      "Ġsonico": 3067,
      "Ġchainsaw": 3068,
      "Ġtsur": 3069,
      "Ġdouchuu": 3070,
      "Ġmichibiku": 3071,
      "Ġclear": 3072,
      "Ġashura": 3073,
      "choly": 3074,
      "Ġshinseiki": 3075,
      "Ġzetsubou": 3076,
      "Ġhanamaru": 3077,
      "Ġcircus": 3078,
      "Ġusagi": 3079,
      "Ġsirius": 3080,
      "Ġbottom": 3081,
      "Ġaoyama": 3082,
      "Ġdantalian": 3083,
      "Ġgoblin": 3084,
      "Ġtamer": 3085,
      "Ġmelancholy": 3086,
      "Ġschwarzes": 3087,
      "Ġmairimashita": 3088,
      "Ġmaboroshi": 3089,
      "Ġchallenger": 3090,
      "Ġarpeggio": 3091,
      "cle": 3092,
      "cend": 3093,
      "domo": 3094,
      "eg": 3095,
      "gular": 3096,
      "head": 3097,
      "ife": 3098,
      "oid": 3099,
      "ual": 3100,
      "uaga": 3101,
      "worm": 3102,
      "wby": 3103,
      "zing": 3104,
      "zur": 3105,
      "Ġushi": 3106,
      "Ġuru": 3107,
      "Ġsos": 3108,
      "Ġlane": 3109,
      "Ġnum": 3110,
      "Ġbal": 3111,
      "Ġaeg": 3112,
      "Ġazur": 3113,
      "Ġlite": 3114,
      "Ġdome": 3115,
      "Ġdang": 3116,
      "Ġrise": 3117,
      "Ġrwby": 3118,
      "Ġgur": 3119,
      "enzy": 3120,
      "Ġtaw": 3121,
      "Ġpol": 3122,
      "Ġwise": 3123,
      "Ġmegami": 3124,
      "Ġmeido": 3125,
      "Ġkus": 3126,
      "Ġkore": 3127,
      "Ġkumo": 3128,
      "imiya": 3129,
      "Ġdruaga": 3130,
      "astrous": 3131,
      "Ġchara": 3132,
      "regular": 3133,
      "riet": 3134,
      "riot": 3135,
      "riage": 3136,
      "Ġarriet": 3137,
      "ago": 3138,
      "Ġhorimiya": 3139,
      "Ġdrive": 3140,
      "Ġmot": 3141,
      "Ġshel": 3142,
      "Ġascend": 3143,
      "ange": 3144,
      "lia": 3145,
      "Ġittara": 3146,
      "Ġexcel": 3147,
      "Ġdisastrous": 3148,
      "Ġfrenzy": 3149,
      "arian": 3150,
      "iglia": 3151,
      "Ġleaves": 3152,
      "str": 3153,
      "ashiki": 3154,
      "Ġshiaw": 3155,
      "Ġhonki": 3156,
      "Ġguy": 3157,
      "Ġsakur": 3158,
      "Ġsaiki": 3159,
      "Ġknife": 3160,
      "Ġyuugi": 3161,
      "Ġbookworm": 3162,
      "Ġrenai": 3163,
      "Ġmarriage": 3164,
      "Ġfamiglia": 3165,
      "Ġarcana": 3166,
      "Ġinuyashiki": 3167,
      "Ġshugo": 3168,
      "Ġplanetarian": 3169,
      "Ġtanin": 3170,
      "Ġirregular": 3171,
      "Ġfreezing": 3172,
      "Ġsteel": 3173,
      "Ġactual": 3174,
      "Ġpatriot": 3175,
      "Ġhidan": 3176,
      "inaoshi": 3177,
      "Ġasuka": 3178,
      "Ġponyo": 3179,
      "Ġyarinaoshi": 3180,
      "Ġslayer": 3181,
      "Ġuruk": 3182,
      "Ġnumber": 3183,
      "Ġbalance": 3184,
      "Ġaegis": 3185,
      "Ġdomestic": 3186,
      "Ġtawawa": 3187,
      "Ġpolar": 3188,
      "Ġarrietty": 3189,
      "Ġascendance": 3190,
      "Ġshiawase": 3191,
      "Ġactually": 3192,
      "be": 3193,
      "bocchi": 3194,
      "dier": 3195,
      "fli": 3196,
      "gil": 3197,
      "hu": 3198,
      "iwa": 3199,
      "kon": 3200,
      "monogatari": 3201,
      "ng": 3202,
      "nights": 3203,
      "overy": 3204,
      "yom": 3205,
      "zhi": 3206,
      "¼re": 3207,
      "Ã¼re": 3208,
      "Ġark": 3209,
      "anzhi": 3210,
      "Ġsag": 3211,
      "arer": 3212,
      "Ġmmo": 3213,
      "Ġcar": 3214,
      "Ġtat": 3215,
      "Ġhay": 3216,
      "Ġhill": 3217,
      "Ġhitsu": 3218,
      "Ġpers": 3219,
      "Ġkado": 3220,
      "Ġstand": 3221,
      "sed": 3222,
      "Ġop": 3223,
      "Ġrecovery": 3224,
      "Ġmay": 3225,
      "Ġmaior": 3226,
      "Ġvigil": 3227,
      "Ġspice": 3228,
      "kie": 3229,
      "kiru": 3230,
      "lets": 3231,
      "Ġbloss": 3232,
      "Ġeiyuu": 3233,
      "essent": 3234,
      "Ġmagica": 3235,
      "Ġmotion": 3236,
      "umon": 3237,
      "Ġzakuro": 3238,
      "Ġquanzhi": 3239,
      "iren": 3240,
      "awber": 3241,
      "awarer": 3242,
      "Ġdragonar": 3243,
      "Ġtengoku": 3244,
      "Ġstrawber": 3245,
      "Ġtei": 3246,
      "uplets": 3247,
      "young": 3248,
      "Ġkuroiwa": 3249,
      "Ġrohan": 3250,
      "Ġheike": 3251,
      "Ġprincesses": 3252,
      "Ġyourself": 3253,
      "Ġ07": 3254,
      "Ġutawarer": 3255,
      "Ġredial": 3256,
      "Ġmadoka": 3257,
      "gane": 3258,
      "Ġjunkie": 3259,
      "Ġakagi": 3260,
      "Ġservant": 3261,
      "Ġchained": 3262,
      "Ġkishibe": 3263,
      "Ġhitoribocchi": 3264,
      "Ġfuufu": 3265,
      "Ġfirefli": 3266,
      "Ġlegendary": 3267,
      "Ġpassage": 3268,
      "Ġryuusei": 3269,
      "Ġsilent": 3270,
      "Ġvanitas": 3271,
      "Ġmachiave": 3272,
      "Ġboukensha": 3273,
      "Ġquintessent": 3274,
      "Ġquintuplets": 3275,
      "Ġpicture": 3276,
      "Ġsoldier": 3277,
      "Ġidol": 3278,
      "Ġchocol": 3279,
      "Ġpuella": 3280,
      "Ġmidori": 3281,
      "ĠwalkÃ¼re": 3282,
      "Ġarknights": 3283,
      "Ġhayate": 3284,
      "Ġpersona": 3285,
      "Ġmaiorita": 3286,
      "Ġvigilant": 3287,
      "Ġblossom": 3288,
      "Ġstrawberry": 3289,
      "Ġutawarerumono": 3290,
      "Ġfireflies": 3291,
      "Ġquintessential": 3292,
      "Ġchocolate": 3293,
      "aill": 3294,
      "bow": 3295,
      "bus": 3296,
      "gurashi": 3297,
      "her": 3298,
      "hita": 3299,
      "kom": 3300,
      "law": 3301,
      "uo": 3302,
      "ugh": 3303,
      "wanai": 3304,
      "Ġ+": 3305,
      "aro": 3306,
      "Ġbiy": 3307,
      "Ġburai": 3308,
      "Ġborn": 3309,
      "inga": 3310,
      "uta": 3311,
      "Ġliber": 3312,
      "Ġca": 3313,
      "Ġcra": 3314,
      "Ġrok": 3315,
      "Ġroll": 3316,
      "Ġrich": 3317,
      "Ġginga": 3318,
      "engh": 3319,
      "asaku": 3320,
      "Ġtari": 3321,
      "Ġtyr": 3322,
      "Ġhin": 3323,
      "Ġhur": 3324,
      "Ġhaku": 3325,
      "omatsu": 3326,
      "icial": 3327,
      "ilo": 3328,
      "Ġtoki": 3329,
      "isuru": 3330,
      "Ġouran": 3331,
      "Ġmaoy": 3332,
      "aders": 3333,
      "thering": 3334,
      "Ġmagister": 3335,
      "Ġshimasu": 3336,
      "Ġshengh": 3337,
      "Ġuzum": 3338,
      "Ġhok": 3339,
      "Ġhost": 3340,
      "Ġoutlaw": 3341,
      "Ġcompan": 3342,
      "Ġparalle": 3343,
      "Ġones": 3344,
      "Ġsensou": 3345,
      "Ġxxx": 3346,
      "awareta": 3347,
      "Ġshinry": 3348,
      "Ġhanasaku": 3349,
      "zuki": 3350,
      "kkatsu": 3351,
      "uck": 3352,
      "Ġoujo": 3353,
      "Ġdeshita": 3354,
      "Ġnani": 3355,
      "movie": 3356,
      "shim": 3357,
      "Ġproxy": 3358,
      "Ġakatsuki": 3359,
      "Ġmoribito": 3360,
      "Ġfukkatsu": 3361,
      "Ġgunbus": 3362,
      "Ġcount": 3363,
      "Ġosomatsu": 3364,
      "Ġemiya": 3365,
      "Ġgreatest": 3366,
      "Ġutau": 3367,
      "Ġichigo": 3368,
      "Ġcolorful": 3369,
      "Ġbreaker": 3370,
      "Ġrainbow": 3371,
      "Ġergo": 3372,
      "Ġshoukanjuu": 3373,
      "Ġderby": 3374,
      "Ġgyakkyou": 3375,
      "Ġtenjiku": 3376,
      "Ġhyouka": 3377,
      "toubun": 3378,
      "Ġaishita": 3379,
      "Ġkakushigoto": 3380,
      "Ġwarawanai": 3381,
      "Ġversaill": 3382,
      "Ġbiyori": 3383,
      "Ġliberator": 3384,
      "Ġrokka": 3385,
      "Ġrolling": 3386,
      "Ġrichang": 3387,
      "Ġtyrant": 3388,
      "Ġshenghuo": 3389,
      "Ġuzumaki": 3390,
      "Ġparallel": 3391,
      "Ġxxxholic": 3392,
      "Ġgunbuster": 3393,
      "Ġversailles": 3394,
      "'ve": 3395,
      "dai": 3396,
      "hana": 3397,
      "husband": 3398,
      "iar": 3399,
      "jimi": 3400,
      "kim": 3401,
      "kketsu": 3402,
      "mata": 3403,
      "nichi": 3404,
      "pse": 3405,
      "ances": 3406,
      "Ġanata": 3407,
      "orpse": 3408,
      "Ġlyr": 3409,
      "Ġner": 3410,
      "Ġnano": 3411,
      "antai": 3412,
      "Ġfume": 3413,
      "Ġcorpse": 3414,
      "Ġdec": 3415,
      "Ġdimension": 3416,
      "Ġdistant": 3417,
      "engu": 3418,
      "asan": 3419,
      "Ġtig": 3420,
      "Ġtte": 3421,
      "Ġpark": 3422,
      "Ġpengu": 3423,
      "owareta": 3424,
      "ilty": 3425,
      "iliar": 3426,
      "Ġkish": 3427,
      "imgar": 3428,
      "isode": 3429,
      "Ġosan": 3430,
      "Ġogre": 3431,
      "Ġjah": 3432,
      "Ġadachi": 3433,
      "itting": 3434,
      "Ġslave": 3435,
      "Ġmato": 3436,
      "Ġarag": 3437,
      "Ġeizou": 3438,
      "okusei": 3439,
      "Ġmagician": 3440,
      "Ġshak": 3441,
      "Ġueki": 3442,
      "Ġuzaki": 3443,
      "Ġgrimgar": 3444,
      "Ġzen": 3445,
      "Ġzokusei": 3446,
      "Ġnihon": 3447,
      "stay": 3448,
      "Ġsenran": 3449,
      "Ġshiken": 3450,
      "kufuku": 3451,
      "allow": 3452,
      "osho": 3453,
      "Ġwater": 3454,
      "izu": 3455,
      "Ġguilty": 3456,
      "Ġtenge": 3457,
      "anajimi": 3458,
      "Ġkaze": 3459,
      "Ġballroom": 3460,
      "Ġotaku": 3461,
      "Ġfinale": 3462,
      "Ġmany": 3463,
      "Ġmonsters": 3464,
      "Ġjunjou": 3465,
      "Ġfamiliar": 3466,
      "Ġzombieland": 3467,
      "Ġgold": 3468,
      "Ġkagura": 3469,
      "Ġshukufuku": 3470,
      "2019": 3471,
      "Ġhousehusband": 3472,
      "Ġhaganai": 3473,
      "Ġepisode": 3474,
      "Ġsomali": 3475,
      "Ġduke": 3476,
      "Ġshimamura": 3477,
      "Ġyakuza": 3478,
      "Ġstigmata": 3479,
      "Ġseihei": 3480,
      "Ġlyrical": 3481,
      "Ġnanoha": 3482,
      "Ġfumetsu": 3483,
      "Ġtiger": 3484,
      "Ġkishuku": 3485,
      "Ġosananajimi": 3486,
      "Ġjahy": 3487,
      "Ġaragoto": 3488,
      "Ġeizouken": 3489,
      "co": 3490,
      "dol": 3491,
      "ein": 3492,
      "fumi": 3493,
      "pest": 3494,
      "ril": 3495,
      "sho": 3496,
      "wor": 3497,
      "Ġsent": 3498,
      "orrow": 3499,
      "Ġline": 3500,
      "Ġboss": 3501,
      "Ġnoein": 3502,
      "Ġmr": 3503,
      "Ġlie": 3504,
      "Ġcub": 3505,
      "enob": 3506,
      "icorn": 3507,
      "icious": 3508,
      "uraku": 3509,
      "idge": 3510,
      "Ġstreet": 3511,
      "Ġscr": 3512,
      "Ġocc": 3513,
      "Ġsupers": 3514,
      "ffin": 3515,
      "ĠchÃ¤": 3516,
      "Ġya": 3517,
      "Ġinn": 3518,
      "Ġyouth": 3519,
      "okuraku": 3520,
      "etta": 3521,
      "Ġuchi": 3522,
      "anga": 3523,
      "Ġkeiy": 3524,
      "Ġque": 3525,
      "illain": 3526,
      "Ġdepart": 3527,
      "Ġabenob": 3528,
      "Ġsenko": 3529,
      "Ġshigo": 3530,
      "Ġvillain": 3531,
      "Ġkouryaku": 3532,
      "ageki": 3533,
      "Ġkaisha": 3534,
      "kenki": 3535,
      "kenai": 3536,
      "Ġkenichi": 3537,
      "Ġsaikenki": 3538,
      "zukai": 3539,
      "Ġaoi": 3540,
      "Ġunicorn": 3541,
      "Ġgenjitsu": 3542,
      "Ġkancol": 3543,
      "Ġbridge": 3544,
      "Ġjuuni": 3545,
      "Ġgreed": 3546,
      "Ġcoffin": 3547,
      "Ġtomorrow": 3548,
      "Ġmukou": 3549,
      "Ġshugi": 3550,
      "Ġurag": 3551,
      "Ġfool": 3552,
      "Ġjigokuraku": 3553,
      "Ġmushibu": 3554,
      "Ġdelicious": 3555,
      "Ġhearts": 3556,
      "Ġdarling": 3557,
      "Ġapril": 3558,
      "Ġgokudol": 3559,
      "Ġsurvivor": 3560,
      "Ġtempest": 3561,
      "2009": 3562,
      "Ġizetta": 3563,
      "Ġmiyano": 3564,
      "Ġoccult": 3565,
      "ĠchÃ¤os": 3566,
      "Ġkeiyakusha": 3567,
      "Ġabenobashi": 3568,
      "Ġshigofumi": 3569,
      "Ġkancolle": 3570,
      "aut": 3571,
      "bad": 3572,
      "bound": 3573,
      "cano": 3574,
      "ix": 3575,
      "jim": 3576,
      "jik": 3577,
      "lers": 3578,
      "mars": 3579,
      "oter": 3580,
      "aner": 3581,
      "Ġany": 3582,
      "Ġlink": 3583,
      "Ġill": 3584,
      "Ġbac": 3585,
      "Ġfushi": 3586,
      "Ġfish": 3587,
      "Ġfif": 3588,
      "Ġlist": 3589,
      "Ġtip": 3590,
      "Ġtrain": 3591,
      "Ġput": 3592,
      "ated": 3593,
      "atope": 3594,
      "ilet": 3595,
      "Ġtoilet": 3596,
      "usatsu": 3597,
      "usui": 3598,
      "Ġthem": 3599,
      "child": 3600,
      "Ġshooter": 3601,
      "Ġchin": 3602,
      "Ġdokuro": 3603,
      "Ġformars": 3604,
      "Ġclick": 3605,
      "feated": 3606,
      "Ġgrace": 3607,
      "Ġsinbad": 3608,
      "Ġkyoto": 3609,
      "teiru": 3610,
      "Ġshinpan": 3611,
      "Ġmash": 3612,
      "ashic": 3613,
      "Ġjunji": 3614,
      "Ġakashic": 3615,
      "Ġevery": 3616,
      "Ġbokusatsu": 3617,
      "ketsuki": 3618,
      "Ġsotsu": 3619,
      "Ġdouky": 3620,
      "Ġrecords": 3621,
      "Ġbeastars": 3622,
      "Ġdelusion": 3623,
      "Ġinsom": 3624,
      "Ġkabaner": 3625,
      "Ġkyuuketsuki": 3626,
      "Ġskill": 3627,
      "Ġryouran": 3628,
      "Ġblooms": 3629,
      "Ġbucket": 3630,
      "Ġaquatope": 3631,
      "Ġkino": 3632,
      "Ġarslan": 3633,
      "Ġhyakka": 3634,
      "Ġbaccano": 3635,
      "Ġfifth": 3636,
      "Ġtraining": 3637,
      "Ġkabaneri": 3638,
      "):": 3639,
      "mun": 3640,
      "nis": 3641,
      "nect": 3642,
      "vance": 3643,
      "inryou": 3644,
      "Ġlup": 3645,
      "Ġmitsu": 3646,
      "Ġgan": 3647,
      "Ġgos": 3648,
      "ena": 3649,
      "Ġtora": 3650,
      "Ġhells": 3651,
      "Ġmegal": 3652,
      "icle": 3653,
      "icate": 3654,
      "oove": 3655,
      "isis": 3656,
      "Ġadvance": 3657,
      "obox": 3658,
      "Ġspoon": 3659,
      "ito": 3660,
      "Ġcomes": 3661,
      "Ġinari": 3662,
      "Ġinaba": 3663,
      "Ġfort": 3664,
      "Ġwords": 3665,
      "Ġeast": 3666,
      "Ġbell": 3667,
      "Ġastra": 3668,
      "Ġgrill": 3669,
      "Ġgroove": 3670,
      "Ġcommon": 3671,
      "Ġcommun": 3672,
      "star": 3673,
      "Ġsaji": 3674,
      "Ġtennis": 3675,
      "Ġhanashi": 3676,
      "Ġcrown": 3677,
      "Ġflash": 3678,
      "Ġyuuki": 3679,
      "Ġkyoukan": 3680,
      "Ġpiano": 3681,
      "Ġmadoushi": 3682,
      "Ġlaid": 3683,
      "Ġkingdoms": 3684,
      "Ġkakeru": 3685,
      "Ġkuusen": 3686,
      "Ġconnect": 3687,
      "2014": 3688,
      "valry": 3689,
      "Ġlucky": 3690,
      "Ġothers": 3691,
      "Ġbeck": 3692,
      "Ġnagato": 3693,
      "Ġcolors": 3694,
      "Ġbusou": 3695,
      "Ġbusters": 3696,
      "Ġcuticle": 3697,
      "Ġmillion": 3698,
      "Ġkoushinryou": 3699,
      "Ġhealer": 3700,
      "Ġpeter": 3701,
      "Ġboruto": 3702,
      "Ġkouhosei": 3703,
      "Ġlupin": 3704,
      "Ġhellsing": 3705,
      "Ġmegalobox": 3706,
      "Ġadvanced": 3707,
      "Ġcommonplace": 3708,
      "Ġcommunicate": 3709,
      "ben": 3710,
      "eiru": 3711,
      "ju": 3712,
      "kick": 3713,
      "lic": 3714,
      "puru": 3715,
      "survi": 3716,
      "tar": 3717,
      "uko": 3718,
      "zer": 3719,
      "Ġent": 3720,
      "ancr": 3721,
      "Ġsodate": 3722,
      "Ġsousou": 3723,
      "Ġlone": 3724,
      "Ġlear": 3725,
      "erella": 3726,
      "kend": 3727,
      "Ġakai": 3728,
      "Ġfa": 3729,
      "Ġlily": 3730,
      "Ġlibr": 3731,
      "Ġcind": 3732,
      "Ġrab": 3733,
      "Ġgone": 3734,
      "Ġgarden": 3735,
      "Ġtu": 3736,
      "Ġhamatora": 3737,
      "Ġpal": 3738,
      "Ġreview": 3739,
      "iled": 3740,
      "Ġscale": 3741,
      "Ġscience": 3742,
      "imitsu": 3743,
      "chimitsu": 3744,
      "ored": 3745,
      "Ġmajin": 3746,
      "ffle": 3747,
      "Ġyori": 3748,
      "Ġarashi": 3749,
      "Ġastar": 3750,
      "Ġgray": 3751,
      "Ġgrancr": 3752,
      "Ġseneki": 3753,
      "Ġafro": 3754,
      "Ġsaenai": 3755,
      "iyo": 3756,
      "Ġtenpuru": 3757,
      "Ġhachimitsu": 3758,
      "agebu": 3759,
      "Ġbokuben": 3760,
      "zuku": 3761,
      "Ġkaijuu": 3762,
      "Ġseifuku": 3763,
      "nie": 3764,
      "Ġmarnie": 3765,
      "Ġboys": 3766,
      "Ġtaisen": 3767,
      "Ġkagaku": 3768,
      "Ġshuffle": 3769,
      "Ġpanzer": 3770,
      "Ġbabys": 3771,
      "Ġtsukihime": 3772,
      "Ġhakkend": 3773,
      "Ġasteroid": 3774,
      "Ġsubete": 3775,
      "liness": 3776,
      "Ġomoide": 3777,
      "Ġshindeiru": 3778,
      "Ġkakuriyo": 3779,
      "Ġpupa": 3780,
      "Ġsabagebu": 3781,
      "Ġdropkick": 3782,
      "Ġordinal": 3783,
      "survival": 3784,
      "Ġsodatekata": 3785,
      "Ġloneliness": 3786,
      "Ġlearn": 3787,
      "Ġlibrary": 3788,
      "Ġcinderella": 3789,
      "Ġrabbit": 3790,
      "Ġreviewers": 3791,
      "Ġastarotte": 3792,
      "Ġgrancrest": 3793,
      "Ġhakkenden": 3794,
      ").": 3795,
      "aos": 3796,
      "baka": 3797,
      "daru": 3798,
      "dame": 3799,
      "gatsu": 3800,
      "hura": 3801,
      "kushi": 3802,
      "kale": 3803,
      "mous": 3804,
      "norm": 3805,
      "oxy": 3806,
      "yore": 3807,
      "ycle": 3808,
      "zz": 3809,
      "Ġutsu": 3810,
      "Ġsored": 3811,
      "Ġanony": 3812,
      "iner": 3813,
      "Ġwast": 3814,
      "Ġliner": 3815,
      "Ġbad": 3816,
      "Ġboc": 3817,
      "Ġnoise": 3818,
      "Ġnodame": 3819,
      "Ġmashi": 3820,
      "utoku": 3821,
      "utio": 3822,
      "Ġah": 3823,
      "antab": 3824,
      "Ġcider": 3825,
      "Ġcycle": 3826,
      "Ġcantab": 3827,
      "Ġtate": 3828,
      "Ġphi": 3829,
      "eshura": 3830,
      "Ġkoku": 3831,
      "Ġkage": 3832,
      "Ġoreshura": 3833,
      "Ġtoy": 3834,
      "olutio": 3835,
      "Ġshoushitsu": 3836,
      "unkoku": 3837,
      "Ġjits": 3838,
      "Ġjitsu": 3839,
      "act": 3840,
      "oba": 3841,
      "Ġvii": 3842,
      "Ġchaos": 3843,
      "ition": 3844,
      "itak": 3845,
      "kiri": 3846,
      "kiagaru": 3847,
      "akaten": 3848,
      "Ġmatsu": 3849,
      "okano": 3850,
      "okusha": 3851,
      "entless": 3852,
      "Ġkedaru": 3853,
      "Ġwakiagaru": 3854,
      "Ġdeoxy": 3855,
      "Ġabnorm": 3856,
      "awling": 3857,
      "Ġguild": 3858,
      "Ġshinigami": 3859,
      "Ġhaiyore": 3860,
      "Ġsaibou": 3861,
      "Ġsaiunkoku": 3862,
      "Ġlev": 3863,
      "bikiri": 3864,
      "Ġcrawling": 3865,
      "Ġnanbaka": 3866,
      "Ġchio": 3867,
      "Ġkansatsu": 3868,
      "lands": 3869,
      "Ġnaritak": 3870,
      "Ġakutoku": 3871,
      "Ġseikan": 3872,
      "Ġseikoku": 3873,
      "Ġkubikiri": 3874,
      "Ġconcre": 3875,
      "Ġtanaka": 3876,
      "Ġnexus": 3877,
      "Ġterror": 3878,
      "Ġtalentless": 3879,
      "Ġgakuin": 3880,
      "Ġprisma": 3881,
      "Ġgaro": 3882,
      "Ġaldno": 3883,
      "Ġpuzz": 3884,
      "Ġakuyaku": 3885,
      "Ġryoushu": 3886,
      "Ġitsumo": 3887,
      "Ġrevolutio": 3888,
      "uryokusha": 3889,
      "Ġkotoba": 3890,
      "Ġnariagari": 3891,
      "Ġdisappearance": 3892,
      "Ġcrusade": 3893,
      "Ġillya": 3894,
      "Ġkakumei": 3895,
      "kushii": 3896,
      "kaleid": 3897,
      "Ġutsukushii": 3898,
      "Ġsoredemo": 3899,
      "Ġanonymous": 3900,
      "Ġbadlands": 3901,
      "Ġbocchan": 3902,
      "Ġcantabile": 3903,
      "Ġjitsuryokusha": 3904,
      "Ġkedaruge": 3905,
      "Ġdeoxys": 3906,
      "Ġabnormal": 3907,
      "Ġnaritakute": 3908,
      "Ġconcrete": 3909,
      "Ġaldnoah": 3910,
      "Ġpuzzle": 3911,
      "65": 3912,
      "ady": 3913,
      "chool": 3914,
      "ever": 3915,
      "guru": 3916,
      "kuu": 3917,
      "lle": 3918,
      "light": 3919,
      "mp": 3920,
      "ming": 3921,
      "nes": 3922,
      "ochi": 3923,
      "run": 3924,
      "school": 3925,
      "xion": 3926,
      "mell": 3927,
      "Ġanth": 3928,
      "thm": 3929,
      "Ġwot": 3930,
      "Ġwaru": 3931,
      "Ġnur": 3932,
      "Ġnak": 3933,
      "Ġbna": 3934,
      "Ġburn": 3935,
      "Ġbud": 3936,
      "Ġburan": 3937,
      "Ġnogiz": 3938,
      "Ġming": 3939,
      "Ġmama": 3940,
      "kebi": 3941,
      "Ġaa": 3942,
      "Ġakebi": 3943,
      "Ġfur": 3944,
      "Ġfoo": 3945,
      "Ġfusion": 3946,
      "Ġrhy": 3947,
      "Ġhire": 3948,
      "oned": 3949,
      "Ġpho": 3950,
      "icide": 3951,
      "Ġreli": 3952,
      "ilight": 3953,
      "usho": 3954,
      "ushou": 3955,
      "Ġseki": 3956,
      "imb": 3957,
      "Ġsuicide": 3958,
      "indomo": 3959,
      "Ġrecent": 3960,
      "obu": 3961,
      "Ġyobu": 3962,
      "ready": 3963,
      "Ġhighschool": 3964,
      "Ġmagmell": 3965,
      "Ġjoe": 3966,
      "Ġclimb": 3967,
      "Ġbelle": 3968,
      "uuden": 3969,
      "Ġtwilight": 3970,
      "Ġ365": 3971,
      "arihy": 3972,
      "ryu": 3973,
      "andoned": 3974,
      "Ġamnes": 3975,
      "Ġparry": 3976,
      "Ġabandoned": 3977,
      "Ġoni": 3978,
      "Ġrao": 3979,
      "Ġalready": 3980,
      "Ġsenryu": 3981,
      "Ġxam": 3982,
      "Ġtenkuu": 3983,
      "Ġkimochi": 3984,
      "Ġwarumono": 3985,
      "Ġstarlight": 3986,
      "Ġoverrun": 3987,
      "Ġharuka": 3988,
      "Ġpancre": 3989,
      "douki": 3990,
      "Ġshippuuden": 3991,
      "Ġ2020": 3992,
      "Ġkyuujitsu": 3993,
      "Ġkuuchuu": 3994,
      "Ġyakuindomo": 3995,
      "Ġmayoi": 3996,
      "Ġrevue": 3997,
      "Ġcapu": 3998,
      "Ġkatsudouki": 3999,
      "Ġinspector": 4000,
      "Ġgeneration": 4001,
      "Ġzetman": 4002,
      "Ġsakurada": 4003,
      "gurui": 4004,
      "Ġanthem": 4005,
      "Ġwarui": 4006,
      "Ġnurarihy": 4007,
      "Ġbuddy": 4008,
      "Ġburanko": 4009,
      "Ġnogizaka": 4010,
      "Ġfoot": 4011,
      "Ġrhythm": 4012,
      "Ġhired": 4013,
      "Ġrelife": 4014,
      "Ġrecently": 4015,
      "Ġamnesia": 4016,
      "Ġpancreas": 4017,
      "Ġnurarihyon": 4018,
      "199": 4019,
      "aan": 4020,
      "cue": 4021,
      "genai": 4022,
      "ihou": 4023,
      "kar": 4024,
      "kusei": 4025,
      "mashita": 4026,
      "nic": 4027,
      "ring": 4028,
      "rol": 4029,
      "rage": 4030,
      "sak": 4031,
      "anu": 4032,
      "Ġwall": 4033,
      "Ġlul": 4034,
      "Ġnore": 4035,
      "Ġnami": 4036,
      "Ġnite": 4037,
      "Ġikusei": 4038,
      "Ġbon": 4039,
      "Ġfall": 4040,
      "Ġrest": 4041,
      "Ġgel": 4042,
      "Ġtong": 4043,
      "Ġtell": 4044,
      "Ġmeiji": 4045,
      "urow": 4046,
      "urako": 4047,
      "Ġreze": 4048,
      "illi": 4049,
      "Ġkuni": 4050,
      "seur": 4051,
      "isana": 4052,
      "Ġoyo": 4053,
      "Ġshobitch": 4054,
      "Ġjutsu": 4055,
      "Ġmakai": 4056,
      "Ġspring": 4057,
      "adale": 4058,
      "Ġgake": 4059,
      "Ġgaos": 4060,
      "Ġcanaan": 4061,
      "Ġ2199": 4062,
      "agimi": 4063,
      "asete": 4064,
      "estig": 4065,
      "Ġromantan": 4066,
      "Ġue": 4067,
      "Ġbattles": 4068,
      "Ġnige": 4069,
      "Ġmoment": 4070,
      "igoro": 4071,
      "kuzu": 4072,
      "Ġtsuihou": 4073,
      "Ġtenki": 4074,
      "Ġdaichi": 4075,
      "kenzan": 4076,
      "Ġkenkaku": 4077,
      "Ġshinai": 4078,
      "Ġkamigoro": 4079,
      "Ġsaisei": 4080,
      "Ġleadale": 4081,
      "Ġcrime": 4082,
      "uco": 4083,
      "Ġdanseur": 4084,
      "Ġminami": 4085,
      "Ġchiisana": 4086,
      "Ġutage": 4087,
      "Ġutago": 4088,
      "Ġbrilli": 4089,
      "Ġheron": 4090,
      "Ġboushi": 4091,
      "Ġrescue": 4092,
      "Ġedge": 4093,
      "Ġreikenzan": 4094,
      "Ġhoshikuzu": 4095,
      "Ġappare": 4096,
      "Ġhajimemashita": 4097,
      "linger": 4098,
      "Ġinvestig": 4099,
      "Ġpatrol": 4100,
      "Ġkikasete": 4101,
      "Ġsankar": 4102,
      "Ġkemari": 4103,
      "aurant": 4104,
      "Ġwakagimi": 4105,
      "Ġpicnic": 4106,
      "Ġakaji": 4107,
      "ranman": 4108,
      "Ġrakuen": 4109,
      "flower": 4110,
      "Ġgunslinger": 4111,
      "Ġbarrage": 4112,
      "Ġmatsurow": 4113,
      "Ġhokuto": 4114,
      "sakurako": 4115,
      "Ġwallflower": 4116,
      "Ġluluco": 4117,
      "Ġnoretara": 4118,
      "Ġbones": 4119,
      "Ġrestaurant": 4120,
      "Ġgelade": 4121,
      "Ġtongari": 4122,
      "Ġoyogenai": 4123,
      "Ġgaoshou": 4124,
      "Ġkamigoroshi": 4125,
      "Ġutagoe": 4126,
      "Ġbrilliant": 4127,
      "Ġinvestigation": 4128,
      "Ġsankarea": 4129,
      "Ġmatsurowanu": 4130,
      ".?": 4131,
      "//": 4132,
      "bid": 4133,
      "dur": 4134,
      "eat": 4135,
      "first": 4136,
      "gaku": 4137,
      "hack": 4138,
      "here": 4139,
      "lish": 4140,
      "my": 4141,
      "myou": 4142,
      "ny": 4143,
      "rai": 4144,
      "raku": 4145,
      "rlish": 4146,
      "ses": 4147,
      "sign": 4148,
      "Ġ.": 4149,
      "anron": 4150,
      "Ġsong": 4151,
      "orney": 4152,
      "arch": 4153,
      "Ġnay": 4154,
      "Ġnand": 4155,
      "Ġbow": 4156,
      "Ġbound": 4157,
      "Ġmum": 4158,
      "Ġmoro": 4159,
      "Ġaishi": 4160,
      "Ġcull": 4161,
      "Ġded": 4162,
      "Ġgeki": 4163,
      "eno": 4164,
      "onome": 4165,
      "Ġpad": 4166,
      "Ġwild": 4167,
      "Ġwield": 4168,
      "Ġmete": 4169,
      "Ġmemo": 4170,
      "Ġmeister": 4171,
      "Ġwithin": 4172,
      "imeiki": 4173,
      "ict": 4174,
      "ichou": 4175,
      "Ġreign": 4176,
      "Ġreimeiki": 4177,
      "Ġkos": 4178,
      "Ġkoko": 4179,
      "Ġkisei": 4180,
      "Ġoroka": 4181,
      "Ġorient": 4182,
      "Ġseisen": 4183,
      "Ġsearch": 4184,
      "imadou": 4185,
      "union": 4186,
      "Ġjuu": 4187,
      "Ġcheat": 4188,
      "Ġspell": 4189,
      "Ġyag": 4190,
      "kiyou": 4191,
      "hira": 4192,
      "Ġforbid": 4193,
      "led": 4194,
      "Ġslide": 4195,
      "Ġslope": 4196,
      "Ġdarkrai": 4197,
      "istic": 4198,
      "akushi": 4199,
      "Ġmystic": 4200,
      "chives": 4201,
      "Ġarrow": 4202,
      "Ġarchives": 4203,
      "Ġego": 4204,
      "agara": 4205,
      "Ġhashira": 4206,
      "Ġuchuu": 4207,
      "Ġueno": 4208,
      "eared": 4209,
      "umaru": 4210,
      "Ġnejim": 4211,
      "Ġ35": 4212,
      "ikakushi": 4213,
      "ushuu": 4214,
      "Ġonmyou": 4215,
      "Ġsenses": 4216,
      "aware": 4217,
      "Ġtsuite": 4218,
      "Ġtenkyou": 4219,
      "Ġshinonome": 4220,
      "Ġshinagara": 4221,
      "Ġkimyou": 4222,
      "Ġkamikakushi": 4223,
      "Ġkaii": 4224,
      "Ġdaybreak": 4225,
      "Ġunaware": 4226,
      "Ġattorney": 4227,
      "Ġundou": 4228,
      "Ġchikyuu": 4229,
      "Ġkanon": 4230,
      "Ġkanketsu": 4231,
      "Ġmarumaru": 4232,
      "Ġtaimadou": 4233,
      "Ġakuma": 4234,
      "Ġsonny": 4235,
      "Ġnowhere": 4236,
      "Ġgeiko": 4237,
      "Ġmujin": 4238,
      "blades": 4239,
      "Ġtouken": 4240,
      "Ġhoshiai": 4241,
      "final": 4242,
      "Ġmewtw": 4243,
      "Ġokusama": 4244,
      "Ġappeared": 4245,
      "okaichou": 4246,
      "Ġowaranai": 4247,
      "Ġverdur": 4248,
      "Ġkikou": 4249,
      "Ġkabadd": 4250,
      "Ġyururi": 4251,
      "Ġseitokaichou": 4252,
      "Ġchrome": 4253,
      "Ġtsuukaku": 4254,
      "âĺħâĺħ": 4255,
      "Ġmiddle": 4256,
      "Ġgyakushuu": 4257,
      "Ġjoshiraku": 4258,
      "teruze": 4259,
      "Ġshirushi": 4260,
      "Ġshinda": 4261,
      "Ġkakuritsu": 4262,
      "Ġcaptain": 4263,
      "Ġkatsugeki": 4264,
      "uctions": 4265,
      "Ġzanryuu": 4266,
      "grand": 4267,
      "Ġtamako": 4268,
      "2022": 4269,
      "Ġbukiyou": 4270,
      "Ġodoru": 4271,
      "Ġfalls": 4272,
      "Ġhangyaku": 4273,
      "Ġdanganron": 4274,
      "Ġshelled": 4275,
      "Ġhitsugi": 4276,
      "Ġcompany": 4277,
      "Ġshakers": 4278,
      "Ġnayami": 4279,
      "Ġnande": 4280,
      "Ġboundary": 4281,
      "Ġmummy": 4282,
      "Ġmorose": 4283,
      "Ġaishiteruze": 4284,
      "Ġculling": 4285,
      "Ġdeductions": 4286,
      "Ġgekirin": 4287,
      "Ġwielder": 4288,
      "Ġmeteor": 4289,
      "Ġkosodate": 4290,
      "Ġkiseijuu": 4291,
      "Ġjuuou": 4292,
      "Ġspellblades": 4293,
      "Ġyagate": 4294,
      "Ġforbidden": 4295,
      "Ġegoistic": 4296,
      "Ġnejimaki": 4297,
      "Ġonmyouji": 4298,
      "Ġmewtwo": 4299,
      "Ġverdurous": 4300,
      "Ġkabaddi": 4301,
      "Ġdanganronpa": 4302,
      ".\"": 4303,
      "ao": 4304,
      "ath": 4305,
      "aisuru": 4306,
      "book": 4307,
      "bane": 4308,
      "fes": 4309,
      "kishi": 4310,
      "ms": 4311,
      "po": 4312,
      "ration": 4313,
      "tan": 4314,
      "ug": 4315,
      "umend": 4316,
      "zou": 4317,
      "ani": 4318,
      "anashi": 4319,
      "Ġsis": 4320,
      "inaka": 4321,
      "Ġwere": 4322,
      "orig": 4323,
      "Ġlv": 4324,
      "Ġlust": 4325,
      "Ġben": 4326,
      "Ġbik": 4327,
      "Ġbard": 4328,
      "Ġbump": 4329,
      "Ġnoko": 4330,
      "Ġmiko": 4331,
      "Ġag": 4332,
      "Ġahi": 4333,
      "Ġfem": 4334,
      "Ġfre": 4335,
      "Ġliz": 4336,
      "Ġlied": 4337,
      "Ġcike": 4338,
      "Ġcells": 4339,
      "Ġcuck": 4340,
      "Ġdyed": 4341,
      "Ġdend": 4342,
      "Ġdorm": 4343,
      "Ġrid": 4344,
      "Ġrdg": 4345,
      "Ġtori": 4346,
      "Ġhyo": 4347,
      "Ġpath": 4348,
      "iciz": 4349,
      "uriya": 4350,
      "Ġkart": 4351,
      "Ġkase": 4352,
      "Ġthen": 4353,
      "Ġthorn": 4354,
      "see": 4355,
      "oos": 4356,
      "ampl": 4357,
      "vious": 4358,
      "pervious": 4359,
      "Ġchase": 4360,
      "Ġchampl": 4361,
      "Ġvibration": 4362,
      "Ġcharms": 4363,
      "leag": 4364,
      "Ġslug": 4365,
      "edom": 4366,
      "rise": 4367,
      "abu": 4368,
      "Ġjosee": 4369,
      "Ġold": 4370,
      "rogr": 4371,
      "Ġmother": 4372,
      "angel": 4373,
      "Ġhourou": 4374,
      "usetsu": 4375,
      "Ġnetsu": 4376,
      "Ġjouran": 4377,
      "Ġdeer": 4378,
      "ikoku": 4379,
      "Ġswordsman": 4380,
      "Ġammo": 4381,
      "Ġaliciz": 4382,
      "jie": 4383,
      "Ġsaki": 4384,
      "tail": 4385,
      "Ġkensei": 4386,
      "Ġteikoku": 4387,
      "Ġshinrei": 4388,
      "Ġhaibane": 4389,
      "Ġhanyou": 4390,
      "oya": 4391,
      "Ġtakt": 4392,
      "Ġtakao": 4393,
      "Ġtakanashi": 4394,
      "ntr": 4395,
      "oushou": 4396,
      "Ġrenmei": 4397,
      "Ġhitorig": 4398,
      "Ġmars": 4399,
      "Ġimpervious": 4400,
      "Ġmadan": 4401,
      "Ġmadder": 4402,
      "Ġtrap": 4403,
      "ĠtrÃ¤": 4404,
      "Ġnarimasu": 4405,
      "Ġprofes": 4406,
      "Ġakkun": 4407,
      "Ġhere": 4408,
      "Ġherself": 4409,
      "Ġsoni": 4410,
      "Ġlaplace": 4411,
      "Ġseikaisuru": 4412,
      "Ġspirited": 4413,
      "Ġirabu": 4414,
      "Ġnagoya": 4415,
      "Ġoffice": 4416,
      "Ġranpo": 4417,
      "Ġcolleag": 4418,
      "Ġyakumo": 4419,
      "Ġcouple": 4420,
      "Ġgohan": 4421,
      "Ġowari": 4422,
      "Ġwanjie": 4423,
      "Ġbecame": 4424,
      "girls": 4425,
      "Ġotogiz": 4426,
      "Ġearl": 4427,
      "Ġhikari": 4428,
      "Ġglasslip": 4429,
      "Ġmount": 4430,
      "Ġepilo": 4431,
      "Ġakame": 4432,
      "Ġsuzume": 4433,
      "Ġtenjho": 4434,
      "Ġpupil": 4435,
      "Ġhouou": 4436,
      "Ġfourth": 4437,
      "Ġwings": 4438,
      "Ġsanda": 4439,
      "Ġnotebook": 4440,
      "Ġgentoushou": 4441,
      "Ġtwintail": 4442,
      "Ġwarriors": 4443,
      "Ġkatainaka": 4444,
      "Ġporori": 4445,
      "Ġelfen": 4446,
      "Ġkusuriya": 4447,
      "Ġcountry": 4448,
      "Ġlustrous": 4449,
      "Ġbikini": 4450,
      "Ġbardock": 4451,
      "Ġbumpkin": 4452,
      "Ġnokotan": 4453,
      "Ġahiru": 4454,
      "Ġfemale": 4455,
      "Ġfreedom": 4456,
      "Ġcuckoos": 4457,
      "Ġdendrogr": 4458,
      "Ġdormitory": 4459,
      "Ġriddle": 4460,
      "Ġhyousetsu": 4461,
      "Ġkarte": 4462,
      "Ġthorns": 4463,
      "Ġchamploo": 4464,
      "Ġnetsuzou": 4465,
      "Ġalicization": 4466,
      "Ġhitorigoto": 4467,
      "ĠtrÃ¤umend": 4468,
      "Ġprofessed": 4469,
      "Ġcolleague": 4470,
      "Ġotogizoushi": 4471,
      "Ġepilogue": 4472,
      "Ġdendrogram": 4473,
      "12": 4474,
      "15": 4475,
      "bai": 4476,
      "caf": 4477,
      "cury": 4478,
      "dure": 4479,
      "eive": 4480,
      "gak": 4481,
      "giri": 4482,
      "jis": 4483,
      "kana": 4484,
      "low": 4485,
      "list": 4486,
      "min": 4487,
      "pt": 4488,
      "pen": 4489,
      "ritory": 4490,
      "saga": 4491,
      "sian": 4492,
      "too": 4493,
      "want": 4494,
      "xero": 4495,
      "ylist": 4496,
      "anch": 4497,
      "Ġsaku": 4498,
      "Ġsono": 4499,
      "Ġsamp": 4500,
      "Ġsss": 4501,
      "Ġsareta": 4502,
      "meil": 4503,
      "Ġnab": 4504,
      "Ġbaku": 4505,
      "Ġbake": 4506,
      "Ġbtoo": 4507,
      "Ġnokon": 4508,
      "Ġmom": 4509,
      "Ġmond": 4510,
      "Ġalya": 4511,
      "antan": 4512,
      "Ġfive": 4513,
      "Ġfreak": 4514,
      "Ġcity": 4515,
      "Ġdag": 4516,
      "Ġdears": 4517,
      "Ġdump": 4518,
      "Ġrus": 4519,
      "Ġrent": 4520,
      "Ġrage": 4521,
      "Ġriku": 4522,
      "Ġross": 4523,
      "Ġgata": 4524,
      "Ġtut": 4525,
      "Ġtam": 4526,
      "Ġhep": 4527,
      "Ġhako": 4528,
      "Ġhxero": 4529,
      "Ġporc": 4530,
      "atasumi": 4531,
      "omart": 4532,
      "urer": 4533,
      "Ġkashi": 4534,
      "Ġkoto": 4535,
      "Ġkise": 4536,
      "Ġkosh": 4537,
      "Ġkatasumi": 4538,
      "Ġthrough": 4539,
      "Ġsometime": 4540,
      "usou": 4541,
      "ident": 4542,
      "Ġseiren": 4543,
      "Ġsuite": 4544,
      "Ġsuber": 4545,
      "Ġsuizou": 4546,
      "territory": 4547,
      "sea": 4548,
      "Ġoemo": 4549,
      "Ġopp": 4550,
      "Ġshomin": 4551,
      "unlimited": 4552,
      "Ġdress": 4553,
      "Ġreceive": 4554,
      "Ġmaizou": 4555,
      "Ġchuu": 4556,
      "Ġspec": 4557,
      "ites": 4558,
      "itama": 4559,
      "itate": 4560,
      "itantan": 4561,
      "Ġyun": 4562,
      "dyna": 4563,
      "antasm": 4564,
      "edness": 4565,
      "chigiri": 4566,
      "Ġarab": 4567,
      "okuri": 4568,
      "agura": 4569,
      "etai": 4570,
      "roit": 4571,
      "Ġmousou": 4572,
      "Ġshimetsu": 4573,
      "ayaki": 4574,
      "Ġescaf": 4575,
      "angjuu": 4576,
      "Ġhozuki": 4577,
      "Ġkei": 4578,
      "Ġkeiji": 4579,
      "Ġeng": 4580,
      "Ġzhu": 4581,
      "Ġwax": 4582,
      "Ġcomic": 4583,
      "Ġlightning": 4584,
      "Ġdept": 4585,
      "Ġamanch": 4586,
      "Ġleapt": 4587,
      "stylist": 4588,
      "Ġonnan": 4589,
      "Ġpluto": 4590,
      "Ġshikan": 4591,
      "Ġshizuku": 4592,
      "Ġshibai": 4593,
      "osites": 4594,
      "Ġwataten": 4595,
      "monster": 4596,
      "Ġguimi": 4597,
      "ishinbou": 4598,
      "Ġkaoru": 4599,
      "Ġkaito": 4600,
      "Ġdaishi": 4601,
      "utsukan": 4602,
      "Ġwaratte": 4603,
      "Ġname": 4604,
      "Ġkougyou": 4605,
      "ollon": 4606,
      "Ġtakuto": 4607,
      "Ġcromart": 4608,
      "kkaku": 4609,
      "Ġkaiyuu": 4610,
      "Ġmanaria": 4611,
      "Ġelection": 4612,
      "Ġnanana": 4613,
      "Ġunwant": 4614,
      "nival": 4615,
      "Ġmarken": 4616,
      "Ġutatte": 4617,
      "Ġfeelings": 4618,
      "Ġangels": 4619,
      "Ġharukana": 4620,
      "Ġdeaimon": 4621,
      "Ġkonohana": 4622,
      "Ġphantasm": 4623,
      "Ġkuishinbou": 4624,
      "Ġkagayaki": 4625,
      "Ġkizutsukan": 4626,
      "chuumon": 4627,
      "hanne": 4628,
      "Ġdetroit": 4629,
      "Ġsakamichi": 4630,
      "Ġfugou": 4631,
      "Ġmemochou": 4632,
      "Ġyakitate": 4633,
      "Ġgochuumon": 4634,
      "Ġshokugyou": 4635,
      "Ġweek": 4636,
      "Ġfuuin": 4637,
      "Ġcoolhead": 4638,
      "rinin": 4639,
      "Ġmercury": 4640,
      "Ġjikken": 4641,
      "Ġdairinin": 4642,
      "unda": 4643,
      "Ġmajor": 4644,
      "Ġvermeil": 4645,
      "Ġvoice": 4646,
      "...": 4647,
      "Ġhides": 4648,
      "Ġclean": 4649,
      "Ġrunway": 4650,
      "Ġhimouto": 4651,
      "Ġashita": 4652,
      "Ġdarc": 4653,
      "Ġhagure": 4654,
      "Ġtabetai": 4655,
      "Ġumaru": 4656,
      "Ġhairstylist": 4657,
      "Ġapollon": 4658,
      "Ġretry": 4659,
      "Ġlagann": 4660,
      "Ġscissors": 4661,
      "zenon": 4662,
      "girlfriend": 4663,
      "Ġshikkaku": 4664,
      "Ġhyouken": 4665,
      "Ġsweetness": 4666,
      "Ġstigma": 4667,
      "Ġshirogane": 4668,
      "Ġseihantai": 4669,
      "Ġryuuga": 4670,
      "Ġbucchigiri": 4671,
      "Ġtsuredure": 4672,
      "Ġflew": 4673,
      "Ġadventurer": 4674,
      "Ġinspection": 4675,
      "Ġtamago": 4676,
      "2021": 4677,
      "Ġgentosho": 4678,
      "Ġ1412": 4679,
      "Ġjehanne": 4680,
      "Ġearthsea": 4681,
      "Ġbanban": 4682,
      "Ġmikagura": 4683,
      "Ġxiaochou": 4684,
      "Ġtsuritama": 4685,
      "Ġtamers": 4686,
      "Ġgurren": 4687,
      "Ġcarnival": 4688,
      "Ġvigilantes": 4689,
      "Ġmaoyuu": 4690,
      "shimai": 4691,
      "Ġzenpen": 4692,
      "Ġsentai": 4693,
      "Ġyajuu": 4694,
      "gakkou": 4695,
      "jisangjuu": 4696,
      "lowne": 4697,
      "Ġsample": 4698,
      "Ġssss": 4699,
      "Ġnabari": 4700,
      "Ġbakuen": 4701,
      "Ġbakemonogatari": 4702,
      "Ġbtooom": 4703,
      "Ġnokonoko": 4704,
      "Ġmomokuri": 4705,
      "Ġmonday": 4706,
      "Ġdagashi": 4707,
      "Ġdumpster": 4708,
      "Ġrussian": 4709,
      "Ġrosso": 4710,
      "Ġtamashii": 4711,
      "Ġheppoko": 4712,
      "Ġhxeros": 4713,
      "Ġporco": 4714,
      "Ġkotoura": 4715,
      "Ġkisetsu": 4716,
      "Ġkoshitantan": 4717,
      "Ġsometimes": 4718,
      "Ġsuberu": 4719,
      "Ġoemojisangjuu": 4720,
      "Ġopposites": 4721,
      "Ġmaizoukin": 4722,
      "Ġchuugakkou": 4723,
      "dynazenon": 4724,
      "Ġaraburu": 4725,
      "Ġescaflowne": 4726,
      "Ġamanchu": 4727,
      "Ġonnanoko": 4728,
      "Ġshikanoko": 4729,
      "Ġdaishikkaku": 4730,
      "Ġcromartie": 4731,
      "Ġunwanted": 4732,
      "Ġkizutsukanai": 4733,
      "Ġcoolheadedness": 4734,
      "Ġryuugajou": 4735,
      "Ġbanbanzai": 4736,
      "Ġoemojisangjuui": 4737,
      ":|": 4738,
      "bin": 4739,
      "bak": 4740,
      "beki": 4741,
      "baby": 4742,
      "cor": 4743,
      "dama": 4744,
      "echan": 4745,
      "ft": 4746,
      "gok": 4747,
      "gade": 4748,
      "gray": 4749,
      "hk": 4750,
      "iac": 4751,
      "jig": 4752,
      "lo": 4753,
      "masu": 4754,
      "pro": 4755,
      "rum": 4756,
      "stal": 4757,
      "sack": 4758,
      "sman": 4759,
      "tot": 4760,
      "win": 4761,
      "waru": 4762,
      "ype": 4763,
      "zure": 4764,
      "anne": 4765,
      "ments": 4766,
      "Ġwest": 4767,
      "arc": 4768,
      "arion": 4769,
      "Ġnorn": 4770,
      "Ġnades": 4771,
      "Ġnhk": 4772,
      "Ġike": 4773,
      "Ġbri": 4774,
      "Ġbachi": 4775,
      "Ġbakugan": 4776,
      "Ġmark": 4777,
      "Ġmono": 4778,
      "Ġmortal": 4779,
      "Ġaura": 4780,
      "Ġfake": 4781,
      "Ġcel": 4782,
      "Ġdom": 4783,
      "Ġrag": 4784,
      "Ġrir": 4785,
      "Ġryou": 4786,
      "Ġgatch": 4787,
      "ennium": 4788,
      "asion": 4789,
      "Ġhaka": 4790,
      "Ġhallow": 4791,
      "Ġpink": 4792,
      "atina": 4793,
      "uraba": 4794,
      "owds": 4795,
      "Ġkita": 4796,
      "Ġorb": 4797,
      "Ġgimai": 4798,
      "Ġtour": 4799,
      "Ġsea": 4800,
      "Ġseish": 4801,
      "imak": 4802,
      "Ġsugiru": 4803,
      "Ġsucc": 4804,
      "isa": 4805,
      "Ġoushitsu": 4806,
      "Ġoda": 4807,
      "indrum": 4808,
      "Ġmawaru": 4809,
      "itou": 4810,
      "Ġyame": 4811,
      "dyman": 4812,
      "kikom": 4813,
      "airoku": 4814,
      "hiko": 4815,
      "Ġhard": 4816,
      "Ġinfer": 4817,
      "Ġgathering": 4818,
      "Ġyouchi": 4819,
      "Ġmyself": 4820,
      "rika": 4821,
      "estial": 4822,
      "ession": 4823,
      "Ġisuc": 4824,
      "sugiru": 4825,
      "oneko": 4826,
      "roh": 4827,
      "Ġbee": 4828,
      "Ġmotsu": 4829,
      "Ġshichi": 4830,
      "Ġshuraba": 4831,
      "Ġugok": 4832,
      "ayaku": 4833,
      "Ġrealm": 4834,
      "uuin": 4835,
      "Ġhome": 4836,
      "Ġhoney": 4837,
      "Ġexile": 4838,
      "Ġzod": 4839,
      "irth": 4840,
      "Ġgiratina": 4841,
      "ika": 4842,
      "Ġonna": 4843,
      "ushihen": 4844,
      "away": 4845,
      "awlers": 4846,
      "Ġtsuyo": 4847,
      "apsack": 4848,
      "Ġsaitou": 4849,
      "Ġoneechan": 4850,
      "utei": 4851,
      "Ġyubi": 4852,
      "henge": 4853,
      "Ġkajitsu": 4854,
      "Ġdaemon": 4855,
      "Ġdaugh": 4856,
      "Ġdaimak": 4857,
      "teki": 4858,
      "Ġhandyman": 4859,
      "Ġkoukyo": 4860,
      "Ġkouga": 4861,
      "Ġsaigo": 4862,
      "Ġtakkyuu": 4863,
      "zuka": 4864,
      "Ġcrowds": 4865,
      "Ġmonmon": 4866,
      "Ġknapsack": 4867,
      "Ġkurozuka": 4868,
      "Ġoukou": 4869,
      "Ġfriendship": 4870,
      "Ġseihou": 4871,
      "Ġrogue": 4872,
      "Ġheine": 4873,
      "Ġheika": 4874,
      "Ġdevilman": 4875,
      "bukuro": 4876,
      "Ġbrawlers": 4877,
      "Ġtrust": 4878,
      "Ġjudg": 4879,
      "Ġexorcists": 4880,
      "Ġsounan": 4881,
      "Ġjunior": 4882,
      "Ġevol": 4883,
      "ĠâĻ¥": 4884,
      "Ġhikikom": 4885,
      "Ġcrybaby": 4886,
      "Ġcrystal": 4887,
      "Ġmuda": 4888,
      "Ġhigashi": 4889,
      "akoi": 4890,
      "Ġtouhai": 4891,
      "Ġmaryuuin": 4892,
      "Ġactress": 4893,
      "Ġhakairoku": 4894,
      "Ġinvasion": 4895,
      "Ġrises": 4896,
      "Ġrebirth": 4897,
      "Ġinfinity": 4898,
      "Ġryuutei": 4899,
      "Ġrunaway": 4900,
      "Ġdarwin": 4901,
      "Ġameagari": 4902,
      "Ġcuties": 4903,
      "Ġsasayaku": 4904,
      "Ġakudama": 4905,
      "Ġhotaru": 4906,
      "Ġjoshikousei": 4907,
      "Ġshironeko": 4908,
      "Ġoosugiru": 4909,
      "Ġsurvive": 4910,
      "Ġtemple": 4911,
      "Ġtsurezure": 4912,
      "Ġaquarion": 4913,
      "Ġwhispers": 4914,
      "Ġmillennium": 4915,
      "Ġkotaro": 4916,
      "Ġelementalers": 4917,
      "Ġletter": 4918,
      "Ġbukyou": 4919,
      "Ġodoro": 4920,
      "Ġgotoku": 4921,
      "Ġjeanne": 4922,
      "Ġmovements": 4923,
      "Ġnobuna": 4924,
      "Ġnobunaga": 4925,
      "Ġpaprika": 4926,
      "Ġyabou": 4927,
      "Ġbeatless": 4928,
      "Ġushio": 4929,
      "strange": 4930,
      "Ġtatakai": 4931,
      "Ġmayuri": 4932,
      "Ġblossoms": 4933,
      "Ġcraft": 4934,
      "Ġnerae": 4935,
      "Ġpenguindrum": 4936,
      "Ġkouryakuchuu": 4937,
      "Ġwotakoi": 4938,
      ":||": 4939,
      "bakko": 4940,
      "jigen": 4941,
      "loan": 4942,
      "protot": 4943,
      "Ġnadeshiko": 4944,
      "Ġikebukuro": 4945,
      "Ġbrigade": 4946,
      "Ġmarksman": 4947,
      "Ġcelestial": 4948,
      "Ġdomination": 4949,
      "Ġragna": 4950,
      "Ġririsa": 4951,
      "Ġryoubo": 4952,
      "Ġgatchaman": 4953,
      "Ġseishun": 4954,
      "Ġsuccession": 4955,
      "Ġyamemasu": 4956,
      "Ġinferno": 4957,
      "Ġyouchien": 4958,
      "Ġisuca": 4959,
      "Ġmotsubeki": 4960,
      "Ġshichihenge": 4961,
      "Ġugokanai": 4962,
      "Ġzodiac": 4963,
      "Ġtsuyoimono": 4964,
      "Ġyubiwa": 4965,
      "Ġdaemons": 4966,
      "Ġdaughters": 4967,
      "Ġdaimakyou": 4968,
      "Ġkoukyoushihen": 4969,
      "Ġtakkyuubin": 4970,
      "Ġoukoubakko": 4971,
      "Ġjudgment": 4972,
      "Ġhikikomari": 4973,
      "Ġmudazukai": 4974,
      "prototype": 4975,
      "!-": 4976,
      "aff": 4977,
      "ause": 4978,
      "bits": 4979,
      "bers": 4980,
      "binbou": 4981,
      "dimension": 4982,
      "gho": 4983,
      "gum": 4984,
      "garten": 4985,
      "hay": 4986,
      "hap": 4987,
      "iana": 4988,
      "ible": 4989,
      "jun": 4990,
      "lli": 4991,
      "mat": 4992,
      "mited": 4993,
      "nou": 4994,
      "ost": 4995,
      "pelion": 4996,
      "patch": 4997,
      "ric": 4998,
      "rid": 4999,
      "rada": 5000,
      "ranger": 5001,
      "six": 5002,
      "tun": 5003,
      "tranger": 5004,
      "ving": 5005,
      "xia": 5006,
      "yper": 5007,
      "yasumi": 5008,
      "ĠÃ©": 5009,
      "Īļ": 5010,
      "anism": 5011,
      "inasai": 5012,
      "ororo": 5013,
      "Ġlon": 5014,
      "Ġlain": 5015,
      "ergarten": 5016,
      "Ġning": 5017,
      "Ġnep": 5018,
      "Ġnatte": 5019,
      "Ġiuko": 5020,
      "Ġbir": 5021,
      "Ġnozaki": 5022,
      "Ġmm": 5023,
      "Ġmizu": 5024,
      "Ġaho": 5025,
      "ants": 5026,
      "Ġfan": 5027,
      "Ġfun": 5028,
      "Ġfunn": 5029,
      "Ġfena": 5030,
      "Ġlies": 5031,
      "Ġlimited": 5032,
      "Ġcag": 5033,
      "Ġcass": 5034,
      "Ġdak": 5035,
      "Ġdadd": 5036,
      "Ġdororo": 5037,
      "Ġrob": 5038,
      "Ġrhap": 5039,
      "Ġgear": 5040,
      "asareta": 5041,
      "ales": 5042,
      "Ġhyb": 5043,
      "Ġhund": 5044,
      "Ġhyper": 5045,
      "Ġpoc": 5046,
      "Ġpir": 5047,
      "Ġpand": 5048,
      "iments": 5049,
      "Ġrebu": 5050,
      "ilt": 5051,
      "Ġkits": 5052,
      "Ġkate": 5053,
      "Ġkiy": 5054,
      "Ġkantei": 5055,
      "Ġthir": 5056,
      "Ġgiji": 5057,
      "usica": 5058,
      "idasareta": 5059,
      "Ġstaff": 5060,
      "ouki": 5061,
      "oubinbou": 5062,
      "Ġseway": 5063,
      "Ġsund": 5064,
      "ison": 5065,
      "isible": 5066,
      "Ġoh": 5067,
      "Ġoish": 5068,
      "Ġoyasumi": 5069,
      "Ġoidasareta": 5070,
      "periments": 5071,
      "Ġjae": 5072,
      "acs": 5073,
      "Ġmaison": 5074,
      "Ġyi": 5075,
      "Ġyatsu": 5076,
      "kigen": 5077,
      "Ġinai": 5078,
      "Ġinaz": 5079,
      "ley": 5080,
      "akawa": 5081,
      "akumon": 5082,
      "Ġmatteru": 5083,
      "Ġbless": 5084,
      "Ġhistory": 5085,
      "Ġarakawa": 5086,
      "Ġeight": 5087,
      "Ġmoving": 5088,
      "Ġucho": 5089,
      "ayon": 5090,
      "eliana": 5091,
      "liost": 5092,
      "Ġgrave": 5093,
      "Ġexperiments": 5094,
      "Ġzone": 5095,
      "Ġdispatch": 5096,
      "Ġnekketsu": 5097,
      "Ġdekin": 5098,
      "Ġdekiru": 5099,
      "Ġclassmat": 5100,
      "Ġcombatants": 5101,
      "Ġwhy": 5102,
      "Ġwhales": 5103,
      "stand": 5104,
      "Ġkindergarten": 5105,
      "Ġraeliana": 5106,
      "araxia": 5107,
      "Ġsenjou": 5108,
      "Ġshijou": 5109,
      "Ġshibou": 5110,
      "kaisen": 5111,
      "Ġhonkai": 5112,
      "Ġhonya": 5113,
      "jikenai": 5114,
      "Ġtsugum": 5115,
      "Ġkoyom": 5116,
      "Ġkurenai": 5117,
      "Ġataraxia": 5118,
      "Ġkazoku": 5119,
      "jouma": 5120,
      "Ġdive": 5121,
      "Ġnausica": 5122,
      "Ġkamui": 5123,
      "Ġserial": 5124,
      "Ġcrush": 5125,
      "Ġcrayon": 5126,
      "kkan": 5127,
      "Ġkaizoku": 5128,
      "Ġdeshi": 5129,
      "Ġmansion": 5130,
      "itsukai": 5131,
      "Ġelain": 5132,
      "Ġkyoukaisen": 5133,
      "Ġchiki": 5134,
      "Ġchihay": 5135,
      "niacs": 5136,
      "Ġ05": 5137,
      "Ġhitman": 5138,
      "Ġredo": 5139,
      "bachi": 5140,
      "Ġtrunk": 5141,
      "Ġfutatsuki": 5142,
      "Ġmaoujou": 5143,
      "Ġmaougun": 5144,
      "Ġsouja": 5145,
      "Ġspiral": 5146,
      "Ġcoil": 5147,
      "ĠâĪļ": 5148,
      "!?,": 5149,
      "Ġgekkan": 5150,
      "Ġseikon": 5151,
      "Ġvalley": 5152,
      "Ġmujun": 5153,
      "Ġheavens": 5154,
      "berus": 5155,
      "Ġkiller": 5156,
      "Ġended": 5157,
      "ikui": 5158,
      "Ġkuzu": 5159,
      "Ġkujikenai": 5160,
      "ibe": 5161,
      "Ġkizoku": 5162,
      "apped": 5163,
      "Ġmagias": 5164,
      "afuru": 5165,
      "Ġdennou": 5166,
      "Ġseireitsukai": 5167,
      "Ġofficial": 5168,
      "Ġfukigen": 5169,
      "Ġmembers": 5170,
      "Ġsaying": 5171,
      "Ġhowl": 5172,
      "Ġcerberus": 5173,
      "Ġosake": 5174,
      "Ġinvisible": 5175,
      "Ġrasen": 5176,
      "Ġasobase": 5177,
      "Ġasobitai": 5178,
      "Ġbisco": 5179,
      "Ġbecause": 5180,
      "ikoi": 5181,
      "Ġmajikoi": 5182,
      "Ġnorowareta": 5183,
      "Ġkikinasai": 5184,
      "sody": 5185,
      "Ġsounds": 5186,
      "Ġerin": 5187,
      "Ġsola": 5188,
      "Ġchobits": 5189,
      "Ġumibe": 5190,
      "Ġsoma": 5191,
      "Ġrokujouma": 5192,
      "Ġeleven": 5193,
      "Ġsuzuka": 5194,
      "Ġdaimao": 5195,
      "Ġcoppelion": 5196,
      "Ġpetits": 5197,
      "Ġshikkoku": 5198,
      "Ġshikkakumon": 5199,
      "Ġrakudai": 5200,
      "Ġruin": 5201,
      "Ġunderstand": 5202,
      "Ġgakkougurashi": 5203,
      "Ġmighty": 5204,
      "Ġsabikui": 5205,
      "Ġnariagaru": 5206,
      "Ġdisappearances": 5207,
      "Ġkatachi": 5208,
      "Ġbanana": 5209,
      "Ġpapa": 5210,
      "Ġyabai": 5211,
      "Ġtegamibachi": 5212,
      "Ġsagrada": 5213,
      "Ġmachiavelli": 5214,
      "hern": 5215,
      "Ġcavalry": 5216,
      "Ġhurric": 5217,
      "Ġhakuouki": 5218,
      "Ġshinryakusha": 5219,
      "Ġdecode": 5220,
      "Ġcubes": 5221,
      "Ġscrapped": 5222,
      "Ġfushigi": 5223,
      "Ġdoukyusei": 5224,
      "Ġinsomniacs": 5225,
      "ghost": 5226,
      "tunia": 5227,
      "ĠÃ©tranger": 5228,
      "Ġloner": 5229,
      "Ġningen": 5230,
      "Ġneptunia": 5231,
      "Ġiukoto": 5232,
      "Ġbirdy": 5233,
      "Ġfunnu": 5234,
      "Ġcagliost": 5235,
      "Ġcasshern": 5236,
      "Ġdakara": 5237,
      "Ġdaddies": 5238,
      "Ġrobin": 5239,
      "Ġrhapsody": 5240,
      "Ġhybrid": 5241,
      "Ġhundred": 5242,
      "Ġhyperdimension": 5243,
      "Ġpoco": 5244,
      "Ġpirate": 5245,
      "Ġpandora": 5246,
      "Ġrebuilt": 5247,
      "Ġkitsune": 5248,
      "Ġkatekyou": 5249,
      "Ġkiyoubinbou": 5250,
      "Ġthird": 5251,
      "Ġsewayaki": 5252,
      "Ġsunday": 5253,
      "Ġoishasan": 5254,
      "Ġjaeger": 5255,
      "Ġinazuma": 5256,
      "Ġblessing": 5257,
      "Ġeighty": 5258,
      "Ġuchouten": 5259,
      "Ġdispatched": 5260,
      "Ġdekinai": 5261,
      "Ġclassmates": 5262,
      "Ġtsugumomo": 5263,
      "Ġkoyomimonogatari": 5264,
      "ĠnausicaÃ¤": 5265,
      "Ġelaina": 5266,
      "Ġkyoukaisenjou": 5267,
      "Ġchihayafuru": 5268,
      "Ġtrunks": 5269,
      "Ġmachiavellianism": 5270,
      "Ġhurricane": 5271,
      "Ġcagliostro": 5272,
      ");": 5273,
      ".;": 5274,
      ":â": 5275,
      "??": 5276,
      "aus": 5277,
      "avi": 5278,
      "bobo": 5279,
      "bri": 5280,
      "bles": 5281,
      "bare": 5282,
      "bject": 5283,
      "cond": 5284,
      "cÃ©": 5285,
      "dge": 5286,
      "duction": 5287,
      "ef": 5288,
      "fr": 5289,
      "gn": 5290,
      "gatt": 5291,
      "got": 5292,
      "garet": 5293,
      "hamatora": 5294,
      "iang": 5295,
      "ivers": 5296,
      "ivery": 5297,
      "jyom": 5298,
      "kush": 5299,
      "lu": 5300,
      "mar": 5301,
      "noy": 5302,
      "pon": 5303,
      "pol": 5304,
      "ption": 5305,
      "puu": 5306,
      "rom": 5307,
      "sfer": 5308,
      "ted": 5309,
      "tation": 5310,
      "tro": 5311,
      "uki": 5312,
      "vas": 5313,
      "vid": 5314,
      "zon": 5315,
      "zem": 5316,
      "zasu": 5317,
      "Ġom": 5318,
      "Ġverse": 5319,
      "Ġura": 5320,
      "Ĳ£": 5321,
      "Ġsant": 5322,
      "Ġsob": 5323,
      "Ġsage": 5324,
      "Ġsket": 5325,
      "med": 5326,
      "mester": 5327,
      "Ġange": 5328,
      "Ġannoy": 5329,
      "inland": 5330,
      "through": 5331,
      "oroku": 5332,
      "Ġlaika": 5333,
      "era": 5334,
      "ert": 5335,
      "eror": 5336,
      "Ġnid": 5337,
      "Ġnageki": 5338,
      "Ġire": 5339,
      "Ġijou": 5340,
      "Ġikk": 5341,
      "Ġikoku": 5342,
      "Ġikiru": 5343,
      "Ġbob": 5344,
      "Ġbast": 5345,
      "Ġbara": 5346,
      "Ġbous": 5347,
      "Ġnoble": 5348,
      "Ġnobles": 5349,
      "Ġnosfer": 5350,
      "Ġmim": 5351,
      "utep": 5352,
      "utachi": 5353,
      "Ġali": 5354,
      "Ġako": 5355,
      "Ġfian": 5356,
      "Ġfune": 5357,
      "Ġcorn": 5358,
      "Ġdude": 5359,
      "Ġriyuu": 5360,
      "Ġrivers": 5361,
      "Ġgass": 5362,
      "Ġgash": 5363,
      "housha": 5364,
      "asy": 5365,
      "asama": 5366,
      "Ġtree": 5367,
      "alid": 5368,
      "Ġhiku": 5369,
      "onari": 5370,
      "Ġping": 5371,
      "Ġpong": 5372,
      "Ġpunk": 5373,
      "atu": 5374,
      "atot": 5375,
      "Ġwife": 5376,
      "Ġmetro": 5377,
      "esident": 5378,
      "omaru": 5379,
      "Ġrekk": 5380,
      "Ġkiki": 5381,
      "Ġorange": 5382,
      "Ġtotal": 5383,
      "Ġtokush": 5384,
      "Ġstore": 5385,
      "Ġstard": 5386,
      "Ġstories": 5387,
      "Ġseduction": 5388,
      "Ġsemester": 5389,
      "imatsu": 5390,
      "imaru": 5391,
      "Ġsumo": 5392,
      "Ġsuna": 5393,
      "Ġsugar": 5394,
      "second": 5395,
      "ema": 5396,
      "amori": 5397,
      "amata": 5398,
      "amats": 5399,
      "amball": 5400,
      "isak": 5401,
      "Ġobject": 5402,
      "unted": 5403,
      "Ġjutsushi": 5404,
      "urei": 5405,
      "Ġmaqu": 5406,
      "Ġvivid": 5407,
      "venience": 5408,
      "Ġchiy": 5409,
      "itous": 5410,
      "Ġyatot": 5411,
      "aded": 5412,
      "ception": 5413,
      "Ġdoki": 5414,
      "Ġinstr": 5415,
      "Ġforgot": 5416,
      "Ġgachi": 5417,
      "Ġgakki": 5418,
      "akasu": 5419,
      "akuta": 5420,
      "tured": 5421,
      "Ġcanvas": 5422,
      "Ġarmed": 5423,
      "okami": 5424,
      "Ġeclip": 5425,
      "Ġissh": 5426,
      "Ġintai": 5427,
      "Ġmysteria": 5428,
      "Ġclaus": 5429,
      "etic": 5430,
      "Ġshamball": 5431,
      "Ġuete": 5432,
      "Ġuzasu": 5433,
      "queror": 5434,
      "uukan": 5435,
      "assination": 5436,
      "Ġhousoku": 5437,
      "Ġhoumon": 5438,
      "Ġitou": 5439,
      "Ġitta": 5440,
      "Ġitaz": 5441,
      "Ġkepp": 5442,
      "Ġgravi": 5443,
      "Ġexiled": 5444,
      "Ġzui": 5445,
      "Ġzoroku": 5446,
      "Ġquitting": 5447,
      "Ġqualid": 5448,
      "Ġwave": 5449,
      "Ġwaves": 5450,
      "Ġcoming": 5451,
      "kyoku": 5452,
      "Ġneed": 5453,
      "Ġdebri": 5454,
      "kest": 5455,
      "ikku": 5456,
      "Ġamu": 5457,
      "Ġheroing": 5458,
      "Ġalway": 5459,
      "Ġshikim": 5460,
      "Ġvide": 5461,
      "Ġvinland": 5462,
      "Ġxing": 5463,
      "Ġkyousou": 5464,
      "jiki": 5465,
      "Ġpresident": 5466,
      "anoi": 5467,
      "Ġsae": 5468,
      "Ġkoeru": 5469,
      "Ġkurokami": 5470,
      "Ġyuuto": 5471,
      "Ġhaunted": 5472,
      "Ġkazem": 5473,
      "Ġdaisak": 5474,
      "oporo": 5475,
      "tei": 5476,
      "gyo": 5477,
      "Ġkenpuu": 5478,
      "Ġshinmai": 5479,
      "Ġkimita": 5480,
      "Ġdied": 5481,
      "Ġhananoi": 5482,
      "Ġsakasama": 5483,
      "ashime": 5484,
      "ashite": 5485,
      "main": 5486,
      "Ġotonari": 5487,
      "Ġsaikin": 5488,
      "Ġbasho": 5489,
      "Ġcrest": 5490,
      "Ġcrisis": 5491,
      "Ġflame": 5492,
      "ectrom": 5493,
      "Ġkaifuku": 5494,
      "Ġkaiju": 5495,
      "uctor": 5496,
      "Ġdesert": 5497,
      "Ġkoibito": 5498,
      "Ġkoiuta": 5499,
      "Ġelectrom": 5500,
      "Ġaoki": 5501,
      "Ġmasters": 5502,
      "Ġheisei": 5503,
      "moza": 5504,
      "Ġgenzan": 5505,
      "Ġrevenger": 5506,
      "Ġimasu": 5507,
      "Ġimashime": 5508,
      "Ġjudge": 5509,
      "Ġsouls": 5510,
      "Ġjuniku": 5511,
      "llism": 5512,
      "Ġhiiro": 5513,
      "Ġseikimatsu": 5514,
      "Ġmuv": 5515,
      "Ġkakera": 5516,
      "Ġbourei": 5517,
      "Ġbokutachi": 5518,
      "Ġconvenience": 5519,
      "Ġconception": 5520,
      "Ġconqueror": 5521,
      "Ġtanuki": 5522,
      "2011": 5523,
      "Ġwindup": 5524,
      "Ġplaythrough": 5525,
      "Ġtoriko": 5526,
      "Ġtortured": 5527,
      "Ġhajimaru": 5528,
      "Ġdouki": 5529,
      "Ġfuujin": 5530,
      "agnetic": 5531,
      "Ġinvaders": 5532,
      "Ġinvaded": 5533,
      "Ġhello": 5534,
      "Ġqiang": 5535,
      "Ġkonjiki": 5536,
      "Ġyamai": 5537,
      "ipikku": 5538,
      "Ġichiban": 5539,
      "Ġichizon": 5540,
      "Ġvalkyrie": 5541,
      "Ġdelivery": 5542,
      "Ġpoputep": 5543,
      "Ġoshiete": 5544,
      "Ġearly": 5545,
      "Ġpatema": 5546,
      "Ġvery": 5547,
      "Ġmachigatt": 5548,
      "Ġhidden": 5549,
      "Ġhimari": 5550,
      "Ġglasses": 5551,
      "Ġhagane": 5552,
      "Ġkaburu": 5553,
      "nco": 5554,
      "Ġcutie": 5555,
      "Ġduel": 5556,
      "Ġraihousha": 5557,
      "Ġhanayamata": 5558,
      "Ġrokujyom": 5559,
      "Ġtsukaikata": 5560,
      "Ġomoi": 5561,
      "Ġdaimaou": 5562,
      "Ġayashii": 5563,
      "Ġponpoko": 5564,
      "Ġshiroi": 5565,
      "Ġweapon": 5566,
      "Ġweakest": 5567,
      "utengai": 5568,
      "Ġkinmoza": 5569,
      "Ġorigins": 5570,
      "Ġoriginal": 5571,
      "Ġkoushaku": 5572,
      "Ġaruji": 5573,
      "Ġcrusaders": 5574,
      "Ġreturns": 5575,
      "Ġfalse": 5576,
      "Ġassassination": 5577,
      "Ġporoporo": 5578,
      "Ġtsurune": 5579,
      "Ġschwarzesmar": 5580,
      "Ġushiro": 5581,
      "Ġsagashite": 5582,
      "Ġmachiavellism": 5583,
      "Ġhinomaru": 5584,
      "Ġhinamats": 5585,
      "Ġdimensional": 5586,
      "shoutengai": 5587,
      "Ġqueen": 5588,
      "Ġmushibugyo": 5589,
      "Ġgokudolls": 5590,
      "Ġganbare": 5591,
      "Ġnakitai": 5592,
      "Ġsprings": 5593,
      "Ġengage": 5594,
      ":âĲ£": 5595,
      "efing": 5596,
      "frag": 5597,
      "garete": 5598,
      "luv": 5599,
      "polis": 5600,
      "Ġomamori": 5601,
      "Ġsanta": 5602,
      "Ġsobakasu": 5603,
      "Ġannoying": 5604,
      "Ġnidome": 5605,
      "Ġireba": 5606,
      "Ġikkitous": 5607,
      "Ġbobobo": 5608,
      "Ġbastard": 5609,
      "Ġboushoku": 5610,
      "Ġnoblesse": 5611,
      "Ġnosferatu": 5612,
      "Ġmiman": 5613,
      "Ġalign": 5614,
      "Ġakogarete": 5615,
      "ĠfiancÃ©": 5616,
      "Ġcorner": 5617,
      "Ġriverside": 5618,
      "Ġgassen": 5619,
      "Ġhikuushi": 5620,
      "Ġmetropolis": 5621,
      "Ġrekkuu": 5622,
      "Ġtokushusen": 5623,
      "Ġstardust": 5624,
      "Ġmaquia": 5625,
      "Ġchiyu": 5626,
      "Ġyatotta": 5627,
      "Ġinstructor": 5628,
      "Ġgachiakuta": 5629,
      "Ġeclipse": 5630,
      "Ġisshuukan": 5631,
      "Ġshamballa": 5632,
      "Ġueteiru": 5633,
      "Ġuzasugiru": 5634,
      "Ġhoumonsha": 5635,
      "Ġitazura": 5636,
      "Ġkeppeki": 5637,
      "Ġgravitation": 5638,
      "Ġqualidea": 5639,
      "Ġdebriefing": 5640,
      "Ġalways": 5641,
      "Ġshikimori": 5642,
      "Ġvideo": 5643,
      "Ġkyousoukyoku": 5644,
      "Ġyuutousei": 5645,
      "Ġkazemai": 5646,
      "Ġdaisakusen": 5647,
      "Ġkimitachi": 5648,
      "Ġflamenco": 5649,
      "Ġelectromagnetic": 5650,
      "Ġjudgement": 5651,
      "Ġpoputepipikku": 5652,
      "Ġmachigatta": 5653,
      "Ġrokujyoma": 5654,
      "Ġschwarzesmarken": 5655,
      "Ġhinamatsuri": 5656,
      "Ġikkitousen": 5657,
      "axy": 5658,
      "bis": 5659,
      "bed": 5660,
      "bir": 5661,
      "boshi": 5662,
      "cient": 5663,
      "dasai": 5664,
      "eting": 5665,
      "efeated": 5666,
      "fore": 5667,
      "fast": 5668,
      "frain": 5669,
      "ficial": 5670,
      "ging": 5671,
      "hn": 5672,
      "hed": 5673,
      "jime": 5674,
      "jaku": 5675,
      "jima": 5676,
      "jutsushi": 5677,
      "lem": 5678,
      "lit": 5679,
      "lust": 5680,
      "mac": 5681,
      "mart": 5682,
      "mand": 5683,
      "nara": 5684,
      "oki": 5685,
      "pho": 5686,
      "punk": 5687,
      "rou": 5688,
      "tokano": 5689,
      "ww": 5690,
      "xim": 5691,
      "xhn": 5692,
      "yushou": 5693,
      "Ġsod": 5694,
      "Ġsuru": 5695,
      "Ġsmart": 5696,
      "Ġancient": 5697,
      "inat": 5698,
      "the": 5699,
      "Ġwww": 5700,
      "armac": 5701,
      "Ġlun": 5702,
      "Ġlaw": 5703,
      "erpunk": 5704,
      "Ġnama": 5705,
      "Ġika": 5706,
      "Ġbent": 5707,
      "Ġbond": 5708,
      "Ġbio": 5709,
      "Ġaven": 5710,
      "Ġazum": 5711,
      "Ġfumo": 5712,
      "Ġcyb": 5713,
      "Ġcaret": 5714,
      "Ġdoro": 5715,
      "Ġress": 5716,
      "Ġgom": 5717,
      "Ġtub": 5718,
      "Ġped": 5719,
      "Ġpear": 5720,
      "Ġposs": 5721,
      "atri": 5722,
      "Ġmeit": 5723,
      "omori": 5724,
      "omata": 5725,
      "omanga": 5726,
      "ures": 5727,
      "urmand": 5728,
      "owam": 5729,
      "ilos": 5730,
      "Ġkout": 5731,
      "Ġkari": 5732,
      "Ġkatar": 5733,
      "Ġthus": 5734,
      "Ġtobir": 5735,
      "ounara": 5736,
      "cha": 5737,
      "amon": 5738,
      "isute": 5739,
      "Ġoad": 5740,
      "Ġjir": 5741,
      "oblem": 5742,
      "Ġmaxim": 5743,
      "ffu": 5744,
      "Ġchunib": 5745,
      "Ġspoke": 5746,
      "Ġspider": 5747,
      "ital": 5748,
      "Ġyuna": 5749,
      "Ġyowam": 5750,
      "Ġdoji": 5751,
      "aire": 5752,
      "refrain": 5753,
      "aker": 5754,
      "akomori": 5755,
      "akamon": 5756,
      "rificial": 5757,
      "Ġblast": 5758,
      "chigai": 5759,
      "unners": 5760,
      "okon": 5761,
      "Ġmagus": 5762,
      "abouzu": 5763,
      "Ġjoyuu": 5764,
      "Ġclock": 5765,
      "ocence": 5766,
      "Ġhasami": 5767,
      "Ġbefore": 5768,
      "Ġshore": 5769,
      "Ġask": 5770,
      "ayo": 5771,
      "ineko": 5772,
      "uminat": 5773,
      "Ġhourai": 5774,
      "Ġgrimo": 5775,
      "Ġenter": 5776,
      "Ġexcal": 5777,
      "Ġouts": 5778,
      "Ġbloodlust": 5779,
      "Ġcomyushou": 5780,
      "Ġnier": 5781,
      "Ġnegi": 5782,
      "Ġnegai": 5783,
      "Ġjourneys": 5784,
      "ikawa": 5785,
      "tsuyou": 5786,
      "Ġparasy": 5787,
      "Ġkindan": 5788,
      "iaoke": 5789,
      "Ġraven": 5790,
      "Ġhonor": 5791,
      "Ġhontou": 5792,
      "Ġtsukim": 5793,
      "Ġproblem": 5794,
      "Ġguide": 5795,
      "Ġonegai": 5796,
      "Ġtenri": 5797,
      "Ġyubis": 5798,
      "Ġhaite": 5799,
      "opher": 5800,
      "jina": 5801,
      "Ġtexhn": 5802,
      "Ġtejina": 5803,
      "Ġsaijaku": 5804,
      "Ġanimatri": 5805,
      "iani": 5806,
      "uyuri": 5807,
      "Ġdanchigai": 5808,
      "Ġminna": 5809,
      "Ġheya": 5810,
      "Ġnanayo": 5811,
      "Ġundefeated": 5812,
      "Ġrender": 5813,
      "Ġrenren": 5814,
      "Ġdigital": 5815,
      "Ġ06": 5816,
      "Ġkanokon": 5817,
      "Ġshitteiru": 5818,
      "Ġfutakomori": 5819,
      "Ġryusui": 5820,
      "Ġsonzai": 5821,
      "Ġsoniani": 5822,
      "Ġgetsuyou": 5823,
      "Ġpharmac": 5824,
      "Ġphilos": 5825,
      "Ġmuhai": 5826,
      "Ġmugen": 5827,
      "Ġgale": 5828,
      "Ġgalact": 5829,
      "Ġgalaxy": 5830,
      "Ġkudasai": 5831,
      "ibur": 5832,
      "ibly": 5833,
      "Ġbokushi": 5834,
      "Ġsunoh": 5835,
      "Ġsunabouzu": 5836,
      "Ġconan": 5837,
      "Ġboukun": 5838,
      "Ġedger": 5839,
      "Ġservamp": 5840,
      "Ġtonikawa": 5841,
      "Ġsummertime": 5842,
      "Ġmetallic": 5843,
      "Ġsayounara": 5844,
      "Ġokashi": 5845,
      "Ġgourmand": 5846,
      "Ġhitorijime": 5847,
      "Ġhajimeru": 5848,
      "Ġqiaoke": 5849,
      "Ġmerman": 5850,
      "Ġkonnichi": 5851,
      "Ġgrande": 5852,
      "Ġsacrificial": 5853,
      "Ġdaioh": 5854,
      "Ġdaikyuu": 5855,
      "Ġakikan": 5856,
      "Ġbreakfast": 5857,
      "Ġhimitsu": 5858,
      "Ġpromare": 5859,
      "etsujou": 5860,
      "Ġwakusei": 5861,
      "olyze": 5862,
      "Ġeromanga": 5863,
      "Ġumineko": 5864,
      "senpai": 5865,
      "Ġyuruyuri": 5866,
      "Ġduo": 5867,
      "Ġjinsei": 5868,
      "Ġchrno": 5869,
      "Ġtsukaiyou": 5870,
      "botsu": 5871,
      "Ġgokui": 5872,
      "Ġshimane": 5873,
      "Ġrenkinjutsushi": 5874,
      "Ġomocha": 5875,
      "zanmai": 5876,
      "Ġzetsuen": 5877,
      "Ġryuuou": 5878,
      "Ġyarich": 5879,
      "Ġslayers": 5880,
      "Ġaishen": 5881,
      "Ġfleeting": 5882,
      "Ġhoukai": 5883,
      "Ġsarazanmai": 5884,
      "2000": 5885,
      "Ġizure": 5886,
      "broly": 5887,
      "moonlit": 5888,
      "Ġletters": 5889,
      "Ġreturner": 5890,
      "Ġbarakamon": 5891,
      "Ġmatsuri": 5892,
      "twins": 5893,
      "Ġtrickster": 5894,
      "domoe": 5895,
      "Ġguren": 5896,
      "Ġtatami": 5897,
      "Ġcafe": 5898,
      "Ġhurray": 5899,
      "Ġhakuoki": 5900,
      "Ġshinryaku": 5901,
      "work": 5902,
      "working": 5903,
      "Ġinner": 5904,
      "Ġinnocence": 5905,
      "Ġdeparted": 5906,
      "Ġdepartures": 5907,
      "Ġuragiri": 5908,
      "Ġuragawa": 5909,
      "automata": 5910,
      "Ġilluminat": 5911,
      "Ġchinbotsu": 5912,
      "Ġmashle": 5913,
      "Ġdelusions": 5914,
      "Ġmitsudomoe": 5915,
      "Ġmillionaire": 5916,
      "Ġentaku": 5917,
      "Ġpalace": 5918,
      "Ġbabysitting": 5919,
      "Ġphotokano": 5920,
      "Ġfootage": 5921,
      "hedoro": 5922,
      "phone": 5923,
      "Ġsoda": 5924,
      "Ġsmartphone": 5925,
      "Ġlunar": 5926,
      "Ġnamae": 5927,
      "Ġbentou": 5928,
      "Ġbonds": 5929,
      "Ġavenging": 5930,
      "Ġazumanga": 5931,
      "Ġfumoffu": 5932,
      "Ġcyberpunk": 5933,
      "Ġcaretaker": 5934,
      "Ġdorohedoro": 5935,
      "Ġressha": 5936,
      "Ġgomisute": 5937,
      "Ġpedal": 5938,
      "Ġpearl": 5939,
      "Ġpossibly": 5940,
      "Ġmeitantei": 5941,
      "Ġkoutetsujou": 5942,
      "Ġkarigurashi": 5943,
      "Ġkataritai": 5944,
      "Ġtobira": 5945,
      "Ġjirachi": 5946,
      "Ġchunibyo": 5947,
      "Ġyowamushi": 5948,
      "Ġclockwork": 5949,
      "Ġhouraijima": 5950,
      "Ġgrimoire": 5951,
      "Ġexcalibur": 5952,
      "Ġnegaiboshi": 5953,
      "Ġparasyte": 5954,
      "Ġtsukimichi": 5955,
      "Ġyubisaki": 5956,
      "Ġtexhnolyze": 5957,
      "Ġanimatrix": 5958,
      "Ġgetsuyoubi": 5959,
      "Ġpharmacy": 5960,
      "Ġphilosopher": 5961,
      "Ġgalactic": 5962,
      "Ġsunohara": 5963,
      "Ġedgerunners": 5964,
      "Ġgourmands": 5965,
      "Ġqiaokeli": 5966,
      "Ġkonnichiwa": 5967,
      "Ġyarichin": 5968,
      "Ġilluminati": 5969,
      "Ġgomisuteba": 5970,
      ")?": 5971,
      "?!": 5972,
      "ather": 5973,
      "aasan": 5974,
      "butsu": 5975,
      "core": 5976,
      "eight": 5977,
      "flip": 5978,
      "father": 5979,
      "gure": 5980,
      "gisha": 5981,
      "hak": 5982,
      "haru": 5983,
      "hild": 5984,
      "iem": 5985,
      "iverse": 5986,
      "jits": 5987,
      "kama": 5988,
      "kab": 5989,
      "kuri": 5990,
      "keru": 5991,
      "kageki": 5992,
      "loon": 5993,
      "mas": 5994,
      "moku": 5995,
      "miru": 5996,
      "nai": 5997,
      "nel": 5998,
      "nine": 5999,
      "ners": 6000,
      "nagi": 6001,
      "nhild": 6002,
      "ova": 6003,
      "pel": 6004,
      "rine": 6005,
      "rong": 6006,
      "rock": 6007,
      "rection": 6008,
      "tony": 6009,
      "vat": 6010,
      "vine": 6011,
      "wari": 6012,
      "wei": 6013,
      "zaka": 6014,
      "âĢ": 6015,
      "âĹ": 6016,
      "Ġ'": 6017,
      "Ġhol": 6018,
      "meiki": 6019,
      "Ġani": 6020,
      "Ġwrong": 6021,
      "arab": 6022,
      "aranai": 6023,
      "Ġnai": 6024,
      "Ġnine": 6025,
      "Ġnagi": 6026,
      "Ġandro": 6027,
      "Ġitsu": 6028,
      "Ġiku": 6029,
      "Ġbry": 6030,
      "Ġbaasan": 6031,
      "Ġmong": 6032,
      "uttony": 6033,
      "Ġakan": 6034,
      "Ġliar": 6035,
      "Ġcos": 6036,
      "Ġchou": 6037,
      "Ġrome": 6038,
      "hoes": 6039,
      "Ġtiny": 6040,
      "Ġhad": 6041,
      "Ġhir": 6042,
      "Ġhuman": 6043,
      "Ġhelc": 6044,
      "Ġhadan": 6045,
      "Ġhadou": 6046,
      "Ġpure": 6047,
      "Ġwants": 6048,
      "Ġmeir": 6049,
      "Ġmegane": 6050,
      "esday": 6051,
      "imesu": 6052,
      "icot": 6053,
      "ichan": 6054,
      "uroku": 6055,
      "uryou": 6056,
      "urrection": 6057,
      "owloon": 6058,
      "Ġrequ": 6059,
      "iliren": 6060,
      "Ġkure": 6061,
      "Ġkora": 6062,
      "Ġkats": 6063,
      "Ġkink": 6064,
      "Ġkowloon": 6065,
      "usive": 6066,
      "iden": 6067,
      "ole": 6068,
      "olian": 6069,
      "ouds": 6070,
      "oukama": 6071,
      "Ġsedai": 6072,
      "imin": 6073,
      "imaro": 6074,
      "terial": 6075,
      "chara": 6076,
      "Ġokin": 6077,
      "Ġoshimai": 6078,
      "Ġshoush": 6079,
      "Ġshoka": 6080,
      "unji": 6081,
      "Ġjaku": 6082,
      "Ġjoukama": 6083,
      "Ġmaken": 6084,
      "itab": 6085,
      "celer": 6086,
      "Ġdouryou": 6087,
      "legal": 6088,
      "Ġslip": 6089,
      "Ġacceler": 6090,
      "Ġgaiden": 6091,
      "Ġlovely": 6092,
      "istmas": 6093,
      "Ġyoukai": 6094,
      "Ġarterial": 6095,
      "Ġeli": 6096,
      "asekai": 6097,
      "Ġechoes": 6098,
      "rors": 6099,
      "Ġishu": 6100,
      "Ġclouds": 6101,
      "ocho": 6102,
      "Ġshrine": 6103,
      "Ġuq": 6104,
      "Ġasaga": 6105,
      "elicot": 6106,
      "quelicot": 6107,
      "umst": 6108,
      "Ġhound": 6109,
      "Ġita": 6110,
      "Ġitteiru": 6111,
      "Ġencho": 6112,
      "Ġencore": 6113,
      "kyaku": 6114,
      "Ġsinners": 6115,
      "Ġnekom": 6116,
      "Ġdefeated": 6117,
      "ikiss": 6118,
      "ikuma": 6119,
      "stop": 6120,
      "Ġonizu": 6121,
      "Ġsenkyo": 6122,
      "Ġshigu": 6123,
      "Ġshikab": 6124,
      "Ġshiunji": 6125,
      "Ġclosed": 6126,
      "kui": 6127,
      "monaut": 6128,
      "Ġtsue": 6129,
      "Ġtsukeru": 6130,
      "endom": 6131,
      "Ġsajou": 6132,
      "Ġkoori": 6133,
      "Ġgugure": 6134,
      "Ġtenka": 6135,
      "Ġkamen": 6136,
      "Ġdailiren": 6137,
      "jouou": 6138,
      "Ġtekkon": 6139,
      "Ġtekketsu": 6140,
      "Ġkimikiss": 6141,
      "Ġdivine": 6142,
      "channel": 6143,
      "Ġsaka": 6144,
      "Ġgodfather": 6145,
      "Ġkouhai": 6146,
      "agaeru": 6147,
      "Ġtakarab": 6148,
      "Ġkaibutsu": 6149,
      "pping": 6150,
      "Ġdanna": 6151,
      "Ġ40": 6152,
      "urugi": 6153,
      "Ġstarting": 6154,
      "Ġelusive": 6155,
      "Ġaoshi": 6156,
      "Ġaoharu": 6157,
      "Ġheion": 6158,
      "Ġuniverse": 6159,
      "Ġgenjits": 6160,
      "Ġchiisai": 6161,
      "Ġrendering": 6162,
      "Ġkannagi": 6163,
      "eiro": 6164,
      "Ġjunjo": 6165,
      "Ġcoquelicot": 6166,
      "Ġlaugh": 6167,
      "Ġgekai": 6168,
      "Ġarcade": 6169,
      "Ġheavenly": 6170,
      "Ġmirrors": 6171,
      "Ġendless": 6172,
      "Ġkujir": 6173,
      "Ġresurrection": 6174,
      "Ġplanetes": 6175,
      "Ġirina": 6176,
      "Ġboukyaku": 6177,
      "Ġkokkuri": 6178,
      "Ġfruit": 6179,
      "Ġreiketsu": 6180,
      "Ġurara": 6181,
      "Ġurasekai": 6182,
      "Ġfujouou": 6183,
      "Ġshokudou": 6184,
      "Ġtsurugi": 6185,
      "Ġfuuka": 6186,
      "Ġhajimete": 6187,
      "Ġgluttony": 6188,
      "Ġmerry": 6189,
      "Ġkonkon": 6190,
      "Ġgrandchild": 6191,
      "Ġnonstop": 6192,
      "Ġryuusui": 6193,
      "lined": 6194,
      "extra": 6195,
      "Ġbuso": 6196,
      "Ġclevat": 6197,
      "Ġashes": 6198,
      "usions": 6199,
      "Ġsummoner": 6200,
      "Ġwakaranai": 6201,
      "Ġwakagaeru": 6202,
      "Ġdandelion": 6203,
      "Ġtabitab": 6204,
      "Ġidaten": 6205,
      "Ġchop": 6206,
      "Ġhaireru": 6207,
      "Ġyurikuma": 6208,
      "Ġzouroku": 6209,
      "Ġmaidens": 6210,
      "Ġsomaru": 6211,
      "Ġmachinegun": 6212,
      "Ġchristmas": 6213,
      "Ġtsuuhan": 6214,
      "Ġrokuon": 6215,
      "Ġnisemonogatari": 6216,
      "Ġbackflip": 6217,
      "Ġgokukoku": 6218,
      "Ġwasureta": 6219,
      "Ġfarming": 6220,
      "ushugisha": 6221,
      "Ġyumemiru": 6222,
      "Ġyumekui": 6223,
      "Ġhanamonogatari": 6224,
      "Ġcircumst": 6225,
      "Ġweathering": 6226,
      "Ġhealing": 6227,
      "Ġjihen": 6228,
      "Ġjiisan": 6229,
      "Ġillegal": 6230,
      "Ġkakumeiki": 6231,
      "Ġgeneric": 6232,
      "Ġkuragehime": 6233,
      "Ġkusuri": 6234,
      "Ġguys": 6235,
      "Ġcarole": 6236,
      "Ġvigilante": 6237,
      "Ġcrazy": 6238,
      "Ġdeclined": 6239,
      "shopping": 6240,
      "Ġqueendom": 6241,
      "Ġvillainess": 6242,
      "Ġmushibugyou": 6243,
      "Ġgokudols": 6244,
      "Ġoccultic": 6245,
      "Ġillusions": 6246,
      "Ġchinmoku": 6247,
      "Ġmashimaro": 6248,
      "Ġeveryday": 6249,
      "Ġgosick": 6250,
      "Ġgospel": 6251,
      "Ġfortress": 6252,
      "Ġfortune": 6253,
      "Ġtuesday": 6254,
      "Ġwasteland": 6255,
      "Ġfurther": 6256,
      "Ġoniichan": 6257,
      "hakusho": 6258,
      "nhildr": 6259,
      "âĢł": 6260,
      "âĹĨ": 6261,
      "Ġholder": 6262,
      "Ġandroid": 6263,
      "Ġitsuwari": 6264,
      "Ġbrynhildr": 6265,
      "Ġmongolian": 6266,
      "Ġakaneiro": 6267,
      "Ġcosmonaut": 6268,
      "Ġchoujin": 6269,
      "Ġromeo": 6270,
      "Ġhirowareta": 6271,
      "Ġhumanity": 6272,
      "Ġhelck": 6273,
      "Ġmeirocho": 6274,
      "Ġrequiem": 6275,
      "Ġkatsute": 6276,
      "Ġkinkreet": 6277,
      "Ġokinimesu": 6278,
      "Ġshoushimin": 6279,
      "Ġjoukamachi": 6280,
      "Ġaccelerator": 6281,
      "Ġelise": 6282,
      "Ġishuzoku": 6283,
      "Ġasagao": 6284,
      "Ġenchousen": 6285,
      "Ġnekomonogatari": 6286,
      "Ġonizuka": 6287,
      "Ġshiguang": 6288,
      "Ġshikabane": 6289,
      "Ġgodfathers": 6290,
      "Ġtakarabako": 6291,
      "Ġgenjitsushugisha": 6292,
      "Ġlaughing": 6293,
      "Ġkujira": 6294,
      "Ġclevatess": 6295,
      "Ġtabitabi": 6296,
      "Ġcircumstances": 6297,
      "Ġillegals": 6298,
      "?.": 6299,
      "avor": 6300,
      "bura": 6301,
      "bini": 6302,
      "brain": 6303,
      "ci": 6304,
      "cur": 6305,
      "curi": 6306,
      "duku": 6307,
      "face": 6308,
      "fron": 6309,
      "gana": 6310,
      "gare": 6311,
      "gakuro": 6312,
      "hx": 6313,
      "iest": 6314,
      "ijik": 6315,
      "jisama": 6316,
      "koru": 6317,
      "lector": 6318,
      "more": 6319,
      "mallow": 6320,
      "nity": 6321,
      "ose": 6322,
      "ozuki": 6323,
      "ogare": 6324,
      "py": 6325,
      "pec": 6326,
      "phan": 6327,
      "pful": 6328,
      "rant": 6329,
      "rus": 6330,
      "sw": 6331,
      "ten": 6332,
      "tai": 6333,
      "wat": 6334,
      "xoss": 6335,
      "xcuri": 6336,
      "ymp": 6337,
      "Ġske": 6338,
      "Ġsymp": 6339,
      "Ġansw": 6340,
      "inar": 6341,
      "inary": 6342,
      "Ġwri": 6343,
      "oral": 6344,
      "eres": 6345,
      "Ġnura": 6346,
      "Ġira": 6347,
      "Ġibun": 6348,
      "Ġiwat": 6349,
      "Ġband": 6350,
      "Ġbian": 6351,
      "Ġnokoru": 6352,
      "Ġmuy": 6353,
      "Ġmijik": 6354,
      "ingxion": 6355,
      "Ġage": 6356,
      "Ġfush": 6357,
      "Ġfuro": 6358,
      "Ġcit": 6359,
      "Ġcond": 6360,
      "Ġcalle": 6361,
      "Ġdone": 6362,
      "Ġgok": 6363,
      "enchi": 6364,
      "enase": 6365,
      "asogare": 6366,
      "Ġtunn": 6367,
      "Ġtatt": 6368,
      "Ġtasogare": 6369,
      "Ġhel": 6370,
      "onance": 6371,
      "Ġpom": 6372,
      "Ġpoko": 6373,
      "Ġwixoss": 6374,
      "eshi": 6375,
      "urage": 6376,
      "Ġreite": 6377,
      "Ġrekishi": 6378,
      "ilisk": 6379,
      "Ġkocchi": 6380,
      "Ġthose": 6381,
      "Ġtheres": 6382,
      "Ġorphan": 6383,
      "Ġorenchi": 6384,
      "Ġnotes": 6385,
      "usume": 6386,
      "usunda": 6387,
      "Ġsever": 6388,
      "Ġself": 6389,
      "Ġselector": 6390,
      "Ġsukun": 6391,
      "terview": 6392,
      "sell": 6393,
      "nda": 6394,
      "amusume": 6395,
      "Ġshoshim": 6396,
      "Ġdramat": 6397,
      "obi": 6398,
      "Ġmaji": 6399,
      "Ġmakyou": 6400,
      "Ġmakenai": 6401,
      "Ġmabura": 6402,
      "Ġchap": 6403,
      "Ġyokai": 6404,
      "Ġyingxion": 6405,
      "Ġdoku": 6406,
      "Ġdousunda": 6407,
      "hip": 6408,
      "Ġinters": 6409,
      "Ġinfect": 6410,
      "Ġinterview": 6411,
      "Ġslam": 6412,
      "Ġacchi": 6413,
      "Ġloveless": 6414,
      "Ġseto": 6415,
      "Ġseton": 6416,
      "Ġ200": 6417,
      "Ġblock": 6418,
      "Ġblaz": 6419,
      "Ġmilos": 6420,
      "Ġskies": 6421,
      "ephon": 6422,
      "agrant": 6423,
      "Ġhighway": 6424,
      "Ġclan": 6425,
      "Ġclay": 6426,
      "Ġswim": 6427,
      "roiro": 6428,
      "Ġhoozuki": 6429,
      "Ġhonda": 6430,
      "Ġito": 6431,
      "Ġenco": 6432,
      "Ġdiscre": 6433,
      "Ġdisci": 6434,
      "Ġfragrant": 6435,
      "Ġbattlefron": 6436,
      "Ġdegu": 6437,
      "Ġamagi": 6438,
      "keyo": 6439,
      "Ġraitai": 6440,
      "Ġrahx": 6441,
      "Ġheroic": 6442,
      "Ġsenryuu": 6443,
      "Ġshiki": 6444,
      "Ġshigurui": 6445,
      "Ġhonoo": 6446,
      "Ġgirlish": 6447,
      "Ġsaish": 6448,
      "Ġsavers": 6449,
      "Ġkoushi": 6450,
      "Ġdonten": 6451,
      "Ġtenchi": 6452,
      "jinai": 6453,
      "Ġyoichi": 6454,
      "Ġkenka": 6455,
      "Ġshinsekai": 6456,
      "Ġshinasai": 6457,
      "Ġkimura": 6458,
      "oyo": 6459,
      "Ġkoujou": 6460,
      "Ġkoubou": 6461,
      "Ġbasilisk": 6462,
      "Ġflavor": 6463,
      "Ġoujisama": 6464,
      "Ġstarry": 6465,
      "Ġelite": 6466,
      "Ġtenseiki": 6467,
      "denashi": 6468,
      "fudou": 6469,
      "Ġheiki": 6470,
      "rui": 6471,
      "shmallow": 6472,
      "Ġbooksell": 6473,
      "Ġdignity": 6474,
      "Ġmarshmallow": 6475,
      "Ġredline": 6476,
      "Ġsuitai": 6477,
      "Ġpieces": 6478,
      "Ġfutoku": 6479,
      "Ġjunketsu": 6480,
      "Ġryokou": 6481,
      "Ġtomoyo": 6482,
      "Ġresonance": 6483,
      "bling": 6484,
      "2018": 6485,
      "Ġdunk": 6486,
      "Ġkareshi": 6487,
      "Ġkokkoku": 6488,
      "Ġedition": 6489,
      "Ġtouhou": 6490,
      "leton": 6491,
      "Ġfukan": 6492,
      "Ġgunjou": 6493,
      "Ġhakken": 6494,
      "Ġfuukei": 6495,
      "Ġcooler": 6496,
      "Ġrumbling": 6497,
      "Ġimmoral": 6498,
      "breaker": 6499,
      "Ġfox": 6500,
      "Ġkonbini": 6501,
      "Ġlogic": 6502,
      "Ġbrain": 6503,
      "Ġmurenase": 6504,
      "Ġbecome": 6505,
      "Ġryuo": 6506,
      "Ġpoppy": 6507,
      "excur": 6508,
      "Ġtensura": 6509,
      "Ġiroduku": 6510,
      "Ġtaboo": 6511,
      "Ġsolo": 6512,
      "Ġepic": 6513,
      "Ġumamusume": 6514,
      "Ġyuragi": 6515,
      "Ġhimegoto": 6516,
      "Ġhanda": 6517,
      "Ġhands": 6518,
      "Ġjinrui": 6519,
      "Ġtsuugakuro": 6520,
      "Ġtsuujinai": 6521,
      "Ġedens": 6522,
      "Ġskull": 6523,
      "Ġrokudenashi": 6524,
      "Ġshimashita": 6525,
      "Ġakujo": 6526,
      "hony": 6527,
      "Ġgeminar": 6528,
      "ushufudou": 6529,
      "Ġleveling": 6530,
      "Ġfleet": 6531,
      "Ġmightiest": 6532,
      "Ġwarau": 6533,
      "Ġorigination": 6534,
      "Ġzankyou": 6535,
      "Ġarukeyo": 6536,
      "Ġjijou": 6537,
      "Ġordinary": 6538,
      "Ġzettai": 6539,
      "Ġdangers": 6540,
      "Ġmotete": 6541,
      "Ġshelter": 6542,
      "Ġstanding": 6543,
      "sedxcuri": 6544,
      "Ġmaoyu": 6545,
      "Ġnerawareta": 6546,
      "Ġpenguin": 6547,
      "Ġcubexcur": 6548,
      "Ġscroll": 6549,
      "Ġmitsugana": 6550,
      "Ġmashiba": 6551,
      "Ġmashiroiro": 6552,
      "Ġkokuin": 6553,
      "Ġkokuki": 6554,
      "Ġburning": 6555,
      "Ġsekirei": 6556,
      "Ġbattleship": 6557,
      "pecies": 6558,
      "Ġskeleton": 6559,
      "Ġsymphony": 6560,
      "Ġanswer": 6561,
      "Ġwriter": 6562,
      "Ġirae": 6563,
      "Ġiwatobi": 6564,
      "Ġmuyo": 6565,
      "Ġmijikashi": 6566,
      "Ġfushisha": 6567,
      "Ġcitrus": 6568,
      "Ġcondition": 6569,
      "Ġcalled": 6570,
      "Ġgokushufudou": 6571,
      "Ġtunnel": 6572,
      "Ġtattoo": 6573,
      "Ġhelpful": 6574,
      "uragement": 6575,
      "Ġreitetsu": 6576,
      "Ġtherese": 6577,
      "Ġorphans": 6578,
      "Ġsevering": 6579,
      "Ġsukunai": 6580,
      "Ġshoshimin": 6581,
      "Ġdramatical": 6582,
      "Ġmaburaho": 6583,
      "Ġchapter": 6584,
      "Ġyingxiong": 6585,
      "Ġdokugaku": 6586,
      "Ġinterspecies": 6587,
      "Ġinfected": 6588,
      "Ġinterviews": 6589,
      "Ġ2000": 6590,
      "Ġblockade": 6591,
      "Ġblazers": 6592,
      "Ġclaymore": 6593,
      "Ġencouragement": 6594,
      "Ġdiscretion": 6595,
      "Ġdisciple": 6596,
      "Ġbattlefront": 6597,
      "Ġdeguchi": 6598,
      "Ġrahxephon": 6599,
      "Ġsaishuu": 6600,
      "Ġflavors": 6601,
      "Ġbookseller": 6602,
      "sedxcurious": 6603,
      "Ġcubexcursedxcurious": 6604,
      "Ġmitsuganae": 6605,
      "ault": 6606,
      "bb": 6607,
      "dive": 6608,
      "ets": 6609,
      "eful": 6610,
      "fit": 6611,
      "gon": 6612,
      "hit": 6613,
      "hate": 6614,
      "ifer": 6615,
      "ikyuu": 6616,
      "kashi": 6617,
      "kutsu": 6618,
      "kago": 6619,
      "luck": 6620,
      "mad": 6621,
      "mate": 6622,
      "nia": 6623,
      "oth": 6624,
      "ram": 6625,
      "sensei": 6626,
      "uusei": 6627,
      "vant": 6628,
      "yoku": 6629,
      "zar": 6630,
      "zoman": 6631,
      "Ïī": 6632,
      "Ġush": 6633,
      "Ġere": 6634,
      "ĠÏī": 6635,
      "Ġsaw": 6636,
      "Ġsare": 6637,
      "Ġsix": 6638,
      "inum": 6639,
      "inawareta": 6640,
      "Ġwra": 6641,
      "arine": 6642,
      "erer": 6643,
      "erad": 6644,
      "Ġiya": 6645,
      "Ġiwa": 6646,
      "Ġixion": 6647,
      "Ġbund": 6648,
      "Ġnomad": 6649,
      "Ġnozoman": 6650,
      "Ġmis": 6651,
      "Ġmora": 6652,
      "Ġmise": 6653,
      "kegurui": 6654,
      "utan": 6655,
      "utou": 6656,
      "Ġaok": 6657,
      "antsu": 6658,
      "Ġdt": 6659,
      "Ġdus": 6660,
      "Ġdore": 6661,
      "Ġdum": 6662,
      "Ġrul": 6663,
      "Ġgt": 6664,
      "Ġgle": 6665,
      "Ġgush": 6666,
      "Ġgerad": 6667,
      "houtou": 6668,
      "Ġtown": 6669,
      "Ġtond": 6670,
      "omeshi": 6671,
      "omete": 6672,
      "Ġpub": 6673,
      "atinum": 6674,
      "Ġmeikyuu": 6675,
      "esse": 6676,
      "omiya": 6677,
      "uren": 6678,
      "Ġrever": 6679,
      "Ġretsu": 6680,
      "Ġregre": 6681,
      "Ġkire": 6682,
      "ĠkÃ¤": 6683,
      "Ġkilo": 6684,
      "Ġkantai": 6685,
      "Ġthree": 6686,
      "Ġgig": 6687,
      "Ġtopp": 6688,
      "Ġseiy": 6689,
      "imai": 6690,
      "Ġshoot": 6691,
      "unin": 6692,
      "Ġjib": 6693,
      "ecary": 6694,
      "itters": 6695,
      "itosho": 6696,
      "Ġyad": 6697,
      "Ġyears": 6698,
      "adin": 6699,
      "Ġcomet": 6700,
      "Ġlover": 6701,
      "Ġacross": 6702,
      "isto": 6703,
      "akunin": 6704,
      "Ġsport": 6705,
      "Ġhori": 6706,
      "Ġanohana": 6707,
      "Ġmoteru": 6708,
      "quet": 6709,
      "live": 6710,
      "Ġzare": 6711,
      "Ġzatch": 6712,
      "Ġmenu": 6713,
      "aries": 6714,
      "iga": 6715,
      "Ġamagami": 6716,
      "Ġwhere": 6717,
      "Ġwhisk": 6718,
      "Ġonimai": 6719,
      "Ġplund": 6720,
      "Ġplatinum": 6721,
      "Ġgetback": 6722,
      "Ġvesse": 6723,
      "jikai": 6724,
      "Ġtsuyoku": 6725,
      "Ġsavant": 6726,
      "Ġkoisuru": 6727,
      "Ġ10": 6728,
      "Ġtengen": 6729,
      "Ġhaou": 6730,
      "iteiru": 6731,
      "Ġkao": 6732,
      "Ġkakegurui": 6733,
      "Ġdaitosho": 6734,
      "Ġyofu": 6735,
      "Ġshinkou": 6736,
      "Ġdiaries": 6737,
      "Ġsaihate": 6738,
      "Ġcristo": 6739,
      "Ġmonte": 6740,
      "Ġdances": 6741,
      "Ġougon": 6742,
      "Ġaoiro": 6743,
      "Ġprincip": 6744,
      "Ġunluck": 6745,
      "shu": 6746,
      "Ġ03": 6747,
      "Ġshingets": 6748,
      "ainst": 6749,
      "Ġtake": 6750,
      "Ġlazar": 6751,
      "Ġconfl": 6752,
      "Ġbouquet": 6753,
      "Ġnagara": 6754,
      "Ġfuiteiru": 6755,
      "Ġcold": 6756,
      "gotozukai": 6757,
      "Ġultram": 6758,
      "Ġlucifer": 6759,
      "Ġbrave": 6760,
      "Ġbraves": 6761,
      "Ġbakuten": 6762,
      "ipnir": 6763,
      "Ġseeds": 6764,
      "Ġtoday": 6765,
      "Ġkesshoutou": 6766,
      "Ġroommate": 6767,
      "Ġtabi": 6768,
      "Ġinukai": 6769,
      "Ġninomiya": 6770,
      "Ġapoth": 6771,
      "mentar": 6772,
      "Ġviral": 6773,
      "Ġmayoiga": 6774,
      "Ġhoukago": 6775,
      "Ġmiyamura": 6776,
      "Ġhyakuren": 6777,
      "Ġpeeps": 6778,
      "crisis": 6779,
      "Ġassault": 6780,
      "Ġmikakunin": 6781,
      "Ġxyz": 6782,
      "Ġmotomete": 6783,
      "Ġhitsujikai": 6784,
      "Ġopantsu": 6785,
      "Ġteiou": 6786,
      "Ġzenshu": 6787,
      "Ġfoolish": 6788,
      "Ġdoukyuusei": 6789,
      "Ġinsomnia": 6790,
      "Ġgankutsu": 6791,
      "Ġentei": 6792,
      "Ġpaladin": 6793,
      "Ġbabysitters": 6794,
      "Ġwasteful": 6795,
      "mpfer": 6796,
      "Ġsekiryuu": 6797,
      "Ġclimbing": 6798,
      "Ġgenerations": 6799,
      "Ġagainst": 6800,
      "Ġtutu": 6801,
      "bbell": 6802,
      "Ġushinawareta": 6803,
      "Ġerementar": 6804,
      "Ġwrath": 6805,
      "Ġnozomanu": 6806,
      "Ġmisfit": 6807,
      "Ġmoraitai": 6808,
      "Ġmisete": 6809,
      "Ġaokana": 6810,
      "Ġdusk": 6811,
      "Ġdorei": 6812,
      "Ġdumbbell": 6813,
      "Ġrules": 6814,
      "Ġgleipnir": 6815,
      "Ġgushing": 6816,
      "Ġtondemo": 6817,
      "Ġpublic": 6818,
      "Ġreverie": 6819,
      "Ġretsujitsu": 6820,
      "Ġregrets": 6821,
      "Ġkirei": 6822,
      "ĠkÃ¤mpfer": 6823,
      "Ġtoppa": 6824,
      "Ġseiyaku": 6825,
      "Ġjibaku": 6826,
      "Ġyadomeshi": 6827,
      "Ġzaregotozukai": 6828,
      "Ġwhisker": 6829,
      "Ġplunderer": 6830,
      "Ġgetbackers": 6831,
      "Ġvessels": 6832,
      "Ġdaitoshokan": 6833,
      "Ġyofukashi": 6834,
      "Ġshinkoukei": 6835,
      "Ġougonkyou": 6836,
      "Ġprincipal": 6837,
      "Ġshingetsutan": 6838,
      "Ġlazarus": 6839,
      "Ġconflict": 6840,
      "Ġultramarine": 6841,
      "Ġapothecary": 6842,
      "Ġgankutsuou": 6843,
      "91": 6844,
      "dust": 6845,
      "ey": 6846,
      "eed": 6847,
      "hah": 6848,
      "ifu": 6849,
      "iisan": 6850,
      "la": 6851,
      "lod": 6852,
      "mpai": 6853,
      "not": 6854,
      "para": 6855,
      "pact": 6856,
      "sai": 6857,
      "Ġunn": 6858,
      "Ġ91": 6859,
      "anxx": 6860,
      "Ġsle": 6861,
      "oran": 6862,
      "Ġnobor": 6863,
      "utte": 6864,
      "Ġfashi": 6865,
      "Ġcen": 6866,
      "Ġcifu": 6867,
      "Ġbutlers": 6868,
      "asou": 6869,
      "Ġtian": 6870,
      "alia": 6871,
      "Ġhet": 6872,
      "oniisan": 6873,
      "Ġpil": 6874,
      "ato": 6875,
      "Ġmelod": 6876,
      "ics": 6877,
      "owed": 6878,
      "Ġkong": 6879,
      "ouin": 6880,
      "Ġsempai": 6881,
      "amichi": 6882,
      "ions": 6883,
      "Ġjoran": 6884,
      "obako": 6885,
      "Ġmai": 6886,
      "Ġchan": 6887,
      "Ġspeed": 6888,
      "Ġshowa": 6889,
      "kiku": 6890,
      "reig": 6891,
      "ooks": 6892,
      "Ġef": 6893,
      "abutte": 6894,
      "Ġclima": 6895,
      "suga": 6896,
      "Ġrobotics": 6897,
      "Ġshang": 6898,
      "elve": 6899,
      "Ġgraph": 6900,
      "Ġtwelve": 6901,
      "Ġniji": 6902,
      "Ġfranxx": 6903,
      "Ġtrip": 6904,
      "Ġdeai": 6905,
      "ikabutte": 6906,
      "ushaku": 6907,
      "Ġraita": 6908,
      "Ġsenkan": 6909,
      "!!.": 6910,
      "Ġvict": 6911,
      "Ġguan": 6912,
      "Ġ11": 6913,
      "Ġtenjou": 6914,
      "Ġhaken": 6915,
      "Ġyousei": 6916,
      "Ġyosuga": 6917,
      "Ġshinju": 6918,
      "Ġshinreig": 6919,
      "Ġhanbun": 6920,
      "Ġlonger": 6921,
      "Ġcrooks": 6922,
      "amed": 6923,
      "Ġkaiba": 6924,
      "Ġdansai": 6925,
      "Ġoverfl": 6926,
      "Ġbunri": 6927,
      "Ġgenroku": 6928,
      "Ġchivalry": 6929,
      "Ġutena": 6930,
      "Ġartist": 6931,
      "Ġspiritpact": 6932,
      "Ġbounen": 6933,
      "Ġfiles": 6934,
      "Ġtale": 6935,
      "Ġuramichi": 6936,
      "Ġmemory": 6937,
      "Ġnekopara": 6938,
      "Ġokami": 6939,
      "Ġhakusho": 6940,
      "Ġhakushaku": 6941,
      "Ġdiamonddust": 6942,
      "Ġkobato": 6943,
      "Ġkikan": 6944,
      "Ġchrono": 6945,
      "Ġrakugo": 6946,
      "Ġshirobako": 6947,
      "Ġallowed": 6948,
      "Ġookiku": 6949,
      "Ġtsurego": 6950,
      "Ġladies": 6951,
      "Ġversus": 6952,
      "istants": 6953,
      "âĻ¥,": 6954,
      "Ġboring": 6955,
      "Ġassistants": 6956,
      "Ġmotokano": 6957,
      "Ġsakurasou": 6958,
      "Ġcompanions": 6959,
      "Ġsentouin": 6960,
      "Ġfailed": 6961,
      "Ġmamahah": 6962,
      "Ġfurikabutte": 6963,
      "Ġoniisan": 6964,
      "Ġxamdou": 6965,
      "coroll": 6966,
      "eyes": 6967,
      "notes": 6968,
      "Ġunnamed": 6969,
      "Ġsleepy": 6970,
      "Ġnoboru": 6971,
      "Ġcencoroll": 6972,
      "Ġhetalia": 6973,
      "Ġpilot": 6974,
      "Ġmelodies": 6975,
      "Ġkongming": 6976,
      "Ġclimax": 6977,
      "Ġshangri": 6978,
      "Ġgrapher": 6979,
      "Ġnijiiro": 6980,
      "Ġraitaisai": 6981,
      "Ġvictory": 6982,
      "Ġshinreigari": 6983,
      "Ġoverflow": 6984,
      "Ġmamahaha": 6985,
      "!-,": 6986,
      "fish": 6987,
      "ii": 6988,
      "ks": 6989,
      "kakusha": 6990,
      "pire": 6991,
      "prin": 6992,
      "rs": 6993,
      "ukai": 6994,
      "ying": 6995,
      "zda": 6996,
      "âģ": 6997,
      "anze": 6998,
      "ort": 6999,
      "orable": 7000,
      "aren": 7001,
      "arenai": 7002,
      "Ġnobo": 7003,
      "Ġmun": 7004,
      "Ġaos": 7005,
      "Ġfist": 7006,
      "Ġdella": 7007,
      "Ġgx": 7008,
      "Ġlikes": 7009,
      "vezda": 7010,
      "Ġstoria": 7011,
      "ouble": 7012,
      "Ġjel": 7013,
      "Ġadorable": 7014,
      "Ġyomi": 7015,
      "lyfish": 7016,
      "Ġromanze": 7017,
      "Ġmyri": 7018,
      "Ġgamers": 7019,
      "Ġshort": 7020,
      "Ġzvezda": 7021,
      "Ġsinks": 7022,
      "ntsukai": 7023,
      "Ġtearmoon": 7024,
      "batsu": 7025,
      "Ġparano": 7026,
      "Ġparade": 7027,
      "kotsu": 7028,
      "Ġramen": 7029,
      "arding": 7030,
      "Ġsenbatsu": 7031,
      "kaido": 7032,
      "Ġtsugai": 7033,
      "opii": 7034,
      "Ġstride": 7035,
      "Ġshinkakusha": 7036,
      "Ġmakentsukai": 7037,
      "Ġhunt": 7038,
      "Ġsakana": 7039,
      "Ġanimal": 7040,
      "Ġtakopii": 7041,
      "Ġmusuko": 7042,
      "Ġuncle": 7043,
      "Ġbungaku": 7044,
      "Ġundying": 7045,
      "Ġgenzai": 7046,
      "Ġbrand": 7047,
      "Ġtrouble": 7048,
      "Ġjuni": 7049,
      "unetsu": 7050,
      "Ġarte": 7051,
      "Ġalchemic": 7052,
      "Ġgals": 7053,
      "Ġbouryaku": 7054,
      "Ġboarding": 7055,
      "Ġshuushou": 7056,
      "Ġbroken": 7057,
      "Ġtonkotsu": 7058,
      "Ġsousei": 7059,
      "Ġranma": 7060,
      "Ġappears": 7061,
      "Ġhakata": 7062,
      "Ġhakarenai": 7063,
      "Ġempire": 7064,
      "Ġsquid": 7065,
      "Ġnorth": 7066,
      "Ġpico": 7067,
      "Ġkyuudou": 7068,
      "timer": 7069,
      "Ġwalkure": 7070,
      "Ġcomplete": 7071,
      "Ġhokkaido": 7072,
      "Ġshakunetsu": 7073,
      "Ġotherside": 7074,
      "Ġaharen": 7075,
      "Ġphoto": 7076,
      "Ġfootprin": 7077,
      "Ġagent": 7078,
      "âģĦ": 7079,
      "Ġnobody": 7080,
      "Ġmunou": 7081,
      "Ġaosa": 7082,
      "Ġjellyfish": 7083,
      "Ġmyriad": 7084,
      "Ġparanoia": 7085,
      "Ġramens": 7086,
      "Ġtroubled": 7087,
      "Ġfootprints": 7088,
      "ding": 7089,
      "eid": 7090,
      "hito": 7091,
      "lant": 7092,
      "ruction": 7093,
      "ycor": 7094,
      "zard": 7095,
      "~,": 7096,
      "Ġwed": 7097,
      "Ġlycor": 7098,
      "Ġnam": 7099,
      "Ġmok": 7100,
      "anteid": 7101,
      "Ġflip": 7102,
      "Ġroy": 7103,
      "Ġround": 7104,
      "hounen": 7105,
      "Ġtanteid": 7106,
      "Ġhiy": 7107,
      "onkishi": 7108,
      "Ġwizard": 7109,
      "Ġkick": 7110,
      "Ġtokei": 7111,
      "pers": 7112,
      "Ġjash": 7113,
      "Ġrecoil": 7114,
      "Ġchamp": 7115,
      "Ġyase": 7116,
      "Ġyonkishi": 7117,
      "Ġdosan": 7118,
      "Ġarawareta": 7119,
      "Ġoutbreak": 7120,
      "Ġmenkoi": 7121,
      "!!;": 7122,
      "!!?": 7123,
      "ushiroku": 7124,
      "appers": 7125,
      "anohito": 7126,
      "Ġatlant": 7127,
      "jouhan": 7128,
      "Ġyojouhan": 7129,
      "Ġshinwa": 7130,
      "Ġkoukyuu": 7131,
      "okoi": 7132,
      "Ġsaikai": 7133,
      "Ġflappers": 7134,
      "kyouchuu": 7135,
      "Ġunif": 7136,
      "Ġgenome": 7137,
      "Ġangeloid": 7138,
      "Ġchildhood": 7139,
      "Ġtaikei": 7140,
      "Ġkarasu": 7141,
      "Ġbishounen": 7142,
      "...,": 7143,
      "Ġdestruction": 7144,
      "Ġtable": 7145,
      "Ġuso": 7146,
      "jikake": 7147,
      "jikkyouchuu": 7148,
      "Ġnakanohito": 7149,
      ".\",": 7150,
      "Ġtutor": 7151,
      "Ġwedding": 7152,
      "Ġlycoris": 7153,
      "Ġnamara": 7154,
      "Ġmokushiroku": 7155,
      "Ġroyal": 7156,
      "Ġtanteidan": 7157,
      "Ġhiyokoi": 7158,
      "Ġwizards": 7159,
      "Ġkicker": 7160,
      "Ġtokeijikake": 7161,
      "Ġjashin": 7162,
      "Ġchampion": 7163,
      "Ġyasei": 7164,
      "Ġdosanko": 7165,
      "Ġatlantic": 7166,
      "Ġuniform": 7167,
      "\",": 7168,
      "-.": 7169,
      "Ġmorn": 7170,
      "kebit": 7171,
      "atter": 7172,
      "Ġkub": 7173,
      "Ġtojim": 7174,
      "ision": 7175,
      "agatter": 7176,
      "Ġmysteries": 7177,
      "Ġvision": 7178,
      "Ġkyud": 7179,
      "Ġsakebit": 7180,
      "Ġato": 7181,
      "Ġglories": 7182,
      "Ġirozuku": 7183,
      "Ġmorning": 7184,
      "Ġkubo": 7185,
      "Ġtojimari": 7186,
      "agatterunda": 7187,
      "Ġkyudo": 7188,
      "Ġsakebitagatterunda": 7189,
      "%,": 7190,
      "-;": 7191,
      "?:": 7192,
      "iod": 7193,
      "kashii": 7194,
      "Ġmits": 7195,
      "urano": 7196,
      "Ġchoro": 7197,
      "adono": 7198,
      "zukashii": 7199,
      "uboshi": 7200,
      "Ġangai": 7201,
      "Ġmuzukashii": 7202,
      "Ġbokurano": 7203,
      "Ġsanshimai": 7204,
      "Ġperiod": 7205,
      "Ġmikadono": 7206,
      "Ġwotaku": 7207,
      ":||,": 7208,
      "Ġmitsuboshi": 7209,
      "Ġchoroi": 7210,
      "?!,": 7211,
      "kado": 7212,
      "Ġmazoku": 7213,
      "Ġmachikado": 7214,
      "âĸ³,": 7215,
      "âĺħâĺħ,": 7216,
      "-?": 7217,
      "?;": 7218,
      "ied": 7219,
      "aged": 7220,
      "Ġunident": 7221,
      "ified": 7222,
      "Ġengaged": 7223,
      "Ġunidentified": 7224,
      "',": 7225,
      "],": 7226,
      "prise": 7227,
      "~.": 7228,
      "Ġsur": 7229,
      "!?.": 7230,
      "!??": 7231,
      "ĠâĻ¥,": 7232,
      "ĠâĻ¥;": 7233,
      "Ġsurprise": 7234
    },
    "merges": [
      [
        "a",
        "n"
      ],
      [
        "Ġ",
        "s"
      ],
      [
        "m",
        "e"
      ],
      [
        "Ġ",
        "an"
      ],
      [
        "i",
        "n"
      ],
      [
        "t",
        "h"
      ],
      [
        "Ġ",
        "w"
      ],
      [
        "o",
        "r"
      ],
      [
        "a",
        "r"
      ],
      [
        "Ġ",
        "l"
      ],
      [
        "e",
        "r"
      ],
      [
        "Ġ",
        "n"
      ],
      [
        "Ġan",
        "d"
      ],
      [
        "Ġ",
        "i"
      ],
      [
        "Ġ",
        "b"
      ],
      [
        "Ġn",
        "o"
      ],
      [
        "Ġ",
        "m"
      ],
      [
        "k",
        "e"
      ],
      [
        "in",
        "g"
      ],
      [
        "u",
        "t"
      ],
      [
        "Ġ",
        "a"
      ],
      [
        "an",
        "t"
      ],
      [
        "Ġ",
        "f"
      ],
      [
        "Ġl",
        "i"
      ],
      [
        "Ġ",
        "c"
      ],
      [
        "Ġ",
        "d"
      ],
      [
        "Ġ",
        "r"
      ],
      [
        "Ġ",
        "g"
      ],
      [
        "Ġli",
        "ke"
      ],
      [
        "e",
        "n"
      ],
      [
        "h",
        "o"
      ],
      [
        "Ġb",
        "ut"
      ],
      [
        "a",
        "s"
      ],
      [
        "Ġ",
        "t"
      ],
      [
        "a",
        "l"
      ],
      [
        "o",
        "me"
      ],
      [
        "Ġ",
        "h"
      ],
      [
        "o",
        "n"
      ],
      [
        "Ġ",
        "p"
      ],
      [
        "a",
        "t"
      ],
      [
        "t",
        "s"
      ],
      [
        "Ġw",
        "ant"
      ],
      [
        "Ġw",
        "i"
      ],
      [
        "Ġ",
        "me"
      ],
      [
        "Ġwi",
        "th"
      ],
      [
        "e",
        "s"
      ],
      [
        "th",
        "ing"
      ],
      [
        "i",
        "me"
      ],
      [
        "Ġan",
        "ime"
      ],
      [
        "o",
        "m"
      ],
      [
        "v",
        "e"
      ],
      [
        "i",
        "c"
      ],
      [
        "u",
        "r"
      ],
      [
        "o",
        "w"
      ],
      [
        "Ġr",
        "e"
      ],
      [
        "i",
        "l"
      ],
      [
        "Ġ",
        "k"
      ],
      [
        "Ġ",
        "th"
      ],
      [
        "Ġ",
        "or"
      ],
      [
        "Ġg",
        "i"
      ],
      [
        "Ġno",
        "t"
      ],
      [
        "Ġs",
        "ome"
      ],
      [
        "Ġsome",
        "thing"
      ],
      [
        "Ġt",
        "o"
      ],
      [
        "u",
        "s"
      ],
      [
        "i",
        "d"
      ],
      [
        "Ġs",
        "t"
      ],
      [
        "o",
        "l"
      ],
      [
        "Ġs",
        "c"
      ],
      [
        "o",
        "u"
      ],
      [
        "Ġs",
        "e"
      ],
      [
        "i",
        "m"
      ],
      [
        "Ġth",
        "e"
      ],
      [
        "g",
        "h"
      ],
      [
        "Ġlike",
        "d"
      ],
      [
        "Ġs",
        "u"
      ],
      [
        "t",
        "er"
      ],
      [
        "c",
        "h"
      ],
      [
        "Ġgi",
        "ve"
      ],
      [
        "s",
        "e"
      ],
      [
        "e",
        "m"
      ],
      [
        "n",
        "d"
      ],
      [
        "o",
        "o"
      ],
      [
        "a",
        "m"
      ],
      [
        "i",
        "s"
      ],
      [
        "Ġ",
        "o"
      ],
      [
        "i",
        "on"
      ],
      [
        "Ġs",
        "ho"
      ],
      [
        "u",
        "n"
      ],
      [
        "i",
        "gh"
      ],
      [
        "Ġd",
        "r"
      ],
      [
        "Ġs",
        "im"
      ],
      [
        "il",
        "ar"
      ],
      [
        "Ġsim",
        "ilar"
      ],
      [
        "v",
        "i"
      ],
      [
        "in",
        "d"
      ],
      [
        "p",
        "er"
      ],
      [
        "Ġ",
        "j"
      ],
      [
        "Ġsu",
        "per"
      ],
      [
        "Ġre",
        "c"
      ],
      [
        "a",
        "c"
      ],
      [
        "ow",
        "er"
      ],
      [
        "ic",
        "al"
      ],
      [
        "Ġst",
        "u"
      ],
      [
        "v",
        "o"
      ],
      [
        "ur",
        "e"
      ],
      [
        "Ġp",
        "ower"
      ],
      [
        "me",
        "nd"
      ],
      [
        "o",
        "b"
      ],
      [
        "ho",
        "ol"
      ],
      [
        "om",
        "mend"
      ],
      [
        "Ġrec",
        "ommend"
      ],
      [
        "Ġa",
        "vo"
      ],
      [
        "Ġavo",
        "id"
      ],
      [
        "Ġsc",
        "hool"
      ],
      [
        "or",
        "e"
      ],
      [
        "Ġa",
        "d"
      ],
      [
        "ar",
        "y"
      ],
      [
        "Ġm",
        "a"
      ],
      [
        "as",
        "t"
      ],
      [
        "Ġ",
        "vi"
      ],
      [
        "v",
        "en"
      ],
      [
        "f",
        "f"
      ],
      [
        "ob",
        "o"
      ],
      [
        "Ġc",
        "h"
      ],
      [
        "Ġr",
        "obo"
      ],
      [
        "Ġs",
        "p"
      ],
      [
        "Ġstu",
        "ff"
      ],
      [
        "Ġc",
        "ast"
      ],
      [
        "e",
        "c"
      ],
      [
        "i",
        "t"
      ],
      [
        "t",
        "ing"
      ],
      [
        "Ġ",
        "y"
      ],
      [
        "o",
        "ut"
      ],
      [
        "l",
        "y"
      ],
      [
        "am",
        "a"
      ],
      [
        "d",
        "y"
      ],
      [
        "a",
        "d"
      ],
      [
        "Ġc",
        "ome"
      ],
      [
        "Ġwith",
        "out"
      ],
      [
        "Ġsho",
        "w"
      ],
      [
        "k",
        "i"
      ],
      [
        "Ġo",
        "f"
      ],
      [
        "Ġvi",
        "b"
      ],
      [
        "Ġl",
        "o"
      ],
      [
        "c",
        "e"
      ],
      [
        "Ġvib",
        "es"
      ],
      [
        "Ġd",
        "o"
      ],
      [
        "t",
        "ion"
      ],
      [
        "ho",
        "l"
      ],
      [
        "a",
        "i"
      ],
      [
        "i",
        "al"
      ],
      [
        "h",
        "i"
      ],
      [
        "Ġch",
        "ar"
      ],
      [
        "ant",
        "as"
      ],
      [
        "Ġf",
        "antas"
      ],
      [
        "Ġfantas",
        "y"
      ],
      [
        "Ġh",
        "ar"
      ],
      [
        "ac",
        "ter"
      ],
      [
        "Ġchar",
        "acter"
      ],
      [
        "Ġpower",
        "s"
      ],
      [
        "Ġdr",
        "ama"
      ],
      [
        "Ġ",
        "in"
      ],
      [
        "Ġf",
        "or"
      ],
      [
        "Ġk",
        "id"
      ],
      [
        "Ġf",
        "igh"
      ],
      [
        "Ġhar",
        "em"
      ],
      [
        "en",
        "se"
      ],
      [
        "Ġkid",
        "s"
      ],
      [
        "l",
        "d"
      ],
      [
        "r",
        "e"
      ],
      [
        "l",
        "e"
      ],
      [
        "Ġs",
        "l"
      ],
      [
        "Ġcome",
        "dy"
      ],
      [
        "Ġa",
        "c"
      ],
      [
        "Ġg",
        "a"
      ],
      [
        "ar",
        "k"
      ],
      [
        "Ġrobo",
        "ts"
      ],
      [
        "Ġd",
        "ark"
      ],
      [
        "Ġm",
        "ore"
      ],
      [
        "Ġsl",
        "ow"
      ],
      [
        "us",
        "t"
      ],
      [
        "Ġr",
        "om"
      ],
      [
        "g",
        "ical"
      ],
      [
        "Ġj",
        "ust"
      ],
      [
        "Ġme",
        "ch"
      ],
      [
        "Ġf",
        "ind"
      ],
      [
        "Ġlo",
        "ve"
      ],
      [
        "oo",
        "k"
      ],
      [
        "u",
        "l"
      ],
      [
        "Ġse",
        "t"
      ],
      [
        "Ġset",
        "ting"
      ],
      [
        "e",
        "d"
      ],
      [
        "is",
        "t"
      ],
      [
        "a",
        "k"
      ],
      [
        "Ġy",
        "ou"
      ],
      [
        "ar",
        "t"
      ],
      [
        "Ġl",
        "ook"
      ],
      [
        "Ġlook",
        "ing"
      ],
      [
        "Ġm",
        "y"
      ],
      [
        "t",
        "ure"
      ],
      [
        "Ġad",
        "ven"
      ],
      [
        "v",
        "er"
      ],
      [
        "Ġga",
        "me"
      ],
      [
        "y",
        "thing"
      ],
      [
        "Ġadven",
        "ture"
      ],
      [
        "Ġan",
        "ything"
      ],
      [
        "e",
        "a"
      ],
      [
        "Ġc",
        "an"
      ],
      [
        "r",
        "i"
      ],
      [
        "Ġ",
        "2"
      ],
      [
        "s",
        "y"
      ],
      [
        "Ġsp",
        "or"
      ],
      [
        "Ġm",
        "at"
      ],
      [
        "Ġspor",
        "ts"
      ],
      [
        "Ġb",
        "l"
      ],
      [
        "Ġsc",
        "ary"
      ],
      [
        "ul",
        "t"
      ],
      [
        "n",
        "at"
      ],
      [
        "Ġp",
        "sy"
      ],
      [
        "Ġm",
        "il"
      ],
      [
        "ch",
        "i"
      ],
      [
        "Ġpsy",
        "c"
      ],
      [
        "un",
        "n"
      ],
      [
        "Ġmat",
        "ure"
      ],
      [
        "Ġgi",
        "ant"
      ],
      [
        "it",
        "ary"
      ],
      [
        "Ġmil",
        "itary"
      ],
      [
        "unn",
        "y"
      ],
      [
        "Ġh",
        "ist"
      ],
      [
        "Ġad",
        "ult"
      ],
      [
        "Ġhist",
        "or"
      ],
      [
        "Ġhistor",
        "ical"
      ],
      [
        "Ġf",
        "unny"
      ],
      [
        "as",
        "on"
      ],
      [
        "Ġse",
        "ason"
      ],
      [
        "ur",
        "al"
      ],
      [
        "Ġsuper",
        "nat"
      ],
      [
        "Ġsupernat",
        "ural"
      ],
      [
        "Ġgame",
        "s"
      ],
      [
        "o",
        "gical"
      ],
      [
        "hol",
        "ogical"
      ],
      [
        "Ġpsyc",
        "hological"
      ],
      [
        "Ġ",
        "ar"
      ],
      [
        "Ġs",
        "ki"
      ],
      [
        "Ġski",
        "p"
      ],
      [
        "oo",
        "d"
      ],
      [
        "Ġw",
        "or"
      ],
      [
        "Ġac",
        "tion"
      ],
      [
        "Ġ",
        "e"
      ],
      [
        "at",
        "ion"
      ],
      [
        "ec",
        "ial"
      ],
      [
        "Ġm",
        "ind"
      ],
      [
        "Ġth",
        "at"
      ],
      [
        "o",
        "k"
      ],
      [
        "e",
        "p"
      ],
      [
        "a",
        "g"
      ],
      [
        "s",
        "ter"
      ],
      [
        "as",
        "e"
      ],
      [
        "es",
        "t"
      ],
      [
        "d",
        "er"
      ],
      [
        "Ġh",
        "or"
      ],
      [
        "l",
        "s"
      ],
      [
        "Ġd",
        "at"
      ],
      [
        "th",
        "er"
      ],
      [
        "es",
        "s"
      ],
      [
        "or",
        "d"
      ],
      [
        "Ġwor",
        "ld"
      ],
      [
        "Ġh",
        "igh"
      ],
      [
        "f",
        "er"
      ],
      [
        "Ġ",
        "ec"
      ],
      [
        "r",
        "or"
      ],
      [
        "or",
        "y"
      ],
      [
        "Ġec",
        "chi"
      ],
      [
        "Ġhor",
        "ror"
      ],
      [
        "Ġi",
        "s"
      ],
      [
        "an",
        "ce"
      ],
      [
        "ver",
        "se"
      ],
      [
        "Ġst",
        "ory"
      ],
      [
        "Ġin",
        "t"
      ],
      [
        "Ġre",
        "verse"
      ],
      [
        "Ġs",
        "ad"
      ],
      [
        "Ġma",
        "g"
      ],
      [
        "a",
        "b"
      ],
      [
        "em",
        "o"
      ],
      [
        "Ġg",
        "ore"
      ],
      [
        "Ġj",
        "o"
      ],
      [
        "Ġs",
        "us"
      ],
      [
        "Ġdat",
        "ing"
      ],
      [
        "Ġmy",
        "ster"
      ],
      [
        "Ġmech",
        "a"
      ],
      [
        "in",
        "en"
      ],
      [
        "p",
        "ense"
      ],
      [
        "Ġsus",
        "pense"
      ],
      [
        "Ġfigh",
        "ting"
      ],
      [
        "Ġdr",
        "i"
      ],
      [
        "Ġse",
        "inen"
      ],
      [
        "Ġm",
        "art"
      ],
      [
        "Ġar",
        "ts"
      ],
      [
        "Ġmart",
        "ial"
      ],
      [
        "Ġ",
        "emo"
      ],
      [
        "tion",
        "al"
      ],
      [
        "Ġint",
        "ense"
      ],
      [
        "Ġmyster",
        "y"
      ],
      [
        "Ġemo",
        "tional"
      ],
      [
        "Ġc",
        "l"
      ],
      [
        "un",
        "en"
      ],
      [
        "Ġ",
        "ol"
      ],
      [
        "Ġsho",
        "unen"
      ],
      [
        "Ġrom",
        "ance"
      ],
      [
        "o",
        "c"
      ],
      [
        "Ġw",
        "hol"
      ],
      [
        "es",
        "ome"
      ],
      [
        "Ġwhol",
        "esome"
      ],
      [
        "Ġol",
        "der"
      ],
      [
        "Ġs",
        "w"
      ],
      [
        "Ġmag",
        "ic"
      ],
      [
        "Ġdri",
        "ven"
      ],
      [
        "s",
        "u"
      ],
      [
        "Ġsw",
        "ord"
      ],
      [
        "Ġh",
        "ea"
      ],
      [
        "s",
        "hi"
      ],
      [
        "Ġrom",
        "ant"
      ],
      [
        "Ġp",
        "le"
      ],
      [
        "Ġple",
        "ase"
      ],
      [
        "e",
        "t"
      ],
      [
        "Ġromant",
        "ic"
      ],
      [
        "Ġp",
        "re"
      ],
      [
        "Ġh",
        "as"
      ],
      [
        "on",
        "e"
      ],
      [
        "r",
        "o"
      ],
      [
        "v",
        "y"
      ],
      [
        "Ġhea",
        "vy"
      ],
      [
        "Ġb",
        "e"
      ],
      [
        "Ġpre",
        "fer"
      ],
      [
        "Ġrobo",
        "t"
      ],
      [
        "ou",
        "ld"
      ],
      [
        "Ġshow",
        "s"
      ],
      [
        "Ġan",
        "o"
      ],
      [
        "Ġm",
        "o"
      ],
      [
        "Ġs",
        "h"
      ],
      [
        "Ġf",
        "oc"
      ],
      [
        "us",
        "ed"
      ],
      [
        "Ġfoc",
        "used"
      ],
      [
        "Ġano",
        "ther"
      ],
      [
        "j",
        "o"
      ],
      [
        "Ġfigh",
        "ts"
      ],
      [
        "Ġ",
        "u"
      ],
      [
        "Ġa",
        "s"
      ],
      [
        "a",
        "y"
      ],
      [
        "e",
        "l"
      ],
      [
        "ab",
        "ly"
      ],
      [
        "Ġprefer",
        "ably"
      ],
      [
        "Ġre",
        "al"
      ],
      [
        "e",
        "ar"
      ],
      [
        "q",
        "u"
      ],
      [
        "Ġ",
        "es"
      ],
      [
        "Ġto",
        "o"
      ],
      [
        "u",
        "u"
      ],
      [
        "p",
        "ecial"
      ],
      [
        "Ġes",
        "pecial"
      ],
      [
        "Ġespecial",
        "ly"
      ],
      [
        "Ġw",
        "ould"
      ],
      [
        "en",
        "t"
      ],
      [
        "an",
        "g"
      ],
      [
        "en",
        "ce"
      ],
      [
        "Ġreal",
        "ly"
      ],
      [
        "f",
        "e"
      ],
      [
        "l",
        "i"
      ],
      [
        "'",
        "s"
      ],
      [
        "in",
        "e"
      ],
      [
        "as",
        "s"
      ],
      [
        "u",
        "m"
      ],
      [
        "t",
        "al"
      ],
      [
        "vi",
        "e"
      ],
      [
        "Ġ",
        "ho"
      ],
      [
        "Ġi",
        "t"
      ],
      [
        "i",
        "ts"
      ],
      [
        "ad",
        "em"
      ],
      [
        "Ġac",
        "adem"
      ],
      [
        "Ġsp",
        "ecial"
      ],
      [
        "Ġ",
        "ke"
      ],
      [
        "Ġg",
        "r"
      ],
      [
        "Ġ",
        "en"
      ],
      [
        "Ġe",
        "x"
      ],
      [
        "ok",
        "u"
      ],
      [
        "Ġ",
        "z"
      ],
      [
        "Ġmo",
        "vie"
      ],
      [
        "Ġ",
        "qu"
      ],
      [
        "Ġli",
        "fe"
      ],
      [
        "Ġd",
        "is"
      ],
      [
        "i",
        "ri"
      ],
      [
        "Ġo",
        "ut"
      ],
      [
        "k",
        "ai"
      ],
      [
        "n",
        "e"
      ],
      [
        "Ġbl",
        "ood"
      ],
      [
        "at",
        "t"
      ],
      [
        "i",
        "r"
      ],
      [
        "Ġm",
        "ood"
      ],
      [
        "Ġw",
        "a"
      ],
      [
        "Ġc",
        "om"
      ],
      [
        "Ġg",
        "ho"
      ],
      [
        "li",
        "ke"
      ],
      [
        "Ġdis",
        "like"
      ],
      [
        "us",
        "e"
      ],
      [
        "o",
        "d"
      ],
      [
        "Ġb",
        "att"
      ],
      [
        "er",
        "o"
      ],
      [
        "k",
        "y"
      ],
      [
        "Ġs",
        "in"
      ],
      [
        "ow",
        "n"
      ],
      [
        "Ġt",
        "w"
      ],
      [
        "Ġgho",
        "s"
      ],
      [
        "n",
        "ts"
      ],
      [
        "Ġn",
        "i"
      ],
      [
        "Ġf",
        "r"
      ],
      [
        "ak",
        "u"
      ],
      [
        "Ġbatt",
        "le"
      ],
      [
        "Ġn",
        "e"
      ],
      [
        "er",
        "k"
      ],
      [
        "Ġf",
        "e"
      ],
      [
        "p",
        "l"
      ],
      [
        "Ġm",
        "ome"
      ],
      [
        "il",
        "l"
      ],
      [
        "Ġt",
        "one"
      ],
      [
        "r",
        "ess"
      ],
      [
        "Ġgi",
        "r"
      ],
      [
        "Ġli",
        "gh"
      ],
      [
        "Ġligh",
        "t"
      ],
      [
        "ne",
        "y"
      ],
      [
        "Ġvi",
        "ol"
      ],
      [
        "Ġmome",
        "nts"
      ],
      [
        "Ġme",
        "n"
      ],
      [
        "Ġsp",
        "iri"
      ],
      [
        "Ġspiri",
        "ts"
      ],
      [
        "Ġma",
        "gical"
      ],
      [
        "Ġjo",
        "ur"
      ],
      [
        "Ġqu",
        "est"
      ],
      [
        "Ġ",
        "3"
      ],
      [
        "Ġt",
        "ri"
      ],
      [
        "Ġd",
        "e"
      ],
      [
        "d",
        "ent"
      ],
      [
        "Ġstu",
        "dent"
      ],
      [
        "ro",
        "om"
      ],
      [
        "en",
        "es"
      ],
      [
        "Ġd",
        "ep"
      ],
      [
        "ar",
        "i"
      ],
      [
        "Ġjour",
        "ney"
      ],
      [
        "r",
        "y"
      ],
      [
        "Ġcharacter",
        "s"
      ],
      [
        "Ġcl",
        "ass"
      ],
      [
        "l",
        "es"
      ],
      [
        "oo",
        "dy"
      ],
      [
        "Ġbl",
        "oody"
      ],
      [
        "Ġviol",
        "ence"
      ],
      [
        "Ġacadem",
        "y"
      ],
      [
        "ic",
        "e"
      ],
      [
        "Ġmen",
        "tal"
      ],
      [
        "Ġt",
        "ear"
      ],
      [
        "d",
        "ic"
      ],
      [
        "ke",
        "s"
      ],
      [
        "is",
        "ts"
      ],
      [
        "Ġcome",
        "dic"
      ],
      [
        "Ġclass",
        "room"
      ],
      [
        "i",
        "k"
      ],
      [
        "j",
        "erk"
      ],
      [
        "Ġtear",
        "jerk"
      ],
      [
        "Ġtearjerk",
        "er"
      ],
      [
        "f",
        "y"
      ],
      [
        "Ġg",
        "oo"
      ],
      [
        "Ġgoo",
        "fy"
      ],
      [
        "l",
        "ation"
      ],
      [
        "Ġghos",
        "ts"
      ],
      [
        "b",
        "at"
      ],
      [
        "Ġjo",
        "kes"
      ],
      [
        "Ġtw",
        "ists"
      ],
      [
        "Ġa",
        "ls"
      ],
      [
        "Ġals",
        "o"
      ],
      [
        "Ġsword",
        "s"
      ],
      [
        "Ġu",
        "p"
      ],
      [
        "ress",
        "ing"
      ],
      [
        "Ġdep",
        "ressing"
      ],
      [
        "i",
        "g"
      ],
      [
        "Ġcom",
        "bat"
      ],
      [
        "us",
        "h"
      ],
      [
        "Ġfigh",
        "t"
      ],
      [
        "shi",
        "p"
      ],
      [
        "ts",
        "u"
      ],
      [
        "Ġp",
        "ac"
      ],
      [
        "Ġpac",
        "ing"
      ],
      [
        "or",
        "ation"
      ],
      [
        "Ġex",
        "pl"
      ],
      [
        "Ġsin",
        "ce"
      ],
      [
        "Ġexpl",
        "oration"
      ],
      [
        "ep",
        "y"
      ],
      [
        "Ġre",
        "lation"
      ],
      [
        "Ġsc",
        "enes"
      ],
      [
        "Ġrelation",
        "ship"
      ],
      [
        "an",
        "d"
      ],
      [
        "Ġc",
        "re"
      ],
      [
        "Ġcre",
        "epy"
      ],
      [
        "Ġworld",
        "s"
      ],
      [
        "Ġa",
        "m"
      ],
      [
        "Ġl",
        "ea"
      ],
      [
        "ke",
        "y"
      ],
      [
        "at",
        "su"
      ],
      [
        "ang",
        "les"
      ],
      [
        "Ġtri",
        "angles"
      ],
      [
        "Ġlo",
        "ts"
      ],
      [
        "Ġsu",
        "its"
      ],
      [
        "on",
        "o"
      ],
      [
        "Ġw",
        "h"
      ],
      [
        "Ġl",
        "ow"
      ],
      [
        "ou",
        "gh"
      ],
      [
        "Ġlow",
        "key"
      ],
      [
        "Ġp",
        "ar"
      ],
      [
        "Ġgr",
        "own"
      ],
      [
        "e",
        "ls"
      ],
      [
        "Ġf",
        "ine"
      ],
      [
        "s",
        "t"
      ],
      [
        "Ġk",
        "ind"
      ],
      [
        "Ġfe",
        "els"
      ],
      [
        "i",
        "a"
      ],
      [
        "Ġfr",
        "om"
      ],
      [
        "Ġlea",
        "ve"
      ],
      [
        "Ġa",
        "b"
      ],
      [
        "ac",
        "k"
      ],
      [
        "Ġcl",
        "o"
      ],
      [
        "Ġ",
        "on"
      ],
      [
        "k",
        "o"
      ],
      [
        "Ġi",
        "i"
      ],
      [
        "Ġr",
        "a"
      ],
      [
        "Ġp",
        "l"
      ],
      [
        "Ġh",
        "ero"
      ],
      [
        "as",
        "hi"
      ],
      [
        "Ġn",
        "ice"
      ],
      [
        "y",
        "b"
      ],
      [
        "ar",
        "d"
      ],
      [
        "Ġl",
        "ess"
      ],
      [
        "ar",
        "a"
      ],
      [
        "Ġst",
        "ill"
      ],
      [
        "Ġa",
        "l"
      ],
      [
        "Ġs",
        "en"
      ],
      [
        "Ġs",
        "hi"
      ],
      [
        "Ġclo",
        "se"
      ],
      [
        "Ġpar",
        "ts"
      ],
      [
        "k",
        "a"
      ],
      [
        "Ġg",
        "et"
      ],
      [
        "Ġa",
        "f"
      ],
      [
        "k",
        "u"
      ],
      [
        "Ġho",
        "n"
      ],
      [
        "!",
        "!"
      ],
      [
        "y",
        "ed"
      ],
      [
        "Ġgir",
        "l"
      ],
      [
        "o",
        "t"
      ],
      [
        "Ġaf",
        "ter"
      ],
      [
        "Ġma",
        "yb"
      ],
      [
        "Ġmayb",
        "e"
      ],
      [
        "at",
        "e"
      ],
      [
        "jo",
        "yed"
      ],
      [
        "Ġen",
        "joyed"
      ],
      [
        "al",
        "l"
      ],
      [
        "Ġ",
        "v"
      ],
      [
        "s",
        "an"
      ],
      [
        "'",
        "m"
      ],
      [
        "Ġ",
        "use"
      ],
      [
        "Ġsho",
        "u"
      ],
      [
        "Ġ",
        "x"
      ],
      [
        "us",
        "hi"
      ],
      [
        "o",
        "s"
      ],
      [
        "Ġk",
        "y"
      ],
      [
        "'",
        "t"
      ],
      [
        "g",
        "g"
      ],
      [
        "ur",
        "a"
      ],
      [
        "a",
        "w"
      ],
      [
        "Ġw",
        "at"
      ],
      [
        "ho",
        "u"
      ],
      [
        "g",
        "e"
      ],
      [
        "est",
        "ly"
      ],
      [
        "Ġhon",
        "estly"
      ],
      [
        "m",
        "on"
      ],
      [
        "j",
        "i"
      ],
      [
        "Ġ",
        "("
      ],
      [
        "am",
        "i"
      ],
      [
        "v",
        "a"
      ],
      [
        "Ġdr",
        "ag"
      ],
      [
        "Ġdrag",
        "on"
      ],
      [
        "Ġt",
        "su"
      ],
      [
        "a",
        "p"
      ],
      [
        "Ġi",
        "f"
      ],
      [
        "i",
        "z"
      ],
      [
        "or",
        "i"
      ],
      [
        "Ġp",
        "r"
      ],
      [
        "an",
        "o"
      ],
      [
        "en",
        "d"
      ],
      [
        "Ġth",
        "ough"
      ],
      [
        "ic",
        "k"
      ],
      [
        "Ġs",
        "a"
      ],
      [
        "ar",
        "u"
      ],
      [
        "Ġk",
        "o"
      ],
      [
        "Ġp",
        "art"
      ],
      [
        "on",
        "g"
      ],
      [
        "Ġg",
        "u"
      ],
      [
        "Ġo",
        "va"
      ],
      [
        "Ġre",
        "fer"
      ],
      [
        "Ġd",
        "on"
      ],
      [
        "Ġ",
        "1"
      ],
      [
        "Ġw",
        "o"
      ],
      [
        "Ġke",
        "ep"
      ],
      [
        "i",
        "y"
      ],
      [
        "Ġ",
        "one"
      ],
      [
        "!",
        ","
      ],
      [
        "on",
        "d"
      ],
      [
        "Ġk",
        "ur"
      ],
      [
        "is",
        "h"
      ],
      [
        "i",
        "re"
      ],
      [
        "ut",
        "e"
      ],
      [
        "Ġt",
        "en"
      ],
      [
        "Ġra",
        "ther"
      ],
      [
        "Ġrecommend",
        "ation"
      ],
      [
        "Ġy",
        "u"
      ],
      [
        "Ġbl",
        "ack"
      ],
      [
        "Ġh",
        "a"
      ],
      [
        "Ġwh",
        "at"
      ],
      [
        "an",
        "a"
      ],
      [
        "t",
        "a"
      ],
      [
        "it",
        "e"
      ],
      [
        "h",
        "en"
      ],
      [
        "k",
        "un"
      ],
      [
        "ag",
        "e"
      ],
      [
        "Ġwor",
        "k"
      ],
      [
        "Ġa",
        "t"
      ],
      [
        "Ġk",
        "a"
      ],
      [
        "Ġd",
        "a"
      ],
      [
        "o",
        "p"
      ],
      [
        "Ġst",
        "r"
      ],
      [
        "am",
        "p"
      ],
      [
        "ar",
        "e"
      ],
      [
        "Ġg",
        "ood"
      ],
      [
        "Ġf",
        "in"
      ],
      [
        "ut",
        "su"
      ],
      [
        "ke",
        "n"
      ],
      [
        "Ġk",
        "ing"
      ],
      [
        "Ġ",
        "&"
      ],
      [
        "Ġb",
        "ase"
      ],
      [
        "Ġp",
        "ick"
      ],
      [
        "j",
        "ou"
      ],
      [
        "Ġb",
        "all"
      ],
      [
        "Ġwat",
        "ch"
      ],
      [
        "j",
        "in"
      ],
      [
        "a",
        "ki"
      ],
      [
        "s",
        "ol"
      ],
      [
        "Ġab",
        "sol"
      ],
      [
        "Ġabsol",
        "ute"
      ],
      [
        "Ġc",
        "ould"
      ],
      [
        "er",
        "s"
      ],
      [
        "igh",
        "t"
      ],
      [
        "t",
        "e"
      ],
      [
        "g",
        "y"
      ],
      [
        "r",
        "a"
      ],
      [
        "u",
        "e"
      ],
      [
        "Ġabsolute",
        "ly"
      ],
      [
        "Ġy",
        "o"
      ],
      [
        "is",
        "s"
      ],
      [
        "se",
        "kai"
      ],
      [
        "ri",
        "end"
      ],
      [
        "Ġpl",
        "us"
      ],
      [
        "Ġke",
        "n"
      ],
      [
        "ic",
        "hi"
      ],
      [
        "Ġt",
        "e"
      ],
      [
        "Ġsh",
        "in"
      ],
      [
        "b",
        "or"
      ],
      [
        "Ġi",
        "sekai"
      ],
      [
        "Ġma",
        "ke"
      ],
      [
        "or",
        "a"
      ],
      [
        "Ġk",
        "im"
      ],
      [
        "Ġh",
        "ai"
      ],
      [
        "u",
        "p"
      ],
      [
        "Ġde",
        "ad"
      ],
      [
        "Ġacadem",
        "ia"
      ],
      [
        "Ġsu",
        "gg"
      ],
      [
        "Ġsugg",
        "est"
      ],
      [
        "Ġm",
        "as"
      ],
      [
        "Ġh",
        "un"
      ],
      [
        "Ġrefer",
        "ence"
      ],
      [
        "Ġwork",
        "s"
      ],
      [
        "Ġd",
        "i"
      ],
      [
        "ch",
        "an"
      ],
      [
        "Ġw",
        "ar"
      ],
      [
        "Ġh",
        "an"
      ],
      [
        "ense",
        "i"
      ],
      [
        "Ġhun",
        "ter"
      ],
      [
        "g",
        "at"
      ],
      [
        "s",
        "s"
      ],
      [
        "Ġn",
        "a"
      ],
      [
        "ono",
        "gat"
      ],
      [
        "onogat",
        "ari"
      ],
      [
        "Ġt",
        "ry"
      ],
      [
        "o",
        "y"
      ],
      [
        "Ġs",
        "ak"
      ],
      [
        "Ġg",
        "od"
      ],
      [
        "g",
        "o"
      ],
      [
        "Ġt",
        "ow"
      ],
      [
        "Ġp",
        "ush"
      ],
      [
        "Ġst",
        "art"
      ],
      [
        "Ġtow",
        "ard"
      ],
      [
        "in",
        "c"
      ],
      [
        "Ġk",
        "am"
      ],
      [
        "el",
        "l"
      ],
      [
        "Ġk",
        "ou"
      ],
      [
        "ok",
        "o"
      ],
      [
        "as",
        "h"
      ],
      [
        "m",
        "a"
      ],
      [
        "Ã",
        "©"
      ],
      [
        "er",
        "gy"
      ],
      [
        "Ġb",
        "oku"
      ],
      [
        "Ġen",
        "ergy"
      ],
      [
        "Ġo",
        "t"
      ],
      [
        "Ġs",
        "ai"
      ],
      [
        "Ġan",
        "im"
      ],
      [
        "or",
        "o"
      ],
      [
        "ho",
        "od"
      ],
      [
        "ol",
        "l"
      ],
      [
        "in",
        "t"
      ],
      [
        "ag",
        "a"
      ],
      [
        "i",
        "an"
      ],
      [
        "y",
        "ou"
      ],
      [
        "Ġt",
        "ak"
      ],
      [
        "use",
        "i"
      ],
      [
        "Ġgir",
        "ls"
      ],
      [
        "Ġl",
        "e"
      ],
      [
        "Ġl",
        "ong"
      ],
      [
        "ou",
        "nd"
      ],
      [
        "nd",
        "am"
      ],
      [
        "Ġgu",
        "ndam"
      ],
      [
        "g",
        "i"
      ],
      [
        "â",
        "ĺ"
      ],
      [
        "Ġs",
        "er"
      ],
      [
        "Ġb",
        "as"
      ],
      [
        "Ġk",
        "ano"
      ],
      [
        "Ġse",
        "ven"
      ],
      [
        "z",
        "u"
      ],
      [
        "b",
        "i"
      ],
      [
        "'",
        "d"
      ],
      [
        "Ġc",
        "r"
      ],
      [
        "Ġf",
        "l"
      ],
      [
        "ush",
        "a"
      ],
      [
        "Ġkano",
        "jo"
      ],
      [
        "Ġm",
        "on"
      ],
      [
        "id",
        "e"
      ],
      [
        "Ġanim",
        "ation"
      ],
      [
        "u",
        "y"
      ],
      [
        "ac",
        "e"
      ],
      [
        "ot",
        "o"
      ],
      [
        "ec",
        "t"
      ],
      [
        "Ġma",
        "hou"
      ],
      [
        "a",
        "me"
      ],
      [
        "e",
        "ki"
      ],
      [
        "i",
        "ve"
      ],
      [
        "th",
        "ough"
      ],
      [
        "Ġn",
        "ear"
      ],
      [
        "ke",
        "t"
      ],
      [
        "Ġal",
        "though"
      ],
      [
        "Ġfin",
        "al"
      ],
      [
        "k",
        "k"
      ],
      [
        "0",
        "0"
      ],
      [
        "r",
        "on"
      ],
      [
        "t",
        "ch"
      ],
      [
        "Ġ",
        "-"
      ],
      [
        "Ġwi",
        "tch"
      ],
      [
        "igh",
        "bor"
      ],
      [
        "ad",
        "e"
      ],
      [
        "Ġbl",
        "ue"
      ],
      [
        "Ġne",
        "ighbor"
      ],
      [
        "Ġk",
        "ai"
      ],
      [
        "Ġkim",
        "i"
      ],
      [
        "n",
        "t"
      ],
      [
        "Ġ",
        "thing"
      ],
      [
        "v",
        "il"
      ],
      [
        "o",
        "us"
      ],
      [
        "om",
        "o"
      ],
      [
        "ak",
        "a"
      ],
      [
        "at",
        "a"
      ],
      [
        "u",
        "c"
      ],
      [
        "Ġk",
        "n"
      ],
      [
        "ag",
        "i"
      ],
      [
        "p",
        "p"
      ],
      [
        "u",
        "b"
      ],
      [
        "ur",
        "ai"
      ],
      [
        "Ġd",
        "an"
      ],
      [
        "i",
        "se"
      ],
      [
        "Ġkur",
        "o"
      ],
      [
        "Ġma",
        "id"
      ],
      [
        "Ġshou",
        "jo"
      ],
      [
        "Ġ",
        "ou"
      ],
      [
        "Ġc",
        "are"
      ],
      [
        "Ġma",
        "in"
      ],
      [
        "Ġab",
        "out"
      ],
      [
        "Ġd",
        "es"
      ],
      [
        "Ġ",
        "4"
      ],
      [
        "Ġf",
        "riend"
      ],
      [
        "ur",
        "u"
      ],
      [
        "Ġse",
        "i"
      ],
      [
        "Ġneighbor",
        "hood"
      ],
      [
        "Ġdo",
        "g"
      ],
      [
        "o",
        "ke"
      ],
      [
        "w",
        "ay"
      ],
      [
        "Ġst",
        "ar"
      ],
      [
        "Ġm",
        "an"
      ],
      [
        "Ġm",
        "in"
      ],
      [
        "Ġp",
        "ls"
      ],
      [
        "iy",
        "a"
      ],
      [
        "Ġko",
        "i"
      ],
      [
        "Ġspecial",
        "s"
      ],
      [
        "Ġli",
        "ve"
      ],
      [
        "its",
        "u"
      ],
      [
        "r",
        "d"
      ],
      [
        "Ġd",
        "em"
      ],
      [
        "Ġe",
        "l"
      ],
      [
        "âĺ",
        "Ĩ"
      ],
      [
        "Ġa",
        "o"
      ],
      [
        "Ġp",
        "ok"
      ],
      [
        "Ġse",
        "kai"
      ],
      [
        "Ã©",
        "mon"
      ],
      [
        "Ġpok",
        "Ã©mon"
      ],
      [
        "u",
        "me"
      ],
      [
        "Ġd",
        "ay"
      ],
      [
        "ky",
        "ou"
      ],
      [
        "Ġm",
        "us"
      ],
      [
        "Ġr",
        "n"
      ],
      [
        "Ġlo",
        "st"
      ],
      [
        "Ġkind",
        "a"
      ],
      [
        "it",
        "y"
      ],
      [
        "Ġt",
        "ensei"
      ],
      [
        "Ġmas",
        "ter"
      ],
      [
        "d",
        "en"
      ],
      [
        "f",
        "u"
      ],
      [
        "Ġky",
        "o"
      ],
      [
        "Ġpr",
        "inc"
      ],
      [
        "Ġbas",
        "ket"
      ],
      [
        "Ġr",
        "o"
      ],
      [
        "Ġh",
        "e"
      ],
      [
        "Ġhai",
        "ky"
      ],
      [
        "ut",
        "o"
      ],
      [
        "Ġmo",
        "on"
      ],
      [
        "Ġn",
        "an"
      ],
      [
        "m",
        "an"
      ],
      [
        "as",
        "u"
      ],
      [
        "Ġo",
        "ver"
      ],
      [
        "it",
        "a"
      ],
      [
        "is",
        "hi"
      ],
      [
        "Ġy",
        "uu"
      ],
      [
        "ul",
        "l"
      ],
      [
        "Ġprinc",
        "ess"
      ],
      [
        "Ġad",
        "d"
      ],
      [
        "ky",
        "o"
      ],
      [
        "Ġ",
        "un"
      ],
      [
        "il",
        "d"
      ],
      [
        "Ġm",
        "ob"
      ],
      [
        "Ġth",
        "is"
      ],
      [
        "Ġb",
        "un"
      ],
      [
        "m",
        "o"
      ],
      [
        "il",
        "e"
      ],
      [
        "im",
        "a"
      ],
      [
        "um",
        "a"
      ],
      [
        "Ġfriend",
        "s"
      ],
      [
        "Ġs",
        "am"
      ],
      [
        "Ġsam",
        "urai"
      ],
      [
        "y",
        "o"
      ],
      [
        "Ġat",
        "t"
      ],
      [
        "Ġky",
        "ou"
      ],
      [
        "Ġdog",
        "s"
      ],
      [
        "Ġmin",
        "us"
      ],
      [
        "r",
        "u"
      ],
      [
        "z",
        "ai"
      ],
      [
        "Ġs",
        "aga"
      ],
      [
        "s",
        "h"
      ],
      [
        "it",
        "an"
      ],
      [
        "Ġu",
        "nd"
      ],
      [
        "Ġn",
        "atsu"
      ],
      [
        "Ġv",
        "amp"
      ],
      [
        "Ġvamp",
        "ire"
      ],
      [
        "n",
        "a"
      ],
      [
        "Ġp",
        "i"
      ],
      [
        "Ġb",
        "ook"
      ],
      [
        "Ġc",
        "ard"
      ],
      [
        "Ġg",
        "en"
      ],
      [
        "Ġse",
        "c"
      ],
      [
        "Ġtry",
        "ing"
      ],
      [
        "Ġch",
        "i"
      ],
      [
        "k",
        "an"
      ],
      [
        "Ġch",
        "ron"
      ],
      [
        "Ġchron",
        "ic"
      ],
      [
        "Ġl",
        "ast"
      ],
      [
        "Ġyo",
        "ur"
      ],
      [
        "t",
        "y"
      ],
      [
        "Ġr",
        "en"
      ],
      [
        "Ġstr",
        "ay"
      ],
      [
        "n",
        "i"
      ],
      [
        "Ġd",
        "ig"
      ],
      [
        "Ġde",
        "vil"
      ],
      [
        "i",
        "es"
      ],
      [
        "Ġst",
        "one"
      ],
      [
        "Ġyu",
        "usha"
      ],
      [
        "Ġ",
        "0"
      ],
      [
        "or",
        "c"
      ],
      [
        "Ġmon",
        "ster"
      ],
      [
        "2",
        "0"
      ],
      [
        "Ġh",
        "it"
      ],
      [
        "Ġk",
        "an"
      ],
      [
        "Ġto",
        "kyo"
      ],
      [
        "l",
        "and"
      ],
      [
        "Ġm",
        "ar"
      ],
      [
        "Ġf",
        "ull"
      ],
      [
        "Ġor",
        "e"
      ],
      [
        "Ġatt",
        "ack"
      ],
      [
        "Ġdes",
        "u"
      ],
      [
        "Ġ",
        "ut"
      ],
      [
        "Ġdem",
        "on"
      ],
      [
        "Ġre",
        "ven"
      ],
      [
        "im",
        "on"
      ],
      [
        "c",
        "es"
      ],
      [
        "Ġa",
        "way"
      ],
      [
        "Ġm",
        "iss"
      ],
      [
        "Ġre",
        "d"
      ],
      [
        "Ġk",
        "ara"
      ],
      [
        "el",
        "ing"
      ],
      [
        "Ġfe",
        "eling"
      ],
      [
        "Ġsu",
        "it"
      ],
      [
        "a",
        "h"
      ],
      [
        "Ġan",
        "g"
      ],
      [
        "r",
        "en"
      ],
      [
        "ur",
        "i"
      ],
      [
        "Ġsh",
        "ing"
      ],
      [
        "Ġz",
        "ero"
      ],
      [
        "Ġi",
        "m"
      ],
      [
        "Ġar",
        "ound"
      ],
      [
        "Ġint",
        "o"
      ],
      [
        "Ġz",
        "om"
      ],
      [
        "i",
        "er"
      ],
      [
        "Ġma",
        "d"
      ],
      [
        "b",
        "u"
      ],
      [
        "Ġne",
        "w"
      ],
      [
        "Ġha",
        "ve"
      ],
      [
        "Ġpi",
        "ec"
      ],
      [
        "a",
        "in"
      ],
      [
        "Ġb",
        "r"
      ],
      [
        "il",
        "or"
      ],
      [
        "is",
        "en"
      ],
      [
        "Ġsa",
        "ilor"
      ],
      [
        "b",
        "a"
      ],
      [
        "Ġs",
        "ora"
      ],
      [
        "Ġt",
        "r"
      ],
      [
        "Ġj",
        "u"
      ],
      [
        "Ġhar",
        "u"
      ],
      [
        "Ġsh",
        "it"
      ],
      [
        "Ġex",
        "orc"
      ],
      [
        "Ġb",
        "oy"
      ],
      [
        "Ġf",
        "ut"
      ],
      [
        "re",
        "ak"
      ],
      [
        "g",
        "an"
      ],
      [
        "Ġmob",
        "ile"
      ],
      [
        "Ġn",
        "ar"
      ],
      [
        "Ġg",
        "re"
      ],
      [
        "Ġt",
        "itan"
      ],
      [
        "Ġsu",
        "m"
      ],
      [
        "Ġma",
        "ou"
      ],
      [
        "Ġshing",
        "eki"
      ],
      [
        "t",
        "v"
      ],
      [
        "il",
        "y"
      ],
      [
        "Ġdig",
        "imon"
      ],
      [
        "l",
        "ord"
      ],
      [
        "s",
        "ou"
      ],
      [
        "Ġover",
        "lord"
      ],
      [
        "Ġs",
        "ou"
      ],
      [
        "k",
[...]
