{
  "version": "1.0",
  "truncation": null,
  "padding": null,
  "added_tokens": [
    {
      "id": 0,
      "content": "<PAD>",
      "single_word": false,
      "lstrip": false,
      "rstrip": false,
      "normalized": false,
      "special": true
    },
    {
      "id": 1,
      "content": "<UNK>",
      "single_word": false,
      "lstrip": false,
      "rstrip": false,
      "normalized": false,
      "special": true
    }
  ],
  "normalizer": {
    "type": "Sequence",
    "normalizers": [
      {
        "type": "NFKC"
      },
      {
        "type": "Lowercase"
      }
    ]
  },
  "pre_tokenizer": {
    "type": "ByteLevel",
    "add_prefix_space": false,
    "trim_offsets": true,
    "use_regex": true
  },
  "post_processor": null,
  "decoder": {
    "type": "ByteLevel",
    "add_prefix_space": true,
    "trim_offsets": true,
    "use_regex": true
  },
  "model": {
    "type": "BPE",
    "dropout": null,
    "unk_token": "<UNK>",
    "continuing_subword_prefix": null,
    "end_of_word_suffix": null,
    "fuse_unk": false,
    "byte_fallback": false,
    "ignore_merges": false,
    "vocab": {
      "<PAD>": 0,
      "<UNK>": 1,
      "!": 2,
      "\"": 3,
      "#": 4,
      "$": 5,
      "%": 6,
      "&": 7,
      "'": 8,
      "(": 9,
      ")": 10,
      "*": 11,
      "+": 12,
      ",": 13,
      "-": 14,
      ".": 15,
      "/": 16,
      "0": 17,
      "1": 18,
      "2": 19,
      "3": 20,
      "4": 21,
      "5": 22,
      "6": 23,
      "7": 24,
      "8": 25,
      "9": 26,
      ":": 27,
      ";": 28,
      "<": 29,
      "=": 30,
      ">": 31,
      "?": 32,
      "@": 33,
      "A": 34,
      "B": 35,
      "C": 36,
      "D": 37,
      "E": 38,
      "F": 39,
      "G": 40,
      "H": 41,
      "I": 42,
      "J": 43,
      "K": 44,
      "L": 45,
      "M": 46,
      "N": 47,
      "O": 48,
      "P": 49,
      "Q": 50,
      "R": 51,
      "S": 52,
      "T": 53,
      "U": 54,
      "V": 55,
      "W": 56,
      "X": 57,
      "Y": 58,
      "Z": 59,
      "[": 60,
      "\\": 61,
      "]": 62,
      "^": 63,
      "_": 64,
      "`": 65,
      "a": 66,
      "b": 67,
      "c": 68,
      "d": 69,
      "e": 70,
      "f": 71,
      "g": 72,
      "h": 73,
      "i": 74,
      "j": 75,
      "k": 76,
      "l": 77,
      "m": 78,
      "n": 79,
      "o": 80,
      "p": 81,
      "q": 82,
      "r": 83,
      "s": 84,
      "t": 85,
      "u": 86,
      "v": 87,
      "w": 88,
      "x": 89,
      "y": 90,
      "z": 91,
      "{": 92,
      "|": 93,
      "}": 94,
      "~": 95,
      "¡": 96,
      "¢": 97,
      "£": 98,
      "¤": 99,
      "¥": 100,
      "¦": 101,
      "§": 102,
      "¨": 103,
      "©": 104,
      "ª": 105,
      "«": 106,
      "¬": 107,
      "®": 108,
      "¯": 109,
      "°": 110,
      "±": 111,
      "²": 112,
      "³": 113,
      "´": 114,
      "µ": 115,
      "¶": 116,
      "·": 117,
      "¸": 118,
      "¹": 119,
      "º": 120,
      "»": 121,
      "¼": 122,
      "½": 123,
      "¾": 124,
      "¿": 125,
      "À": 126,
      "Á": 127,
      "Â": 128,
      "Ã": 129,
      "Ä": 130,
      "Å": 131,
      "Æ": 132,
      "Ç": 133,
      "È": 134,
      "É": 135,
      "Ê": 136,
      "Ë": 137,
      "Ì": 138,
      "Í": 139,
      "Î": 140,
      "Ï": 141,
      "Ð": 142,
      "Ñ": 143,
      "Ò": 144,
      "Ó": 145,
      "Ô": 146,
      "Õ": 147,
      "Ö": 148,
      "×": 149,
      "Ø": 150,
      "Ù": 151,
      "Ú": 152,
      "Û": 153,
      "Ü": 154,
      "Ý": 155,
      "Þ": 156,
      "ß": 157,
      "à": 158,
      "á": 159,
      "â": 160,
      "ã": 161,
      "ä": 162,
      "å": 163,
      "æ": 164,
      "ç": 165,
      "è": 166,
      "é": 167,
      "ê": 168,
      "ë": 169,
      "ì": 170,
      "í": 171,
      "î": 172,
      "ï": 173,
      "ð": 174,
      "ñ": 175,
      "ò": 176,
      "ó": 177,
      "ô": 178,
      "õ": 179,
      "ö": 180,
      "÷": 181,
      "ø": 182,
      "ù": 183,
      "ú": 184,
      "û": 185,
      "ü": 186,
      "ý": 187,
      "þ": 188,
      "ÿ": 189,
      "Ā": 190,
      "ā": 191,
      "Ă": 192,
      "ă": 193,
      "Ą": 194,
      "ą": 195,
      "Ć": 196,
      "ć": 197,
      "Ĉ": 198,
      "ĉ": 199,
      "Ċ": 200,
      "ċ": 201,
      "Č": 202,
      "č": 203,
      "Ď": 204,
      "ď": 205,
      "Đ": 206,
      "đ": 207,
      "Ē": 208,
      "ē": 209,
      "Ĕ": 210,
      "ĕ": 211,
      "Ė": 212,
      "ė": 213,
      "Ę": 214,
      "ę": 215,
      "Ě": 216,
      "ě": 217,
      "Ĝ": 218,
      "ĝ": 219,
      "Ğ": 220,
      "ğ": 221,
      "Ġ": 222,
      "ġ": 223,
      "Ģ": 224,
      "ģ": 225,
      "Ĥ": 226,
      "ĥ": 227,
      "Ħ": 228,
      "ħ": 229,
      "Ĩ": 230,
      "ĩ": 231,
      "Ī": 232,
      "ī": 233,
      "Ĭ": 234,
      "ĭ": 235,
      "Į": 236,
      "į": 237,
      "İ": 238,
      "ı": 239,
      "Ĳ": 240,
      "ĳ": 241,
      "Ĵ": 242,
      "ĵ": 243,
      "Ķ": 244,
      "ķ": 245,
      "ĸ": 246,
      "Ĺ": 247,
      "ĺ": 248,
      "Ļ": 249,
      "ļ": 250,
      "Ľ": 251,
      "ľ": 252,
      "Ŀ": 253,
      "ŀ": 254,
      "Ł": 255,
      "ł": 256,
      "Ń": 257,
      "an": 258,
      "Ġs": 259,
      "me": 260,
      "Ġan": 261,
      "or": 262,
      "in": 263,
      "th": 264,
      "Ġw": 265,
      "Ġand": 266,
      "Ġl": 267,
      "ar": 268,
      "er": 269,
      "ke": 270,
      "Ġli": 271,
      "ing": 272,
      "no": 273,
      "Ġlike": 274,
      "Ġm": 275,
      "Ġf": 276,
      "Ġb": 277,
      "Ġc": 278,
      "ant": 279,
      "Ġno": 280,
      "Ġd": 281,
      "Ġa": 282,
      "en": 283,
      "ts": 284,
      "ho": 285,
      "as": 286,
      "Ġt": 287,
      "re": 288,
      "ut": 289,
      "al": 290,
      "on": 291,
      "Ġor": 292,
      "Ġg": 293,
      "Ġh": 294,
      "ime": 295,
      "at": 296,
      "Ġwi": 297,
      "Ġwith": 298,
      "Ġp": 299,
      "ic": 300,
      "ome": 301,
      "Ġme": 302,
      "ro": 303,
      "lo": 304,
      "es": 305,
      "Ġwant": 306,
      "Ġbut": 307,
      "thing": 308,
      "Ġliked": 309,
      "Ġse": 310,
      "il": 311,
      "Ġk": 312,
      "tu": 313,
      "us": 314,
      "Ġto": 315,
      "id": 316,
      "ve": 317,
      "is": 318,
      "ou": 319,
      "Ġro": 320,
      "Ġanime": 321,
      "ers": 322,
      "am": 323,
      "hi": 324,
      "vi": 325,
      "ac": 326,
      "gh": 327,
      "im": 328,
      "Ġth": 329,
      "Ġsc": 330,
      "omething": 331,
      "Ġstu": 332,
      "om": 333,
      "Ġsho": 334,
      "Ġsu": 335,
      "ol": 336,
      "ion": 337,
      "Ġj": 338,
      "Ġvi": 339,
      "un": 340,
      "loo": 341,
      "Ġdr": 342,
      "anime": 343,
      "Ġpo": 344,
      "ag": 345,
      "igh": 346,
      "ff": 347,
      "em": 348,
      "ter": 349,
      "Ġnot": 350,
      "Ġstuff": 351,
      "ical": 352,
      "Ġpow": 353,
      "ting": 354,
      "something": 355,
      "Ġi": 356,
      "Ġsp": 357,
      "Ġthe": 358,
      "Ġsim": 359,
      "ilar": 360,
      "Ġsimilar": 361,
      "gi": 362,
      "vo": 363,
      "ki": 364,
      "Ġch": 365,
      "void": 366,
      "Ġo": 367,
      "ama": 368,
      "ind": 369,
      "Ġvib": 370,
      "Ġvibes": 371,
      "Ġre": 372,
      "give": 373,
      "per": 374,
      "ast": 375,
      "Ġad": 376,
      "Ġy": 377,
      "ary": 378,
      "Ġsuper": 379,
      "Ġshow": 380,
      "atu": 381,
      "Ġchar": 382,
      "Ġpowers": 383,
      "Ġcharac": 384,
      "Ġset": 385,
      "out": 386,
      "Ġsetting": 387,
      "Ġcast": 388,
      "bo": 389,
      "Ġdrama": 390,
      "nd": 391,
      "Ġavoid": 392,
      "Ġwithout": 393,
      "Ġlo": 394,
      "Ġfigh": 395,
      "ch": 396,
      "Ġrobo": 397,
      "ad": 398,
      "ai": 399,
      "ven": 400,
      "Ġfor": 401,
      "ore": 402,
      "it": 403,
      "Ġe": 404,
      "Ġmag": 405,
      "king": 406,
      "can": 407,
      "Ġac": 408,
      "looking": 409,
      "ku": 410,
      "Ġdo": 411,
      "dy": 412,
      "le": 413,
      "hool": 414,
      "Ġschool": 415,
      "tor": 416,
      "ri": 417,
      "Ġn": 418,
      "Ġcome": 419,
      "low": 420,
      "Ġof": 421,
      "Ġga": 422,
      "Ġrom": 423,
      "tion": 424,
      "Ġslow": 425,
      "Ġski": 426,
      "Ġskip": 427,
      "any": 428,
      "antas": 429,
      "Ġcharacter": 430,
      "Ġfantas": 431,
      "Ġfantasy": 432,
      "mend": 433,
      "rec": 434,
      "ommend": 435,
      "recommend": 436,
      "ens": 437,
      "anything": 438,
      "Ġmech": 439,
      "ust": 440,
      "Ġyou": 441,
      "ed": 442,
      "Ġjust": 443,
      "Ġ2": 444,
      "Ġgi": 445,
      "ce": 446,
      "ul": 447,
      "ial": 448,
      "tsu": 449,
      "ld": 450,
      "Ġwor": 451,
      "ense": 452,
      "Ġlove": 453,
      "Ġhe": 454,
      "ason": 455,
      "Ġseason": 456,
      "Ġworld": 457,
      "Ġhar": 458,
      "Ġmore": 459,
      "ord": 460,
      "cho": 461,
      "ation": 462,
      "Ġin": 463,
      "Ġgame": 464,
      "les": 465,
      "Ġkid": 466,
      "Ġdar": 467,
      "sy": 468,
      "Ġspor": 469,
      "Ġharem": 470,
      "Ġsports": 471,
      "ture": 472,
      "Ġdark": 473,
      "Ġbloo": 474,
      "Ġadven": 475,
      "Ġmagic": 476,
      "Ġpsy": 477,
      "ep": 478,
      "Ġpsycho": 479,
      "ult": 480,
      "Ġadventure": 481,
      "Ġsw": 482,
      "Ġfind": 483,
      "Ġmil": 484,
      "Ġcomedy": 485,
      "Ġkids": 486,
      "ny": 487,
      "itary": 488,
      "Ġmilitary": 489,
      "et": 490,
      "ral": 491,
      "Ġfun": 492,
      "Ġromant": 493,
      "Ġmatu": 494,
      "Ġmature": 495,
      "Ġromantic": 496,
      "natu": 497,
      "Ġsupernatu": 498,
      "Ġsupernatural": 499,
      "log": 500,
      "Ġhis": 501,
      "Ġadult": 502,
      "Ġgames": 503,
      "Ġhea": 504,
      "Ġpsycholog": 505,
      "Ġfunny": 506,
      "Ġpsychological": 507,
      "Ġsword": 508,
      "Ġfo": 509,
      "Ġhistor": 510,
      "Ġhistorical": 511,
      "Ġscary": 512,
      "vy": 513,
      "Ġheavy": 514,
      "cus": 515,
      "Ġfocus": 516,
      "Ġfocused": 517,
      "Ġgiant": 518,
      "Ġshows": 519,
      "Ġrobot": 520,
      "Ġfights": 521,
      "Ġrobots": 522,
      "Ġmy": 523,
      "Ġaction": 524,
      "ec": 525,
      "art": 526,
      "one": 527,
      "shi": 528,
      "all": 529,
      "Ġar": 530,
      "Ġmo": 531,
      "ss": 532,
      "Ġis": 533,
      "Ġgo": 534,
      "Ġu": 535,
      "Ġr": 536,
      "ak": 537,
      "ent": 538,
      "ther": 539,
      "est": 540,
      "qu": 541,
      "der": 542,
      "ster": 543,
      "Ġano": 544,
      "Ġte": 545,
      "ass": 546,
      "Ġspec": 547,
      "Ġspecial": 548,
      "adem": 549,
      "Ġacadem": 550,
      "ang": 551,
      "Ġanother": 552,
      "Ġcl": 553,
      "att": 554,
      "fe": 555,
      "Ġhigh": 556,
      "Ġex": 557,
      "tal": 558,
      "Ġqu": 559,
      "Ġsomething": 560,
      "Ġhas": 561,
      "Ġthat": 562,
      "Ġget": 563,
      "chi": 564,
      "ne": 565,
      "our": 566,
      "emo": 567,
      "iri": 568,
      "Ġblood": 569,
      "vers": 570,
      "ra": 571,
      "Ġjo": 572,
      "Ġlife": 573,
      "Ġhor": 574,
      "Ġtw": 575,
      "ine": 576,
      "Ġint": 577,
      "cchi": 578,
      "Ġbatt": 579,
      "ence": 580,
      "Ġgho": 581,
      "ters": 582,
      "ally": 583,
      "Ġwho": 584,
      "Ġbattle": 585,
      "find": 586,
      "Ġreally": 587,
      "Ġcom": 588,
      "wn": 589,
      "ance": 590,
      "nts": 591,
      "Ġmome": 592,
      "Ġsus": 593,
      "Ġintense": 594,
      "Ġmyster": 595,
      "ress": 596,
      "verse": 597,
      "aku": 598,
      "Ġecchi": 599,
      "erk": 600,
      "unen": 601,
      "Ġreverse": 602,
      "Ġmind": 603,
      "Ġmoments": 604,
      "Ġma": 605,
      "room": 606,
      "Ġshounen": 607,
      "ko": 608,
      "lesome": 609,
      "Ġwholesome": 610,
      "inen": 611,
      "Ġtone": 612,
      "Ġseinen": 613,
      "ney": 614,
      "Ġcharacters": 615,
      "ror": 616,
      "ase": 617,
      "Ġgoo": 618,
      "pense": 619,
      "Ġclass": 620,
      "Ġsuspense": 621,
      "Ġemo": 622,
      "Ġspiri": 623,
      "tional": 624,
      "Ġemotional": 625,
      "Ġspirits": 626,
      "'s": 627,
      "Ġmart": 628,
      "Ġarts": 629,
      "Ġmartial": 630,
      "Ġsh": 631,
      "Ġtri": 632,
      "Ġviol": 633,
      "Ġgore": 634,
      "Ġtoo": 635,
      "Ġghos": 636,
      "Ġclassroom": 637,
      "Ġacademy": 638,
      "pl": 639,
      "Ġdri": 640,
      "Ġmagical": 641,
      "Ġmen": 642,
      "Ġligh": 643,
      "Ġlight": 644,
      "Ġmystery": 645,
      "Ġtear": 646,
      "its": 647,
      "ists": 648,
      "Ġtwists": 649,
      "Ġhorror": 650,
      "Ġquest": 651,
      "Ġjour": 652,
      "fy": 653,
      "Ġpower": 654,
      "Ġgoofy": 655,
      "dent": 656,
      "Ġstudent": 657,
      "Ġdep": 658,
      "jerk": 659,
      "Ġtearjerk": 660,
      "Ġtearjerker": 661,
      "Ġup": 662,
      "uu": 663,
      "Ġfighting": 664,
      "Ġjourney": 665,
      "Ġbloody": 666,
      "Ġviolence": 667,
      "Ġdriven": 668,
      "Ġmental": 669,
      "dic": 670,
      "Ġcomedic": 671,
      "Ġswords": 672,
      "Ġpac": 673,
      "Ġdat": 674,
      "Ġcre": 675,
      "epy": 676,
      "Ġcreepy": 677,
      "Ġstor": 678,
      "Ġrel": 679,
      "Ġsad": 680,
      "Ġgro": 681,
      "Ġdepress": 682,
      "Ġol": 683,
      "Ġst": 684,
      "Ġolder": 685,
      "Ġstory": 686,
      "Ġpacing": 687,
      "bat": 688,
      "oration": 689,
      "Ġexpl": 690,
      "Ġexploration": 691,
      "Ġdepressing": 692,
      "Ġghosts": 693,
      "Ġcombat": 694,
      "enes": 695,
      "Ġmecha": 696,
      "Ġromance": 697,
      "Ġple": 698,
      "Ġgrown": 699,
      "ship": 700,
      "ur": 701,
      "kes": 702,
      "Ġworlds": 703,
      "Ġjokes": 704,
      "Ġplease": 705,
      "Ġlots": 706,
      "ationship": 707,
      "Ġrelationship": 708,
      "angles": 709,
      "Ġtriangles": 710,
      "Ġfight": 711,
      "el": 712,
      "Ġbo": 713,
      "Ġscenes": 714,
      "Ġsuits": 715,
      "vie": 716,
      "Ġwa": 717,
      "Ġdating": 718,
      "kai": 719,
      "Ġz": 720,
      "Ġko": 721,
      "avoid": 722,
      "Ġfine": 723,
      "Ġmovie": 724,
      "Ġshi": 725,
      "um": 726,
      "ay": 727,
      "Ġde": 728,
      "ka": 729,
      "ashi": 730,
      "ero": 731,
      "Ġ3": 732,
      "Ġni": 733,
      "jo": 734,
      "ia": 735,
      "yo": 736,
      "rl": 737,
      "Ġbl": 738,
      "hou": 739,
      "ken": 740,
      "ack": 741,
      "ari": 742,
      "ir": 743,
      "and": 744,
      "Ġgirl": 745,
      "Ġne": 746,
      "atsu": 747,
      "ver": 748,
      "ara": 749,
      "to": 750,
      "Ġbe": 751,
      "ig": 752,
      "Ġon": 753,
      "Ġii": 754,
      "Ġho": 755,
      "st": 756,
      "you": 757,
      "ushi": 758,
      "Ġhero": 759,
      "Ġx": 760,
      "ess": 761,
      "Ġku": 762,
      "ha": 763,
      "Ġtsu": 764,
      "end": 765,
      "ate": 766,
      "Ġ(": 767,
      "ji": 768,
      "Ġsa": 769,
      "Ġka": 770,
      "!!": 771,
      "ge": 772,
      "mo": 773,
      "ami": 774,
      "san": 775,
      "Ġyu": 776,
      "tt": 777,
      "ond": 778,
      "ru": 779,
      "Ġv": 780,
      "oku": 781,
      "Ġdrag": 782,
      "Ġdragon": 783,
      "ik": 784,
      "jou": 785,
      "ori": 786,
      "mon": 787,
      "ta": 788,
      "rin": 789,
      "va": 790,
      "Ġpart": 791,
      "hen": 792,
      "Ġshou": 793,
      "ap": 794,
      "Ġkan": 795,
      "Ġkuro": 796,
      "ei": 797,
      "Ġwo": 798,
      "Ġboku": 799,
      "ry": 800,
      "Ġova": 801,
      "und": 802,
      "Ġone": 803,
      "Ġda": 804,
      "Ġblack": 805,
      "zu": 806,
      "ab": 807,
      "kun": 808,
      "ky": 809,
      "amp": 810,
      "Ġpl": 811,
      "ora": 812,
      "Ġ1": 813,
      "ard": 814,
      "age": 815,
      "aru": 816,
      "jin": 817,
      "ok": 818,
      "Ġsei": 819,
      "od": 820,
      "chan": 821,
      "ya": 822,
      "Ġsen": 823,
      "oro": 824,
      "Ġ&": 825,
      "ichi": 826,
      "ill": 827,
      "aki": 828,
      "Ġkam": 829,
      "ron": 830,
      "ekai": 831,
      "ma": 832,
      "aka": 833,
      "Ġmahou": 834,
      "!,": 835,
      "iss": 836,
      "ono": 837,
      "Ġmus": 838,
      "bi": 839,
      "Ġke": 840,
      "Ġball": 841,
      "Ġking": 842,
      "iz": 843,
      "ist": 844,
      "gat": 845,
      "int": 846,
      "ade": 847,
      "Ġna": 848,
      "Ġisekai": 849,
      "go": 850,
      "Ġnan": 851,
      "Ġkou": 852,
      "Ġser": 853,
      "Ġkyo": 854,
      "Ġken": 855,
      "riend": 856,
      "fu": 857,
      "Ġacademia": 858,
      "gatari": 859,
      "Ġsai": 860,
      "Ġwar": 861,
      "os": 862,
      "Ġkim": 863,
      "enshi": 864,
      "Ġ-": 865,
      "inal": 866,
      "Ġbas": 867,
      "Ġal": 868,
      "Ġun": 869,
      "Ġprin": 870,
      "ide": 871,
      "ect": 872,
      "Ġshin": 873,
      "Ġao": 874,
      "achi": 875,
      "te": 876,
      "Ġra": 877,
      "Ġanim": 878,
      "den": 879,
      "kan": 880,
      "Ġhai": 881,
      "pp": 882,
      "âĺ": 883,
      "ue": 884,
      "Ġhan": 885,
      "ishi": 886,
      "ach": 887,
      "ight": 888,
      "uru": 889,
      "ensei": 890,
      "Ġsekai": 891,
      "Ġsec": 892,
      "ise": 893,
      "ell": 894,
      "man": 895,
      "Ġanimation": 896,
      "Ġsou": 897,
      "ket": 898,
      "Ġmas": 899,
      "Ġha": 900,
      "ray": 901,
      "Ġspecials": 902,
      "kou": 903,
      "Ġgund": 904,
      "Ġgundam": 905,
      "ian": 906,
      "usha": 907,
      "Ġkano": 908,
      "Ġdes": 909,
      "Ġgod": 910,
      "agi": 911,
      "ace": 912,
      "cess": 913,
      "Ġmon": 914,
      "Ġkanojo": 915,
      "Ã©": 916,
      "Ġas": 917,
      "Ġfinal": 918,
      "ly": 919,
      "ub": 920,
      "ame": 921,
      "Ġle": 922,
      "Ġpro": 923,
      "kyo": 924,
      "Ġkai": 925,
      "ire": 926,
      "Ġgirls": 927,
      "eki": 928,
      "ll": 929,
      "Ġtak": 930,
      "ite": 931,
      "Ġkimi": 932,
      "Ġday": 933,
      "yuu": 934,
      "Ġchi": 935,
      "tch": 936,
      "vil": 937,
      "Ġwitch": 938,
      "Ġmaid": 939,
      "Ġprincess": 940,
      "aga": 941,
      "ume": 942,
      "Ġten": 943,
      "Ġyo": 944,
      "Ġtokyo": 945,
      "Ġyour": 946,
      "Ġ4": 947,
      "Ġco": 948,
      "Ġlost": 949,
      "Ġbasket": 950,
      "âĺĨ": 951,
      "utsu": 952,
      "ins": 953,
      "rd": 954,
      "Ġsl": 955,
      "ie": 956,
      "itan": 957,
      "ck": 958,
      "ies": 959,
      "nt": 960,
      "Ġhi": 961,
      "Ġoto": 962,
      "aw": 963,
      "tv": 964,
      "Ġhun": 965,
      "Ġhunter": 966,
      "uto": 967,
      "orn": 968,
      "emon": 969,
      "Ġdead": 970,
      "dom": 971,
      "Ġbun": 972,
      "Ġdan": 973,
      "Ġsecond": 974,
      "ana": 975,
      "ice": 976,
      "00": 977,
      "uy": 978,
      "ima": 979,
      "se": 980,
      "Ġatt": 981,
      "Ġshoujo": 982,
      "Ġattack": 983,
      "Ġmoon": 984,
      "akura": 985,
      "Ġtensei": 986,
      "Ġdog": 987,
      "Ġsenshi": 988,
      "Ġfriend": 989,
      "gg": 990,
      "hu": 991,
      "usei": 992,
      "ity": 993,
      "asu": 994,
      "Ġjun": 995,
      "Ġhaiky": 996,
      "Ġwat": 997,
      "Ġmob": 998,
      "Ġmono": 999,
      "Ġkoi": 1000,
      "Ġnatsu": 1001,
      "Ġgr": 1002,
      "ull": 1003,
      "uma": 1004,
      "Ġblue": 1005,
      "ren": 1006,
      "ive": 1007,
      "Ġlive": 1008,
      "onogatari": 1009,
      "Ġmonster": 1010,
      "na": 1011,
      "Ġou": 1012,
      "ild": 1013,
      "!:": 1014,
      "Ġtitan": 1015,
      "ata": 1016,
      "koku": 1017,
      "Ġdesu": 1018,
      "up": 1019,
      "Ġ5": 1020,
      "Ġren": 1021,
      "Ġdi": 1022,
      "Ġpar": 1023,
      "Ġsora": 1024,
      "Ġseven": 1025,
      "Ġchron": 1026,
      "Ġyuu": 1027,
      "Ġchronic": 1028,
      "bu": 1029,
      "Ġâ": 1030,
      "Ġlast": 1031,
      "Ġkono": 1032,
      "ile": 1033,
      "Ġbook": 1034,
      "Ġyuusha": 1035,
      "ath": 1036,
      "ni": 1037,
      "less": 1038,
      "Ġfriends": 1039,
      "kÃ©": 1040,
      "ĠpokÃ©": 1041,
      "ĠpokÃ©mon": 1042,
      "'t": 1043,
      "orc": 1044,
      "ingeki": 1045,
      "Ġman": 1046,
      "Ġat": 1047,
      "Ġshingeki": 1048,
      "bl": 1049,
      "hime": 1050,
      "Ġang": 1051,
      "Ġbou": 1052,
      "Ġcard": 1053,
      "Ġdevil": 1054,
      "Ġnew": 1055,
      "Ġdogs": 1056,
      "wa": 1057,
      "Ġmar": 1058,
      "ister": 1059,
      "Ġstray": 1060,
      "Ġover": 1061,
      "20": 1062,
      "Ġbey": 1063,
      "ure": 1064,
      "ily": 1065,
      "Ġdays": 1066,
      "Ġnatsume": 1067,
      "zai": 1068,
      "ona": 1069,
      "Ġangel": 1070,
      "ilor": 1071,
      "Ġsailor": 1072,
      "Ġwars": 1073,
      "Ġcon": 1074,
      "Ġfam": 1075,
      "Ġfull": 1076,
      "Ġtest": 1077,
      "Ġmaou": 1078,
      "ness": 1079,
      "are": 1080,
      "!.": 1081,
      "urashi": 1082,
      "ado": 1083,
      "Ġla": 1084,
      "Ġmi": 1085,
      "Ġkuroko": 1086,
      "Ġbr": 1087,
      "Ġstone": 1088,
      "Ġut": 1089,
      "Ġkami": 1090,
      "Ġstar": 1091,
      "aby": 1092,
      "bou": 1093,
      "!?": 1094,
      "Ġpie": 1095,
      "Ġnar": 1096,
      "Ġzero": 1097,
      "Ġpiece": 1098,
      "ga": 1099,
      "ous": 1100,
      "ple": 1101,
      "Ġtal": 1102,
      "urai": 1103,
      "Ġchronicle": 1104,
      "Ġsum": 1105,
      "Ġshu": 1106,
      "Ġboy": 1107,
      "ze": 1108,
      "Ġhig": 1109,
      "Ġmusume": 1110,
      "Ġsaga": 1111,
      "aret": 1112,
      "Ġmiss": 1113,
      "Ġfate": 1114,
      "Ġdemon": 1115,
      "ode": 1116,
      "anai": 1117,
      "Ġcan": 1118,
      "Ġcamp": 1119,
      "rom": 1120,
      "Ġsuit": 1121,
      "Ġmaster": 1122,
      "ĠâĢ": 1123,
      "Ġcry": 1124,
      "Ġta": 1125,
      "kyou": 1126,
      "mi": 1127,
      "Ġkyojin": 1128,
      "rim": 1129,
      "ud": 1130,
      "Ġgre": 1131,
      "Ġgol": 1132,
      "Ġgint": 1133,
      "Ġwatashi": 1134,
      "Ġgintama": 1135,
      "ura": 1136,
      "Ġson": 1137,
      "isama": 1138,
      "Ġexorc": 1139,
      "Ġdeath": 1140,
      "Ġexorcist": 1141,
      "jime": 1142,
      "Ġ0": 1143,
      "Ġcer": 1144,
      "Ġsaint": 1145,
      "Ġim": 1146,
      "Ġend": 1147,
      "ish": 1148,
      "kin": 1149,
      "zum": 1150,
      "Ġen": 1151,
      "Ġsakura": 1152,
      "Ġreven": 1153,
      "Ġkingdom": 1154,
      "juu": 1155,
      "jutsu": 1156,
      "ty": 1157,
      "Ġam": 1158,
      "imon": 1159,
      "Ġharu": 1160,
      "ban": 1161,
      "Ġfl": 1162,
      "mono": 1163,
      "if": 1164,
      "orm": 1165,
      "Ġhit": 1166,
      "Ġchild": 1167,
      "tsuji": 1168,
      "chou": 1169,
      "elion": 1170,
      "Ġsenki": 1171,
      "Ġnanatsu": 1172,
      "ier": 1173,
      "op": 1174,
      "Ġwe": 1175,
      "Ġble": 1176,
      "Ġore": 1177,
      "unch": 1178,
      "Ġrec": 1179,
      "Ġnaruto": 1180,
      "Ġbleach": 1181,
      "kemon": 1182,
      "Ġpokemon": 1183,
      "ago": 1184,
      "Ġkidou": 1185,
      "Ġmobile": 1186,
      "now": 1187,
      "Ġfut": 1188,
      "Ġclo": 1189,
      "Ġab": 1190,
      "Ġkara": 1191,
      "Ġgolden": 1192,
      "etsu": 1193,
      "iya": 1194,
      "Ġbro": 1195,
      "Ġkar": 1196,
      "Ġkyou": 1197,
      "Ġhow": 1198,
      "Ġkamisama": 1199,
      "kus": 1200,
      "land": 1201,
      "Ġwhen": 1202,
      "Ġshoku": 1203,
      "Ġdarkness": 1204,
      "Ġheaven": 1205,
      "Ġru": 1206,
      "ba": 1207,
      "iro": 1208,
      "yu": 1209,
      "Ġsam": 1210,
      "Ġtou": 1211,
      "isen": 1212,
      "Ġji": 1213,
      "akus": 1214,
      "Ġsamurai": 1215,
      "ler": 1216,
      "Ġtai": 1217,
      "reak": 1218,
      "Ġgaku": 1219,
      "tain": 1220,
      "Ġmir": 1221,
      "Ġfai": 1222,
      "Ġval": 1223,
      "Ġfairy": 1224,
      "ris": 1225,
      "eru": 1226,
      "ross": 1227,
      "Ġred": 1228,
      "ĠâĢĵ": 1229,
      "ah": 1230,
      "Ġdig": 1231,
      "Ġkill": 1232,
      "Ġkiss": 1233,
      "Ġinf": 1234,
      "Ġkok": 1235,
      "Ġnex": 1236,
      "Ġhajime": 1237,
      "Ġchildren": 1238,
      "Ġdigimon": 1239,
      "ns": 1240,
      "Ġsin": 1241,
      "Ġrei": 1242,
      "Ġiii": 1243,
      "bit": 1244,
      "ketsu": 1245,
      "Ġfu": 1246,
      "Ġgen": 1247,
      "Ġpre": 1248,
      "ja": 1249,
      "tachi": 1250,
      "Ġvamp": 1251,
      "fuku": 1252,
      "Ġvampire": 1253,
      "friend": 1254,
      "asha": 1255,
      "Ġton": 1256,
      "Ġph": 1257,
      "Ġstage": 1258,
      "Ġbeyond": 1259,
      "lord": 1260,
      "Ġbaby": 1261,
      "Ġtime": 1262,
      "Ġki": 1263,
      "Ġkuma": 1264,
      "Ġoverlord": 1265,
      "Ġtaizai": 1266,
      "ear": 1267,
      "Ġbis": 1268,
      "koi": 1269,
      "ashita": 1270,
      "ushitsu": 1271,
      "201": 1272,
      "Ġhigurashi": 1273,
      "),": 1274,
      "af": 1275,
      "ick": 1276,
      "Ġmagi": 1277,
      "Ġneko": 1278,
      "Ġtakagi": 1279,
      "kki": 1280,
      "Ġ8": 1281,
      "Ġsak": 1282,
      "rei": 1283,
      "Ġkak": 1284,
      "Ġkiz": 1285,
      "Ġsub": 1286,
      "irst": 1287,
      "ling": 1288,
      "Ġart": 1289,
      "Ġfre": 1290,
      ".,": 1291,
      "Ġjojo": 1292,
      "Ġshit": 1293,
      "Ġserv": 1294,
      "way": 1295,
      "Ġagg": 1296,
      "Ġgal": 1297,
      "Ġreb": 1298,
      "Ġev": 1299,
      "tsuko": 1300,
      "akai": 1301,
      "ikan": 1302,
      "Ġbaku": 1303,
      "Ġgu": 1304,
      "Ġpan": 1305,
      "Ġel": 1306,
      "Ġnin": 1307,
      "Ġfamily": 1308,
      "ex": 1309,
      "Ġtan": 1310,
      "Ġher": 1311,
      "Ġres": 1312,
      "Ġzoku": 1313,
      "Ġso": 1314,
      "Ġlord": 1315,
      "Ġmem": 1316,
      "Ġow": 1317,
      "Ġyuru": 1318,
      "Ġstr": 1319,
      "Ġzom": 1320,
      "geon": 1321,
      "Ġclover": 1322,
      "ble": 1323,
      "ip": 1324,
      "Ġid": 1325,
      "Ġund": 1326,
      "Ġsky": 1327,
      "Ġden": 1328,
      "Ġnichi": 1329,
      "Ġhoriz": 1330,
      "geki": 1331,
      "tte": 1332,
      "Ġhaikyuu": 1333,
      "Ġnichijou": 1334,
      "Ġhorizon": 1335,
      "ber": 1336,
      "zaki": 1337,
      "Ġcol": 1338,
      "agami": 1339,
      "ashii": 1340,
      "Ġnever": 1341,
      "ato": 1342,
      "Ġshiro": 1343,
      "Ġ100": 1344,
      "Ġcertain": 1345,
      "Ġmirai": 1346,
      "kaku": 1347,
      "xd": 1348,
      "Ġwon": 1349,
      "Ġfrom": 1350,
      "Ġdxd": 1351,
      "Ġgun": 1352,
      "Ġreal": 1353,
      "Ġnext": 1354,
      "bas": 1355,
      "gan": 1356,
      "han": 1357,
      "anet": 1358,
      "Ġorder": 1359,
      "row": 1360,
      "Ġbutler": 1361,
      "kuro": 1362,
      "very": 1363,
      "Ġtsubas": 1364,
      "Ġplay": 1365,
      "Ġplanet": 1366,
      "Ġseries": 1367,
      "ament": 1368,
      "Ġtsubasa": 1369,
      "kon": 1370,
      "ot": 1371,
      "oshi": 1372,
      "Ġsister": 1373,
      "Ġmu": 1374,
      "Ġmai": 1375,
      "Ġbaki": 1376,
      "Ġtomo": 1377,
      "Ġcha": 1378,
      "Ġclub": 1379,
      "Ġmonogatari": 1380,
      "day": 1381,
      "mer": 1382,
      "Ġdet": 1383,
      "ale": 1384,
      "Ġromantica": 1385,
      "Ġfood": 1386,
      "Ġsoul": 1387,
      "Ġinfin": 1388,
      "arre": 1389,
      "Ġbiz": 1390,
      "Ġdis": 1391,
      "ouki": 1392,
      "ouzu": 1393,
      "Ġoff": 1394,
      "outai": 1395,
      "Ġarc": 1396,
      "Ġdate": 1397,
      "Ġshoukan": 1398,
      "Ġaso": 1399,
      "Ġfuture": 1400,
      "Ġgakuen": 1401,
      "Ġbizarre": 1402,
      "yaku": 1403,
      "Ġter": 1404,
      "Ġran": 1405,
      "Ġmori": 1406,
      "Ġaku": 1407,
      "Ġju": 1408,
      "uni": 1409,
      "Ġir": 1410,
      "Ġot": 1411,
      "shitsuji": 1412,
      "Ġkuroshitsuji": 1413,
      "Ġgreat": 1414,
      "Ġsakam": 1415,
      "Ġkag": 1416,
      "usu": 1417,
      "isan": 1418,
      "Ġhaikyu": 1419,
      "areta": 1420,
      "Ġfree": 1421,
      "gin": 1422,
      "yss": 1423,
      "lec": 1424,
      "tsukai": 1425,
      "Ġbeast": 1426,
      "Ġkamuy": 1427,
      "Ġwan": 1428,
      "Ġfuu": 1429,
      "antom": 1430,
      "Ġaka": 1431,
      "hoku": 1432,
      "Ġtoaru": 1433,
      "angelion": 1434,
      "aph": 1435,
      "Ġseraph": 1436,
      "Ġphantom": 1437,
      "Ġevangelion": 1438,
      "Ġwonder": 1439,
      "ject": 1440,
      "sama": 1441,
      "zero": 1442,
      "Ġflow": 1443,
      "Ġak": 1444,
      "Ġtor": 1445,
      "Ġtenshi": 1446,
      "emist": 1447,
      "tern": 1448,
      "chemist": 1449,
      "adise": 1450,
      "Ġwork": 1451,
      "Ġghoul": 1452,
      "Ġalchemist": 1453,
      "Ġparadise": 1454,
      "Ġtales": 1455,
      "gun": 1456,
      "Ġdun": 1457,
      "Ġit": 1458,
      "Ġkoukou": 1459,
      "Ġbungo": 1460,
      "oto": 1461,
      "arn": 1462,
      "Ġkishi": 1463,
      "oll": 1464,
      "Ġlog": 1465,
      "let": 1466,
      "Ġbouken": 1467,
      "ball": 1468,
      "her": 1469,
      "sh": 1470,
      "wai": 1471,
      "Ġfirst": 1472,
      "Ġtr": 1473,
      "isk": 1474,
      "Ġsci": 1475,
      "Ġhell": 1476,
      "Ġkawai": 1477,
      "Ġsaikyou": 1478,
      "blade": 1479,
      "Ġzombi": 1480,
      "mor": 1481,
      "Ġbaka": 1482,
      "Ġcode": 1483,
      "Ġass": 1484,
      "une": 1485,
      "Ġyaku": 1486,
      "cap": 1487,
      "Ġkon": 1488,
      "Ġnag": 1489,
      "Ġblade": 1490,
      "Ġgirlfriend": 1491,
      "app": 1492,
      "Ġcardcap": 1493,
      "Ġsummer": 1494,
      "Ġcardcaptor": 1495,
      "bol": 1496,
      "oru": 1497,
      "Ġdia": 1498,
      "Ġinuy": 1499,
      "Ġur": 1500,
      "Ġshokugeki": 1501,
      "Ġdiabol": 1502,
      "kkon": 1503,
      "masu": 1504,
      "Ġsil": 1505,
      "use": 1506,
      "Ġjouzu": 1507,
      "houjo": 1508,
      "Ġbishoujo": 1509,
      "Ġotome": 1510,
      "bun": 1511,
      "eld": 1512,
      "line": 1513,
      "Ġlitt": 1514,
      "Ġfru": 1515,
      "imonogatari": 1516,
      "Ġthan": 1517,
      "Ġonline": 1518,
      "goto": 1519,
      "Ġlittle": 1520,
      "ead": 1521,
      "Ġushi": 1522,
      "Ġwh": 1523,
      "Ġpunch": 1524,
      "Ġpris": 1525,
      "Ġmetal": 1526,
      "amond": 1527,
      "Ġetern": 1528,
      "Ġins": 1529,
      "Ġdiamond": 1530,
      "Ġinfinite": 1531,
      "gen": 1532,
      "Ġ7": 1533,
      "Ġsama": 1534,
      "Ġsqu": 1535,
      "Ġsara": 1536,
      "mei": 1537,
      "arashii": 1538,
      "noke": 1539,
      "Ġhak": 1540,
      "Ġkn": 1541,
      "tur": 1542,
      "ism": 1543,
      "Ġthis": 1544,
      "Ġthey": 1545,
      "Ġaria": 1546,
      "atta": 1547,
      "Ġghost": 1548,
      "umonogatari": 1549,
      "arden": 1550,
      "Ġmononoke": 1551,
      "Ġrecord": 1552,
      "Ġkizumonogatari": 1553,
      "Ġsubarashii": 1554,
      "gou": 1555,
      "goku": 1556,
      "ves": 1557,
      "Ã¤": 1558,
      "Ġind": 1559,
      "Ġbers": 1560,
      "Ġpe": 1561,
      "rou": 1562,
      "Ġkur": 1563,
      "Ġroad": 1564,
      "rap": 1565,
      "Ġshipp": 1566,
      "Ġproject": 1567,
      "Ġindex": 1568,
      "Ġberserk": 1569,
      "aut": 1570,
      "red": 1571,
      "Ġgens": 1572,
      "Ġmeshi": 1573,
      "adora": 1574,
      "rave": 1575,
      "ories": 1576,
      "Ġmahoutsukai": 1577,
      "Ġmushoku": 1578,
      "ective": 1579,
      "Ġdetective": 1580,
      "Ġtoradora": 1581,
      "Ġdungeon": 1582,
      "do": 1583,
      "Ġom": 1584,
      "ann": 1585,
      "Ġfire": 1586,
      "Ġcat": 1587,
      "oun": 1588,
      "Ġnote": 1589,
      "Ġiro": 1590,
      "Ġshado": 1591,
      "Ġonly": 1592,
      "rong": 1593,
      "Ġkyoushitsu": 1594,
      "Ġzombie": 1595,
      "Ġshadow": 1596,
      "cre": 1597,
      "hishi": 1598,
      "lic": 1599,
      "Ġichi": 1600,
      "Ġsan": 1601,
      "ings": 1602,
      "Ġgl": 1603,
      "Ġmer": 1604,
      "Ġkin": 1605,
      "Ġtwo": 1606,
      "Ġmushishi": 1607,
      "domo": 1608,
      "Ġsakamoto": 1609,
      "gai": 1610,
      "iant": 1611,
      "sha": 1612,
      "Ġjig": 1613,
      "agn": 1614,
      "girl": 1615,
      "aika": 1616,
      "Ġnight": 1617,
      "ssen": 1618,
      "Ġplate": 1619,
      "jinchou": 1620,
      "Ġkessen": 1621,
      "Ġcool": 1622,
      "Ġdanshi": 1623,
      "Ġyuujinchou": 1624,
      "Ġinuyasha": 1625,
      "Ġjigoku": 1626,
      "pho": 1627,
      "Ġaster": 1628,
      "Ġpian": 1629,
      "elf": 1630,
      "Ġheroes": 1631,
      "Ġbokura": 1632,
      "Ġsound": 1633,
      "Ġbasketball": 1634,
      "Ġrevenge": 1635,
      "break": 1636,
      "dou": 1637,
      "tou": 1638,
      "Ġus": 1639,
      "Ġsk": 1640,
      "thers": 1641,
      "kei": 1642,
      "Ġapp": 1643,
      "Ġroku": 1644,
      "Ġspir": 1645,
      "Ġdarker": 1646,
      "akugan": 1647,
      "Ġste": 1648,
      "Ġtestament": 1649,
      "Ġ86": 1650,
      "Ġbakuman": 1651,
      "Ġspirit": 1652,
      "Ġap": 1653,
      "honi": 1654,
      "rous": 1655,
      "Ġeup": 1656,
      "Ġinv": 1657,
      "ete": 1658,
      "Ġvs": 1659,
      "Ġuta": 1660,
      "Ġreijou": 1661,
      "honium": 1662,
      "Ġeuphonium": 1663,
      "bay": 1664,
      "sou": 1665,
      "Ġfil": 1666,
      "Ġbah": 1667,
      "Ġnon": 1668,
      "amut": 1669,
      "imo": 1670,
      "Ġeat": 1671,
      "Ġkobay": 1672,
      "Ġsouma": 1673,
      "Ġowar": 1674,
      "Ġbahamut": 1675,
      "Ġkobayashi": 1676,
      "bloo": 1677,
      "dess": 1678,
      "zakura": 1679,
      "metal": 1680,
      "ina": 1681,
      "Ġwhi": 1682,
      "aro": 1683,
      "Ġknow": 1684,
      "isha": 1685,
      "Ġryu": 1686,
      "Ġcomple": 1687,
      "kaima": 1688,
      "Ġnikki": 1689,
      "Ġtsukaima": 1690,
      "Ġprince": 1691,
      "Ġgoddess": 1692,
      "Ġyozakura": 1693,
      "Ġfullmetal": 1694,
      "Ġkokoro": 1695,
      "Ġiruma": 1696,
      "Ġkawaii": 1697,
      "Ġfruits": 1698,
      "blood": 1699,
      "Ġwhite": 1700,
      "eet": 1701,
      "Ġ[": 1702,
      "Ġbec": 1703,
      "Ġbra": 1704,
      "Ġdai": 1705,
      "aten": 1706,
      "usen": 1707,
      "perty": 1708,
      "adan": 1709,
      "Ġsweet": 1710,
      "shimono": 1711,
      "Ġum": 1712,
      "Ġseirei": 1713,
      "Ġkamig": 1714,
      "Ġproperty": 1715,
      "Ġotoshimono": 1716,
      "ars": 1717,
      "ica": 1718,
      "usou": 1719,
      "Ġsuzum": 1720,
      "Ġspace": 1721,
      "Ġmajutsu": 1722,
      "Ġstrong": 1723,
      "Ġkaisen": 1724,
      "Ġslay": 1725,
      "Ġharuhi": 1726,
      "Ġjujutsu": 1727,
      "Ġsuzumiya": 1728,
      "daka": 1729,
      "mare": 1730,
      "so": 1731,
      "Ġsm": 1732,
      "Ġsins": 1733,
      "Ġwal": 1734,
      "Ġwind": 1735,
      "Ġame": 1736,
      "Ġmedaka": 1737,
      "Ġei": 1738,
      "Ġyouko": 1739,
      "Ġinu": 1740,
      "umi": 1741,
      "Ġyuri": 1742,
      "Ġyoukoso": 1743,
      "oh": 1744,
      "Ġsay": 1745,
      "Ġland": 1746,
      "antei": 1747,
      "Ġhime": 1748,
      "isai": 1749,
      "Ġear": 1750,
      "Ġris": 1751,
      "anger": 1752,
      "ressive": 1753,
      "Ġkoukaku": 1754,
      "Ġmemories": 1755,
      "byou": 1756,
      "carn": 1757,
      "gate": 1758,
      "ning": 1759,
      "nect": 1760,
      "pe": 1761,
      "Ġour": 1762,
      "incarn": 1763,
      "Ġdance": 1764,
      "Ġdand": 1765,
      "Ġhag": 1766,
      "Ġhik": 1767,
      "Ġpic": 1768,
      "Ġroom": 1769,
      "Ġjikan": 1770,
      "Ġreincarn": 1771,
      "estiri": 1772,
      "Ġzestiri": 1773,
      "Ġhoshi": 1774,
      "ppo": 1775,
      "âĺħ": 1776,
      "Ġbungou": 1777,
      "Ġconnect": 1778,
      "Ġkarakai": 1779,
      "Ġservice": 1780,
      "Ġassass": 1781,
      "Ġsteins": 1782,
      "Ġreincarnation": 1783,
      "Ġzestiria": 1784,
      "bad": 1785,
      "band": 1786,
      "gu": 1787,
      "ger": 1788,
      "matsu": 1789,
      "val": 1790,
      "zhi": 1791,
      "anzhi": 1792,
      "Ġsensei": 1793,
      "Ġwol": 1794,
      "Ġblo": 1795,
      "Ġhat": 1796,
      "Ġhim": 1797,
      "Ġhand": 1798,
      "Ġkaku": 1799,
      "Ġkatsu": 1800,
      "usband": 1801,
      "amune": 1802,
      "Ġspo": 1803,
      "rior": 1804,
      "ede": 1805,
      "Ġquanzhi": 1806,
      "Ġmajo": 1807,
      "Ġshuu": 1808,
      "Ġdawn": 1809,
      "Ġrail": 1810,
      "Ġmasamune": 1811,
      "Ġwolf": 1812,
      "Ġshuumatsu": 1813,
      "rite": 1814,
      "sho": 1815,
      "write": 1816,
      "Ġhou": 1817,
      "Ġsens": 1818,
      "nou": 1819,
      "Ġms": 1820,
      "Ġmary": 1821,
      "Ġban": 1822,
      "ender": 1823,
      "ash": 1824,
      "Ġtora": 1825,
      "Ġhid": 1826,
      "Ġhyou": 1827,
      "Ġper": 1828,
      "Ġkum": 1829,
      "Ġkoro": 1830,
      "idge": 1831,
      "isei": 1832,
      "emin": 1833,
      "Ġrewrite": 1834,
      "Ġevil": 1835,
      "Ġnaku": 1836,
      "Ġgiven": 1837,
      "dering": 1838,
      "Ġsae": 1839,
      "Ġbride": 1840,
      "Ġbridge": 1841,
      "Ġsummon": 1842,
      "Ġimmor": 1843,
      "Ġushio": 1844,
      "agnar": 1845,
      "aur": 1846,
      "come": 1847,
      "cil": 1848,
      "guru": 1849,
      "ogi": 1850,
      "rgin": 1851,
      "yak": 1852,
      "Ġsac": 1853,
      "Ġwel": 1854,
      "Ġcoun": 1855,
      "uten": 1856,
      "eshi": 1857,
      "Ġvirgin": 1858,
      "Ġspy": 1859,
      "Ġforce": 1860,
      "kufuku": 1861,
      "Ġnise": 1862,
      "cel": 1863,
      "epop": 1864,
      "Ġrum": 1865,
      "atte": 1866,
      "Ġboogi": 1867,
      "iru": 1868,
      "Ġseiken": 1869,
      "Ġkenja": 1870,
      "Ġsecre": 1871,
      "Ġrenkin": 1872,
      "Ġshukufuku": 1873,
      "Ġabyss": 1874,
      "Ġshitara": 1875,
      "gurui": 1876,
      "Ġsacred": 1877,
      "Ġwelcome": 1878,
      "Ġcouncil": 1879,
      "Ġnisekoi": 1880,
      "Ġboogiepop": 1881,
      "back": 1882,
      "cc": 1883,
      "gyou": 1884,
      "qi": 1885,
      "self": 1886,
      "uc": 1887,
      "anc": 1888,
      "Ġsna": 1889,
      "Ġsnow": 1890,
      "antz": 1891,
      "Ġdre": 1892,
      "Ġaki": 1893,
      "retsuko": 1894,
      "Ġgantz": 1895,
      "Ġpon": 1896,
      "Ġpass": 1897,
      "rop": 1898,
      "Ġseed": 1899,
      "Ġretur": 1900,
      "chuu": 1901,
      "ited": 1902,
      "itial": 1903,
      "Ġace": 1904,
      "Ġdokuro": 1905,
      "Ġinitial": 1906,
      "Ġteen": 1907,
      "katsu": 1908,
      "Ġhouse": 1909,
      "ikaku": 1910,
      "Ġkanata": 1911,
      "Ġdake": 1912,
      "Ġ13": 1913,
      "Ġunder": 1914,
      "Ġdeshi": 1915,
      "Ġaggretsuko": 1916,
      "Ġcomplex": 1917,
      "Ġsnafu": 1918,
      "Ġdream": 1919,
      "'m": 1920,
      "pass": 1921,
      "ination": 1922,
      "Ġlin": 1923,
      "Ġca": 1924,
      "Ġrock": 1925,
      "Ġny": 1926,
      "artet": 1927,
      "Ġquartet": 1928,
      "ella": 1929,
      "Ġouji": 1930,
      "Ġfilm": 1931,
      ".:": 1932,
      "ifu": 1933,
      "âĸ": 1934,
      "Ġlives": 1935,
      "asts": 1936,
      "Ġord": 1937,
      "ich": 1938,
      "ichou": 1939,
      "Ġchaika": 1940,
      "Ġod": 1941,
      "Ġother": 1942,
      "Ġgobl": 1943,
      "Ġmaken": 1944,
      "Ġshana": 1945,
      "Ġshakugan": 1946,
      "Ġbeasts": 1947,
      "Ġdaima": 1948,
      "Ġalone": 1949,
      "kano": 1950,
      "acher": 1951,
      "Ġslime": 1952,
      "Ġdeadman": 1953,
      "Ġwonderland": 1954,
      "Ġprison": 1955,
      "âĸ³": 1956,
      "Ġgoblin": 1957,
      "?,": 1958,
      "fect": 1959,
      "satsu": 1960,
      "uge": 1961,
      "ator": 1962,
      "Ġpat": 1963,
      "Ġrouge": 1964,
      "Ġsuzu": 1965,
      "Ġlovers": 1966,
      "Ġdoor": 1967,
      "Ġraku": 1968,
      "Ġstep": 1969,
      "Ġstand": 1970,
      "Ġkodomo": 1971,
      "Ġtsuki": 1972,
      "Ġmahouka": 1973,
      "ighty": 1974,
      "Ġotoko": 1975,
      "Ġidol": 1976,
      "Ġperfect": 1977,
      "..": 1978,
      "nen": 1979,
      "za": 1980,
      "iny": 1981,
      "Ġwara": 1982,
      "Ġbur": 1983,
      "Ġcut": 1984,
      "Ġdest": 1985,
      "Ġast": 1986,
      "Ġge": 1987,
      "Ġgenes": 1988,
      "Ġgate": 1989,
      "Ġhal": 1990,
      "Ġout": 1991,
      "Ġret": 1992,
      "adiant": 1993,
      "kuu": 1994,
      "Ġradiant": 1995,
      "Ġdaily": 1996,
      "able": 1997,
      "oroshi": 1998,
      "Ġkekkon": 1999,
      "Ġtail": 2000,
      "Ġkyoukai": 2001,
      "Ġowarimonogatari": 2002,
      "Ġgenesis": 2003,
      "doll": 2004,
      "gami": 2005,
      "ious": 2006,
      "ju": 2007,
      "tier": 2008,
      "Ġice": 2009,
      "Ġmushi": 2010,
      "Ġfour": 2011,
      "Ġdu": 2012,
      "Ġdon": 2013,
      "Ġtrin": 2014,
      "Ġorig": 2015,
      "atos": 2016,
      "amat": 2017,
      "itas": 2018,
      "Ġgaos": 2019,
      "Ġheart": 2020,
      "Ġtsukai": 2021,
      "Ġkei": 2022,
      "ellion": 2023,
      "Ġgrand": 2024,
      "Ġyuuutsu": 2025,
      "Ġdevils": 2026,
      "rimashita": 2027,
      "Ġrebellion": 2028,
      "Ġstratos": 2029,
      "Ġmairimashita": 2030,
      "lection": 2031,
      "Ġknight": 2032,
      "Ġiroha": 2033,
      "Ġslayer": 2034,
      "Ġimmortal": 2035,
      "Ġtrinity": 2036,
      "Ġgaoshou": 2037,
      "gand": 2038,
      "garden": 2039,
      "Ġer": 2040,
      "intu": 2041,
      "Ġdou": 2042,
      "Ġashi": 2043,
      "Ġhatsu": 2044,
      "Ġsciss": 2045,
      "Ġsuiri": 2046,
      "Ġjorm": 2047,
      "ungand": 2048,
      "Ġever": 2049,
      "Ġragnar": 2050,
      "ential": 2051,
      "Ġquint": 2052,
      "Ġquintu": 2053,
      "Ġviolet": 2054,
      "umono": 2055,
      "Ġhon": 2056,
      "essential": 2057,
      "Ġrain": 2058,
      "plets": 2059,
      "Ġjitsu": 2060,
      "Ġpanic": 2061,
      "Ġgensouki": 2062,
      "Ġusagi": 2063,
      "Ġrising": 2064,
      "Ġhatsukoi": 2065,
      "Ġscissor": 2066,
      "Ġjormungand": 2067,
      "Ġevergarden": 2068,
      "Ġragnarok": 2069,
      "Ġquintessential": 2070,
      "Ġquintuplets": 2071,
      "kkou": 2072,
      "pai": 2073,
      "zy": 2074,
      "Ġult": 2075,
      "ere": 2076,
      "Ġbreak": 2077,
      "Ġcir": 2078,
      "uta": 2079,
      "Ġpu": 2080,
      "Ġtour": 2081,
      "vel": 2082,
      "una": 2083,
      "Ġitsu": 2084,
      "Ġyona": 2085,
      "Ġyakus": 2086,
      "Ġegg": 2087,
      "Ġgakkou": 2088,
      "ection": 2089,
      "Ġuzaki": 2090,
      "Ġclann": 2091,
      "elier": 2092,
      "Ġxian": 2093,
      "jitsu": 2094,
      "Ġyume": 2095,
      "Ġyuki": 2096,
      "Ġplace": 2097,
      "Ġsenpai": 2098,
      "Ġhanay": 2099,
      "Ġatelier": 2100,
      "Ġmiy": 2101,
      "Ġhitori": 2102,
      "Ġdiabolism": 2103,
      "Ġeater": 2104,
      "Ġknows": 2105,
      "blooded": 2106,
      "Ġyakusoku": 2107,
      "Ġclannad": 2108,
      "gr": 2109,
      "son": 2110,
      "arara": 2111,
      "eren": 2112,
      "Ġmach": 2113,
      "Ġmado": 2114,
      "Ġfri": 2115,
      "Ġcrim": 2116,
      "Ġdec": 2117,
      "Ġdur": 2118,
      "Ġdel": 2119,
      "Ġgrap": 2120,
      "outo": 2121,
      "Ġnorn": 2122,
      "Ġkidoutai": 2123,
      "raw": 2124,
      "Ġhoney": 2125,
      "movie": 2126,
      "Ġvan": 2127,
      "Ġjunjou": 2128,
      "Ġgrisai": 2129,
      "Ġkakushi": 2130,
      "Ġundead": 2131,
      "Ġmachine": 2132,
      "Ġfrieren": 2133,
      "Ġcrimson": 2134,
      "Ġdurarara": 2135,
      "Ġgrisaia": 2136,
      "io": 2137,
      "punch": 2138,
      "tra": 2139,
      "ano": 2140,
      "Ġsas": 2141,
      "inbou": 2142,
      "Ġair": 2143,
      "holic": 2144,
      "Ġprior": 2145,
      "ush": 2146,
      "Ġtop": 2147,
      "omi": 2148,
      "oman": 2149,
      "Ġippo": 2150,
      "Ġoshi": 2151,
      "Ġryuu": 2152,
      "anga": 2153,
      "Ġshell": 2154,
      "Ġzu": 2155,
      "Ġraise": 2156,
      "ells": 2157,
      "Ġelf": 2158,
      "Ġwandering": 2159,
      "Ġsasaki": 2160,
      "Ġpriority": 2161,
      ").": 2162,
      "cle": 2163,
      "ix": 2164,
      "pa": 2165,
      "uki": 2166,
      "uuni": 2167,
      "Ġri": 2168,
      "Ġill": 2169,
      "noc": 2170,
      "Ġmade": 2171,
      "Ġcap": 2172,
      "Ġcross": 2173,
      "Ġdemo": 2174,
      "Ġaf": 2175,
      "asing": 2176,
      "Ġtama": 2177,
      "roku": 2178,
      "Ġchuuni": 2179,
      "Ġretsuko": 2180,
      "kui": 2181,
      "Ġinnoc": 2182,
      "artpho": 2183,
      "entif": 2184,
      "Ġteasing": 2185,
      "Ġstamp": 2186,
      "Ġway": 2187,
      "Ġvill": 2188,
      "Ġbeyblade": 2189,
      "Ġshitai": 2190,
      "Ġaggressive": 2191,
      "Ġdenpa": 2192,
      "Ġneverland": 2193,
      "Ġscientif": 2194,
      "Ġglass": 2195,
      "Ġasterisk": 2196,
      "Ġsmartpho": 2197,
      "Ġkakumei": 2198,
      "Ġchuunibyou": 2199,
      "Ġstampede": 2200,
      "Ġscientific": 2201,
      "Ġsmartphone": 2202,
      "ctor": 2203,
      "kketsu": 2204,
      "time": 2205,
      "xy": 2206,
      "yori": 2207,
      "Ġmur": 2208,
      "Ġborn": 2209,
      "Ġdatta": 2210,
      "Ġaishi": 2211,
      "lotte": 2212,
      "Ġkat": 2213,
      "Ġkyuu": 2214,
      "ider": 2215,
      "Ġsuru": 2216,
      "ights": 2217,
      "Ġok": 2218,
      "Ġcharlotte": 2219,
      "Ġcastle": 2220,
      "Ġgood": 2221,
      "elle": 2222,
      "Ġshik": 2223,
      "Ġhot": 2224,
      "Ġbrothers": 2225,
      "Ġstrongest": 2226,
      "ake": 2227,
      "baka": 2228,
      "bless": 2229,
      "gers": 2230,
      "gend": 2231,
      "lim": 2232,
      "vrave": 2233,
      "zou": 2234,
      "Ġver": 2235,
      "Ġwak": 2236,
      "Ġbart": 2237,
      "Ġtem": 2238,
      "reta": 2239,
      "Ġtomare": 2240,
      "Ġos": 2241,
      "Ġocc": 2242,
      "Ġyome": 2243,
      "Ġyama": 2244,
      "rike": 2245,
      "Ġare": 2246,
      "Ġarifu": 2247,
      "Ġrond": 2248,
      "Ġride": 2249,
      "Ġjobless": 2250,
      "Ġstrike": 2251,
      "Ġzetsu": 2252,
      "Ġnanbaka": 2253,
      "Ġlegend": 2254,
      "Ġjunjo": 2255,
      "Ġrevengers": 2256,
      "Ġvalvrave": 2257,
      "Ġshoukanjuu": 2258,
      "Ġkamigami": 2259,
      "Ġeiyuu": 2260,
      "Ġassassination": 2261,
      "Ġsecret": 2262,
      "Ġdestiny": 2263,
      "limited": 2264,
      "Ġbartender": 2265,
      "Ġoccult": 2266,
      "Ġarifureta": 2267,
      "Ġrondo": 2268,
      "):": 2269,
      "boutai": 2270,
      "hai": 2271,
      "kushi": 2272,
      "Ġ00": 2273,
      "eri": 2274,
      "Ġlion": 2275,
      "Ġby": 2276,
      "Ġcr": 2277,
      "Ġald": 2278,
      "teru": 2279,
      "giz": 2280,
      "Ġeden": 2281,
      "Ġars": 2282,
      "Ġgos": 2283,
      "ako": 2284,
      "Ġbocchi": 2285,
      "Ġkot": 2286,
      "Ġbear": 2287,
      "Ġkaban": 2288,
      "Ġshouboutai": 2289,
      "Ġhair": 2290,
      "Ġhanma": 2291,
      "Ġenen": 2292,
      "Ġtonari": 2293,
      "Ġtrick": 2294,
      "Ġsquad": 2295,
      "Ġwalk": 2296,
      "Ġhikaru": 2297,
      "Ġrailgun": 2298,
      "Ġhyouka": 2299,
      "Ġrumble": 2300,
      "Ġkabaneri": 2301,
      "gima": 2302,
      "hle": 2303,
      "mashita": 2304,
      "ran": 2305,
      "sit": 2306,
      "xx": 2307,
      "zan": 2308,
      "Ġlet": 2309,
      "Ġcent": 2310,
      "Ġcub": 2311,
      "Ġdense": 2312,
      "Ġdasu": 2313,
      "tsushi": 2314,
      "ester": 2315,
      "ndary": 2316,
      "Ġshiru": 2317,
      "Ġnegima": 2318,
      "Ġhome": 2319,
      "Ġaoi": 2320,
      "Ġhana": 2321,
      "Ġmashle": 2322,
      "Ġasu": 2323,
      "hura": 2324,
      "Ġdiary": 2325,
      "Ġboundary": 2326,
      "Ġlaid": 2327,
      "Ġgreen": 2328,
      "Ġbabysit": 2329,
      "Ġninja": 2330,
      "Ġakuyaku": 2331,
      "Ġsilent": 2332,
      "Ġwhat": 2333,
      "Ġeternity": 2334,
      "Ġomo": 2335,
      "Ġdensetsu": 2336,
      "esterday": 2337,
      "ave": 2338,
      "uck": 2339,
      "Ġsom": 2340,
      "Ġwas": 2341,
      "Ġluck": 2342,
      "Ġmac": 2343,
      "Ġfle": 2344,
      "Ġfall": 2345,
      "Ġback": 2346,
      "Ġdrop": 2347,
      "Ġtany": 2348,
      "reet": 2349,
      "ute": 2350,
      "Ġseit": 2351,
      "Ġchr": 2352,
      "Ġrev": 2353,
      "Ġyoujo": 2354,
      "Ġteacher": 2355,
      "Ġshield": 2356,
      "Ġtsuu": 2357,
      "Ġsennen": 2358,
      "Ġkings": 2359,
      "Ġmission": 2360,
      "Ġoreimo": 2361,
      "Ġasobi": 2362,
      "Ġmacross": 2363,
      "Ġtanya": 2364,
      "Ġseito": 2365,
      "gaku": 2366,
      "pse": 2367,
      "wanai": 2368,
      "ĠÏ": 2369,
      "orpse": 2370,
      "Ġwings": 2371,
      "Ġcorpse": 2372,
      "Ġpal": 2373,
      "usion": 2374,
      "Ġiron": 2375,
      "Ġyar": 2376,
      "Ġevery": 2377,
      "ria": 2378,
      "Ġmysterious": 2379,
      "Ġmayo": 2380,
      "kousei": 2381,
      "Ġkoe": 2382,
      "iren": 2383,
      "Ġoni": 2384,
      "!!,": 2385,
      "kyria": 2386,
      "aruko": 2387,
      "Ġseijo": 2388,
      "Ġvalkyria": 2389,
      "Ġchain": 2390,
      "Ġflowers": 2391,
      "Ġreturn": 2392,
      "Ġnyaruko": 2393,
      "Ġwarawanai": 2394,
      "Ġhanayome": 2395,
      "be": 2396,
      "co": 2397,
      "hy": 2398,
      "kak": 2399,
      "lan": 2400,
      "mai": 2401,
      "nemo": 2402,
      "ervo": 2403,
      "noh": 2404,
      "Ġmashi": 2405,
      "Ġmnemo": 2406,
      "Ġcho": 2407,
      "Ġhapp": 2408,
      "imetsu": 2409,
      "atoro": 2410,
      "Ġphi": 2411,
      "Ġsun": 2412,
      "Ġyab": 2413,
      "Ġyasha": 2414,
      "syne": 2415,
      "Ġboss": 2416,
      "Ġneon": 2417,
      "tousei": 2418,
      "Ġtsui": 2419,
      "moon": 2420,
      "Ġseih": 2421,
      "Ġsaiki": 2422,
      "Ġgods": 2423,
      "bito": 2424,
      "Ġreservo": 2425,
      "Ġstranger": 2426,
      "Ġguns": 2427,
      "Ġbeastars": 2428,
      "Ġnagatoro": 2429,
      "Ġskill": 2430,
      "Ġdandadan": 2431,
      "Ġsaekano": 2432,
      "Ġrettousei": 2433,
      "amatora": 2434,
      "Ġmnemosyne": 2435,
      "Ġhappy": 2436,
      "Ġyashahime": 2437,
      "Ġreservoir": 2438,
      "ging": 2439,
      "gant": 2440,
      "jisan": 2441,
      "min": 2442,
      "smi": 2443,
      "uch": 2444,
      "zoku": 2445,
      "Ġsid": 2446,
      "ory": 2447,
      "oragami": 2448,
      "argant": 2449,
      "era": 2450,
      "Ġmis": 2451,
      "Ġmachi": 2452,
      "Ġfal": 2453,
      "Ġfron": 2454,
      "Ġaven": 2455,
      "Ġaqu": 2456,
      "onia": 2457,
      "Ġgargant": 2458,
      "Ġhx": 2459,
      "louch": 2460,
      "Ġseik": 2461,
      "Ġkik": 2462,
      "Ġiru": 2463,
      "Ġojisan": 2464,
      "Ġeve": 2465,
      "Ġact": 2466,
      "Ġnoragami": 2467,
      "Ġ21": 2468,
      "Ġdarling": 2469,
      "Ġsusume": 2470,
      "place": 2471,
      "uuden": 2472,
      "yous": 2473,
      "Ġtsuk": 2474,
      "Ġblacksmi": 2475,
      "Ġrave": 2476,
      "Ġlelouch": 2477,
      "Ġyourself": 2478,
      "Ġ01": 2479,
      "Ġamagami": 2480,
      "Ġpres": 2481,
      "Ġtonikaku": 2482,
      "Ġtanaka": 2483,
      "Ġboukensha": 2484,
      "Ġshippuuden": 2485,
      "Ġgeass": 2486,
      "Ġsidonia": 2487,
      "Ġfalse": 2488,
      "Ġfrontier": 2489,
      "Ġavenging": 2490,
      "Ġgargantia": 2491,
      "Ġblacksmith": 2492,
      "bub": 2493,
      "dai": 2494,
      "dle": 2495,
      "six": 2496,
      "Ġvers": 2497,
      "Ġss": 2498,
      "Ġsand": 2499,
      "arlet": 2500,
      "Ġmik": 2501,
      "Ġtens": 2502,
      "aled": 2503,
      "Ġgent": 2504,
      "Ġsealed": 2505,
      "Ġkomi": 2506,
      "Ġtodo": 2507,
      "iddle": 2508,
      "imi": 2509,
      "Ġscarlet": 2510,
      "agari": 2511,
      "Ġchamp": 2512,
      "Ġyori": 2513,
      "Ġlock": 2514,
      "Ġforte": 2515,
      "ita": 2516,
      "Ġeighty": 2517,
      "Ġworking": 2518,
      "Ġtrigg": 2519,
      "elze": 2520,
      "Ġkoku": 2521,
      "Ġbeelze": 2522,
      "!!!": 2523,
      "Ġparty": 2524,
      "Ġseiya": 2525,
      "Ġnana": 2526,
      "ude": 2527,
      "Ġreco": 2528,
      "Ġkijin": 2529,
      "Ġcollection": 2530,
      "Ġrealist": 2531,
      "Ġcircus": 2532,
      "Ġtodoke": 2533,
      "Ġtrigger": 2534,
      "Ġbeelzebub": 2535,
      "iwa": 2536,
      "mis": 2537,
      "ugh": 2538,
      "uden": 2539,
      "ment": 2540,
      "Ġansatsu": 2541,
      "Ġlago": 2542,
      "Ġmichi": 2543,
      "Ġcro": 2544,
      "Ġcle": 2545,
      "asaku": 2546,
      "Ġgou": 2547,
      "imens": 2548,
      "Ġwish": 2549,
      "Ġpet": 2550,
      "ilisk": 2551,
      "amura": 2552,
      "Ġoce": 2553,
      "Ġnari": 2554,
      "Ġheard": 2555,
      "Ġinto": 2556,
      "Ġmajin": 2557,
      "Ġshe": 2558,
      "view": 2559,
      "Ġshir": 2560,
      "Ġyuuna": 2561,
      "Ġkuroiwa": 2562,
      "Ġdaugh": 2563,
      "Ġkouga": 2564,
      "Ġsaitou": 2565,
      "Ġbasilisk": 2566,
      "Ġhanasaku": 2567,
      "Ġhaven": 2568,
      "Ġpromis": 2569,
      "Ġjuni": 2570,
      "Ġpark": 2571,
      "Ġbrother": 2572,
      "Ġscience": 2573,
      "Ġsilver": 2574,
      "Ġshippuden": 2575,
      "Ġburst": 2576,
      "Ġmurder": 2577,
      "Ġlagoon": 2578,
      "imension": 2579,
      "Ġocean": 2580,
      "Ġpromised": 2581,
      "fl": 2582,
      "gar": 2583,
      "ient": 2584,
      "wbo": 2585,
      "Ġ6": 2586,
      "Ġlad": 2587,
      "hood": 2588,
      "Ġwill": 2589,
      "Ġseisen": 2590,
      "Ġthere": 2591,
      "ione": 2592,
      "Ġspr": 2593,
      "Ġyam": 2594,
      "bop": 2595,
      "Ġry": 2596,
      "Ġbebop": 2597,
      "Ġ14": 2598,
      "Ġname": 2599,
      "Ġmaidens": 2600,
      "Ġtenkuu": 2601,
      "Ġcowbo": 2602,
      "insaw": 2603,
      "Ġcampione": 2604,
      "Ġjijou": 2605,
      "Ġreborn": 2606,
      "Ġchainsaw": 2607,
      "Ġyakumo": 2608,
      "Ġcowboy": 2609,
      "99": 2610,
      "puu": 2611,
      "wer": 2612,
      "zer": 2613,
      "¼re": 2614,
      "Ã¼re": 2615,
      "âģ": 2616,
      "Ġ~": 2617,
      "Ġemin": 2618,
      "Ġsaku": 2619,
      "iness": 2620,
      "arts": 2621,
      "Ġlist": 2622,
      "Ġfren": 2623,
      "Ġbor": 2624,
      "ants": 2625,
      "Ġnob": 2626,
      "Ġtantei": 2627,
      "Ġhusband": 2628,
      "Ġkusu": 2629,
      "Ġtotor": 2630,
      "Ġscore": 2631,
      "Ġpop": 2632,
      "agaru": 2633,
      "ffin": 2634,
      "ada": 2635,
      "Ġed": 2636,
      "Ġdown": 2637,
      "Ġnago": 2638,
      "Ġhearts": 2639,
      "Ġuz": 2640,
      "Ġrun": 2641,
      "Ġextra": 2642,
      "Ġbox": 2643,
      "Ġzhi": 2644,
      "Ġbeat": 2645,
      "Ġxia": 2646,
      "tty": 2647,
      "Ġcoffin": 2648,
      "Ġgener": 2649,
      "Ġpretty": 2650,
      "Ġpanzer": 2651,
      "Ġtanin": 2652,
      "Ġranma": 2653,
      "Ġakuma": 2654,
      "Ġeternal": 2655,
      "Ġkurage": 2656,
      "Ġhalf": 2657,
      "Ġvanitas": 2658,
      "ĠwalkÃ¼re": 2659,
      "âģĦ": 2660,
      "Ġeminence": 2661,
      "Ġfrenzy": 2662,
      "Ġtotoro": 2663,
      "Ġnagoya": 2664,
      "aff": 2665,
      "by": 2666,
      "bers": 2667,
      "ca": 2668,
      "demo": 2669,
      "dachi": 2670,
      "demon": 2671,
      "eno": 2672,
      "ful": 2673,
      "mmo": 2674,
      "phan": 2675,
      "rmmo": 2676,
      "tw": 2677,
      "vat": 2678,
      "ycle": 2679,
      "Ġsore": 2680,
      "Ġsiri": 2681,
      "Ġsos": 2682,
      "thet": 2683,
      "arer": 2684,
      "Ġmin": 2685,
      "Ġmak": 2686,
      "Ġbul": 2687,
      "Ġbub": 2688,
      "Ġcall": 2689,
      "Ġcycle": 2690,
      "Ġnobun": 2691,
      "Ġaes": 2692,
      "Ġaff": 2693,
      "enai": 2694,
      "Ġorphan": 2695,
      "Ġgur": 2696,
      "Ġhaku": 2697,
      "Ġpori": 2698,
      "kiri": 2699,
      "Ġook": 2700,
      "itory": 2701,
      "Ġaccel": 2702,
      "Ġacca": 2703,
      "Ġcomes": 2704,
      "Ġuzum": 2705,
      "Ġclick": 2706,
      "Ġstaff": 2707,
      "Ġhost": 2708,
      "Ġxxx": 2709,
      "Ġkubi": 2710,
      "Ġsav": 2711,
      "Ġvrmmo": 2712,
      "rinin": 2713,
      "Ġdao": 2714,
      "Ġsengoku": 2715,
      "Ġkouho": 2716,
      "Ġalice": 2717,
      "Ġunbreak": 2718,
      "awarer": 2719,
      "Ġmarch": 2720,
      "Ġmaria": 2721,
      "Ġutawarer": 2722,
      "Ġcerber": 2723,
      "bane": 2724,
      "Ġsinbad": 2725,
      "Ġgalko": 2726,
      "Ġmembers": 2727,
      "Ġowari": 2728,
      "Ġcolor": 2729,
      "Ġtomodachi": 2730,
      "Ġranbu": 2731,
      "Ġinvad": 2732,
      "Ġouran": 2733,
      "Ġhourou": 2734,
      "Ġlink": 2735,
      "omania": 2736,
      "Ġcrus": 2737,
      "Ġsoredemo": 2738,
      "Ġsirius": 2739,
      "thetica": 2740,
      "Ġbullet": 2741,
      "Ġbubble": 2742,
      "Ġaesthetica": 2743,
      "Ġaffection": 2744,
      "Ġorphans": 2745,
      "Ġporiomania": 2746,
      "Ġookami": 2747,
      "Ġuzumaki": 2748,
      "Ġxxxholic": 2749,
      "Ġkubikiri": 2750,
      "Ġunbreakable": 2751,
      "Ġutawarerumono": 2752,
      "Ġcerberus": 2753,
      ".?": 2754,
      "boroshi": 2755,
      "fer": 2756,
      "iet": 2757,
      "oter": 2758,
      "race": 2759,
      "uo": 2760,
      "Ġsite": 2761,
      "men": 2762,
      "Ġwang": 2763,
      "Ġmad": 2764,
      "Ġben": 2765,
      "Ġbir": 2766,
      "Ġcord": 2767,
      "Ġchou": 2768,
      "Ġcaf": 2769,
      "Ġnoz": 2770,
      "engh": 2771,
      "Ġtame": 2772,
      "ali": 2773,
      "Ġhin": 2774,
      "Ġprim": 2775,
      "Ġshooter": 2776,
      "Ġjul": 2777,
      "giru": 2778,
      "Ġdoctor": 2779,
      "Ġaraka": 2780,
      "Ġrich": 2781,
      "Ġtekketsu": 2782,
      "Ġmatsu": 2783,
      "Ġmaboroshi": 2784,
      "Ġshengh": 2785,
      "Ġdriver": 2786,
      "Ġblame": 2787,
      "Ġbeaut": 2788,
      "ign": 2789,
      "Ġkaze": 2790,
      "Ġseikatsu": 2791,
      "Ġbunny": 2792,
      "Ġtale": 2793,
      "iful": 2794,
      "Ġshokugyou": 2795,
      "akush": 2796,
      "Ġservant": 2797,
      "Ġterrace": 2798,
      "Ġyakuza": 2799,
      "Ġinsp": 2800,
      "Ġsquid": 2801,
      "Ġmononokean": 2802,
      "Ġpasso": 2803,
      "Ġoriginal": 2804,
      "Ġdecode": 2805,
      "Ġkakushigoto": 2806,
      "Ġcentaur": 2807,
      "Ġbirdy": 2808,
      "Ġcorda": 2809,
      "ĠcafÃ©": 2810,
      "Ġtamer": 2811,
      "Ġprimo": 2812,
      "Ġjuliet": 2813,
      "Ġarakawa": 2814,
      "Ġrichang": 2815,
      "Ġshenghuo": 2816,
      "Ġbeautiful": 2817,
      "bai": 2818,
      "cl": 2819,
      "cend": 2820,
      "da": 2821,
      "ng": 2822,
      "ril": 2823,
      "tai": 2824,
      "worm": 2825,
      "yom": 2826,
      "Ġvo": 2827,
      "inary": 2828,
      "araku": 2829,
      "arishi": 2830,
      "Ġlie": 2831,
      "Ġmor": 2832,
      "Ġbit": 2833,
      "Ġcells": 2834,
      "Ġnoko": 2835,
      "Ġnomi": 2836,
      "Ġazum": 2837,
      "asumi": 2838,
      "Ġtori": 2839,
      "Ġhay": 2840,
      "Ġpup": 2841,
      "Ġseish": 2842,
      "Ġkart": 2843,
      "Ġshoul": 2844,
      "ema": 2845,
      "Ġyesterday": 2846,
      "Ġchara": 2847,
      "Ġmago": 2848,
      "Ġmagister": 2849,
      "ations": 2850,
      "thering": 2851,
      "Ġshak": 2852,
      "pler": 2853,
      "Ġzo": 2854,
      "young": 2855,
      "zuka": 2856,
      "Ġkemono": 2857,
      "Ġascend": 2858,
      "Ġcoil": 2859,
      "Ġbookworm": 2860,
      "Ġshugo": 2861,
      "Ġflcl": 2862,
      "Ġredial": 2863,
      "Ġkokka": 2864,
      "bitai": 2865,
      "Ġasobitai": 2866,
      "Ġterra": 2867,
      "Ġapril": 2868,
      "Ġameku": 2869,
      "Ġhataraku": 2870,
      "Ġdeshita": 2871,
      "Ġordinary": 2872,
      "Ġpatema": 2873,
      "Ġfourth": 2874,
      "Ġgrappler": 2875,
      "Ġokarishi": 2876,
      "Ġazumanga": 2877,
      "Ġhayate": 2878,
      "Ġseishun": 2879,
      "Ġkarte": 2880,
      "Ġshould": 2881,
      "Ġascendance": 2882,
      "Ġokarishimasu": 2883,
      "bin": 2884,
      "du": 2885,
      "hine": 2886,
      "hild": 2887,
      "ife": 2888,
      "jir": 2889,
      "nhild": 2890,
      "pest": 2891,
      "pot": 2892,
      "sei": 2893,
      "ted": 2894,
      "Ġul": 2895,
      "Ġqi": 2896,
      "Ļ¥": 2897,
      "Ġsis": 2898,
      "Ġanata": 2899,
      "kegurui": 2900,
      "Ġmany": 2901,
      "Ġfume": 2902,
      "Ġbry": 2903,
      "Ġbake": 2904,
      "asan": 2905,
      "Ġtat": 2906,
      "Ġgj": 2907,
      "Ġpers": 2908,
      "Ġpap": 2909,
      "Ġkuu": 2910,
      "Ġkitan": 2911,
      "Ġkni": 2912,
      "usica": 2913,
      "Ġtoshi": 2914,
      "Ġrose": 2915,
      "omatsu": 2916,
      "Ġsuns": 2917,
      "Ġje": 2918,
      "agura": 2919,
      "Ġijir": 2920,
      "gios": 2921,
      "inda": 2922,
      "Ġregios": 2923,
      "adou": 2924,
      "Ġep": 2925,
      "riya": 2926,
      "Ġgakus": 2927,
      "Ġ20": 2928,
      "Ġhei": 2929,
      "Ġswim": 2930,
      "Ġgoku": 2931,
      "Ġgokus": 2932,
      "Ġrin": 2933,
      "Ġtwin": 2934,
      "Ġmao": 2935,
      "Ġmake": 2936,
      "Ġshinda": 2937,
      "Ġrelife": 2938,
      "Ġbokus": 2939,
      "Ġshiken": 2940,
      "Ġshimasu": 2941,
      "Ġbegin": 2942,
      "Ġkakegurui": 2943,
      "ards": 2944,
      "Ġballroom": 2945,
      "Ġnausica": 2946,
      "fudou": 2947,
      "Ġunlimited": 2948,
      "Ġhave": 2949,
      "anaide": 2950,
      "hufudou": 2951,
      "nipot": 2952,
      "Ġhigashi": 2953,
      "Ġflag": 2954,
      "Ġbroly": 2955,
      "Ġhowl": 2956,
      "Ġidaten": 2957,
      "Ġdisapp": 2958,
      "ysses": 2959,
      "Ġflower": 2960,
      "Ġdiabolik": 2961,
      "rough": 2962,
      "Ġomnipot": 2963,
      "Ġmerry": 2964,
      "Ġkiniro": 2965,
      "Ġgoddesses": 2966,
      "Ġhaganai": 2967,
      "Ġhidan": 2968,
      "Ġponyo": 2969,
      "Ġsteps": 2970,
      "Ġashita": 2971,
      "Ġtempest": 2972,
      "Ġosomatsu": 2973,
      "Ġmikagura": 2974,
      "nhildr": 2975,
      "Ġulysses": 2976,
      "Ġfumetsu": 2977,
      "Ġbrynhildr": 2978,
      "Ġbakemono": 2979,
      "Ġpersona": 2980,
      "Ġknife": 2981,
      "Ġsunshine": 2982,
      "Ġijiranaide": 2983,
      "Ġgakusen": 2984,
      "Ġgokushufudou": 2985,
      "Ġbokusatsu": 2986,
      "Ġbeginning": 2987,
      "ĠnausicaÃ¤": 2988,
      "Ġdisappear": 2989,
      "Ġomnipotent": 2990,
      "eting": 2991,
      "nia": 2992,
      "oking": 2993,
      "ryo": 2994,
      "uya": 2995,
      "ving": 2996,
      "vanc": 2997,
      "wam": 2998,
      "non": 2999,
      "Ġbal": 3000,
      "Ġcraw": 3001,
      "anted": 3002,
      "Ġdress": 3003,
      "Ġah": 3004,
      "Ġajin": 3005,
      "hon": 3006,
      "onara": 3007,
      "Ġped": 3008,
      "Ġmeiro": 3009,
      "Ġkout": 3010,
      "ushou": 3011,
      "Ġstudy": 3012,
      "omiya": 3013,
      "Ġsuisei": 3014,
      "union": 3015,
      "Ġitt": 3016,
      "Ġoo": 3017,
      "Ġadvanc": 3018,
      "Ġlooking": 3019,
      "chic": 3020,
      "adale": 3021,
      "rika": 3022,
      "Ġpsychic": 3023,
      "Ġuchi": 3024,
      "Ġrent": 3025,
      "Ġtei": 3026,
      "rain": 3027,
      "Ġtrigun": 3028,
      "Ġnihon": 3029,
      "Ġsaki": 3030,
      "Ġdragonar": 3031,
      "Ġall": 3032,
      "Ġalway": 3033,
      "Ġleadale": 3034,
      "Ġchio": 3035,
      "Ġprincesses": 3036,
      "Ġyowam": 3037,
      "awareta": 3038,
      "etsujou": 3039,
      "Ġhajimemashita": 3040,
      "Ġninomiya": 3041,
      "Ġkaguya": 3042,
      "Ġurara": 3043,
      "Ġichigo": 3044,
      "girlfriend": 3045,
      "inaoshi": 3046,
      "arotte": 3047,
      "Ġumaru": 3048,
      "Ġsayonara": 3049,
      "Ġhimouto": 3050,
      "Ġastarotte": 3051,
      "Ġhonki": 3052,
      "Ġjitsuryo": 3053,
      "Ġtamako": 3054,
      "Ġzetsubou": 3055,
      "Ġarslan": 3056,
      "ĠÏī": 3057,
      "Ġyarinaoshi": 3058,
      "Ġbalance": 3059,
      "Ġcrawling": 3060,
      "Ġpedal": 3061,
      "Ġkoutetsujou": 3062,
      "Ġittara": 3063,
      "Ġadvanced": 3064,
      "Ġalways": 3065,
      "Ġyowamushi": 3066,
      "ail": 3067,
      "axy": 3068,
      "bak": 3069,
      "gal": 3070,
      "gurashi": 3071,
      "hay": 3072,
      "hashi": 3073,
      "head": 3074,
      "iyori": 3075,
      "kom": 3076,
      "kage": 3077,
      "kare": 3078,
      "ps": 3079,
      "run": 3080,
      "ryou": 3081,
      "anku": 3082,
      "Ġsod": 3083,
      "mell": 3084,
      "kebi": 3085,
      "Ġlite": 3086,
      "inga": 3087,
      "Ġflo": 3088,
      "Ġbak": 3089,
      "Ġbiyori": 3090,
      "Ġcrom": 3091,
      "Ġakebi": 3092,
      "Ġguy": 3093,
      "Ġganku": 3094,
      "Ġwiz": 3095,
      "Ġmegal": 3096,
      "los": 3097,
      "imai": 3098,
      "Ġja": 3099,
      "unk": 3100,
      "unkoku": 3101,
      "Ġiku": 3102,
      "Ġita": 3103,
      "kiru": 3104,
      "inder": 3105,
      "astrous": 3106,
      "Ġmagmell": 3107,
      "tsuou": 3108,
      "Ġhel": 3109,
      "Ġinari": 3110,
      "Ġfool": 3111,
      "artie": 3112,
      "Ġaru": 3113,
      "ssom": 3114,
      "Ġuma": 3115,
      "Ġron": 3116,
      "ouryaku": 3117,
      "raku": 3118,
      "Ġkoto": 3119,
      "Ġshiaw": 3120,
      "Ġneed": 3121,
      "Ġkaisha": 3122,
      "zure": 3123,
      "zukai": 3124,
      "Ġkamono": 3125,
      "Ġkyoushi": 3126,
      "Ġsaiunkoku": 3127,
      "Ġfinale": 3128,
      "Ġlevel": 3129,
      "Ġtakop": 3130,
      "Ġchihay": 3131,
      "Ġoverrun": 3132,
      "Ġkamikak": 3133,
      "Ġmissing": 3134,
      "Ġenc": 3135,
      "ketsuki": 3136,
      "2019": 3137,
      "afuru": 3138,
      "Ġgalaxy": 3139,
      "Ġdisastrous": 3140,
      "Ġfuufu": 3141,
      "Ġworksho": 3142,
      "Ġsankare": 3143,
      "Ġjigokuraku": 3144,
      "Ġapple": 3145,
      "Ġryuusei": 3146,
      "Ġblossom": 3147,
      "Ġcafe": 3148,
      "Ġkakumeiki": 3149,
      "Ġkyuuketsuki": 3150,
      "Ġversail": 3151,
      "Ġtensai": 3152,
      "Ġsoda": 3153,
      "Ġflops": 3154,
      "Ġbakuten": 3155,
      "Ġcromartie": 3156,
      "Ġgankutsuou": 3157,
      "Ġmegalo": 3158,
      "Ġshiawase": 3159,
      "Ġkamonohashi": 3160,
      "Ġtakopi": 3161,
      "Ġchihayafuru": 3162,
      "Ġkamikakushi": 3163,
      "Ġworkshop": 3164,
      "Ġsankarea": 3165,
      "Ġversailles": 3166,
      "200": 3167,
      "br": 3168,
      "kata": 3169,
      "lio": 3170,
      "nai": 3171,
      "zing": 3172,
      "Ġ\"": 3173,
      "ane": 3174,
      "Ġlup": 3175,
      "Ġmou": 3176,
      "Ġmmo": 3177,
      "Ġcag": 3178,
      "asai": 3179,
      "Ġhy": 3180,
      "ico": 3181,
      "ils": 3182,
      "Ġkikan": 3183,
      "Ġtown": 3184,
      "isuru": 3185,
      "Ġrott": 3186,
      "Ġjap": 3187,
      "Ġira": 3188,
      "kie": 3189,
      "adin": 3190,
      "Ġacross": 3191,
      "kuma": 3192,
      "rie": 3193,
      "riage": 3194,
      "Ġnet": 3195,
      "Ġharuta": 3196,
      "arty": 3197,
      "Ġumi": 3198,
      "chika": 3199,
      "Ġdata": 3200,
      "Ġshigurui": 3201,
      "aries": 3202,
      "stro": 3203,
      "Ġtsur": 3204,
      "zuku": 3205,
      "Ġnanana": 3206,
      "Ġkenpuu": 3207,
      "Ġchika": 3208,
      "Ġwitches": 3209,
      "Ġtengoku": 3210,
      "Ġhiiro": 3211,
      "Ġdandy": 3212,
      "Ġjunkie": 3213,
      "Ġdiaries": 3214,
      "Ġchronicles": 3215,
      "Ġmarriage": 3216,
      "Ġshugi": 3217,
      "Ġsonico": 3218,
      "Ġkingdoms": 3219,
      "Ġharuchika": 3220,
      "Ġhajimeru": 3221,
      "Ġkakera": 3222,
      "Ġterror": 3223,
      "Ġmoriarty": 3224,
      "usui": 3225,
      "Ġfreezing": 3226,
      "Ġinsom": 3227,
      "Ġspoils": 3228,
      "ances": 3229,
      "Ġafter": 3230,
      "Ġvilla": 3231,
      "Ġpaladin": 3232,
      "Ġrecovery": 3233,
      "liostro": 3234,
      "Ġlupin": 3235,
      "Ġcagliostro": 3236,
      "Ġrotten": 3237,
      "Ġjapan": 3238,
      "bb": 3239,
      "bus": 3240,
      "cur": 3241,
      "di": 3242,
      "dame": 3243,
      "dive": 3244,
      "fit": 3245,
      "kreet": 3246,
      "nagi": 3247,
      "nament": 3248,
      "ric": 3249,
      "uqi": 3250,
      "inu": 3251,
      "Ġwu": 3252,
      "Ġlaw": 3253,
      "Ġliuqi": 3254,
      "Ġmr": 3255,
      "Ġbet": 3256,
      "Ġcant": 3257,
      "Ġnow": 3258,
      "Ġnodame": 3259,
      "Ġdum": 3260,
      "engu": 3261,
      "Ġtip": 3262,
      "Ġtrap": 3263,
      "utai": 3264,
      "Ġpin": 3265,
      "Ġpengu": 3266,
      "icle": 3267,
      "Ġmet": 3268,
      "Ġkado": 3269,
      "Ġtower": 3270,
      "imb": 3271,
      "Ġthir": 3272,
      "Ġshoutai": 3273,
      "Ġsuki": 3274,
      "unji": 3275,
      "astic": 3276,
      "Ġyur": 3277,
      "Ġseton": 3278,
      "tsuzou": 3279,
      "Ġhetal": 3280,
      "Ġinab": 3281,
      "Ġmagica": 3282,
      "Ġarashi": 3283,
      "Ġmotion": 3284,
      "Ġteam": 3285,
      "Ġtekkon": 3286,
      "Ġclimb": 3287,
      "Ġjoe": 3288,
      "ineko": 3289,
      "Ġshitsuji": 3290,
      "Ġshiunji": 3291,
      "eros": 3292,
      "Ġblud": 3293,
      "Ġnetsuzou": 3294,
      "iga": 3295,
      "Ġkuji": 3296,
      "Ġkabad": 3297,
      "Ġkannagi": 3298,
      "abile": 3299,
      "kyuu": 3300,
      "Ġplastic": 3301,
      "Ġnani": 3302,
      "Ġbasho": 3303,
      "rayal": 3304,
      "Ġdeadly": 3305,
      "Ġwater": 3306,
      "Ġoukoku": 3307,
      "Ġparade": 3308,
      "arete": 3309,
      "Ġsong": 3310,
      "Ġhito": 3311,
      "Ġgakuin": 3312,
      "2014": 3313,
      "geoning": 3314,
      "Ġgunbus": 3315,
      "lect": 3316,
      "Ġshadows": 3317,
      "Ġbravo": 3318,
      "Ġumineko": 3319,
      "Ġpicture": 3320,
      "Ġmaryoku": 3321,
      "Ġbannou": 3322,
      "Ġcuticle": 3323,
      "jutsushi": 3324,
      "Ġpuella": 3325,
      "Ġtournament": 3326,
      "Ġmiyano": 3327,
      "Ġmadoka": 3328,
      "Ġseitokai": 3329,
      "Ġmisfit": 3330,
      "Ġhxeros": 3331,
      "Ġrunway": 3332,
      "Ġbetrayal": 3333,
      "Ġcantabile": 3334,
      "Ġdumbb": 3335,
      "Ġthird": 3336,
      "Ġhetalia": 3337,
      "Ġinaba": 3338,
      "Ġbludgeoning": 3339,
      "Ġkabaddi": 3340,
      "Ġgunbuster": 3341,
      "bum": 3342,
      "husband": 3343,
      "iisan": 3344,
      "kkai": 3345,
      "lia": 3346,
      "lude": 3347,
      "nis": 3348,
      "ners": 3349,
      "xion": 3350,
      "yum": 3351,
      "Ġsing": 3352,
      "Ġwast": 3353,
      "kend": 3354,
      "Ġlily": 3355,
      "noah": 3356,
      "Ġmato": 3357,
      "Ġfif": 3358,
      "Ġdend": 3359,
      "Ġaa": 3360,
      "Ġakai": 3361,
      "Ġayum": 3362,
      "oniisan": 3363,
      "Ġgin": 3364,
      "Ġgarden": 3365,
      "rogr": 3366,
      "omo": 3367,
      "Ġsunoh": 3368,
      "agashi": 3369,
      "Ġikki": 3370,
      "Ġrest": 3371,
      "Ġreze": 3372,
      "Ġyoru": 3373,
      "Ġey": 3374,
      "cana": 3375,
      "lder": 3376,
      "Ġloved": 3377,
      "Ġheal": 3378,
      "Ġmagician": 3379,
      "Ġarcana": 3380,
      "Ġuq": 3381,
      "Ġuchuu": 3382,
      "kotsu": 3383,
      "eland": 3384,
      "iglia": 3385,
      "Ġones": 3386,
      "Ġholder": 3387,
      "Ġxy": 3388,
      "Ġsaji": 3389,
      "Ġkanon": 3390,
      "bike": 3391,
      "Ġkekkai": 3392,
      "Ġkoukousei": 3393,
      "Ġkyousou": 3394,
      "Ġalbum": 3395,
      "Ġtennis": 3396,
      "Ġslave": 3397,
      "Ġhibike": 3398,
      "Ġfamiglia": 3399,
      "bound": 3400,
      "Ġsinners": 3401,
      "Ġprelude": 3402,
      "Ġmoribito": 3403,
      "Ġhakkend": 3404,
      "Ġappear": 3405,
      "Ġsensen": 3406,
      "aurant": 3407,
      "yakusha": 3408,
      "Ġhousehusband": 3409,
      "Ġkeiyakusha": 3410,
      "Ġaishita": 3411,
      "elled": 3412,
      "Ġaldnoah": 3413,
      "Ġseihei": 3414,
      "Ġclear": 3415,
      "Ġfifth": 3416,
      "Ġdendrogr": 3417,
      "Ġayumu": 3418,
      "Ġsunohara": 3419,
      "Ġrestaurant": 3420,
      "Ġhakkenden": 3421,
      "Ġdendrogram": 3422,
      "24": 3423,
      "col": 3424,
      "gul": 3425,
      "hana": 3426,
      "kashi": 3427,
      "kkatsu": 3428,
      "lers": 3429,
      "mun": 3430,
      "nic": 3431,
      "pers": 3432,
      "sod": 3433,
      "anashi": 3434,
      "orig": 3435,
      "Ġbless": 3436,
      "Ġnozaki": 3437,
      "Ġnogiz": 3438,
      "Ġtu": 3439,
      "Ġtig": 3440,
      "Ġtond": 3441,
      "regul": 3442,
      "Ġgemin": 3443,
      "Ġhamatora": 3444,
      "atch": 3445,
      "icate": 3446,
      "icide": 3447,
      "Ġkis": 3448,
      "Ġtoday": 3449,
      "Ġroll": 3450,
      "imate": 3451,
      "Ġsupers": 3452,
      "Ġsuicide": 3453,
      "Ġjin": 3454,
      "Ġjuu": 3455,
      "agara": 3456,
      "Ġchin": 3457,
      "Ġop": 3458,
      "Ġya": 3459,
      "Ġyatsu": 3460,
      "riet": 3461,
      "lesse": 3462,
      "Ġarago": 3463,
      "Ġarriet": 3464,
      "Ġmove": 3465,
      "Ġexcel": 3466,
      "Ġcommun": 3467,
      "Ġmoment": 3468,
      "Ġsham": 3469,
      "Ġkosod": 3470,
      "Ġshijou": 3471,
      "Ġonegai": 3472,
      "zuki": 3473,
      "Ġkeep": 3474,
      "Ġshinry": 3475,
      "Ġshinagara": 3476,
      "Ġlev": 3477,
      "Ġtakanashi": 3478,
      "Ġdaybreak": 3479,
      "huku": 3480,
      "2024": 3481,
      "Ġboys": 3482,
      "Ġ08": 3483,
      "Ġharuka": 3484,
      "Ġhitorig": 3485,
      "Ġfukkatsu": 3486,
      "Ġyururi": 3487,
      "tteiru": 3488,
      "Ġtomozaki": 3489,
      "Ġirregul": 3490,
      "Ġknights": 3491,
      "Ġearth": 3492,
      "Ġpicnic": 3493,
      "Ġspoon": 3494,
      "Ġkumo": 3495,
      "Ġpassage": 3496,
      "Ġdreaming": 3497,
      "Ġduke": 3498,
      "Ġdouky": 3499,
      "Ġultimate": 3500,
      "Ġinnocent": 3501,
      "Ġyabai": 3502,
      "Ġkikou": 3503,
      "Ġbrotherhood": 3504,
      "Ġnoblesse": 3505,
      "Ġnogizaka": 3506,
      "Ġtiger": 3507,
      "Ġtondemo": 3508,
      "Ġgemini": 3509,
      "Ġkishuku": 3510,
      "Ġrolling": 3511,
      "Ġaragoto": 3512,
      "Ġarrietty": 3513,
      "Ġcommunicate": 3514,
      "Ġkosodate": 3515,
      "Ġirregular": 3516,
      "ben": 3517,
      "dier": 3518,
      "first": 3519,
      "iar": 3520,
      "kka": 3521,
      "lion": 3522,
      "mom": 3523,
      "mpho": 3524,
      "nan": 3525,
      "oid": 3526,
      "pou": 3527,
      "rvi": 3528,
      "uko": 3529,
      "ympho": 3530,
      "zz": 3531,
      "zet": 3532,
      "Ġsol": 3533,
      "Ġsous": 3534,
      "Ġsympho": 3535,
      "Ġlag": 3536,
      "Ġline": 3537,
      "Ġbu": 3538,
      "Ġbna": 3539,
      "Ġcar": 3540,
      "Ġdak": 3541,
      "Ġdang": 3542,
      "enger": 3543,
      "icorn": 3544,
      "iliar": 3545,
      "usama": 3546,
      "Ġtomor": 3547,
      "Ġrokka": 3548,
      "Ġscale": 3549,
      "omata": 3550,
      "Ġshoushitsu": 3551,
      "Ġsurvi": 3552,
      "agate": 3553,
      "ffle": 3554,
      "Ġizet": 3555,
      "Ġchall": 3556,
      "Ġchap": 3557,
      "Ġothers": 3558,
      "Ġousama": 3559,
      "Ġyagate": 3560,
      "Ġlook": 3561,
      "Ġacce": 3562,
      "Ġnai": 3563,
      "Ġnaru": 3564,
      "tsuki": 3565,
      "Ġmillion": 3566,
      "etman": 3567,
      "Ġclima": 3568,
      "Ġhori": 3569,
      "Ġzetman": 3570,
      "Ġdekin": 3571,
      "Ġnier": 3572,
      "Ġkubo": 3573,
      "Ġbokuben": 3574,
      "onome": 3575,
      "Ġsaikou": 3576,
      "osu": 3577,
      "Ġunicorn": 3578,
      "Ġshinmai": 3579,
      "Ġshinonome": 3580,
      "Ġlearn": 3581,
      "Ġgrill": 3582,
      "Ġrenai": 3583,
      "Ġfamiliar": 3584,
      "Ġshuffle": 3585,
      "yuri": 3586,
      "lerator": 3587,
      "linger": 3588,
      "Ġninpou": 3589,
      "Ġsotsu": 3590,
      "Ġranking": 3591,
      "Ġakatsuki": 3592,
      "here": 3593,
      "Ġpeter": 3594,
      "automata": 3595,
      "Ġgensou": 3596,
      "Ġasteroid": 3597,
      "toubun": 3598,
      "uction": 3599,
      "Ġakiba": 3600,
      "Ġordinal": 3601,
      "Ġstepmom": 3602,
      "Ġastra": 3603,
      "Ġmushibu": 3604,
      "Ġerin": 3605,
      "Ġpuzz": 3606,
      "Ġmiyamura": 3607,
      "grand": 3608,
      "Ġbabysitters": 3609,
      "Ġchained": 3610,
      "Ġgunslinger": 3611,
      "Ġpresent": 3612,
      "Ġdaughter": 3613,
      "Ġgurren": 3614,
      "Ġsoldier": 3615,
      "Ġsousou": 3616,
      "Ġlagann": 3617,
      "Ġdakara": 3618,
      "Ġdangers": 3619,
      "Ġtomorrow": 3620,
      "Ġizetta": 3621,
      "Ġchallenger": 3622,
      "Ġchapter": 3623,
      "Ġaccelerator": 3624,
      "Ġclimax": 3625,
      "Ġdekinai": 3626,
      "Ġpuzzle": 3627,
      "'ve": 3628,
      "?.": 3629,
      "ats": 3630,
      "dies": 3631,
      "gak": 3632,
      "jor": 3633,
      "kashii": 3634,
      "kale": 3635,
      "ten": 3636,
      "taku": 3637,
      "vor": 3638,
      "wor": 3639,
      "wtw": 3640,
      "yakush": 3641,
      "Ġange": 3642,
      "Ġavat": 3643,
      "Ġtte": 3644,
      "Ġgone": 3645,
      "Ġgyakush": 3646,
      "atop": 3647,
      "Ġmegami": 3648,
      "Ġmewtw": 3649,
      "rouni": 3650,
      "iliren": 3651,
      "Ġkimetsu": 3652,
      "act": 3653,
      "imgar": 3654,
      "Ġjah": 3655,
      "Ġiv": 3656,
      "Ġchuu": 3657,
      "Ġyai": 3658,
      "book": 3659,
      "Ġlodo": 3660,
      "tsukushi": 3661,
      "Ġfoot": 3662,
      "Ġutsukushi": 3663,
      "entless": 3664,
      "Ġmajor": 3665,
      "Ġshel": 3666,
      "Ġshigu": 3667,
      "arian": 3668,
      "Ġbeats": 3669,
      "Ġxam": 3670,
      "Ġkuusen": 3671,
      "!!.": 3672,
      "Ġwotaku": 3673,
      "Ġdailiren": 3674,
      "zukashii": 3675,
      "Ġkyoto": 3676,
      "Ġkenichi": 3677,
      "Ġkensh": 3678,
      "Ġhanako": 3679,
      "ckwor": 3680,
      "Ġhirow": 3681,
      "Ġjunji": 3682,
      "Ġgrimgar": 3683,
      "Ġtalentless": 3684,
      "Ġclockwor": 3685,
      "Ġkyoukan": 3686,
      "Ġrurouni": 3687,
      "bitch": 3688,
      "Ġplanetarian": 3689,
      "Ġmuzukashii": 3690,
      "Ġprisma": 3691,
      "Ġpeach": 3692,
      "Ġkurenai": 3693,
      "Ġnotebook": 3694,
      "Ġpiano": 3695,
      "Ġbeck": 3696,
      "Ġliner": 3697,
      "ichin": 3698,
      "Ġmadoushi": 3699,
      "Ġdelusion": 3700,
      "Ġillya": 3701,
      "Ġinnocence": 3702,
      "Ġyamada": 3703,
      "Ġaquatop": 3704,
      "Ġkouhosei": 3705,
      "gakkou": 3706,
      "kaleid": 3707,
      "Ġavatar": 3708,
      "Ġgyakushuu": 3709,
      "Ġmewtwo": 3710,
      "Ġjahy": 3711,
      "Ġchuugakkou": 3712,
      "Ġyaiba": 3713,
      "Ġlodoss": 3714,
      "Ġutsukushii": 3715,
      "Ġshelter": 3716,
      "Ġshiguang": 3717,
      "Ġkenshin": 3718,
      "Ġhirowareta": 3719,
      "Ġclockwork": 3720,
      "Ġaquatope": 3721,
      "-,": 3722,
      "bashi": 3723,
      "daru": 3724,
      "douki": 3725,
      "eg": 3726,
      "echan": 3727,
      "kuto": 3728,
      "light": 3729,
      "liness": 3730,
      "ms": 3731,
      "nichi": 3732,
      "nie": 3733,
      "puru": 3734,
      "stor": 3735,
      "uaga": 3736,
      "Ġlone": 3737,
      "Ġfush": 3738,
      "Ġbusou": 3739,
      "Ġcana": 3740,
      "Ġaeg": 3741,
      "Ġtate": 3742,
      "Ġgel": 3743,
      "Ġhyak": 3744,
      "Ġwistor": 3745,
      "ilty": 3746,
      "Ġkita": 3747,
      "Ġtoy": 3748,
      "ouken": 3749,
      "vious": 3750,
      "Ġjir": 3751,
      "Ġjud": 3752,
      "Ġvii": 3753,
      "Ġdruaga": 3754,
      "Ġoss": 3755,
      "Ġrevel": 3756,
      "Ġreview": 3757,
      "pervious": 3758,
      "Ġcharms": 3759,
      "nda": 3760,
      "Ġele": 3761,
      "Ġeiz": 3762,
      "Ġadvent": 3763,
      "Ġuru": 3764,
      "oura": 3765,
      "ouran": 3766,
      "Ġcommon": 3767,
      "Ġshiray": 3768,
      "ayaki": 3769,
      "Ġhokuto": 3770,
      "Ġhonda": 3771,
      "Ġkuzu": 3772,
      "Ġtsue": 3773,
      "Ġtsuru": 3774,
      "gement": 3775,
      "Ġoneechan": 3776,
      "Ġkedaru": 3777,
      "osho": 3778,
      "Ġhanam": 3779,
      "Ġtakuto": 3780,
      "Ġtenpuru": 3781,
      "Ġoujo": 3782,
      "Ġmarnie": 3783,
      "Ġstarlight": 3784,
      "ĠâĢĶ": 3785,
      "Ġimpervious": 3786,
      "Ġabeno": 3787,
      "akusho": 3788,
      "2016": 3789,
      "Ġguild": 3790,
      "Ġguilty": 3791,
      "Ġdenki": 3792,
      "Ġmukou": 3793,
      "Ġgreatest": 3794,
      "Ġkagayaki": 3795,
      "Ġakagami": 3796,
      "Ġakash": 3797,
      "Ġnagato": 3798,
      "Ġrecords": 3799,
      "Ġdaiou": 3800,
      "Ġearl": 3801,
      "Ġdandelion": 3802,
      "Ġkatsudouki": 3803,
      "Ġrakuen": 3804,
      "Ġhonkai": 3805,
      "Ġitsumo": 3806,
      "Ġcaptain": 3807,
      "Ġverdu": 3808,
      "Ġkotoura": 3809,
      "Ġrevue": 3810,
      "Ġtsuihou": 3811,
      "Ġgentosho": 3812,
      "Ġnariagari": 3813,
      "Ġryouran": 3814,
      "Ġboruto": 3815,
      "Ġmaker": 3816,
      "Ġcrusade": 3817,
      "mental": 3818,
      "Ġshakers": 3819,
      "Ġloneliness": 3820,
      "Ġcanaan": 3821,
      "Ġaegis": 3822,
      "Ġgelade": 3823,
      "Ġhyakka": 3824,
      "Ġwistoria": 3825,
      "Ġjirachi": 3826,
      "Ġjudgement": 3827,
      "Ġossan": 3828,
      "Ġrevelations": 3829,
      "Ġreviewers": 3830,
      "Ġelemental": 3831,
      "Ġeizouken": 3832,
      "Ġuruk": 3833,
      "Ġcommonplace": 3834,
      "Ġshirayuki": 3835,
      "Ġtsurugi": 3836,
      "Ġkedaruge": 3837,
      "Ġabenobashi": 3838,
      "Ġakashic": 3839,
      "Ġverdurous": 3840,
      "cles": 3841,
      "ccess": 3842,
      "cient": 3843,
      "ds": 3844,
      "gre": 3845,
      "mu": 3846,
      "nes": 3847,
      "ove": 3848,
      "ug": 3849,
      "Ġem": 3850,
      "anu": 3851,
      "Ġsorc": 3852,
      "Ġancient": 3853,
      "thm": 3854,
      "erer": 3855,
      "erby": 3856,
      "Ġliar": 3857,
      "Ġbust": 3858,
      "Ġbud": 3859,
      "Ġbelle": 3860,
      "Ġdimension": 3861,
      "Ġderby": 3862,
      "ena": 3863,
      "utio": 3864,
      "Ġhent": 3865,
      "Ġhachi": 3866,
      "Ġput": 3867,
      "Ġpand": 3868,
      "rol": 3869,
      "rock": 3870,
      "Ġseki": 3871,
      "Ġrohan": 3872,
      "amine": 3873,
      "imori": 3874,
      "imono": 3875,
      "Ġthem": 3876,
      "Ġsukun": 3877,
      "Ġsuccess": 3878,
      "olutio": 3879,
      "agat": 3880,
      "Ġits": 3881,
      "Ġoyo": 3882,
      "box": 3883,
      "Ġmagus": 3884,
      "tsugi": 3885,
      "Ġrhy": 3886,
      "Ġriddle": 3887,
      "entou": 3888,
      "Ġshall": 3889,
      "Ġgroove": 3890,
      "Ġzan": 3891,
      "yoimono": 3892,
      "Ġkuish": 3893,
      "Ġtsuyoimono": 3894,
      "moza": 3895,
      "Ġkuromu": 3896,
      "Ġseifuku": 3897,
      "Ġmuscles": 3898,
      "Ġkyokou": 3899,
      "Ġshinrei": 3900,
      "Ġtakamine": 3901,
      "Ġslug": 3902,
      "Ġhitsugi": 3903,
      "Ġconcre": 3904,
      "Ġmieru": 3905,
      "mitsu": 3906,
      "Ġamnes": 3907,
      "banzai": 3908,
      "Ġkareshi": 3909,
      "Ġrule": 3910,
      "rowanu": 3911,
      "Ġkagaku": 3912,
      "Ġkishibe": 3913,
      "genai": 3914,
      "Ġkinmoza": 3915,
      "Ġkamigoroshi": 3916,
      "âĺħâĺħ": 3917,
      "Ġbanbanzai": 3918,
      "Ġsuzume": 3919,
      "Ġiceblade": 3920,
      "Ġaishiteru": 3921,
      "Ġshikimori": 3922,
      "Ġrevolutio": 3923,
      "Ġ2199": 3924,
      "Ġcrown": 3925,
      "Ġshirushi": 3926,
      "Ġspring": 3927,
      "Ġyamato": 3928,
      "Ġhakuouki": 3929,
      "Ġsavage": 3930,
      "Ġmatsurowanu": 3931,
      "Ġmegalobox": 3932,
      "Ġsorcerer": 3933,
      "Ġbusters": 3934,
      "Ġbuddy": 3935,
      "Ġhentai": 3936,
      "Ġhachimitsu": 3937,
      "Ġpandora": 3938,
      "Ġsukunai": 3939,
      "Ġsuccession": 3940,
      "Ġoyogenai": 3941,
      "Ġrhythm": 3942,
      "Ġkuishinbou": 3943,
      "Ġkuromukuro": 3944,
      "Ġconcrete": 3945,
      "Ġmieruko": 3946,
      "Ġamnesia": 3947,
      "Ġaishiteruze": 3948,
      ")?": 3949,
      "12": 3950,
      "az": 3951,
      "bor": 3952,
      "base": 3953,
      "cor": 3954,
      "hw": 3955,
      "iards": 3956,
      "jig": 3957,
      "lip": 3958,
      "oushi": 3959,
      "ochou": 3960,
      "pan": 3961,
      "rai": 3962,
      "sari": 3963,
      "wanted": 3964,
      "zes": 3965,
      "orori": 3966,
      "inaki": 3967,
      "Ġlaby": 3968,
      "arzes": 3969,
      "Ġbill": 3970,
      "Ġbell": 3971,
      "Ġcorn": 3972,
      "Ġcity": 3973,
      "Ġcider": 3974,
      "Ġdore": 3975,
      "Ġdali": 3976,
      "Ġaman": 3977,
      "reba": 3978,
      "Ġgash": 3979,
      "Ġgimai": 3980,
      "Ġhany": 3981,
      "Ġporori": 3982,
      "roit": 3983,
      "Ġkouryaku": 3984,
      "idai": 3985,
      "Ġrosari": 3986,
      "imadou": 3987,
      "Ġschw": 3988,
      "ighbor": 3989,
      "Ġireba": 3990,
      "kiagaru": 3991,
      "Ġloaf": 3992,
      "chu": 3993,
      "aitai": 3994,
      "Ġecho": 3995,
      "Ġego": 3996,
      "torney": 3997,
      "Ġnur": 3998,
      "Ġyoukai": 3999,
      "Ġdarc": 4000,
      "Ġdarkrai": 4001,
      "Ġadventur": 4002,
      "Ġarrow": 4003,
      "Ġisland": 4004,
      "Ġrise": 4005,
      "Ġtell": 4006,
      "Ġbattles": 4007,
      "akuro": 4008,
      "Ġmay": 4009,
      "Ġstraw": 4010,
      "Ġbow": 4011,
      "Ġwakiagaru": 4012,
      "Ġzhu": 4013,
      "Ġzakuro": 4014,
      "Ġ35": 4015,
      "arihy": 4016,
      "Ġneighbor": 4017,
      "Ġonga": 4018,
      "jiki": 4019,
      "Ġsaidai": 4020,
      "rinth": 4021,
      "ryuu": 4022,
      "Ġkaminaki": 4023,
      "istic": 4024,
      "fukashi": 4025,
      "Ġunwanted": 4026,
      "Ġshinpan": 4027,
      "Ġkaito": 4028,
      "Ġyofukashi": 4029,
      "Ġslide": 4030,
      "Ġotogiz": 4031,
      "Ġattorney": 4032,
      "Ġmarken": 4033,
      "Ġmigi": 4034,
      "Ġutatte": 4035,
      "Ġtais": 4036,
      "Ġtaimadou": 4037,
      "Ġimouto": 4038,
      "Ġammo": 4039,
      "Ġtouken": 4040,
      "risa": 4041,
      "Ġkako": 4042,
      "Ġguide": 4043,
      "Ġguimi": 4044,
      "berry": 4045,
      "hanne": 4046,
      "Ġdetroit": 4047,
      "Ġasobase": 4048,
      "Ġkonjiki": 4049,
      "Ġbloom": 4050,
      "Ġkatsugeki": 4051,
      "Ġkatsudou": 4052,
      "Ġsenses": 4053,
      "Ġririsa": 4054,
      "Ġcapu": 4055,
      "Ġafro": 4056,
      "Ġvillage": 4057,
      "Ġglasslip": 4058,
      "Ġbabysitting": 4059,
      "Ġchampion": 4060,
      "Ġ1412": 4061,
      "Ġxiaochou": 4062,
      "Ġmortal": 4063,
      "Ġjehanne": 4064,
      "Ġkotoba": 4065,
      "Ġneedless": 4066,
      "Ġyajuu": 4067,
      "jigen": 4068,
      "Ġlabyrinth": 4069,
      "Ġbilliards": 4070,
      "Ġcorner": 4071,
      "Ġdorei": 4072,
      "Ġamanchu": 4073,
      "Ġhanyou": 4074,
      "Ġrosario": 4075,
      "Ġschwarzes": 4076,
      "Ġloafer": 4077,
      "Ġechoes": 4078,
      "Ġegoistic": 4079,
      "Ġnurarihy": 4080,
      "Ġadventurer": 4081,
      "Ġstrawberry": 4082,
      "Ġongaeshi": 4083,
      "Ġotogizoushi": 4084,
      "Ġnurarihyon": 4085,
      "eat": 4086,
      "ever": 4087,
      "gatsu": 4088,
      "gisha": 4089,
      "garete": 4090,
      "ival": 4091,
      "jaku": 4092,
      "jits": 4093,
      "jyom": 4094,
      "kusei": 4095,
      "miru": 4096,
      "oth": 4097,
      "ochi": 4098,
      "rage": 4099,
      "Ġsign": 4100,
      "inryou": 4101,
      "the": 4102,
      "Ġwest": 4103,
      "Ġwaru": 4104,
      "Ġlust": 4105,
      "Ġlemon": 4106,
      "arrage": 4107,
      "eram": 4108,
      "kebu": 4109,
      "Ġmakai": 4110,
      "Ġfem": 4111,
      "Ġfest": 4112,
      "Ġbarrage": 4113,
      "Ġcos": 4114,
      "Ġcull": 4115,
      "Ġako": 4116,
      "Ġtra": 4117,
      "Ġhang": 4118,
      "Ġwield": 4119,
      "Ġpi": 4120,
      "Ġmeister": 4121,
      "Ġwants": 4122,
      "Ġseiren": 4123,
      "ilight": 4124,
      "Ġkise": 4125,
      "ushu": 4126,
      "Ġrober": 4127,
      "imiya": 4128,
      "Ġthrough": 4129,
      "omu": 4130,
      "ague": 4131,
      "agimi": 4132,
      "Ġif": 4133,
      "Ġirin": 4134,
      "Ġikusei": 4135,
      "Ġikebu": 4136,
      "kigen": 4137,
      "Ġcheat": 4138,
      "amaid": 4139,
      "amatsu": 4140,
      "kuzu": 4141,
      "dyman": 4142,
      "league": 4143,
      "Ġnatta": 4144,
      "tsukan": 4145,
      "Ġmyself": 4146,
      "ecary": 4147,
      "Ġarab": 4148,
      "Ġgochuu": 4149,
      "Ġhasami": 4150,
      "Ġhorimiya": 4151,
      "Ġtwilight": 4152,
      "Ġkoush": 4153,
      "kake": 4154,
      "kaisuru": 4155,
      "Ġnige": 4156,
      "kenzan": 4157,
      "Ġonna": 4158,
      "jikake": 4159,
      "monaut": 4160,
      "apt": 4161,
      "zutsukan": 4162,
      "Ġseikoku": 4163,
      "Ġseikaisuru": 4164,
      "Ġsenran": 4165,
      "illiant": 4166,
      "Ġkeikaku": 4167,
      "Ġsaijaku": 4168,
      "Ġkimochi": 4169,
      "Ġunaw": 4170,
      "Ġhandyman": 4171,
      "Ġleapt": 4172,
      "Ġpromare": 4173,
      "Ġyobu": 4174,
      "Ġwataten": 4175,
      "Ġbrilliant": 4176,
      "Ġutage": 4177,
      "gajou": 4178,
      "Ġamagi": 4179,
      "Ġflash": 4180,
      "Ġnexus": 4181,
      "Ġreikenzan": 4182,
      "Ġfukigen": 4183,
      "Ġgenroku": 4184,
      "Ġgenjits": 4185,
      "Ġkizutsukan": 4186,
      "Ġbakuen": 4187,
      "Ġcolleague": 4188,
      "Ġmuhai": 4189,
      "Ġmaizou": 4190,
      "Ġchaos": 4191,
      "Ġsakamichi": 4192,
      "Ġkagura": 4193,
      "Ġfuuka": 4194,
      "ollon": 4195,
      "Ġushiro": 4196,
      "Ġkurumi": 4197,
      "Ġichiban": 4198,
      "Ġrokujyom": 4199,
      "Ġapoth": 4200,
      "Ġapollon": 4201,
      "Ġeien": 4202,
      "Ġhoshikuzu": 4203,
      "eshield": 4204,
      "Ġdaimaou": 4205,
      "Ġsuzuka": 4206,
      "Ġrakugo": 4207,
      "Ġstanding": 4208,
      "Ġcuties": 4209,
      "Ġtsukaiyou": 4210,
      "Ġyumemiru": 4211,
      "Ġryuugajou": 4212,
      "Ġkatasumi": 4213,
      "Ġwakagimi": 4214,
      "Ġalderam": 4215,
      "Ġtrickster": 4216,
      "Ġflew": 4217,
      "Ġtsuioku": 4218,
      "Ġchamploo": 4219,
      "Ġuzamaid": 4220,
      "Ġnobunaga": 4221,
      "Ġcolors": 4222,
      "Ġinvaders": 4223,
      "Ġbenriya": 4224,
      "Ġnozomu": 4225,
      "Ġhinamatsu": 4226,
      "Ġpupa": 4227,
      "Ġmaoyuu": 4228,
      "Ġeyeshield": 4229,
      "Ġwarui": 4230,
      "Ġlustrous": 4231,
      "Ġfemale": 4232,
      "Ġfestival": 4233,
      "Ġcosmonaut": 4234,
      "Ġculling": 4235,
      "Ġakogarete": 4236,
      "Ġtrail": 4237,
      "Ġwielder": 4238,
      "Ġkisetsu": 4239,
      "ushugisha": 4240,
      "Ġroberta": 4241,
      "Ġirina": 4242,
      "Ġikebukuro": 4243,
      "Ġaraburu": 4244,
      "Ġgochuumon": 4245,
      "Ġkoushinryou": 4246,
      "Ġunaware": 4247,
      "Ġgenjitsushugisha": 4248,
      "Ġkizutsukanai": 4249,
      "Ġmaizoukin": 4250,
      "Ġrokujyoma": 4251,
      "Ġapothecary": 4252,
      "Ġalderamin": 4253,
      "Ġhinamatsuri": 4254,
      ":|": 4255,
      "bits": 4256,
      "cal": 4257,
      "ein": 4258,
      "eed": 4259,
      "gil": 4260,
      "gue": 4261,
      "iki": 4262,
      "iral": 4263,
      "kusha": 4264,
      "kkuu": 4265,
      "nir": 4266,
      "oom": 4267,
      "oxy": 4268,
      "pen": 4269,
      "pro": 4270,
      "ration": 4271,
      "rum": 4272,
      "rada": 4273,
      "su": 4274,
      "sec": 4275,
      "tand": 4276,
      "uff": 4277,
      "wag": 4278,
      "wato": 4279,
      "Ġsono": 4280,
      "Ġanth": 4281,
      "Ġwing": 4282,
      "Ġly": 4283,
      "Ġlun": 4284,
      "Ġliz": 4285,
      "Ġmama": 4286,
      "Ġmiddle": 4287,
      "Ġfaf": 4288,
      "Ġbto": 4289,
      "Ġbab": 4290,
      "Ġbuc": 4291,
      "Ġcass": 4292,
      "Ġcase": 4293,
      "Ġcinder": 4294,
      "antes": 4295,
      "Ġnoein": 4296,
      "Ġdorm": 4297,
      "Ġahi": 4298,
      "enpen": 4299,
      "ascal": 4300,
      "Ġtut": 4301,
      "Ġtach": 4302,
      "Ġtada": 4303,
      "rezure": 4304,
      "oned": 4305,
      "onsha": 4306,
      "Ġged": 4307,
      "Ġgray": 4308,
      "imeiki": 4309,
      "imesu": 4310,
      "ated": 4311,
      "Ġpath": 4312,
      "Ġsewag": 4313,
      "Ġkage": 4314,
      "idan": 4315,
      "Ġrogue": 4316,
      "erstand": 4317,
      "Ġthorn": 4318,
      "Ġvigil": 4319,
      "Ġiwato": 4320,
      "Ġspeed": 4321,
      "Ġspiral": 4322,
      "Ġokin": 4323,
      "indrum": 4324,
      "Ġvibration": 4325,
      "Ġrekkuu": 4326,
      "Ġreimeiki": 4327,
      "Ġyun": 4328,
      "Ġyame": 4329,
      "Ġseto": 4330,
      "cha": 4331,
      "itak": 4332,
      "Ġdoes": 4333,
      "ceitas": 4334,
      "ecceitas": 4335,
      "Ġmother": 4336,
      "Ġmousou": 4337,
      "Ġramp": 4338,
      "Ġrascal": 4339,
      "akari": 4340,
      "feated": 4341,
      "Ġjoin": 4342,
      "Ġshimetsu": 4343,
      "Ġshelled": 4344,
      "Ġpack": 4345,
      "Ġrelight": 4346,
      "Ġzone": 4347,
      "Ġzess": 4348,
      "Ġzenpen": 4349,
      "Ġshika": 4350,
      "umonsha": 4351,
      "Ġdeoxy": 4352,
      "yoku": 4353,
      "andoned": 4354,
      "Ġnegi": 4355,
      "toty": 4356,
      "Ġhound": 4357,
      "Ġhoumonsha": 4358,
      "Ġtsurezure": 4359,
      "Ġsabi": 4360,
      "Ġkaoru": 4361,
      "Ġkajitsu": 4362,
      "!!:": 4363,
      "gear": 4364,
      "ikyoku": 4365,
      "Ġkansatsu": 4366,
      "Ġkurozuka": 4367,
      "maid": 4368,
      "Ġwarumono": 4369,
      "ppelion": 4370,
      "Ġhaecceitas": 4371,
      "Ġkaii": 4372,
      "Ġkaiyuu": 4373,
      "Ġtenma": 4374,
      "Ġcoppelion": 4375,
      "ĠâĻ¥": 4376,
      "Ġangels": 4377,
      "Ġlaplace": 4378,
      "Ġnaritak": 4379,
      "Ġ07": 4380,
      "Ġfluff": 4381,
      "Ġabandoned": 4382,
      "Ġkilling": 4383,
      "Ġkokkoku": 4384,
      "Ġbisco": 4385,
      "Ġpancre": 4386,
      "Ġreset": 4387,
      "Ġunderstand": 4388,
      "Ġdennou": 4389,
      "Ġmujin": 4390,
      "hern": 4391,
      "Ġinsider": 4392,
      "Ġmermaid": 4393,
      "Ġbecame": 4394,
      "Ġdairinin": 4395,
      "Ġsaying": 4396,
      "Ġhikari": 4397,
      "Ġkumichou": 4398,
      "Ġkumikyoku": 4399,
      "Ġdaimao": 4400,
      "Ġtsukihime": 4401,
      "Ġbreaks": 4402,
      "Ġitsuka": 4403,
      "Ġgrapher": 4404,
      "Ġtamayori": 4405,
      "Ġkyuujitsu": 4406,
      "Ġomocha": 4407,
      "Ġfalls": 4408,
      "Ġchrome": 4409,
      "Ġmashiro": 4410,
      "Ġchobits": 4411,
      "Ġsakurada": 4412,
      "Ġlistless": 4413,
      "Ġminna": 4414,
      "Ġtamers": 4415,
      "Ġbites": 4416,
      "Ġtatami": 4417,
      "Ġjitsuryokusha": 4418,
      "Ġwizard": 4419,
      "Ġnowhere": 4420,
      "Ġpenguindrum": 4421,
      "Ġjuuou": 4422,
      "Ġsymphogear": 4423,
      ":||": 4424,
      "prototy": 4425,
      "second": 4426,
      "Ġanthem": 4427,
      "Ġlunar": 4428,
      "Ġfafnir": 4429,
      "Ġbtooom": 4430,
      "Ġbabe": 4431,
      "Ġbucket": 4432,
      "Ġcasshern": 4433,
      "Ġcinderella": 4434,
      "Ġdormitory": 4435,
      "Ġahiru": 4436,
      "Ġtachinu": 4437,
      "Ġsewagakari": 4438,
      "Ġthorns": 4439,
      "Ġvigilantes": 4440,
      "Ġiwatobi": 4441,
      "Ġokinimesu": 4442,
      "Ġyamemasu": 4443,
      "Ġrampo": 4444,
      "Ġzesshou": 4445,
      "Ġshikabane": 4446,
      "Ġdeoxys": 4447,
      "Ġsabikui": 4448,
      "Ġnaritakute": 4449,
      "Ġfluffy": 4450,
      "Ġpancreas": 4451,
      "prototype": 4452,
      "65": 4453,
      "aina": 4454,
      "beki": 4455,
      "baby": 4456,
      "cue": 4457,
      "dence": 4458,
      "dimension": 4459,
      "eel": 4460,
      "eger": 4461,
      "ft": 4462,
      "fath": 4463,
      "flic": 4464,
      "hk": 4465,
      "ham": 4466,
      "kick": 4467,
      "mp": 4468,
      "my": 4469,
      "musu": 4470,
      "ride": 4471,
      "ritory": 4472,
      "sing": 4473,
      "sters": 4474,
      "sian": 4475,
      "sfer": 4476,
      "tan": 4477,
      "tara": 4478,
      "ukage": 4479,
      "vas": 4480,
      "wan": 4481,
      "yed": 4482,
      "ani": 4483,
      "Ġsome": 4484,
      "Ġslo": 4485,
      "orita": 4486,
      "inat": 4487,
      "thod": 4488,
      "Ġling": 4489,
      "Ġlaika": 4490,
      "arion": 4491,
      "Ġliber": 4492,
      "Ġlibr": 4493,
      "Ġlift": 4494,
      "Ġmum": 4495,
      "Ġmighty": 4496,
      "Ġfara": 4497,
      "Ġfeel": 4498,
      "Ġnosfer": 4499,
      "Ġdyed": 4500,
      "asama": 4501,
      "Ġginga": 4502,
      "Ġhad": 4503,
      "Ġhill": 4504,
      "iments": 4505,
      "Ġwild": 4506,
      "Ġpride": 4507,
      "Ġmeid": 4508,
      "Ġmeik": 4509,
      "Ġmeeting": 4510,
      "Ġmethod": 4511,
      "Ġkind": 4512,
      "ĠkÃ¤": 4513,
      "tually": 4514,
      "tunia": 4515,
      "ussian": 4516,
      "isana": 4517,
      "isakus": 4518,
      "imak": 4519,
      "omanga": 4520,
      "Ġjutsu": 4521,
      "territory": 4522,
      "Ġie": 4523,
      "Ġikoku": 4524,
      "Ġspice": 4525,
      "kiori": 4526,
      "Ġoish": 4527,
      "Ġoosu": 4528,
      "perdimension": 4529,
      "periments": 4530,
      "Ġyami": 4531,
      "oretara": 4532,
      "ities": 4533,
      "Ġeure": 4534,
      "Ġactually": 4535,
      "riot": 4536,
      "Ġnep": 4537,
      "Ġnami": 4538,
      "Ġnab": 4539,
      "Ġnhk": 4540,
      "Ġnoretara": 4541,
      "Ġgathering": 4542,
      "edom": 4543,
      "tsubeki": 4544,
      "tsuwan": 4545,
      "chouten": 4546,
      "ector": 4547,
      "oneko": 4548,
      "Ġmoving": 4549,
      "Ġmotsubeki": 4550,
      "Ġishura": 4551,
      "Ġuchouten": 4552,
      "Ġrussian": 4553,
      "akaten": 4554,
      "Ġtetsuwan": 4555,
      "Ġexperiments": 4556,
      "Ġtooi": 4557,
      "Ġdept": 4558,
      "Ġwax": 4559,
      "Ġshiman": 4560,
      "Ġshihai": 4561,
      "Ġshibai": 4562,
      "Ġshikiori": 4563,
      "uminat": 4564,
      "Ġdeer": 4565,
      "Ġdeities": 4566,
      "Ġ365": 4567,
      "irth": 4568,
      "atsuki": 4569,
      "ushihen": 4570,
      "Ġheroine": 4571,
      "Ġtsumi": 4572,
      "Ġtsured": 4573,
      "Ġsaisei": 4574,
      "Ġkazoku": 4575,
      "Ġkanrinin": 4576,
      "Ġdaisakus": 4577,
      "Ġdaimak": 4578,
      "arubi": 4579,
      "oks": 4580,
      "gata": 4581,
      "Ġkoukyo": 4582,
      "Ġserial": 4583,
      "Ġalya": 4584,
      "Ġhaibane": 4585,
      "Ġgodfath": 4586,
      "Ġmonsters": 4587,
      "Ġkaifuku": 4588,
      "Ġchiisana": 4589,
      "Ġwitchblade": 4590,
      "Ġhiham": 4591,
      "huushou": 4592,
      "asugiru": 4593,
      "Ġrenmei": 4594,
      "Ġdevilman": 4595,
      "Ġconflic": 4596,
      "Ġlain": 4597,
      "oushou": 4598,
      "Ġcanvas": 4599,
      "Ġcrybaby": 4600,
      "Ġsoni": 4601,
      "Ġenmusu": 4602,
      "opher": 4603,
      "Ġfutatsuki": 4604,
      "Ġheavens": 4605,
      "Ġruin": 4606,
      "Ġredo": 4607,
      "Ġsakasama": 4608,
      "Ġfreedom": 4609,
      "Ġrebirth": 4610,
      "Ġevol": 4611,
      "Ġelaina": 4612,
      "Ġrescue": 4613,
      "Ġshirokuma": 4614,
      "Ġgunjou": 4615,
      "Ġmaiorita": 4616,
      "Ġinfinity": 4617,
      "Ġjutsushi": 4618,
      "Ġakaji": 4619,
      "Ġhellsing": 4620,
      "Ġpeace": 4621,
      "girls": 4622,
      "Ġsmile": 4623,
      "Ġameagari": 4624,
      "Ġhimegoto": 4625,
      "Ġearly": 4626,
      "Ġhagure": 4627,
      "Ġhoshiai": 4628,
      "Ġassassins": 4629,
      "Ġhides": 4630,
      "Ġreturns": 4631,
      "Ġodoro": 4632,
      "Ġpatriot": 4633,
      "Ġburning": 4634,
      "Ġduel": 4635,
      "Ġgrande": 4636,
      "Ġeromanga": 4637,
      "Ġhitorijime": 4638,
      "Ġdeca": 4639,
      "Ġoshigoto": 4640,
      "Ġilluminat": 4641,
      "times": 4642,
      "Ġhotarubi": 4643,
      "Ġgoshuushou": 4644,
      "Ġhaireru": 4645,
      "avell": 4646,
      "Ġdropkick": 4647,
      "Ġphilos": 4648,
      "Ġmachiavell": 4649,
      "Ġaquarion": 4650,
      "Ġsanda": 4651,
      "Ġgentoushou": 4652,
      "Ġcrooks": 4653,
      "Ġshironeko": 4654,
      "Ġjunior": 4655,
      "Ġuzasugiru": 4656,
      "Ġbeatless": 4657,
      "Ġminami": 4658,
      "Ġmadder": 4659,
      "Ġinspection": 4660,
      "Ġinspector": 4661,
      "Ġvoice": 4662,
      "Ġnokotan": 4663,
      "Ġpaprika": 4664,
      "Ġ2020": 4665,
      "nonet": 4666,
      "Ġmeirocho": 4667,
      "Ġjaeger": 4668,
      "Ġhyperdimension": 4669,
      "Ġdumbbells": 4670,
      "Ġhealer": 4671,
      "Ġappeared": 4672,
      "mpfer": 4673,
      "Ġsometimes": 4674,
      "Ġslope": 4675,
      "Ġliberator": 4676,
      "Ġlibrary": 4677,
      "Ġmummy": 4678,
      "Ġfaraway": 4679,
      "Ġfeelings": 4680,
      "Ġnosferatu": 4681,
      "Ġmeido": 4682,
      "Ġmeikyuu": 4683,
      "Ġkindan": 4684,
      "ĠkÃ¤mpfer": 4685,
      "Ġoishasan": 4686,
      "Ġoosugiru": 4687,
      "Ġeureka": 4688,
      "Ġneptunia": 4689,
      "Ġnabari": 4690,
      "Ġshimane": 4691,
      "Ġshikioriori": 4692,
      "Ġtsumiki": 4693,
      "Ġtsuredure": 4694,
      "Ġdaisakusen": 4695,
      "Ġdaimakyou": 4696,
      "Ġkoukyoushihen": 4697,
      "Ġgodfathers": 4698,
      "Ġhihamukage": 4699,
      "Ġconflict": 4700,
      "Ġenmusubi": 4701,
      "Ġilluminati": 4702,
      "Ġphilosopher": 4703,
      "15": 4704,
      ":â": 4705,
      "aic": 4706,
      "athering": 4707,
      "azukai": 4708,
      "betsu": 4709,
      "don": 4710,
      "gressive": 4711,
      "hamatora": 4712,
      "ira": 4713,
      "ience": 4714,
      "ivery": 4715,
      "jho": 4716,
      "jis": 4717,
      "lit": 4718,
      "mars": 4719,
      "norm": 4720,
      "rine": 4721,
      "saic": 4722,
      "tant": 4723,
      "umend": 4724,
      "wlers": 4725,
      "xens": 4726,
      "yama": 4727,
      "year": 4728,
      "zo": 4729,
      "zen": 4730,
      "Ĳ£": 4731,
      "Ġsamp": 4732,
      "Ġsaka": 4733,
      "Ġsns": 4734,
      "mens": 4735,
      "Ġanki": 4736,
      "Ġlv": 4737,
      "Ġlon": 4738,
      "Ġlull": 4739,
      "Ġlied": 4740,
      "noko": 4741,
      "Ġmm": 4742,
      "Ġmud": 4743,
      "Ġfat": 4744,
      "Ġbig": 4745,
      "Ġbachi": 4746,
      "Ġcra": 4747,
      "Ġnour": 4748,
      "Ġaho": 4749,
      "Ġakan": 4750,
      "enchi": 4751,
      "ashime": 4752,
      "Ġtam": 4753,
      "utep": 4754,
      "utoku": 4755,
      "alit": 4756,
      "Ġores": 4757,
      "Ġorient": 4758,
      "Ġorenchi": 4759,
      "Ġgenshi": 4760,
      "Ġgrave": 4761,
      "atre": 4762,
      "Ġwife": 4763,
      "Ġwithin": 4764,
      "ices": 4765,
      "icial": 4766,
      "loan": 4767,
      "Ġsea": 4768,
      "Ġseikan": 4769,
      "Ġkantei": 4770,
      "Ġtoku": 4771,
      "Ġtousen": 4772,
      "ident": 4773,
      "ison": 4774,
      "ision": 4775,
      "Ġrobin": 4776,
      "Ġrozen": 4777,
      "imichi": 4778,
      "Ġthous": 4779,
      "Ġscra": 4780,
      "Ġscum": 4781,
      "Ġshomin": 4782,
      "olis": 4783,
      "Ġjins": 4784,
      "Ġvixens": 4785,
      "unted": 4786,
      "Ġpoco": 4787,
      "terview": 4788,
      "Ġtheatre": 4789,
      "Ġchase": 4790,
      "Ġoemo": 4791,
      "Ġokus": 4792,
      "Ġyi": 4793,
      "ching": 4794,
      "aire": 4795,
      "venience": 4796,
      "Ġformars": 4797,
      "itama": 4798,
      "kugaku": 4799,
      "Ġdoki": 4800,
      "Ġdokugaku": 4801,
      "ley": 4802,
      "Ġnite": 4803,
      "Ġgake": 4804,
      "Ġgakki": 4805,
      "edness": 4806,
      "Ġinver": 4807,
      "Ġinterview": 4808,
      "Ġhistory": 4809,
      "shikousei": 4810,
      "shitant": 4811,
      "Ġmosaic": 4812,
      "Ġgoto": 4813,
      "Ġue": 4814,
      "Ġura": 4815,
      "Ġuete": 4816,
      "Ġudon": 4817,
      "Ġryous": 4818,
      "Ġtegami": 4819,
      "angjuu": 4820,
      "neval": 4821,
      "ourage": 4822,
      "Ġjoshikousei": 4823,
      "Ġmajutsushi": 4824,
      "Ġmaison": 4825,
      "koeru": 4826,
      "Ġshrine": 4827,
      "Ġjourneys": 4828,
      "Ġstore": 4829,
      "Ġstreet": 4830,
      "Ġkoshitant": 4831,
      "Ġshibou": 4832,
      "Ġshikano": 4833,
      "Ġshizuku": 4834,
      "Ġdekiru": 4835,
      "kaichou": 4836,
      "Ġblast": 4837,
      "kenki": 4838,
      "kenai": 4839,
      "Ġbee": 4840,
      "Ġhozuki": 4841,
      "stay": 4842,
      "Ġvide": 4843,
      "Ġvision": 4844,
      "ikku": 4845,
      "Ġkanketsu": 4846,
      "eiro": 4847,
      "Ġdaichi": 4848,
      "jinai": 4849,
      "Ġkepp": 4850,
      "Ġnazo": 4851,
      "Ġkenka": 4852,
      "Ġsaibou": 4853,
      "Ġsaikenki": 4854,
      "Ġaoyama": 4855,
      "Ġramens": 4856,
      "pped": 4857,
      "ishibai": 4858,
      "Ġhaunted": 4859,
      "Ã©s": 4860,
      "Ġprogressive": 4861,
      "Ġkaiju": 4862,
      "Ġkaikata": 4863,
      "Ġtakkyuu": 4864,
      "Ġmaiden": 4865,
      "Ġtenge": 4866,
      "Ġtenjho": 4867,
      "ntr": 4868,
      "Ġgrace": 4869,
      "Ġrender": 4870,
      "Ġyuugi": 4871,
      "Ġconvenience": 4872,
      "Ġmiira": 4873,
      "Ġsonny": 4874,
      "Ġimasu": 4875,
      "Ġimashime": 4876,
      "Ġweathering": 4877,
      "Ġabnorm": 4878,
      "Ġkarin": 4879,
      "Ġkarneval": 4880,
      "Ġtougen": 4881,
      "Ġtouching": 4882,
      "Ġvalley": 4883,
      "Ġfuro": 4884,
      "Ġgenjitsu": 4885,
      "Ġgenzan": 4886,
      "Ġtonkotsu": 4887,
      "Ġkiki": 4888,
      "Ġkikoeru": 4889,
      "Ġkizoku": 4890,
      "Ġkiznai": 4891,
      "Ġsuberu": 4892,
      "Ġsubete": 4893,
      "Ġbakugan": 4894,
      "Ġelite": 4895,
      "Ġtani": 4896,
      "ipikku": 4897,
      "Ġmunou": 4898,
      "Ġoffice": 4899,
      "Ġofficial": 4900,
      "Ġflows": 4901,
      "Ġakkun": 4902,
      "Ġakutoku": 4903,
      "Ġworks": 4904,
      "ĠtrÃ¤": 4905,
      "Ġtrunk": 4906,
      "Ġkonkon": 4907,
      "Ġkonnichi": 4908,
      "Ġsummertime": 4909,
      "Ġhakata": 4910,
      "Ġfirefl": 4911,
      "ounara": 4912,
      "Ġcooler": 4913,
      "Ġcoolhead": 4914,
      "Ġappare": 4915,
      "Ġbrawlers": 4916,
      "Ġwindup": 4917,
      "Ġsayounara": 4918,
      "Ġhyouken": 4919,
      "ropolis": 4920,
      "Ġnyan": 4921,
      "Ġoda": 4922,
      "dolls": 4923,
      "Ġscissors": 4924,
      "Ġgakkougurashi": 4925,
      "Ġyumekui": 4926,
      "Ġdelivery": 4927,
      "Ġryuukoku": 4928,
      "Ġelfen": 4929,
      "Ġriku": 4930,
      "Ġzetsuen": 4931,
      "Ġbye": 4932,
      "ranman": 4933,
      "Ġletter": 4934,
      "Ġcubes": 4935,
      "Ġsomaru": 4936,
      "Ġtsuujinai": 4937,
      "Ġseitokaichou": 4938,
      "Ġeverything": 4939,
      "Ġeveryday": 4940,
      "Ġmayoi": 4941,
      "Ġoniai": 4942,
      "Ġreturner": 4943,
      "Ġyabou": 4944,
      "moonlit": 4945,
      "Ġtsukimichi": 4946,
      "Ġpresident": 4947,
      "Ġpetits": 4948,
      "Ġnariagaru": 4949,
      "Ġsprings": 4950,
      "Ġyamishibai": 4951,
      "Ġpoputep": 4952,
      "Ġnobuna": 4953,
      "Ġinvaded": 4954,
      "Ġaffections": 4955,
      "Ġvoices": 4956,
      "Ġnokonoko": 4957,
      "Ġgokukoku": 4958,
      "Ġgokudolls": 4959,
      "Ġstepsister": 4960,
      "Ġdisappearance": 4961,
      "Ġdisappearances": 4962,
      "Ġhelck": 4963,
      "Ġencourage": 4964,
      "Ġblossoms": 4965,
      "Ġkikansha": 4966,
      "Ġirabu": 4967,
      "Ġtsuritama": 4968,
      "Ġkenpuuchou": 4969,
      "Ġmetropolis": 4970,
      "Ġkujikenai": 4971,
      "Ġwasteland": 4972,
      "Ġblessing": 4973,
      "Ġmillionaire": 4974,
      ":âĲ£": 4975,
      "jisangjuu": 4976,
      "Ġsample": 4977,
      "Ġmudazukai": 4978,
      "Ġfatalit": 4979,
      "Ġcrazy": 4980,
      "Ġnourin": 4981,
      "Ġakaneiro": 4982,
      "Ġtamago": 4983,
      "Ġoreshura": 4984,
      "Ġgenshiken": 4985,
      "Ġtokubetsu": 4986,
      "Ġthousand": 4987,
      "Ġscrapped": 4988,
      "Ġjinsei": 4989,
      "Ġoemojisangjuu": 4990,
      "Ġokusama": 4991,
      "Ġinverted": 4992,
      "Ġinterviews": 4993,
      "Ġgotoku": 4994,
      "Ġueteiru": 4995,
      "Ġryoushu": 4996,
      "Ġkoshitantan": 4997,
      "Ġshikanoko": 4998,
      "Ġvideo": 4999,
      "Ġvisions": 5000,
      "Ġkeppeki": 5001,
      "Ġtakkyuubin": 5002,
      "Ġabnormal": 5003,
      "Ġkiznaiver": 5004,
      "ĠtrÃ¤umend": 5005,
      "Ġtrunks": 5006,
      "Ġkonnichiwa": 5007,
      "Ġfireflies": 5008,
      "Ġcoolheadedness": 5009,
      "Ġpoputepipikku": 5010,
      "Ġencouragement": 5011,
      "ĠfatalitÃ©s": 5012,
      "Ġoemojisangjuui": 5013,
      "??": 5014,
      "aasan": 5015,
      "butsu": 5016,
      "brie": 5017,
      "eight": 5018,
      "elect": 5019,
      "fing": 5020,
      "ggi": 5021,
      "grave": 5022,
      "husen": 5023,
      "kami": 5024,
      "kkan": 5025,
      "lon": 5026,
      "list": 5027,
      "law": 5028,
      "mat": 5029,
      "mate": 5030,
      "oka": 5031,
      "ova": 5032,
      "patch": 5033,
      "qw": 5034,
      "rence": 5035,
      "rise": 5036,
      "tress": 5037,
      "tender": 5038,
      "trol": 5039,
      "ui": 5040,
      "xis": 5041,
      "yushi": 5042,
      "ylist": 5043,
      "âĢ": 5044,
      "âĹ": 5045,
      "Ġ'": 5046,
      "Ġqw": 5047,
      "Ġsakugan": 5048,
      "oroku": 5049,
      "inum": 5050,
      "inasai": 5051,
      "Ġwere": 5052,
      "Ġandro": 5053,
      "noo": 5054,
      "Ġmim": 5055,
      "Ġmoro": 5056,
      "Ġmadan": 5057,
      "Ġfa": 5058,
      "Ġfushi": 5059,
      "Ġfena": 5060,
      "Ġbara": 5061,
      "Ġbinbou": 5062,
      "Ġbentou": 5063,
      "Ġbaasan": 5064,
      "Ġcec": 5065,
      "antai": 5066,
      "Ġnova": 5067,
      "Ġdome": 5068,
      "Ġaga": 5069,
      "Ġaxis": 5070,
      "aser": 5071,
      "Ġtru": 5072,
      "Ġtaka": 5073,
      "onance": 5074,
      "Ġoroka": 5075,
      "Ġgaro": 5076,
      "atinum": 5077,
      "Ġpast": 5078,
      "Ġpir": 5079,
      "Ġpure": 5080,
      "Ġsedai": 5081,
      "ilia": 5082,
      "Ġkatt": 5083,
      "usanai": 5084,
      "Ġtokus": 5085,
      "idome": 5086,
      "veling": 5087,
      "acs": 5088,
      "imashita": 5089,
      "omaru": 5090,
      "Ġsund": 5091,
      "Ġsumo": 5092,
      "Ġjack": 5093,
      "unlimited": 5094,
      "emimashita": 5095,
      "Ġijou": 5096,
      "Ġiuko": 5097,
      "kikom": 5098,
      "indomo": 5099,
      "Ġreign": 5100,
      "Ġyear": 5101,
      "adis": 5102,
      "Ġforest": 5103,
      "Ġfortress": 5104,
      "ition": 5105,
      "Ġeast": 5106,
      "Ġelection": 5107,
      "Ġnay": 5108,
      "Ġnagi": 5109,
      "Ġnatte": 5110,
      "Ġnidome": 5111,
      "rection": 5112,
      "Ġheion": 5113,
      "Ġheya": 5114,
      "Ġharmon": 5115,
      "Ġpsychoelect": 5116,
      "Ġfune": 5117,
      "Ġarpe": 5118,
      "Ġgokui": 5119,
      "Ġugoku": 5120,
      "akusha": 5121,
      "Ġgetback": 5122,
      "chigai": 5123,
      "nel": 5124,
      "Ġcoming": 5125,
      "asekai": 5126,
      "Ġclassmat": 5127,
      "Ġlightning": 5128,
      "Ġtears": 5129,
      "Ġjouran": 5130,
      "Ġground": 5131,
      "Ġdepressed": 5132,
      "Ġcombatants": 5133,
      "urrection": 5134,
      "Ġbokushi": 5135,
      "Ġzoroku": 5136,
      "Ġdeatte": 5137,
      "Ġdebrie": 5138,
      "Ġnekom": 5139,
      "Ġhonoo": 5140,
      "stic": 5141,
      "stylist": 5142,
      "Ġxing": 5143,
      "Ġyuuto": 5144,
      "Ġyuyushi": 5145,
      "ikiss": 5146,
      "jouou": 5147,
      "jouma": 5148,
      "Ġkurokami": 5149,
      "Ġplatinum": 5150,
      "Ġseihou": 5151,
      "channel": 5152,
      "Ġkamui": 5153,
      "Ġnanode": 5154,
      "Ġkimikiss": 5155,
      "Ġbasara": 5156,
      "Ġaoki": 5157,
      "koubak": 5158,
      "Ġmonmon": 5159,
      "Ġasura": 5160,
      "Ġleveling": 5161,
      "Ġkaibutsu": 5162,
      "agaeru": 5163,
      "Ġtenki": 5164,
      "Ġyoichi": 5165,
      "Ġslip": 5166,
      "Ġhikikom": 5167,
      "Ġdanchigai": 5168,
      "sea": 5169,
      "Ġkoibito": 5170,
      "Ġoukoubak": 5171,
      "niacs": 5172,
      "bling": 5173,
      "Ġcontrol": 5174,
      "Ġmasterful": 5175,
      "Ġcryin": 5176,
      "Ġrevenger": 5177,
      "Ġamu": 5178,
      "Ġfutoku": 5179,
      "Ġjiisan": 5180,
      "Ġreiketsu": 5181,
      "Ġfugou": 5182,
      "Ġfujouou": 5183,
      "Ġpretender": 5184,
      "Ġbabylon": 5185,
      "Ġgalact": 5186,
      "Ġresonance": 5187,
      "Ġresurrection": 5188,
      "Ġsolo": 5189,
      "Ġsobak": 5190,
      "Ġgungrave": 5191,
      "Ġdispatch": 5192,
      "Ġshoukanshi": 5193,
      "Ġfuujin": 5194,
      "Ġakame": 5195,
      "Ġyakuindomo": 5196,
      "Ġurasekai": 5197,
      "creator": 5198,
      "Ġkinkreet": 5199,
      "Ġsounds": 5200,
      "Ġrokujouma": 5201,
      "Ġowaranai": 5202,
      "Ġbrain": 5203,
      "Ġsweetness": 5204,
      "Ġhagane": 5205,
      "Ġroommate": 5206,
      "valry": 5207,
      "Ġhanda": 5208,
      "Ġsensou": 5209,
      "Ġrumbling": 5210,
      "Ġcavalry": 5211,
      "Ġodoru": 5212,
      "Ġmakentsukai": 5213,
      "Ġrakudai": 5214,
      "Ġgekkan": 5215,
      "Ġoutlaw": 5216,
      "Ġkeiji": 5217,
      "Ġbreaker": 5218,
      "Ġvanadis": 5219,
      "omanu": 5220,
      "Ġoshiete": 5221,
      "Ġzui": 5222,
      "Ġkatachi": 5223,
      "Ġokashi": 5224,
      "Ġwakagaeru": 5225,
      "Ġtemple": 5226,
      "Ġosake": 5227,
      "Ġgosick": 5228,
      "Ġhairstylist": 5229,
      "Ġasuka": 5230,
      "Ġonizuka": 5231,
      "Ġchocol": 5232,
      "Ġseihantai": 5233,
      "Ġseikon": 5234,
      "Ġkikinasai": 5235,
      "Ġkokuin": 5236,
      "Ġryusui": 5237,
      "Ġedition": 5238,
      "Ġgeneration": 5239,
      "Ġkuragehime": 5240,
      "Ġnozomanu": 5241,
      "Ġhinomaru": 5242,
      "Ġtoriko": 5243,
      "Ġqiang": 5244,
      "Ġpapa": 5245,
      "Ġ2099": 5246,
      "Ġbakemonogatari": 5247,
      "Ġaruji": 5248,
      "Ġinsomniacs": 5249,
      "Ġvillain": 5250,
      "Ġlawrence": 5251,
      "Ġyurusanai": 5252,
      "Ġshinryakusha": 5253,
      "Ġearthsea": 5254,
      "Ġdoukyusei": 5255,
      "Ġbukyou": 5256,
      "ggio": 5257,
      "âĢł": 5258,
      "âĹĨ": 5259,
      "Ġqwaser": 5260,
      "Ġandroid": 5261,
      "Ġmiman": 5262,
      "Ġmorose": 5263,
      "Ġbinbougami": 5264,
      "Ġcecilia": 5265,
      "Ġdomestic": 5266,
      "Ġagain": 5267,
      "Ġtrue": 5268,
      "Ġtakao": 5269,
      "Ġpastor": 5270,
      "Ġpirate": 5271,
      "Ġkattemimashita": 5272,
      "Ġtokushusen": 5273,
      "Ġsunday": 5274,
      "Ġiukoto": 5275,
      "Ġyears": 5276,
      "Ġnayami": 5277,
      "Ġharmony": 5278,
      "Ġpsychoelectric": 5279,
      "Ġarpeggio": 5280,
      "Ġgetbackers": 5281,
      "Ġclassmates": 5282,
      "Ġdebriefing": 5283,
      "Ġnekomonogatari": 5284,
      "Ġyuutousei": 5285,
      "Ġyuyushiki": 5286,
      "Ġhikikomari": 5287,
      "Ġoukoubakko": 5288,
      "Ġgalactic": 5289,
      "Ġsobakasu": 5290,
      "Ġdispatched": 5291,
      "creators": 5292,
      "Ġchocolate": 5293,
      "ault": 5294,
      "aimon": 5295,
      "ause": 5296,
      "but": 5297,
      "binbou": 5298,
      "cu": 5299,
      "cchan": 5300,
      "cÃ©": 5301,
      "city": 5302,
      "dama": 5303,
      "een": 5304,
      "fess": 5305,
      "fish": 5306,
      "fumi": 5307,
      "gari": 5308,
      "gana": 5309,
      "iem": 5310,
      "jack": 5311,
      "kn": 5312,
      "kago": 5313,
      "lust": 5314,
      "mas": 5315,
      "mand": 5316,
      "mamura": 5317,
      "ner": 5318,
      "nine": 5319,
      "oo": 5320,
      "oki": 5321,
      "oko": 5322,
      "pi": 5323,
      "pel": 5324,
      "poro": 5325,
      "poko": 5326,
      "rs": 5327,
      "ras": 5328,
      "sed": 5329,
      "saga": 5330,
      "ton": 5331,
      "wby": 5332,
      "xcu": 5333,
      "yasumi": 5334,
      "yushou": 5335,
      "yfish": 5336,
      "zar": 5337,
      "zur": 5338,
      "zaka": 5339,
      "âĪ": 5340,
      "âĻ¥": 5341,
      "Īļ": 5342,
      "anagat": 5343,
      "Ġske": 5344,
      "Ġsss": 5345,
      "Ġsareta": 5346,
      "Ġlap": 5347,
      "Ġlab": 5348,
      "Ġlane": 5349,
      "ert": 5350,
      "eror": 5351,
      "eric": 5352,
      "eranai": 5353,
      "ingxion": 5354,
      "Ġmat": 5355,
      "Ġmid": 5356,
      "Ġmom": 5357,
      "Ġfade": 5358,
      "Ġfian": 5359,
      "Ġbast": 5360,
      "Ġbian": 5361,
      "Ġcray": 5362,
      "Ġnobo": 5363,
      "Ġnoir": 5364,
      "Ġdagashi": 5365,
      "Ġaura": 5366,
      "Ġazur": 5367,
      "asion": 5368,
      "asareta": 5369,
      "Ġtatt": 5370,
      "utei": 5371,
      "utton": 5372,
      "ales": 5373,
      "Ġorang": 5374,
      "Ġoraret": 5375,
      "Ġgom": 5376,
      "Ġgass": 5377,
      "Ġgour": 5378,
      "Ġgekai": 5379,
      "Ġgrie": 5380,
      "Ġhers": 5381,
      "Ġhur": 5382,
      "Ġhyous": 5383,
      "Ġwise": 5384,
      "Ġping": 5385,
      "Ġpad": 5386,
      "Ġpari": 5387,
      "Ġporo": 5388,
      "Ġpear": 5389,
      "Ġpunk": 5390,
      "icot": 5391,
      "omeshi": 5392,
      "Ġmemo": 5393,
      "Ġmekaku": 5394,
      "esan": 5395,
      "iled": 5396,
      "Ġkashi": 5397,
      "Ġkari": 5398,
      "tune": 5399,
      "ushoku": 5400,
      "idasareta": 5401,
      "isute": 5402,
      "ound": 5403,
      "omiga": 5404,
      "Ġsuite": 5405,
      "Ġsugar": 5406,
      "Ġjik": 5407,
      "Ġjell": 5408,
      "Ġviral": 5409,
      "agna": 5410,
      "terial": 5411,
      "Ġiede": 5412,
      "Ġikiru": 5413,
      "giga": 5414,
      "kiku": 5415,
      "ĠchÃ¤": 5416,
      "Ġoyasumi": 5417,
      "Ġoidasareta": 5418,
      "Ġrequ": 5419,
      "Ġrepe": 5420,
      "Ġadachi": 5421,
      "Ġyad": 5422,
      "Ġyuna": 5423,
      "Ġyingxion": 5424,
      "Ġyomiga": 5425,
      "Ġshowdo": 5426,
      "boo": 5427,
      "Ġfortune": 5428,
      "itachi": 5429,
      "Ġactor": 5430,
      "dyna": 5431,
      "riyo": 5432,
      "rious": 5433,
      "Ġnine": 5434,
      "Ġgig": 5435,
      "tsugana": 5436,
      "Ġheppo": 5437,
      "Ġheisei": 5438,
      "Ġinst": 5439,
      "Ġinner": 5440,
      "Ġgamers": 5441,
      "eps": 5442,
      "etai": 5443,
      "Ġarkn": 5444,
      "Ġaround": 5445,
      "Ġarterial": 5446,
      "Ġishu": 5447,
      "Ġrwby": 5448,
      "Ġragna": 5449,
      "quet": 5450,
      "quel": 5451,
      "queror": 5452,
      "Ġcleric": 5453,
      "Ġexiled": 5454,
      "Ġqueen": 5455,
      "Ġbloodlust": 5456,
      "raho": 5457,
      "Ġjoyuu": 5458,
      "Ġcomyushou": 5459,
      "Ġmaji": 5460,
      "Ġmabu": 5461,
      "Ġshore": 5462,
      "Ġdrive": 5463,
      "uuin": 5464,
      "Ġstill": 5465,
      "Ġboushi": 5466,
      "Ġbott": 5467,
      "Ġbocchan": 5468,
      "Ġbojack": 5469,
      "Ġboushoku": 5470,
      "Ġzare": 5471,
      "Ġkoik": 5472,
      "Ġkoyom": 5473,
      "Ġshigo": 5474,
      "Ġshimashita": 5475,
      "Ġshimamura": 5476,
      "Ġdeaimon": 5477,
      "Ġniji": 5478,
      "Ġnekketsu": 5479,
      "Ġneesan": 5480,
      "igami": 5481,
      "youbinbou": 5482,
      "moku": 5483,
      "Ġyubi": 5484,
      "rui": 5485,
      "ructor": 5486,
      "okuri": 5487,
      "apon": 5488,
      "abouzu": 5489,
      "istmas": 5490,
      "Ġnanoru": 5491,
      "Ġkoumei": 5492,
      "Ġsaikai": 5493,
      "Ġsaigo": 5494,
      "Ġkimitachi": 5495,
      "Ġunato": 5496,
      "Ġuncle": 5497,
      "Ġunbound": 5498,
      "Ġshinasai": 5499,
      "Ġshinigami": 5500,
      "Ġaoashi": 5501,
      "Ġaoiro": 5502,
      "teacher": 5503,
      "Ġraid": 5504,
      "Ġraven": 5505,
      "Ġhanashi": 5506,
      "Ġsekaiichi": 5507,
      "Ġdesert": 5508,
      "Ġprofess": 5509,
      "Ġkaijuu": 5510,
      "Ġchiisai": 5511,
      "agawa": 5512,
      "Ġ40": 5513,
      "Ġcoquel": 5514,
      "ĠâĪļ": 5515,
      "Ġkonohana": 5516,
      "Ġbouquet": 5517,
      "Ġconqueror": 5518,
      "Ġmaoujou": 5519,
      "Ġlazar": 5520,
      "Ġmitsugana": 5521,
      "zenon": 5522,
      "Ġsuitai": 5523,
      "Ġtaboo": 5524,
      "Ġsonzai": 5525,
      "Ġweapon": 5526,
      "Ġfukan": 5527,
      "Ġfurika": 5528,
      "Ġtongari": 5529,
      "Ġkiyoubinbou": 5530,
      "2012": 5531,
      "Ġelise": 5532,
      "extra": 5533,
      "excur": 5534,
      "Ġtanuki": 5535,
      "Ġheron": 5536,
      "Ġakudama": 5537,
      "Ġfuuin": 5538,
      "Ġfuukei": 5539,
      "Ġakagi": 5540,
      "Ġitou": 5541,
      "Ġlogic": 5542,
      "leton": 5543,
      "balla": 5544,
      "Ġassault": 5545,
      "Ġuragawa": 5546,
      "gotozukai": 5547,
      "Ġwhales": 5548,
      "Ġhako": 5549,
      "Ġpeeps": 5550,
      "Ġglutton": 5551,
      "Ġmercur": 5552,
      "Ġinvasion": 5553,
      "Ġryuusui": 5554,
      "Ġryuutei": 5555,
      "Ġbecause": 5556,
      "Ġkakuriyo": 5557,
      "shouten": 5558,
      "Ġhoukago": 5559,
      "Ġmaryuuin": 5560,
      "Ġsecrets": 5561,
      "Ġpong": 5562,
      "Ġponpoko": 5563,
      "Ġcats": 5564,
      "Ġretire": 5565,
      "Ġdouble": 5566,
      "Ġultra": 5567,
      "Ġkatanagat": 5568,
      "Ġshikkoku": 5569,
      "Ġlegendary": 5570,
      "Ġoccultic": 5571,
      "Ġgospel": 5572,
      "Ġcubexcur": 5573,
      "Ġomoide": 5574,
      "Ġsoma": 5575,
      "Ġsomali": 5576,
      "Ġfleeting": 5577,
      "Ġbackfl": 5578,
      "Ġchristmas": 5579,
      "Ġtsuuhan": 5580,
      "Ġtsuugaku": 5581,
      "Ġpalace": 5582,
      "Ġmayoiga": 5583,
      "Ġsunabouzu": 5584,
      "Ġkokuras": 5585,
      "Ġdaughters": 5586,
      "Ġboring": 5587,
      "Ġhakuoki": 5588,
      "Ġsavant": 5589,
      "Ġpupil": 5590,
      "Ġtatakai": 5591,
      "Ġheika": 5592,
      "Ġmeirochou": 5593,
      "Ġookiku": 5594,
      "Ġteikoku": 5595,
      "Ġhello": 5596,
      "Ġencore": 5597,
      "Ġinsomnia": 5598,
      "Ġvillainess": 5599,
      "Ġpink": 5600,
      "Ġpinto": 5601,
      "Ġkyousougiga": 5602,
      "Ġjinrui": 5603,
      "Ġchinmoku": 5604,
      "Ġshamballa": 5605,
      "Ġsurvivor": 5606,
      "Ġfushichou": 5607,
      "Ġzankyou": 5608,
      "Ġkouryakuchuu": 5609,
      "butte": 5610,
      "mands": 5611,
      "sedxcu": 5612,
      "âĪŀ": 5613,
      "Ġskeleton": 5614,
      "Ġssss": 5615,
      "Ġlaputa": 5616,
      "Ġmatteru": 5617,
      "Ġmidori": 5618,
      "Ġmomokuri": 5619,
      "ĠfiancÃ©": 5620,
      "Ġbastard": 5621,
      "Ġcrayon": 5622,
      "Ġnobody": 5623,
      "Ġtattoo": 5624,
      "Ġorange": 5625,
      "Ġoraretara": 5626,
      "Ġgomisute": 5627,
      "Ġgassen": 5628,
      "Ġgourmands": 5629,
      "Ġgrieving": 5630,
      "Ġherself": 5631,
      "Ġhurray": 5632,
      "Ġhyousetsu": 5633,
      "Ġparipi": 5634,
      "Ġporoporo": 5635,
      "Ġpearl": 5636,
      "Ġmekakucity": 5637,
      "Ġkarigurashi": 5638,
      "Ġjikken": 5639,
      "Ġjellyfish": 5640,
      "ĠchÃ¤os": 5641,
      "Ġrequiem": 5642,
      "Ġrepeat": 5643,
      "Ġyadomeshi": 5644,
      "Ġyingxiong": 5645,
      "Ġyomigaeranai": 5646,
      "Ġshowdown": 5647,
      "Ġactors": 5648,
      "dynazenon": 5649,
      "Ġheppoko": 5650,
      "Ġinstructor": 5651,
      "Ġarknights": 5652,
      "Ġishuzoku": 5653,
      "Ġmaburaho": 5654,
      "Ġbottom": 5655,
      "Ġzaregotozukai": 5656,
      "Ġkoikimo": 5657,
      "Ġkoyomimonogatari": 5658,
      "Ġshigofumi": 5659,
      "Ġnijiiro": 5660,
      "Ġyubiwa": 5661,
      "Ġprofessed": 5662,
      "Ġcoquelicot": 5663,
      "Ġlazarus": 5664,
      "Ġmitsuganae": 5665,
      "Ġfurikabutte": 5666,
      "Ġgluttony": 5667,
      "Ġmercury": 5668,
      "shoutengai": 5669,
      "Ġkatanagatari": 5670,
      "Ġcubexcursedxcu": 5671,
      "Ġbackflip": 5672,
      "Ġtsuugakuro": 5673,
      "Ġkokurasetai": 5674,
      "Ġgomisuteba": 5675,
      "Ġcubexcursedxcurious": 5676,
      "91": 5677,
      "?:": 5678,
      "bid": 5679,
      "buru": 5680,
      "cum": 5681,
      "ek": 5682,
      "flow": 5683,
      "fron": 5684,
      "frain": 5685,
      "gok": 5686,
      "gatta": 5687,
      "hum": 5688,
      "haru": 5689,
      "ike": 5690,
      "itsu": 5691,
      "ilog": 5692,
      "la": 5693,
      "mal": 5694,
      "myou": 5695,
      "maro": 5696,
      "mited": 5697,
      "off": 5698,
      "rat": 5699,
      "ram": 5700,
      "ranger": 5701,
      "rako": 5702,
      "sion": 5703,
      "saku": 5704,
      "tranger": 5705,
      "yud": 5706,
      "zon": 5707,
      "zem": 5708,
      "zasu": 5709,
      "Ġthing": 5710,
      "Ġent": 5711,
      "ĠÃ©": 5712,
      "Ġvery": 5713,
      "Ġinga": 5714,
      "Ġ91": 5715,
      "Ġsar": 5716,
      "Ġsare": 5717,
      "Ġsagashi": 5718,
      "mester": 5719,
      "through": 5720,
      "Ġwri": 5721,
      "arou": 5722,
      "arce": 5723,
      "arine": 5724,
      "aranai": 5725,
      "Ġlimited": 5726,
      "nogatari": 5727,
      "Ġmorn": 5728,
      "Ġfan": 5729,
      "Ġfum": 5730,
      "Ġfarce": 5731,
      "Ġbon": 5732,
      "Ġbus": 5733,
      "Ġbuki": 5734,
      "Ġcou": 5735,
      "Ġcris": 5736,
      "Ġcike": 5737,
      "Ġdt": 5738,
      "Ġdem": 5739,
      "Ġded": 5740,
      "Ġdies": 5741,
      "Ġdella": 5742,
      "Ġdude": 5743,
      "Ġai": 5744,
      "Ġaok": 5745,
      "Ġaway": 5746,
      "ases": 5747,
      "refrain": 5748,
      "ution": 5749,
      "alide": 5750,
      "onna": 5751,
      "Ġgeki": 5752,
      "Ġgata": 5753,
      "Ġgonna": 5754,
      "atri": 5755,
      "Ġpol": 5756,
      "omeo": 5757,
      "Ġmeit": 5758,
      "Ġmezasu": 5759,
      "Ġsemester": 5760,
      "ilt": 5761,
      "ilet": 5762,
      "Ġkore": 5763,
      "Ġkase": 5764,
      "Ġkate": 5765,
      "Ġkyud": 5766,
      "Ġtoki": 5767,
      "Ġtopp": 5768,
      "Ġtoilet": 5769,
      "isemo": 5770,
      "imatsu": 5771,
      "Ġshoshi": 5772,
      "Ġshoot": 5773,
      "under": 5774,
      "Ġdramat": 5775,
      "agiri": 5776,
      "Ġiya": 5777,
      "Ġixion": 5778,
      "Ġitteiru": 5779,
      "Ġoushitsu": 5780,
      "amae": 5781,
      "Ġrebu": 5782,
      "aders": 5783,
      "aiya": 5784,
      "Ġformer": 5785,
      "Ġforbid": 5786,
      "Ġecc": 5787,
      "Ġelect": 5788,
      "Ġdoji": 5789,
      "Ġnaki": 5790,
      "Ġnisemo": 5791,
      "Ġnamae": 5792,
      "antasm": 5793,
      "Ġyouth": 5794,
      "Ġgiga": 5795,
      "Ġgirat": 5796,
      "Ġlovely": 5797,
      "Ġheine": 5798,
      "tured": 5799,
      "etic": 5800,
      "ecution": 5801,
      "Ġissh": 5802,
      "Ġgoyou": 5803,
      "Ġueki": 5804,
      "Ġueno": 5805,
      "Ġugok": 5806,
      "Ġryo": 5807,
      "Ġrab": 5808,
      "Ġromeo": 5809,
      "entric": 5810,
      "estig": 5811,
      "angri": 5812,
      "angel": 5813,
      "Ġexecution": 5814,
      "Ġqualide": 5815,
      "verside": 5816,
      "Ġbattlefron": 5817,
      "rors": 5818,
      "Ġshangri": 5819,
      "Ġtriage": 5820,
      "uukan": 5821,
      "Ġstoria": 5822,
      "Ġstard": 5823,
      "Ġpleases": 5824,
      "elian": 5825,
      "Ġwave": 5826,
      "Ġzok": 5827,
      "Ġkoeru": 5828,
      "Ġshitteiru": 5829,
      "Ġonmyou": 5830,
      "stances": 5831,
      "Ġkure": 5832,
      "Ġkao": 5833,
      "Ġkaburu": 5834,
      "Ġkazem": 5835,
      "tail": 5836,
      "Ġkanok": 5837,
      "Ġdaemon": 5838,
      "zura": 5839,
      "Ġplunder": 5840,
      "main": 5841,
      "Ġketsu": 5842,
      "Ġkouya": 5843,
      "Ġkougyou": 5844,
      "Ġwarrior": 5845,
      "Ġkimyou": 5846,
      "Ġaoshi": 5847,
      "Ġaoharu": 5848,
      "teki": 5849,
      "Ġraelian": 5850,
      "Ġanimatri": 5851,
      "Ġsounan": 5852,
      "Ġmasou": 5853,
      "Ġmonte": 5854,
      "Ġask": 5855,
      "Ġkaiba": 5856,
      "Ġchiki": 5857,
      "Ġchiyu": 5858,
      "Ġtenri": 5859,
      "Ġtengen": 5860,
      "ckade": 5861,
      "Ġbungaku": 5862,
      "Ġdanna": 5863,
      "Ġgrimo": 5864,
      "Ġdied": 5865,
      "nival": 5866,
      "Ġmansion": 5867,
      "Ġmarket": 5868,
      "Ġmarsh": 5869,
      "Ġoverflow": 5870,
      "Ġconan": 5871,
      "Ġmizu": 5872,
      "Ġmilos": 5873,
      "romagn": 5874,
      "Ġtake": 5875,
      "Ġended": 5876,
      "ished": 5877,
      "kinkreet": 5878,
      "Ġenter": 5879,
      "Ġhitman": 5880,
      "Ġweek": 5881,
      "Ġmirrors": 5882,
      "Ġkiller": 5883,
      "Ġsince": 5884,
      "Ġphantasm": 5885,
      "Ġyuruyuri": 5886,
      "kakumon": 5887,
      "Ġrealm": 5888,
      "Ġplayer": 5889,
      "Ġplaythrough": 5890,
      "Ġsouls": 5891,
      "Ġtortured": 5892,
      "Ġnagara": 5893,
      "Ġuragiri": 5894,
      "Ġfruit": 5895,
      "Ġwhy": 5896,
      "Ġirozuku": 5897,
      "Ġichizon": 5898,
      "Ġglories": 5899,
      "Ġinvestig": 5900,
      "Ġbecome": 5901,
      "Ġslayers": 5902,
      "Ġblockade": 5903,
      "Ġhimitsu": 5904,
      "Ġhoukai": 5905,
      "Ġbanished": 5906,
      "Ġhidden": 5907,
      "Ġakikan": 5908,
      "Ġwarau": 5909,
      "Ġdonten": 5910,
      "Ġtsukaikata": 5911,
      "Ġultram": 5912,
      "Ġcircum": 5913,
      "Ġmachinegun": 5914,
      "Ġriverside": 5915,
      "Ġshikkakumon": 5916,
      "Ġwakaranai": 5917,
      "Ġkotarou": 5918,
      "Ġomoi": 5919,
      "Ġmashimaro": 5920,
      "Ġmisete": 5921,
      "Ġmachigatta": 5922,
      "Ġhxh": 5923,
      "Ġseikishi": 5924,
      "Ġseikimatsu": 5925,
      "Ġtsukimonogatari": 5926,
      "antsu": 5927,
      "Ġkusuriya": 5928,
      "Ġmakyou": 5929,
      "Ġcrusaders": 5930,
      "Ġmatsuri": 5931,
      "Ġmoraitai": 5932,
      "Ġepilog": 5933,
      "Ġmaoyu": 5934,
      "Ġjitsuryoku": 5935,
      "kageki": 5936,
      "Ġitazura": 5937,
      "Ġirae": 5938,
      "Ġumibe": 5939,
      "Ġtsurune": 5940,
      "Ġyuragi": 5941,
      "Ġtekkonkinkreet": 5942,
      "Ġopantsu": 5943,
      "Ġhitorigurashi": 5944,
      "Ġhitorigoto": 5945,
      "Ġcarnival": 5946,
      "uctions": 5947,
      "Ġmushibugyou": 5948,
      "Ġfootage": 5949,
      "human": 5950,
      "mallow": 5951,
      "offu": 5952,
      "sakurako": 5953,
      "Ġentaku": 5954,
      "ĠÃ©tranger": 5955,
      "Ġsaraiya": 5956,
      "Ġsagashite": 5957,
      "Ġwriter": 5958,
      "Ġmorning": 5959,
      "Ġfumoffu": 5960,
      "Ġbones": 5961,
      "Ġbuso": 5962,
      "Ġbukiyou": 5963,
      "Ġcount": 5964,
      "Ġcristo": 5965,
      "Ġdemi": 5966,
      "Ġdeductions": 5967,
      "Ġaokana": 5968,
      "Ġgekirin": 5969,
      "Ġpolar": 5970,
      "Ġmeitantei": 5971,
      "Ġkatekyou": 5972,
      "Ġkyudo": 5973,
      "Ġtoppa": 5974,
      "Ġshoshimin": 5975,
      "Ġdramatical": 5976,
      "Ġrebuilt": 5977,
      "Ġforbidden": 5978,
      "Ġeccentric": 5979,
      "Ġelectromagn": 5980,
      "Ġnakitai": 5981,
      "Ġnisemonogatari": 5982,
      "Ġgiratina": 5983,
      "Ġisshuukan": 5984,
      "Ġugokanai": 5985,
      "Ġryokou": 5986,
      "Ġrabbit": 5987,
      "Ġexecutioner": 5988,
      "Ġqualidea": 5989,
      "Ġbattlefront": 5990,
      "Ġstardust": 5991,
      "Ġzokusei": 5992,
      "Ġonmyouji": 5993,
      "Ġkazemai": 5994,
      "Ġkanokon": 5995,
      "Ġdaemons": 5996,
      "Ġplunderer": 5997,
      "Ġraeliana": 5998,
      "Ġanimatrix": 5999,
      "Ġgrimoire": 6000,
      "Ġmarshmallow": 6001,
      "Ġinvestigation": 6002,
      "Ġultramarine": 6003,
      "Ġcircumstances": 6004,
      "Ġepilogue": 6005,
      "Ġelectromagnetic": 6006,
      "'d": 6007,
      "aves": 6008,
      "byo": 6009,
      "batsu": 6010,
      "bject": 6011,
      "cry": 6012,
      "dust": 6013,
      "duction": 6014,
      "ehime": 6015,
      "face": 6016,
      "gart": 6017,
      "gum": 6018,
      "gyo": 6019,
      "hed": 6020,
      "hate": 6021,
      "mac": 6022,
      "obi": 6023,
      "ocry": 6024,
      "pha": 6025,
      "sol": 6026,
      "stal": 6027,
      "sensei": 6028,
      "sell": 6029,
      "vine": 6030,
      "wari": 6031,
      "wei": 6032,
      "wareta": 6033,
      "xia": 6034,
      "ying": 6035,
      "yore": 6036,
      "yesterday": 6037,
      "anne": 6038,
      "ancre": 6039,
      "Ġsku": 6040,
      "metsu": 6041,
      "Ġani": 6042,
      "Ġanno": 6043,
      "Ġwai": 6044,
      "arc": 6045,
      "aren": 6046,
      "arenai": 6047,
      "armac": 6048,
      "erno": 6049,
      "Ġfable": 6050,
      "Ġbac": 6051,
      "Ġburai": 6052,
      "Ġdad": 6053,
      "Ġdone": 6054,
      "Ġdoro": 6055,
      "Ġaos": 6056,
      "Ġawa": 6057,
      "housha": 6058,
      "ased": 6059,
      "Ġtub": 6060,
      "alle": 6061,
      "Ġgyak": 6062,
      "Ġhakai": 6063,
      "Ġhadan": 6064,
      "Ġhadou": 6065,
      "Ġhakusho": 6066,
      "icious": 6067,
      "Ġmelo": 6068,
      "Ġmete": 6069,
      "esday": 6070,
      "Ġseduction": 6071,
      "Ġkora": 6072,
      "Ġkinder": 6073,
      "Ġtobi": 6074,
      "amichi": 6075,
      "hiro": 6076,
      "Ġshoushi": 6077,
      "Ġshobitch": 6078,
      "Ġsuna": 6079,
      "ole": 6080,
      "Ġjaku": 6081,
      "Ġiwa": 6082,
      "Ġibun": 6083,
      "Ġizure": 6084,
      "giban": 6085,
      "Ġchuni": 6086,
      "Ġoad": 6087,
      "Ġobject": 6088,
      "Ġregre": 6089,
      "Ġyos": 6090,
      "bow": 6091,
      "botsu": 6092,
      "Ġlover": 6093,
      "chara": 6094,
      "aihousha": 6095,
      "Ġef": 6096,
      "cano": 6097,
      "kuru": 6098,
      "Ġdokyuu": 6099,
      "dying": 6100,
      "Ġnum": 6101,
      "Ġnoro": 6102,
      "Ġnisha": 6103,
      "Ġnera": 6104,
      "enshu": 6105,
      "Ġ200": 6106,
      "Ġsport": 6107,
      "allic": 6108,
      "Ġraihousha": 6109,
      "ently": 6110,
      "Ġanohana": 6111,
      "Ġtwel": 6112,
      "Ġmysteria": 6113,
      "Ġmayuri": 6114,
      "Ġshichin": 6115,
      "Ġzenshu": 6116,
      "kaisen": 6117,
      "Ġniehime": 6118,
      "Ġblend": 6119,
      "kening": 6120,
      "Ġgirlish": 6121,
      "araxia": 6122,
      "toki": 6123,
      "Ġhont": 6124,
      "Ġtsugu": 6125,
      "Ġtsugum": 6126,
      "jie": 6127,
      "Ġsaw": 6128,
      "Ġsajou": 6129,
      "Ġkamen": 6130,
      "!!?": 6131,
      "apocry": 6132,
      "ardian": 6133,
      "Ġseneki": 6134,
      "Ġsenyuu": 6135,
      "Ġsenbatsu": 6136,
      "Ġmahoujikake": 6137,
      "Ġkengan": 6138,
      "Ġsaihate": 6139,
      "Ġunif": 6140,
      "Ġunusu": 6141,
      "Ġundying": 6142,
      "Ġshinkak": 6143,
      "Ġshinobi": 6144,
      "Ġhaiyore": 6145,
      "Ġhanano": 6146,
      "Ġsouja": 6147,
      "Ġhametsu": 6148,
      "iani": 6149,
      "Ġashura": 6150,
      "Ġleaves": 6151,
      "Ġkaiji": 6152,
      "Ġtakt": 6153,
      "Ġchihiro": 6154,
      "Ġtenka": 6155,
      "Ġcop": 6156,
      "Ġslam": 6157,
      "Ġotogiban": 6158,
      "Ġdanse": 6159,
      "Ġseconds": 6160,
      "Ġgrancre": 6161,
      "Ġrendering": 6162,
      "Ġdivine": 6163,
      "Ġparalle": 6164,
      "Ġyuukoku": 6165,
      "Ġbooksell": 6166,
      "Ġataraxia": 6167,
      "Ġbounen": 6168,
      "Ġstarting": 6169,
      "gake": 6170,
      "Ġcrystal": 6171,
      "Ġsoniani": 6172,
      "Ġ05": 6173,
      "Ġendless": 6174,
      "Ġflip": 6175,
      "Ġflapp": 6176,
      "Ġchildhood": 6177,
      "Ġrecently": 6178,
      "Ġabsol": 6179,
      "Ġkyoukaisen": 6180,
      "Ġheavenly": 6181,
      "Ġtouhou": 6182,
      "Ġinferno": 6183,
      "Ġgenzai": 6184,
      "Ġpharmac": 6185,
      "Ġmagias": 6186,
      "Ġkakeru": 6187,
      "Ġservamp": 6188,
      "Ġguardian": 6189,
      "Ġshiroi": 6190,
      "Ġtomoyo": 6191,
      "Ġotaku": 6192,
      "Ġwanjie": 6193,
      "Ġdunk": 6194,
      "Ġittoki": 6195,
      "Ġuramichi": 6196,
      "Ġdiamonddust": 6197,
      "Ġhakken": 6198,
      "Ġhakarenai": 6199,
      "Ġmerman": 6200,
      "breaker": 6201,
      "Ġrokubou": 6202,
      "etekuru": 6203,
      "Ġutau": 6204,
      "Ġfiles": 6205,
      "Ġryuo": 6206,
      "Ġyurikuma": 6207,
      "Ġrises": 6208,
      "Ġrenkinjutsushi": 6209,
      "Ġakira": 6210,
      "Ġseeds": 6211,
      "Ġkodomotachi": 6212,
      "Ġduo": 6213,
      "Ġorigination": 6214,
      "Ġerased": 6215,
      "Ġrainbow": 6216,
      "Ġitsuwari": 6217,
      "Ġdelicious": 6218,
      "Ġyamai": 6219,
      "Ġchrno": 6220,
      "ĠÏĪ": 6221,
      "Ġyarichin": 6222,
      "Ġoniisan": 6223,
      "Ġtsukeru": 6224,
      "Ġclevat": 6225,
      "Ġjuniku": 6226,
      "Ġkusuo": 6227,
      "Ġkusuri": 6228,
      "twins": 6229,
      "Ġjeanne": 6230,
      "Ġheike": 6231,
      "Ġaharen": 6232,
      "Ġsakigake": 6233,
      "Ġwizards": 6234,
      "Ġtakopii": 6235,
      "brid": 6236,
      "Ġhybrid": 6237,
      "Ġmetallic": 6238,
      "Ġclimbing": 6239,
      "Ġkujira": 6240,
      "Ġtuesday": 6241,
      "Ġchinbotsu": 6242,
      "Ġshaman": 6243,
      "Ġcarole": 6244,
      "Ġmushibugyo": 6245,
      "Ġxamdou": 6246,
      "Ġdelusions": 6247,
      "Ġhanamaru": 6248,
      "Ġdimensional": 6249,
      "Ġsekiryuu": 6250,
      "Ġtaishou": 6251,
      "garten": 6252,
      "hedoro": 6253,
      "Ġskull": 6254,
      "Ġannoying": 6255,
      "Ġwaiting": 6256,
      "Ġbaccano": 6257,
      "Ġdaddies": 6258,
      "Ġdorohedoro": 6259,
      "Ġaosa": 6260,
      "Ġawakening": 6261,
      "Ġgyakkyou": 6262,
      "Ġhakairoku": 6263,
      "Ġmelodies": 6264,
      "Ġmeteor": 6265,
      "Ġkindergarten": 6266,
      "Ġtobira": 6267,
      "Ġshoushimin": 6268,
      "Ġchunibyo": 6269,
      "Ġregrets": 6270,
      "Ġyosetekuru": 6271,
      "Ġnumber": 6272,
      "Ġnorowareta": 6273,
      "Ġnerae": 6274,
      "Ġ2000": 6275,
      "Ġtwelve": 6276,
      "Ġshichinin": 6277,
      "Ġhontou": 6278,
      "Ġtsugumomo": 6279,
      "apocrypha": 6280,
      "Ġuniform": 6281,
      "Ġunusual": 6282,
      "Ġshinkakusha": 6283,
      "Ġhananoi": 6284,
      "Ġotogibanashi": 6285,
      "Ġdanseur": 6286,
      "Ġgrancrest": 6287,
      "Ġparallel": 6288,
      "Ġbookseller": 6289,
      "Ġflappers": 6290,
      "Ġabsolute": 6291,
      "Ġkyoukaisenjou": 6292,
      "Ġpharmacy": 6293,
      "Ġclevatess": 6294,
      "bri": 6295,
      "biri": 6296,
      "baku": 6297,
      "ci": 6298,
      "ces": 6299,
      "caf": 6300,
      "de": 6301,
      "ding": 6302,
      "eful": 6303,
      "efeated": 6304,
      "fore": 6305,
      "gent": 6306,
      "hin": 6307,
      "hakusho": 6308,
      "iest": 6309,
      "jima": 6310,
      "jisama": 6311,
      "oss": 6312,
      "para": 6313,
      "prin": 6314,
      "pire": 6315,
      "ser": 6316,
      "sai": 6317,
      "tome": 6318,
      "uka": 6319,
      "uusei": 6320,
      "wlo": 6321,
      "xoss": 6322,
      "Ġes": 6323,
      "anze": 6324,
      "Ġsatsu": 6325,
      "med": 6326,
      "ments": 6327,
      "ororo": 6328,
      "ints": 6329,
      "thly": 6330,
      "Ġwed": 6331,
      "Ġluc": 6332,
      "erawareta": 6333,
      "Ġmight": 6334,
      "Ġfusion": 6335,
      "Ġbyous": 6336,
      "Ġcrow": 6337,
      "Ġcifu": 6338,
      "Ġnouka": 6339,
      "Ġdororo": 6340,
      "Ġagent": 6341,
      "Ġtian": 6342,
      "ree": 6343,
      "reig": 6344,
      "Ġorb": 6345,
      "Ġgt": 6346,
      "Ġgai": 6347,
      "Ġgang": 6348,
      "Ġgear": 6349,
      "Ġgatch": 6350,
      "Ġhyaku": 6351,
      "Ġhakush": 6352,
      "imeter": 6353,
      "Ġwixoss": 6354,
      "Ġporc": 6355,
      "Ġmelan": 6356,
      "rono": 6357,
      "roll": 6358,
      "lot": 6359,
      "Ġseway": 6360,
      "Ġselec": 6361,
      "Ġkits": 6362,
      "Ġkire": 6363,
      "tude": 6364,
      "usive": 6365,
      "ising": 6366,
      "ouroku": 6367,
      "Ġross": 6368,
      "aman": 6369,
      "hip": 6370,
      "Ġthos": 6371,
      "Ġthree": 6372,
      "Ġscroll": 6373,
      "Ġshoten": 6374,
      "unetsu": 6375,
      "Ġpoints": 6376,
      "Ġnotes": 6377,
      "Ġika": 6378,
      "Ġtheir": 6379,
      "Ġchrono": 6380,
      "Ġreunion": 6381,
      "Ġyomi": 6382,
      "Ġshowa": 6383,
      "Ġloser": 6384,
      "chin": 6385,
      "chanted": 6386,
      "aigen": 6387,
      "Ġmagni": 6388,
      "kure": 6389,
      "riku": 6390,
      "Ġnerawareta": 6391,
      "Ġcomet": 6392,
      "lowne": 6393,
      "Ġgabri": 6394,
      "Ġromanze": 6395,
      "Ġskies": 6396,
      "Ġwords": 6397,
      "Ġloveless": 6398,
      "choly": 6399,
      "Ġinai": 6400,
      "Ġarmed": 6401,
      "Ġmoteru": 6402,
      "Ġmotome": 6403,
      "Ġrand": 6404,
      "Ġryou": 6405,
      "Ġrage": 6406,
      "Ġranger": 6407,
      "akuri": 6408,
      "Ġmenu": 6409,
      "Ġtearmoon": 6410,
      "els": 6411,
      "Ġboard": 6412,
      "Ġzouroku": 6413,
      "Ġkowlo": 6414,
      "Ġblaz": 6415,
      "tousen": 6416,
      "Ġbefore": 6417,
      "Ġhourai": 6418,
      "sta": 6419,
      "essels": 6420,
      "Ġtsugai": 6421,
      "jiku": 6422,
      "Ġkaidan": 6423,
      "Ġvessels": 6424,
      "Ġkancol": 6425,
      "Ġplus": 6426,
      "Ġseiyaku": 6427,
      "Ġsenko": 6428,
      "Ġsenkan": 6429,
      "Ġmusaigen": 6430,
      "Ġwaratte": 6431,
      "Ġkimura": 6432,
      "ected": 6433,
      "Ġshinju": 6434,
      "Ġshinreig": 6435,
      "Ġraising": 6436,
      "Ġanimal": 6437,
      "Ġhanbun": 6438,
      "Ġhaou": 6439,
      "Ġmonthly": 6440,
      "Ġtenjiku": 6441,
      "Ġyousei": 6442,
      "Ġbunri": 6443,
      "Ġdances": 6444,
      "Ġdansai": 6445,
      "Ġfriendship": 6446,
      "Ġoujisama": 6447,
      "Ġparano": 6448,
      "Ġboukun": 6449,
      "Ġbrand": 6450,
      "Ġstarry": 6451,
      "Ġgold": 6452,
      "Ġ02": 6453,
      "Ġenchanted": 6454,
      "ifer": 6455,
      "Ġkarakuri": 6456,
      "Ġjibaku": 6457,
      "Ġinfected": 6458,
      "Ġhajimete": 6459,
      "Ġkilo": 6460,
      "2018": 6461,
      "Ġnekopara": 6462,
      "Ġarte": 6463,
      "Ġguan": 6464,
      "Ġelusive": 6465,
      "Ġundefeated": 6466,
      "Ġdisci": 6467,
      "Ġjuuni": 6468,
      "Ġzombieland": 6469,
      "Ġushin": 6470,
      "Ġnonbiri": 6471,
      "Ġdaioh": 6472,
      "Ġwalkure": 6473,
      "Ġpico": 6474,
      "Ġhatchin": 6475,
      "Ġcrime": 6476,
      "Ġkotaro": 6477,
      "Ġcentimeter": 6478,
      "Ġfleet": 6479,
      "Ġdropout": 6480,
      "Ġmashiba": 6481,
      "Ġkokuki": 6482,
      "Ġrecoil": 6483,
      "Ġmichiko": 6484,
      "Ġnoboru": 6485,
      "Ġedens": 6486,
      "Ġedge": 6487,
      "Ġgeneric": 6488,
      "Ġgenerations": 6489,
      "Ġguren": 6490,
      "Ġshakunetsu": 6491,
      "Ġguys": 6492,
      "Ġfoolish": 6493,
      "2006": 6494,
      "Ġmount": 6495,
      "Ġdumbbell": 6496,
      "Ġwasteful": 6497,
      "Ġikkitousen": 6498,
      "Ġxyz": 6499,
      "Ġmovements": 6500,
      "Ġshinryaku": 6501,
      "Ġdoukyuusei": 6502,
      "Ġsurvive": 6503,
      "Ġotherside": 6504,
      "Ġlookism": 6505,
      "Ġfootprin": 6506,
      "Ġhanamonogatari": 6507,
      "Ġemiya": 6508,
      "Ġempire": 6509,
      "coris": 6510,
      "Ġbattleship": 6511,
      "Ġpilot": 6512,
      "Ġlycoris": 6513,
      "Ġmachiavellism": 6514,
      "caflowne": 6515,
      "Ġescaflowne": 6516,
      "Ġsatsuriku": 6517,
      "Ġwedding": 6518,
      "Ġlucifer": 6519,
      "Ġmightiest": 6520,
      "Ġbyousoku": 6521,
      "Ġcrowds": 6522,
      "Ġgaikotsu": 6523,
      "Ġgangsta": 6524,
      "Ġgatchaman": 6525,
      "Ġhyakuren": 6526,
      "Ġhakushaku": 6527,
      "Ġporco": 6528,
      "Ġmelancholy": 6529,
      "Ġsewayaki": 6530,
      "Ġselector": 6531,
      "Ġkitsune": 6532,
      "Ġkirei": 6533,
      "Ġrosso": 6534,
      "Ġthose": 6535,
      "Ġshotenin": 6536,
      "Ġmagnitude": 6537,
      "Ġgabriel": 6538,
      "Ġmotomete": 6539,
      "Ġrandom": 6540,
      "Ġryoubo": 6541,
      "Ġboarding": 6542,
      "Ġkowloon": 6543,
      "Ġblazers": 6544,
      "Ġhouraijima": 6545,
      "Ġkancolle": 6546,
      "Ġshinreigari": 6547,
      "Ġparanoia": 6548,
      "Ġdisciple": 6549,
      "Ġushinawareta": 6550,
      "Ġfootprints": 6551,
      "-.": 6552,
      "bly": 6553,
      "bako": 6554,
      "brain": 6555,
      "cast": 6556,
      "iac": 6557,
      "iverse": 6558,
      "iji": 6559,
      "ible": 6560,
      "ivor": 6561,
      "ibly": 6562,
      "jar": 6563,
      "mad": 6564,
      "more": 6565,
      "ozuki": 6566,
      "sekai": 6567,
      "xi": 6568,
      "yal": 6569,
      "zda": 6570,
      "Ġuse": 6571,
      "Ġsket": 6572,
      "Ġsix": 6573,
      "ort": 6574,
      "inher": 6575,
      "Ġwra": 6576,
      "Ġwrong": 6577,
      "eres": 6578,
      "noha": 6579,
      "Ġfac": 6580,
      "Ġfur": 6581,
      "Ġfish": 6582,
      "Ġfran": 6583,
      "Ġbund": 6584,
      "Ġbouryaku": 6585,
      "Ġcen": 6586,
      "Ġcaret": 6587,
      "Ġnomad": 6588,
      "Ġama": 6589,
      "enase": 6590,
      "Ġtre": 6591,
      "Ġtaw": 6592,
      "Ġgetsu": 6593,
      "ative": 6594,
      "Ġpom": 6595,
      "Ġmeiji": 6596,
      "Ġbuta": 6597,
      "Ġbutlers": 6598,
      "usume": 6599,
      "Ġtoga": 6600,
      "iden": 6601,
      "vezda": 6602,
      "isper": 6603,
      "isode": 6604,
      "isible": 6605,
      "Ġroyal": 6606,
      "amata": 6607,
      "amusume": 6608,
      "Ġtheres": 6609,
      "Ġshokei": 6610,
      "Ġposs": 6611,
      "Ġpoko": 6612,
      "Ġito": 6613,
      "Ġspider": 6614,
      "Ġogre": 6615,
      "Ġreite": 6616,
      "Ġyase": 6617,
      "Ġeinher": 6618,
      "kuushi": 6619,
      "riad": 6620,
      "ried": 6621,
      "Ġgaiden": 6622,
      "Ġgiji": 6623,
      "Ġinaz": 6624,
      "Ġromantan": 6625,
      "Ġmyriad": 6626,
      "Ġarawareta": 6627,
      "aker": 6628,
      "akiss": 6629,
      "Ġclay": 6630,
      "Ġhighway": 6631,
      "Ġbloodivor": 6632,
      "Ġjose": 6633,
      "Ġshort": 6634,
      "bato": 6635,
      "Ġzod": 6636,
      "Ġzvezda": 6637,
      "Ġkoisuru": 6638,
      "Ġkobato": 6639,
      "Ġdears": 6640,
      "ashiki": 6641,
      "Ġniwa": 6642,
      "tosho": 6643,
      "Ġonimai": 6644,
      "Ġhoozuki": 6645,
      "youbi": 6646,
      "Ġkaichou": 6647,
      "jouhan": 6648,
      "Ġmusuko": 6649,
      "Ġkoujou": 6650,
      "Ġkenkaku": 6651,
      "Ġaltern": 6652,
      "Ġuniverse": 6653,
      "Ġshinwa": 6654,
      "Ġshinsekai": 6655,
      "Ġprobl": 6656,
      "Ġkaizoku": 6657,
      "Ġyojouhan": 6658,
      "Ġhitsuji": 6659,
      "Ġhikuushi": 6660,
      "awa": 6661,
      "Ġtenseiki": 6662,
      "asure": 6663,
      "Ġjunketsu": 6664,
      "Ġwatch": 6665,
      "Ġkoiuta": 6666,
      "Ġyuuki": 6667,
      "Ġtaisen": 6668,
      "Ġtaxi": 6669,
      "Ġbroken": 6670,
      "Ġkyoudai": 6671,
      "Ġjihen": 6672,
      "Ġtaikei": 6673,
      "2015": 6674,
      "Ġstride": 6675,
      "Ġcold": 6676,
      "Ġshirobako": 6677,
      "Ġdiscre": 6678,
      "Ġitakiss": 6679,
      "Ġtrust": 6680,
      "Ġinuyashiki": 6681,
      "Ġwhisper": 6682,
      "Ġsarazan": 6683,
      "Ġirodu": 6684,
      "Ġinvisible": 6685,
      "Ġcomplete": 6686,
      "Ġbraves": 6687,
      "Ġdaitosho": 6688,
      "Ġumamusume": 6689,
      "Ġwalking": 6690,
      "Ġodd": 6691,
      "Ġoutcast": 6692,
      "Ġhanayamata": 6693,
      "Ġmurenase": 6694,
      "Ġversus": 6695,
      "Ġtensura": 6696,
      "Ġladies": 6697,
      "Ġcolorful": 6698,
      "Ġchoujin": 6699,
      "Ġepic": 6700,
      "Ġepisode": 6701,
      "Ġkotonoha": 6702,
      "2009": 6703,
      "Ġpenguin": 6704,
      "Ġhealing": 6705,
      "Ġappears": 6706,
      "Ġblesser": 6707,
      "Ġburied": 6708,
      "Ġsekirei": 6709,
      "coroll": 6710,
      "Ġtutor": 6711,
      "Ġloner": 6712,
      "Ġwrath": 6713,
      "Ġfaces": 6714,
      "Ġfurther": 6715,
      "Ġfranxx": 6716,
      "Ġcencoroll": 6717,
      "Ġcaretaker": 6718,
      "Ġamaama": 6719,
      "Ġtreasure": 6720,
      "Ġtawawa": 6721,
      "Ġgetsuyoubi": 6722,
      "Ġtogainu": 6723,
      "Ġtherese": 6724,
      "Ġpossibly": 6725,
      "Ġreitetsu": 6726,
      "Ġyasei": 6727,
      "Ġeinherjar": 6728,
      "Ġinazuma": 6729,
      "Ġclaymore": 6730,
      "Ġbloodivores": 6731,
      "Ġjosee": 6732,
      "Ġzodiac": 6733,
      "Ġalternative": 6734,
      "Ġproblem": 6735,
      "Ġhitsujikai": 6736,
      "Ġdiscretion": 6737,
      "Ġsarazanmai": 6738,
      "Ġiroduku": 6739,
      "Ġdaitoshokan": 6740,
      "ction": 6741,
      "gol": 6742,
      "hes": 6743,
      "jim": 6744,
      "pec": 6745,
      "pelled": 6746,
      "pact": 6747,
      "rant": 6748,
      "swer": 6749,
      "yrant": 6750,
      "Ġanswer": 6751,
      "Ġwagnar": 6752,
      "Ġfashi": 6753,
      "antou": 6754,
      "asarete": 6755,
      "Ġtro": 6756,
      "Ġtiny": 6757,
      "Ġtable": 6758,
      "Ġtights": 6759,
      "Ġtrain": 6760,
      "Ġtyrant": 6761,
      "Ġgx": 6762,
      "Ġgush": 6763,
      "Ġhina": 6764,
      "Ġpub": 6765,
      "Ġtojim": 6766,
      "Ġround": 6767,
      "erspec": 6768,
      "Ġthus": 6769,
      "led": 6770,
      "Ġright": 6771,
      "Ġexpelled": 6772,
      "Ġinterspec": 6773,
      "Ġcomic": 6774,
      "Ġmysteries": 6775,
      "Ġkoushi": 6776,
      "Ġshigatsu": 6777,
      "ruction": 6778,
      "Ġshouwa": 6779,
      "Ġsenryuu": 6780,
      "istants": 6781,
      "Ġshinjuu": 6782,
      "Ġshinsei": 6783,
      "denashi": 6784,
      "pping": 6785,
      "Ġmongol": 6786,
      "Ġashes": 6787,
      "ubled": 6788,
      "!?,": 6789,
      "Ġshokudou": 6790,
      "Ġmiru": 6791,
      "Ġartist": 6792,
      "Ġarcade": 6793,
      "Ġassistants": 6794,
      "Ġnagasarete": 6795,
      "Ġuso": 6796,
      "Ġrokudenashi": 6797,
      "Ġsteel": 6798,
      "Ġspiritpact": 6799,
      "Ġinukai": 6800,
      "Ġhands": 6801,
      "Ġspoke": 6802,
      "shopping": 6803,
      "âĸ³,": 6804,
      "Ġcutie": 6805,
      "Ġdestruction": 6806,
      "Ġorigins": 6807,
      "Ġairantou": 6808,
      "Ġillusion": 6809,
      "Ġchop": 6810,
      "2000": 6811,
      "Ġfushisha": 6812,
      "Ġtaisho": 6813,
      "Ġpii": 6814,
      "Ġtutu": 6815,
      "Ġwagnaria": 6816,
      "Ġtroubled": 6817,
      "Ġtraining": 6818,
      "Ġgushing": 6819,
      "Ġpublic": 6820,
      "Ġtojimari": 6821,
      "Ġinterspecies": 6822,
      "Ġshinseiki": 6823,
      "Ġmongolian": 6824,
      "Ġillusions": 6825,
      "cris": 6826,
      "dg": 6827,
      "eidan": 6828,
      "kishi": 6829,
      "nu": 6830,
      "nco": 6831,
      "oha": 6832,
      "rical": 6833,
      "uor": 6834,
      "arture": 6835,
      "kebit": 6836,
      "anteidan": 6837,
      "hounen": 6838,
      "Ġtab": 6839,
      "Ġtanteidan": 6840,
      "onkishi": 6841,
      "loid": 6842,
      "Ġtokei": 6843,
      "hit": 6844,
      "Ġvivy": 6845,
      "terund": 6846,
      "Ġchoro": 6847,
      "Ġyosu": 6848,
      "Ġyonkishi": 6849,
      "adono": 6850,
      "Ġfunnu": 6851,
      "shimai": 6852,
      "Ġmokushi": 6853,
      "Ġraitai": 6854,
      "Ġrdg": 6855,
      "Ġtrip": 6856,
      "Ġdeparture": 6857,
      "Ġdefeated": 6858,
      "Ġsakebit": 6859,
      "Ġnanoha": 6860,
      "amenco": 6861,
      "Ġangai": 6862,
      "Ġflamenco": 6863,
      "Ġbishounen": 6864,
      "Ġninpuu": 6865,
      "Ġsanshimai": 6866,
      "Ġkino": 6867,
      "Ġimmoral": 6868,
      "bee": 6869,
      "Ġmikadono": 6870,
      "fluor": 6871,
      "Ġeye": 6872,
      "Ġjuubee": 6873,
      "Ġangeloid": 6874,
      "agatterund": 6875,
      "Ġlyrical": 6876,
      "crisis": 6877,
      "Ġtabi": 6878,
      "Ġtokeijikake": 6879,
      "Ġchoroi": 6880,
      "Ġyosuga": 6881,
      "Ġmokushiroku": 6882,
      "Ġdepartures": 6883,
      "Ġsakebitagatterund": 6884,
      "Ġninpuuchou": 6885,
      "fluorite": 6886,
      "Ġsakebitagatterunda": 6887,
      "',": 6888,
      "-?": 6889,
      "rice": 6890,
      "Ġ+": 6891,
      "Ġsentou": 6892,
      "Ġwhere": 6893,
      "Ġlul": 6894,
      "hoto": 6895,
      "Ġphoto": 6896,
      "Ġrever": 6897,
      "bocchi": 6898,
      "lowed": 6899,
      "Ġmayu": 6900,
      "Ġdeai": 6901,
      "Ġsaish": 6902,
      "Ġallowed": 6903,
      "Ġhaken": 6904,
      "ianism": 6905,
      "Ġutena": 6906,
      "uco": 6907,
      "Ġpatrol": 6908,
      "Ġhitoribocchi": 6909,
      "Ġcaprice": 6910,
      "Ġheiki": 6911,
      "Ġsymphony": 6912,
      "Ġmashiroiro": 6913,
      "Ġmachiavellianism": 6914,
      "Ġlonger": 6915,
      "Ġsentouin": 6916,
      "Ġluluco": 6917,
      "Ġreverie": 6918,
      "Ġsaishuu": 6919,
      "],": 6920,
      "gm": 6921,
      "iod": 6922,
      "ks": 6923,
      "name": 6924,
      "~,": 6925,
      "keyo": 6926,
      "Ġlikes": 6927,
      "Ġdoll": 6928,
      "arted": 6929,
      "que": 6930,
      "Ġdeparted": 6931,
      "jikashi": 6932,
      "Ġunname": 6933,
      "Ġmijikashi": 6934,
      "Ġsinks": 6935,
      "Ġbisque": 6936,
      "Ġmemory": 6937,
      "Ġkongm": 6938,
      "Ġperiod": 6939,
      "Ġletters": 6940,
      "Ġarukeyo": 6941,
      "Ġunnamed": 6942,
      "Ġkongming": 6943,
      "%,": 6944,
      "-:": 6945,
      "mus": 6946,
      "âĺħâĺħ,": 6947,
      ":||,": 6948,
      "music": 6949,
      "\",": 6950,
      "':": 6951,
      "~.": 6952,
      "chousen": 6953,
      "Ġenchousen": 6954,
      "Ġsousei": 6955,
      "âĸ³:": 6956,
      "âĺħâĺħ.": 6957,
      "ĠâĻ¥,": 6958,
      "âĪŀ.": 6959,
      "%:": 6960,
      "%?": 6961,
      "'?": 6962,
      "~:": 6963,
      "!?.": 6964,
      "ĠâĻ¥:": 6965
    },
    "merges": [
      [
        "a",
        "n"
      ],
      [
        "Ġ",
        "s"
      ],
      [
        "m",
        "e"
      ],
      [
        "Ġ",
        "an"
      ],
      [
        "o",
        "r"
      ],
      [
        "i",
        "n"
      ],
      [
        "t",
        "h"
      ],
      [
        "Ġ",
        "w"
      ],
      [
        "Ġan",
        "d"
      ],
      [
        "Ġ",
        "l"
      ],
      [
        "a",
        "r"
      ],
      [
        "e",
        "r"
      ],
      [
        "k",
        "e"
      ],
      [
        "Ġl",
        "i"
      ],
      [
        "in",
        "g"
      ],
      [
        "n",
        "o"
      ],
      [
        "Ġli",
        "ke"
      ],
      [
        "Ġ",
        "m"
      ],
      [
        "Ġ",
        "f"
      ],
      [
        "Ġ",
        "b"
      ],
      [
        "Ġ",
        "c"
      ],
      [
        "an",
        "t"
      ],
      [
        "Ġ",
        "no"
      ],
      [
        "Ġ",
        "d"
      ],
      [
        "Ġ",
        "a"
      ],
      [
        "e",
        "n"
      ],
      [
        "t",
        "s"
      ],
      [
        "h",
        "o"
      ],
      [
        "a",
        "s"
      ],
      [
        "Ġ",
        "t"
      ],
      [
        "r",
        "e"
      ],
      [
        "u",
        "t"
      ],
      [
        "a",
        "l"
      ],
      [
        "o",
        "n"
      ],
      [
        "Ġ",
        "or"
      ],
      [
        "Ġ",
        "g"
      ],
      [
        "Ġ",
        "h"
      ],
      [
        "i",
        "me"
      ],
      [
        "a",
        "t"
      ],
      [
        "Ġw",
        "i"
      ],
      [
        "Ġwi",
        "th"
      ],
      [
        "Ġ",
        "p"
      ],
      [
        "i",
        "c"
      ],
      [
        "o",
        "me"
      ],
      [
        "Ġ",
        "me"
      ],
      [
        "r",
        "o"
      ],
      [
        "l",
        "o"
      ],
      [
        "e",
        "s"
      ],
      [
        "Ġw",
        "ant"
      ],
      [
        "Ġb",
        "ut"
      ],
      [
        "th",
        "ing"
      ],
      [
        "Ġlike",
        "d"
      ],
      [
        "Ġs",
        "e"
      ],
      [
        "i",
        "l"
      ],
      [
        "Ġ",
        "k"
      ],
      [
        "t",
        "u"
      ],
      [
        "u",
        "s"
      ],
      [
        "Ġt",
        "o"
      ],
      [
        "i",
        "d"
      ],
      [
        "v",
        "e"
      ],
      [
        "i",
        "s"
      ],
      [
        "o",
        "u"
      ],
      [
        "Ġ",
        "ro"
      ],
      [
        "Ġan",
        "ime"
      ],
      [
        "er",
        "s"
      ],
      [
        "a",
        "m"
      ],
      [
        "h",
        "i"
      ],
      [
        "v",
        "i"
      ],
      [
        "a",
        "c"
      ],
      [
        "g",
        "h"
      ],
      [
        "i",
        "m"
      ],
      [
        "Ġ",
        "th"
      ],
      [
        "Ġs",
        "c"
      ],
      [
        "ome",
        "thing"
      ],
      [
        "Ġs",
        "tu"
      ],
      [
        "o",
        "m"
      ],
      [
        "Ġs",
        "ho"
      ],
      [
        "Ġs",
        "u"
      ],
      [
        "o",
        "l"
      ],
      [
        "i",
        "on"
      ],
      [
        "Ġ",
        "j"
      ],
      [
        "Ġ",
        "vi"
      ],
      [
        "u",
        "n"
      ],
      [
        "lo",
        "o"
      ],
      [
        "Ġd",
        "r"
      ],
      [
        "an",
        "ime"
      ],
      [
        "Ġp",
        "o"
      ],
      [
        "a",
        "g"
      ],
      [
        "i",
        "gh"
      ],
      [
        "f",
        "f"
      ],
      [
        "e",
        "m"
      ],
      [
        "t",
        "er"
      ],
      [
        "Ġno",
        "t"
      ],
      [
        "Ġstu",
        "ff"
      ],
      [
        "ic",
        "al"
      ],
      [
        "Ġpo",
        "w"
      ],
      [
        "t",
        "ing"
      ],
      [
        "s",
        "omething"
      ],
      [
        "Ġ",
        "i"
      ],
      [
        "Ġs",
        "p"
      ],
      [
        "Ġth",
        "e"
      ],
      [
        "Ġs",
        "im"
      ],
      [
        "il",
        "ar"
      ],
      [
        "Ġsim",
        "ilar"
      ],
      [
        "g",
        "i"
      ],
      [
        "v",
        "o"
      ],
      [
        "k",
        "i"
      ],
      [
        "Ġc",
        "h"
      ],
      [
        "vo",
        "id"
      ],
      [
        "Ġ",
        "o"
      ],
      [
        "am",
        "a"
      ],
      [
        "in",
        "d"
      ],
      [
        "Ġvi",
        "b"
      ],
      [
        "Ġvib",
        "es"
      ],
      [
        "Ġ",
        "re"
      ],
      [
        "gi",
        "ve"
      ],
      [
        "p",
        "er"
      ],
      [
        "as",
        "t"
      ],
      [
        "Ġa",
        "d"
      ],
      [
        "Ġ",
        "y"
      ],
      [
        "ar",
        "y"
      ],
      [
        "Ġsu",
        "per"
      ],
      [
        "Ġsho",
        "w"
      ],
      [
        "at",
        "u"
      ],
      [
        "Ġch",
        "ar"
      ],
      [
        "Ġpow",
        "ers"
      ],
      [
        "Ġchar",
        "ac"
      ],
      [
        "Ġse",
        "t"
      ],
      [
        "o",
        "ut"
      ],
      [
        "Ġset",
        "ting"
      ],
      [
        "Ġc",
        "ast"
      ],
      [
        "b",
        "o"
      ],
      [
        "Ġdr",
        "ama"
      ],
      [
        "n",
        "d"
      ],
      [
        "Ġa",
        "void"
      ],
      [
        "Ġwith",
        "out"
      ],
      [
        "Ġl",
        "o"
      ],
      [
        "Ġf",
        "igh"
      ],
      [
        "c",
        "h"
      ],
      [
        "Ġro",
        "bo"
      ],
      [
        "a",
        "d"
      ],
      [
        "a",
        "i"
      ],
      [
        "v",
        "en"
      ],
      [
        "Ġf",
        "or"
      ],
      [
        "or",
        "e"
      ],
      [
        "i",
        "t"
      ],
      [
        "Ġ",
        "e"
      ],
      [
        "Ġm",
        "ag"
      ],
      [
        "k",
        "ing"
      ],
      [
        "c",
        "an"
      ],
      [
        "Ġa",
        "c"
      ],
      [
        "loo",
        "king"
      ],
      [
        "k",
        "u"
      ],
      [
        "Ġd",
        "o"
      ],
      [
        "d",
        "y"
      ],
      [
        "l",
        "e"
      ],
      [
        "ho",
        "ol"
      ],
      [
        "Ġsc",
        "hool"
      ],
      [
        "t",
        "or"
      ],
      [
        "r",
        "i"
      ],
      [
        "Ġ",
        "n"
      ],
      [
        "Ġc",
        "ome"
      ],
      [
        "lo",
        "w"
      ],
      [
        "Ġo",
        "f"
      ],
      [
        "Ġg",
        "a"
      ],
      [
        "Ġro",
        "m"
      ],
      [
        "t",
        "ion"
      ],
      [
        "Ġs",
        "low"
      ],
      [
        "Ġs",
        "ki"
      ],
      [
        "Ġski",
        "p"
      ],
      [
        "an",
        "y"
      ],
      [
        "ant",
        "as"
      ],
      [
        "Ġcharac",
        "ter"
      ],
      [
        "Ġf",
        "antas"
      ],
      [
        "Ġfantas",
        "y"
      ],
      [
        "me",
        "nd"
      ],
      [
        "re",
        "c"
      ],
      [
        "om",
        "mend"
      ],
      [
        "rec",
        "ommend"
      ],
      [
        "en",
        "s"
      ],
      [
        "any",
        "thing"
      ],
      [
        "Ġme",
        "ch"
      ],
      [
        "us",
        "t"
      ],
      [
        "Ġy",
        "ou"
      ],
      [
        "e",
        "d"
      ],
      [
        "Ġj",
        "ust"
      ],
      [
        "Ġ",
        "2"
      ],
      [
        "Ġg",
        "i"
      ],
      [
        "c",
        "e"
      ],
      [
        "u",
        "l"
      ],
      [
        "i",
        "al"
      ],
      [
        "ts",
        "u"
      ],
      [
        "l",
        "d"
      ],
      [
        "Ġw",
        "or"
      ],
      [
        "ens",
        "e"
      ],
      [
        "Ġlo",
        "ve"
      ],
      [
        "Ġh",
        "e"
      ],
      [
        "as",
        "on"
      ],
      [
        "Ġse",
        "ason"
      ],
      [
        "Ġwor",
        "ld"
      ],
      [
        "Ġh",
        "ar"
      ],
      [
        "Ġm",
        "ore"
      ],
      [
        "or",
        "d"
      ],
      [
        "c",
        "ho"
      ],
      [
        "at",
        "ion"
      ],
      [
        "Ġ",
        "in"
      ],
      [
        "Ġga",
        "me"
      ],
      [
        "l",
        "es"
      ],
      [
        "Ġk",
        "id"
      ],
      [
        "Ġd",
        "ar"
      ],
      [
        "s",
        "y"
      ],
      [
        "Ġsp",
        "or"
      ],
      [
        "Ġhar",
        "em"
      ],
      [
        "Ġspor",
        "ts"
      ],
      [
        "tu",
        "re"
      ],
      [
        "Ġdar",
        "k"
      ],
      [
        "Ġb",
        "loo"
      ],
      [
        "Ġad",
        "ven"
      ],
      [
        "Ġmag",
        "ic"
      ],
      [
        "Ġp",
        "sy"
      ],
      [
        "e",
        "p"
      ],
      [
        "Ġpsy",
        "cho"
      ],
      [
        "ul",
        "t"
      ],
      [
        "Ġadven",
        "ture"
      ],
      [
        "Ġs",
        "w"
      ],
      [
        "Ġf",
        "ind"
      ],
      [
        "Ġm",
        "il"
      ],
      [
        "Ġcome",
        "dy"
      ],
      [
        "Ġkid",
        "s"
      ],
      [
        "n",
        "y"
      ],
      [
        "it",
        "ary"
      ],
      [
        "Ġmil",
        "itary"
      ],
      [
        "e",
        "t"
      ],
      [
        "r",
        "al"
      ],
      [
        "Ġf",
        "un"
      ],
      [
        "Ġrom",
        "ant"
      ],
      [
        "Ġm",
        "atu"
      ],
      [
        "Ġmatu",
        "re"
      ],
      [
        "Ġromant",
        "ic"
      ],
      [
        "n",
        "atu"
      ],
      [
        "Ġsuper",
        "natu"
      ],
      [
        "Ġsupernatu",
        "ral"
      ],
      [
        "lo",
        "g"
      ],
      [
        "Ġh",
        "is"
      ],
      [
        "Ġad",
        "ult"
      ],
      [
        "Ġgame",
        "s"
      ],
      [
        "Ġhe",
        "a"
      ],
      [
        "Ġpsycho",
        "log"
      ],
      [
        "Ġfun",
        "ny"
      ],
      [
        "Ġpsycholog",
        "ical"
      ],
      [
        "Ġsw",
        "ord"
      ],
      [
        "Ġf",
        "o"
      ],
      [
        "Ġhis",
        "tor"
      ],
      [
        "Ġhistor",
        "ical"
      ],
      [
        "Ġsc",
        "ary"
      ],
      [
        "v",
        "y"
      ],
      [
        "Ġhea",
        "vy"
      ],
      [
        "c",
        "us"
      ],
      [
        "Ġfo",
        "cus"
      ],
      [
        "Ġfocus",
        "ed"
      ],
      [
        "Ġgi",
        "ant"
      ],
      [
        "Ġshow",
        "s"
      ],
      [
        "Ġrobo",
        "t"
      ],
      [
        "Ġfigh",
        "ts"
      ],
      [
        "Ġrobo",
        "ts"
      ],
      [
        "Ġm",
        "y"
      ],
      [
        "Ġac",
        "tion"
      ],
      [
        "e",
        "c"
      ],
      [
        "ar",
        "t"
      ],
      [
        "on",
        "e"
      ],
      [
        "s",
        "hi"
      ],
      [
        "al",
        "l"
      ],
      [
        "Ġ",
        "ar"
      ],
      [
        "Ġm",
        "o"
      ],
      [
        "s",
        "s"
      ],
      [
        "Ġ",
        "is"
      ],
      [
        "Ġg",
        "o"
      ],
      [
        "Ġ",
        "u"
      ],
      [
        "Ġ",
        "r"
      ],
      [
        "a",
        "k"
      ],
      [
        "en",
        "t"
      ],
      [
        "th",
        "er"
      ],
      [
        "es",
        "t"
      ],
      [
        "q",
        "u"
      ],
      [
        "d",
        "er"
      ],
      [
        "s",
        "ter"
      ],
      [
        "Ġan",
        "o"
      ],
      [
        "Ġt",
        "e"
      ],
      [
        "as",
        "s"
      ],
      [
        "Ġsp",
        "ec"
      ],
      [
        "Ġspec",
        "ial"
      ],
      [
        "ad",
        "em"
      ],
      [
        "Ġac",
        "adem"
      ],
      [
        "an",
        "g"
      ],
      [
        "Ġano",
        "ther"
      ],
      [
        "Ġc",
        "l"
      ],
      [
        "at",
        "t"
      ],
      [
        "f",
        "e"
      ],
      [
        "Ġh",
        "igh"
      ],
      [
        "Ġe",
        "x"
      ],
      [
        "t",
        "al"
      ],
      [
        "Ġ",
        "qu"
      ],
      [
        "Ġs",
        "omething"
      ],
      [
        "Ġh",
        "as"
      ],
      [
        "Ġth",
        "at"
      ],
      [
        "Ġg",
        "et"
      ],
      [
        "c",
        "hi"
      ],
      [
        "n",
        "e"
      ],
      [
        "ou",
        "r"
      ],
      [
        "em",
        "o"
      ],
      [
        "i",
        "ri"
      ],
      [
        "Ġbloo",
        "d"
      ],
      [
        "v",
        "ers"
      ],
      [
        "r",
        "a"
      ],
      [
        "Ġj",
        "o"
      ],
      [
        "Ġli",
        "fe"
      ],
      [
        "Ġh",
        "or"
      ],
      [
        "Ġt",
        "w"
      ],
      [
        "in",
        "e"
      ],
      [
        "Ġin",
        "t"
      ],
      [
        "c",
        "chi"
      ],
      [
        "Ġb",
        "att"
      ],
      [
        "en",
        "ce"
      ],
      [
        "Ġg",
        "ho"
      ],
      [
        "t",
        "ers"
      ],
      [
        "all",
        "y"
      ],
      [
        "Ġw",
        "ho"
      ],
      [
        "Ġbatt",
        "le"
      ],
      [
        "f",
        "ind"
      ],
      [
        "Ġre",
        "ally"
      ],
      [
        "Ġc",
        "om"
      ],
      [
        "w",
        "n"
      ],
      [
        "an",
        "ce"
      ],
      [
        "n",
        "ts"
      ],
      [
        "Ġm",
        "ome"
      ],
      [
        "Ġs",
        "us"
      ],
      [
        "Ġint",
        "ense"
      ],
      [
        "Ġmy",
        "ster"
      ],
      [
        "re",
        "ss"
      ],
      [
        "vers",
        "e"
      ],
      [
        "a",
        "ku"
      ],
      [
        "Ġe",
        "cchi"
      ],
      [
        "er",
        "k"
      ],
      [
        "un",
        "en"
      ],
      [
        "Ġre",
        "verse"
      ],
      [
        "Ġm",
        "ind"
      ],
      [
        "Ġmome",
        "nts"
      ],
      [
        "Ġm",
        "a"
      ],
      [
        "ro",
        "om"
      ],
      [
        "Ġsho",
        "unen"
      ],
      [
        "k",
        "o"
      ],
      [
        "les",
        "ome"
      ],
      [
        "Ġwho",
        "lesome"
      ],
      [
        "in",
        "en"
      ],
      [
        "Ġt",
        "one"
      ],
      [
        "Ġse",
        "inen"
      ],
      [
        "ne",
        "y"
      ],
      [
        "Ġcharac",
        "ters"
      ],
      [
        "r",
        "or"
      ],
      [
        "as",
        "e"
      ],
      [
        "Ġgo",
        "o"
      ],
      [
        "p",
        "ense"
      ],
      [
        "Ġcl",
        "ass"
      ],
      [
        "Ġsus",
        "pense"
      ],
      [
        "Ġ",
        "emo"
      ],
      [
        "Ġsp",
        "iri"
      ],
      [
        "tion",
        "al"
      ],
      [
        "Ġemo",
        "tional"
      ],
      [
        "Ġspiri",
        "ts"
      ],
      [
        "'",
        "s"
      ],
      [
        "Ġm",
        "art"
      ],
      [
        "Ġar",
        "ts"
      ],
      [
        "Ġmart",
        "ial"
      ],
      [
        "Ġs",
        "h"
      ],
      [
        "Ġt",
        "ri"
      ],
      [
        "Ġvi",
        "ol"
      ],
      [
        "Ġg",
        "ore"
      ],
      [
        "Ġto",
        "o"
      ],
      [
        "Ġgho",
        "s"
      ],
      [
        "Ġclass",
        "room"
      ],
      [
        "Ġacadem",
        "y"
      ],
      [
        "p",
        "l"
      ],
      [
        "Ġdr",
        "i"
      ],
      [
        "Ġmag",
        "ical"
      ],
      [
        "Ġme",
        "n"
      ],
      [
        "Ġli",
        "gh"
      ],
      [
        "Ġligh",
        "t"
      ],
      [
        "Ġmyster",
        "y"
      ],
      [
        "Ġte",
        "ar"
      ],
      [
        "i",
        "ts"
      ],
      [
        "is",
        "ts"
      ],
      [
        "Ġtw",
        "ists"
      ],
      [
        "Ġhor",
        "ror"
      ],
      [
        "Ġqu",
        "est"
      ],
      [
        "Ġj",
        "our"
      ],
      [
        "f",
        "y"
      ],
      [
        "Ġpow",
        "er"
      ],
      [
        "Ġgoo",
        "fy"
      ],
      [
        "d",
        "ent"
      ],
      [
        "Ġstu",
        "dent"
      ],
      [
        "Ġd",
        "ep"
      ],
      [
        "j",
        "erk"
      ],
      [
        "Ġtear",
        "jerk"
      ],
      [
        "Ġtearjerk",
        "er"
      ],
      [
        "Ġu",
        "p"
      ],
      [
        "u",
        "u"
      ],
      [
        "Ġfigh",
        "ting"
      ],
      [
        "Ġjour",
        "ney"
      ],
      [
        "Ġbloo",
        "dy"
      ],
      [
        "Ġviol",
        "ence"
      ],
      [
        "Ġdri",
        "ven"
      ],
      [
        "Ġmen",
        "tal"
      ],
      [
        "d",
        "ic"
      ],
      [
        "Ġcome",
        "dic"
      ],
      [
        "Ġsword",
        "s"
      ],
      [
        "Ġp",
        "ac"
      ],
      [
        "Ġd",
        "at"
      ],
      [
        "Ġc",
        "re"
      ],
      [
        "ep",
        "y"
      ],
      [
        "Ġcre",
        "epy"
      ],
      [
        "Ġs",
        "tor"
      ],
      [
        "Ġre",
        "l"
      ],
      [
        "Ġs",
        "ad"
      ],
      [
        "Ġg",
        "ro"
      ],
      [
        "Ġdep",
        "ress"
      ],
      [
        "Ġ",
        "ol"
      ],
      [
        "Ġs",
        "t"
      ],
      [
        "Ġol",
        "der"
      ],
      [
        "Ġstor",
        "y"
      ],
      [
        "Ġpac",
        "ing"
      ],
      [
        "b",
        "at"
      ],
      [
        "or",
        "ation"
      ],
      [
        "Ġex",
        "pl"
      ],
      [
        "Ġexpl",
        "oration"
      ],
      [
        "Ġdepress",
        "ing"
      ],
      [
        "Ġghos",
        "ts"
      ],
      [
        "Ġcom",
        "bat"
      ],
      [
        "en",
        "es"
      ],
      [
        "Ġmech",
        "a"
      ],
      [
        "Ġrom",
        "ance"
      ],
      [
        "Ġp",
        "le"
      ],
      [
        "Ġgro",
        "wn"
      ],
      [
        "shi",
        "p"
      ],
      [
        "u",
        "r"
      ],
      [
        "ke",
        "s"
      ],
      [
        "Ġworld",
        "s"
      ],
      [
        "Ġjo",
        "kes"
      ],
      [
        "Ġple",
        "ase"
      ],
      [
        "Ġlo",
        "ts"
      ],
      [
        "ation",
        "ship"
      ],
      [
        "Ġrel",
        "ationship"
      ],
      [
        "ang",
        "les"
      ],
      [
        "Ġtri",
        "angles"
      ],
      [
        "Ġfigh",
        "t"
      ],
      [
        "e",
        "l"
      ],
      [
        "Ġb",
        "o"
      ],
      [
        "Ġsc",
        "enes"
      ],
      [
        "Ġsu",
        "its"
      ],
      [
        "vi",
        "e"
      ],
      [
        "Ġw",
        "a"
      ],
      [
        "Ġdat",
        "ing"
      ],
      [
        "k",
        "ai"
      ],
      [
        "Ġ",
        "z"
      ],
      [
        "Ġk",
        "o"
      ],
      [
        "a",
        "void"
      ],
      [
        "Ġf",
        "ine"
      ],
      [
        "Ġmo",
        "vie"
      ],
      [
        "Ġs",
        "hi"
      ],
      [
        "u",
        "m"
      ],
      [
        "a",
        "y"
      ],
      [
        "Ġd",
        "e"
      ],
      [
        "k",
        "a"
      ],
      [
        "as",
        "hi"
      ],
      [
        "er",
        "o"
      ],
      [
        "Ġ",
        "3"
      ],
      [
        "Ġn",
        "i"
      ],
      [
        "j",
        "o"
      ],
      [
        "i",
        "a"
      ],
      [
        "y",
        "o"
      ],
      [
        "r",
        "l"
      ],
      [
        "Ġb",
        "l"
      ],
      [
        "ho",
        "u"
      ],
      [
        "ke",
        "n"
      ],
      [
        "ac",
        "k"
      ],
      [
        "ar",
        "i"
      ],
      [
        "i",
        "r"
      ],
      [
        "an",
        "d"
      ],
      [
        "Ġgi",
        "rl"
      ],
      [
        "Ġn",
        "e"
      ],
      [
        "a",
        "tsu"
      ],
      [
        "v",
        "er"
      ],
      [
        "ar",
        "a"
      ],
      [
        "t",
        "o"
      ],
      [
        "Ġb",
        "e"
      ],
      [
        "i",
        "g"
      ],
      [
        "Ġ",
        "on"
      ],
      [
        "Ġi",
        "i"
      ],
      [
        "Ġ",
        "ho"
      ],
      [
        "s",
        "t"
      ],
      [
        "y",
        "ou"
      ],
      [
        "us",
        "hi"
      ],
      [
        "Ġh",
        "ero"
      ],
      [
        "Ġ",
        "x"
      ],
      [
        "es",
        "s"
      ],
      [
        "Ġk",
        "u"
      ],
      [
        "h",
        "a"
      ],
      [
        "Ġ",
        "tsu"
      ],
      [
        "en",
        "d"
      ],
      [
        "at",
        "e"
      ],
      [
        "Ġ",
        "("
      ],
      [
        "j",
        "i"
      ],
      [
        "Ġs",
        "a"
      ],
      [
        "Ġk",
        "a"
      ],
      [
        "!",
        "!"
      ],
      [
        "g",
        "e"
      ],
      [
        "m",
        "o"
      ],
      [
        "am",
        "i"
      ],
      [
        "s",
        "an"
      ],
      [
        "Ġy",
        "u"
      ],
      [
        "t",
        "t"
      ],
      [
        "on",
        "d"
      ],
      [
        "r",
        "u"
      ],
      [
        "Ġ",
        "v"
      ],
      [
        "o",
        "ku"
      ],
      [
        "Ġdr",
        "ag"
      ],
      [
        "Ġdrag",
        "on"
      ],
      [
        "i",
        "k"
      ],
      [
        "j",
        "ou"
      ],
      [
        "or",
        "i"
      ],
      [
        "m",
        "on"
      ],
      [
        "t",
        "a"
      ],
      [
        "r",
        "in"
      ],
      [
        "v",
        "a"
      ],
      [
        "Ġp",
        "art"
      ],
      [
        "h",
        "en"
      ],
      [
        "Ġsho",
        "u"
      ],
      [
        "a",
        "p"
      ],
      [
        "Ġk",
        "an"
      ],
      [
        "Ġku",
        "ro"
      ],
      [
        "e",
        "i"
      ],
      [
        "Ġw",
        "o"
      ],
      [
        "Ġbo",
        "ku"
      ],
      [
        "r",
        "y"
      ],
      [
        "Ġo",
        "va"
      ],
      [
        "un",
        "d"
      ],
      [
        "Ġ",
        "one"
      ],
      [
        "Ġd",
        "a"
      ],
      [
        "Ġbl",
        "ack"
      ],
      [
        "z",
        "u"
      ],
      [
        "a",
        "b"
      ],
      [
        "k",
        "un"
      ],
      [
        "k",
        "y"
      ],
      [
        "am",
        "p"
      ],
      [
        "Ġp",
        "l"
      ],
      [
        "or",
        "a"
      ],
      [
        "Ġ",
        "1"
      ],
      [
        "ar",
        "d"
      ],
      [
        "ag",
        "e"
      ],
      [
        "ar",
        "u"
      ],
      [
        "j",
        "in"
      ],
      [
        "o",
        "k"
      ],
      [
        "Ġse",
        "i"
      ],
      [
        "o",
        "d"
      ],
      [
        "ch",
        "an"
      ],
      [
        "y",
        "a"
      ],
      [
        "Ġs",
        "en"
      ],
      [
        "or",
        "o"
      ],
      [
        "Ġ",
        "&"
      ],
      [
        "ic",
        "hi"
      ],
      [
        "il",
        "l"
      ],
      [
        "a",
        "ki"
      ],
      [
        "Ġk",
        "am"
      ],
      [
        "r",
        "on"
      ],
      [
        "e",
        "kai"
      ],
      [
        "m",
        "a"
      ],
      [
        "ak",
        "a"
      ],
      [
        "Ġma",
        "hou"
      ],
      [
        "!",
        ","
      ],
      [
        "is",
        "s"
      ],
      [
        "o",
        "no"
      ],
      [
        "Ġm",
        "us"
      ],
      [
        "b",
        "i"
      ],
      [
        "Ġ",
        "ke"
      ],
      [
        "Ġb",
        "all"
      ],
      [
        "Ġk",
        "ing"
      ],
      [
        "i",
        "z"
      ],
      [
        "is",
        "t"
      ],
      [
        "g",
        "at"
      ],
      [
        "in",
        "t"
      ],
      [
        "ad",
        "e"
      ],
      [
        "Ġn",
        "a"
      ],
      [
        "Ġis",
        "ekai"
      ],
      [
        "g",
        "o"
      ],
      [
        "Ġn",
        "an"
      ],
      [
        "Ġk",
        "ou"
      ],
      [
        "Ġs",
        "er"
      ],
      [
        "Ġk",
        "yo"
      ],
      [
        "Ġ",
        "ken"
      ],
      [
        "ri",
        "end"
      ],
      [
        "f",
        "u"
      ],
      [
        "Ġacadem",
        "ia"
      ],
      [
        "gat",
        "ari"
      ],
      [
        "Ġs",
        "ai"
      ],
      [
        "Ġw",
        "ar"
      ],
      [
        "o",
        "s"
      ],
      [
        "Ġk",
        "im"
      ],
      [
        "ens",
        "hi"
      ],
      [
        "Ġ",
        "-"
      ],
      [
        "in",
        "al"
      ],
      [
        "Ġb",
        "as"
      ],
      [
        "Ġa",
        "l"
      ],
      [
        "Ġ",
        "un"
      ],
      [
        "Ġp",
        "rin"
      ],
      [
        "id",
        "e"
      ],
      [
        "ec",
        "t"
      ],
      [
        "Ġsh",
        "in"
      ],
      [
        "Ġa",
        "o"
      ],
      [
        "ac",
        "hi"
      ],
      [
        "t",
        "e"
      ],
      [
        "Ġr",
        "a"
      ],
      [
        "Ġan",
        "im"
      ],
      [
        "d",
        "en"
      ],
      [
        "k",
        "an"
      ],
      [
        "Ġh",
        "ai"
      ],
      [
        "p",
        "p"
      ],
      [
        "â",
        "ĺ"
      ],
      [
        "u",
        "e"
      ],
      [
        "Ġh",
        "an"
      ],
      [
        "is",
        "hi"
      ],
      [
        "ac",
        "h"
      ],
      [
        "igh",
        "t"
      ],
      [
        "ur",
        "u"
      ],
      [
        "ense",
        "i"
      ],
      [
        "Ġse",
        "kai"
      ],
      [
        "Ġse",
        "c"
      ],
      [
        "is",
        "e"
      ],
      [
        "el",
        "l"
      ],
      [
        "m",
        "an"
      ],
      [
        "Ġanim",
        "ation"
      ],
      [
        "Ġs",
        "ou"
      ],
      [
        "ke",
        "t"
      ],
      [
        "Ġm",
        "as"
      ],
      [
        "Ġh",
        "a"
      ],
      [
        "ra",
        "y"
      ],
      [
        "Ġspecial",
        "s"
      ],
      [
        "k",
        "ou"
      ],
      [
        "Ġg",
        "und"
      ],
      [
        "Ġgund",
        "am"
      ],
      [
        "i",
        "an"
      ],
      [
        "us",
        "ha"
      ],
      [
        "Ġkan",
        "o"
      ],
      [
        "Ġd",
        "es"
      ],
      [
        "Ġgo",
        "d"
      ],
      [
        "ag",
        "i"
      ],
      [
        "ac",
        "e"
      ],
      [
        "c",
        "ess"
      ],
      [
        "Ġm",
        "on"
      ],
      [
        "Ġkano",
        "jo"
      ],
      [
        "Ã",
        "©"
      ],
      [
        "Ġa",
        "s"
      ],
      [
        "Ġf",
        "inal"
      ],
      [
        "l",
        "y"
      ],
      [
        "u",
        "b"
      ],
      [
        "a",
        "me"
      ],
      [
        "Ġl",
        "e"
      ],
      [
        "Ġp",
        "ro"
      ],
      [
        "k",
        "yo"
      ],
      [
        "Ġk",
        "ai"
      ],
      [
        "i",
        "re"
      ],
      [
        "Ġgirl",
        "s"
      ],
      [
        "e",
        "ki"
      ],
      [
        "l",
        "l"
      ],
      [
        "Ġt",
        "ak"
      ],
      [
        "it",
        "e"
      ],
      [
        "Ġkim",
        "i"
      ],
      [
        "Ġd",
        "ay"
      ],
      [
        "y",
        "uu"
      ],
      [
        "Ġc",
        "hi"
      ],
      [
        "t",
        "ch"
      ],
      [
        "v",
        "il"
      ],
      [
        "Ġwi",
        "tch"
      ],
      [
        "Ġma",
        "id"
      ],
      [
        "Ġprin",
        "cess"
      ],
      [
        "ag",
        "a"
      ],
      [
        "u",
        "me"
      ],
      [
        "Ġt",
        "en"
      ],
      [
        "Ġy",
        "o"
      ],
      [
        "Ġto",
        "kyo"
      ],
      [
        "Ġyou",
        "r"
      ],
      [
        "Ġ",
        "4"
      ],
      [
        "Ġc",
        "o"
      ],
      [
        "Ġlo",
        "st"
      ],
      [
        "Ġbas",
        "ket"
      ],
      [
        "âĺ",
        "Ĩ"
      ],
      [
        "u",
        "tsu"
      ],
      [
        "in",
        "s"
      ],
      [
        "r",
        "d"
      ],
      [
        "Ġs",
        "l"
      ],
      [
        "i",
        "e"
      ],
      [
        "it",
        "an"
      ],
      [
        "c",
        "k"
      ],
      [
        "i",
        "es"
      ],
      [
        "n",
        "t"
      ],
      [
        "Ġh",
        "i"
      ],
      [
        "Ġo",
        "to"
      ],
      [
        "a",
        "w"
      ],
      [
        "t",
        "v"
      ],
      [
        "Ġh",
        "un"
      ],
      [
        "Ġhun",
        "ter"
      ],
      [
        "ut",
        "o"
      ],
      [
        "or",
        "n"
      ],
      [
        "em",
        "on"
      ],
      [
        "Ġde",
        "ad"
      ],
      [
        "d",
        "om"
      ],
      [
        "Ġb",
        "un"
      ],
      [
        "Ġd",
        "an"
      ],
      [
        "Ġsec",
        "ond"
      ],
      [
        "an",
        "a"
      ],
      [
        "ic",
        "e"
      ],
      [
        "0",
        "0"
      ],
      [
        "u",
        "y"
      ],
      [
        "im",
        "a"
      ],
      [
        "s",
        "e"
      ],
      [
        "Ġa",
        "tt"
      ],
      [
        "Ġshou",
        "jo"
      ],
      [
        "Ġatt",
        "ack"
      ],
      [
        "Ġmo",
        "on"
      ],
      [
        "aku",
        "ra"
      ],
      [
        "Ġt",
        "ensei"
      ],
      [
        "Ġdo",
        "g"
      ],
      [
        "Ġs",
        "enshi"
      ],
      [
        "Ġf",
        "riend"
      ],
      [
        "g",
        "g"
      ],
      [
        "h",
        "u"
      ],
      [
        "us",
        "ei"
      ],
      [
        "it",
        "y"
      ],
      [
        "as",
        "u"
      ],
      [
        "Ġj",
        "un"
      ],
      [
        "Ġhai",
        "ky"
      ],
      [
        "Ġw",
        "at"
      ],
      [
        "Ġmo",
        "b"
      ],
      [
        "Ġmo",
        "no"
      ],
      [
        "Ġko",
        "i"
      ],
      [
        "Ġn",
        "atsu"
      ],
      [
        "Ġg",
        "r"
      ],
      [
        "ul",
        "l"
      ],
      [
        "um",
        "a"
      ],
      [
        "Ġbl",
        "ue"
      ],
      [
        "r",
        "en"
      ],
      [
        "i",
        "ve"
      ],
      [
        "Ġli",
        "ve"
      ],
      [
        "ono",
        "gatari"
      ],
      [
        "Ġmon",
        "ster"
      ],
      [
        "n",
        "a"
      ],
      [
        "Ġ",
        "ou"
      ],
      [
        "il",
        "d"
      ],
      [
        "!",
        ":"
      ],
      [
        "Ġt",
        "itan"
      ],
      [
        "at",
        "a"
      ],
      [
        "ko",
        "ku"
      ],
      [
        "Ġdes",
        "u"
      ],
      [
        "u",
        "p"
      ],
      [
        "Ġ",
        "5"
      ],
      [
        "Ġr",
        "en"
      ],
      [
        "Ġd",
        "i"
      ],
      [
        "Ġp",
        "ar"
      ],
      [
        "Ġs",
        "ora"
      ],
      [
        "Ġse",
        "ven"
      ],
      [
        "Ġch",
        "ron"
      ],
      [
        "Ġy",
        "uu"
      ],
      [
        "Ġchron",
        "ic"
      ],
      [
        "b",
        "u"
      ],
      [
        "Ġ",
        "â"
      ],
      [
        "Ġl",
        "ast"
      ],
      [
        "Ġko",
        "no"
      ],
      [
        "il",
        "e"
      ],
      [
        "Ġbo",
        "ok"
      ],
      [
        "Ġyu",
        "usha"
      ],
      [
        "a",
        "th"
      ],
      [
        "n",
        "i"
      ],
      [
        "les",
        "s"
      ],
      [
        "Ġfriend",
        "s"
      ],
      [
        "k",
        "Ã©"
      ],
      [
        "Ġpo",
        "kÃ©"
      ],
      [
        "ĠpokÃ©",
        "mon"
      ],
      [
        "'",
        "t"
      ],
      [
        "or",
        "c"
      ],
      [
        "ing",
        "eki"
      ],
      [
        "Ġm",
        "an"
      ],
      [
        "Ġa",
        "t"
      ],
      [
        "Ġsh",
        "ingeki"
      ],
      [
        "b",
        "l"
      ],
      [
        "h",
        "ime"
      ],
      [
        "Ġan",
        "g"
      ],
      [
        "Ġb",
        "ou"
      ],
      [
        "Ġc",
        "ard"
      ],
      [
        "Ġde",
        "vil"
      ],
      [
        "Ġne",
        "w"
      ],
      [
        "Ġdog",
        "s"
      ],
      [
        "w",
        "a"
      ],
      [
        "Ġm",
        "ar"
      ],
      [
        "is",
        "ter"
      ],
      [
        "Ġst",
        "ray"
      ],
      [
        "Ġo",
        "ver"
      ],
      [
        "2",
        "0"
      ],
      [
        "Ġbe",
        "y"
      ],
      [
        "u",
        "re"
      ],
      [
        "il",
        "y"
      ],
      [
        "Ġday",
        "s"
      ],
      [
        "Ġnatsu",
        "me"
      ],
      [
        "z",
        "ai"
      ],
      [
        "on",
        "a"
      ],
      [
        "Ġang",
        "el"
      ],
      [
        "il",
        "or"
      ],
      [
        "Ġsa",
        "ilor"
      ],
      [
        "Ġwar",
        "s"
      ],
      [
        "Ġc",
        "on"
      ],
      [
        "Ġf",
        "am"
      ],
      [
        "Ġf",
        "ull"
      ],
      [
        "Ġt",
        "est"
      ],
      [
        "Ġma",
        "ou"
      ],
      [
        "n",
        "ess"
      ],
      [
        "ar",
        "e"
      ],
      [
        "!",
        "."
      ],
      [
        "ur",
        "ashi"
      ],
      [
        "ad",
        "o"
      ],
      [
        "Ġl",
        "a"
      ],
      [
        "Ġm",
        "i"
      ],
      [
        "Ġkuro",
        "ko"
      ],
      [
        "Ġb",
        "r"
      ],
      [
        "Ġst",
        "one"
      ],
      [
        "Ġ",
        "ut"
      ],
      [
        "Ġk",
        "ami"
      ],
      [
        "Ġst",
        "ar"
      ],
      [
        "ab",
        "y"
      ],
      [
        "b",
        "ou"
      ],
      [
        "!",
        "?"
      ],
      [
        "Ġp",
        "ie"
      ],
      [
        "Ġn",
        "ar"
      ],
      [
        "Ġz",
        "ero"
      ],
      [
        "Ġpie",
        "ce"
      ],
      [
        "g",
        "a"
      ],
      [
        "o",
        "us"
      ],
      [
        "p",
        "le"
      ],
      [
        "Ġt",
        "al"
      ],
      [
        "ur",
        "ai"
      ],
      [
        "Ġchronic",
        "le"
      ],
      [
        "Ġsu",
        "m"
      ],
      [
        "Ġsh",
        "u"
      ],
      [
        "Ġbo",
        "y"
      ],
      [
        "z",
        "e"
      ],
      [
        "Ġh",
        "ig"
      ],
      [
        "Ġmus",
        "ume"
      ],
      [
        "Ġs",
        "aga"
      ],
      [
        "ar",
        "et"
      ],
      [
        "Ġm",
        "iss"
      ],
      [
        "Ġf",
        "ate"
      ],
      [
        "Ġd",
        "emon"
      ],
      [
        "od",
        "e"
      ],
      [
        "an",
        "ai"
      ],
      [
        "Ġc",
        "an"
      ],
      [
        "Ġc",
        "amp"
      ],
      [
        "ro",
        "m"
      ],
      [
        "Ġsu",
        "it"
      ],
      [
        "Ġmas",
        "ter"
      ],
      [
        "Ġâ",
        "Ģ"
      ],
      [
        "Ġc",
        "ry"
      ],
      [
        "Ġt",
        "a"
      ],
      [
        "k",
        "you"
      ],
      [
        "m",
        "i"
      ],
      [
        "Ġkyo",
        "jin"
      ],
      [
        "r",
        "im"
      ],
      [
        "u",
        "d"
      ],
      [
        "Ġg",
        "re"
      ],
      [
        "Ġg",
        "ol"
      ],
      [
        "Ġg",
        "int"
      ],
      [
        "Ġwat",
        "ashi"
      ],
      [
        "Ġgint",
        "ama"
      ],
      [
        "u",
        "ra"
      ],
      [
        "Ġs",
        "on"
      ],
      [
        "is",
        "ama"
      ],
      [
        "Ġex",
        "orc"
      ],
      [
        "Ġde",
        "ath"
      ],
      [
        "Ġexorc",
        "ist"
      ],
      [
        "j",
        "ime"
      ],
      [
        "Ġ",
        "0"
      ],
      [
        "Ġc",
        "er"
      ],
      [
        "Ġsa",
        "int"
      ],
      [
        "Ġ",
        "im"
      ],
      [
        "Ġ",
        "end"
      ],
      [
        "is",
        "h"
      ],
      [
        "k",
        "in"
      ],
      [
        "z",
        "um"
      ],
      [
        "Ġ",
        "en"
      ],
      [
        "Ġs",
        "akura"
      ],
      [
        "Ġre",
        "ven"
      ],
      [
        "Ġking",
        "dom"
      ],
      [
        "j",
        "uu"
      ],
      [
        "j",
        "utsu"
      ],
      [
        "t",
        "y"
      ],
      [
        "Ġa",
        "m"
      ],
      [
        "im",
        "on"
      ],
      [
        "Ġhar",
        "u"
      ],
      [
        "b",
        "an"
      ],
      [
        "Ġf",
        "l"
      ],
      [
        "mo",
        "no"
      ],
      [
        "i",
        "f"
      ],
      [
        "or",
        "m"
      ],
      [
        "Ġh",
        "it"
      ],
      [
        "Ġch",
        "ild"
      ],
      [
        "tsu",
        "ji"
      ],
      [
        "cho",
        "u"
      ],
      [
        "el",
        "ion"
      ],
      [
        "Ġsen",
        "ki"
      ],
      [
        "Ġnan",
        "atsu"
      ],
      [
        "i",
        "er"
      ],
      [
        "o",
        "p"
      ],
      [
        "Ġw",
        "e"
      ],
      [
        "Ġb",
        "le"
      ],
      [
        "Ġor",
        "e"
      ],
      [
        "un",
        "ch"
      ],
      [
        "Ġre",
        "c"
      ],
      [
        "Ġnar",
        "uto"
      ],
      [
        "Ġble",
        "ach"
      ],
      [
        "ke",
        "mon"
      ],
      [
        "Ġpo",
        "kemon"
      ],
      [
        "ag",
        "o"
      ],
      [
        "Ġkid",
        "ou"
      ],
      [
        "Ġmob",
        "ile"
      ],
      [
        "no",
        "w"
      ],
      [
        "Ġf",
        "ut"
      ],
      [
        "Ġc",
        "lo"
      ],
      [
        "Ġa",
        "b"
      ],
      [
        "Ġk",
        "ara"
      ],
      [
        "Ġgol",
        "den"
      ],
      [
        "e",
        "tsu"
      ],
      [
        "i",
        "ya"
      ],
      [
        "Ġb",
        "ro"
      ],
      [
        "Ġk",
        "ar"
      ],
      [
        "Ġk",
        "you"
      ],
      [
        "Ġho",
        "w"
      ],
      [
        "Ġkam",
        "isama"
      ],
      [
        "k",
        "us"
      ],
      [
        "l",
        "and"
      ],
      [
        "Ġw",
        "hen"
      ],
      [
        "Ġsho",
        "ku"
      ],
      [
        "Ġdark",
        "ness"
      ],
      [
        "Ġhea",
        "ven"
      ],
      [
        "Ġr",
        "u"
      ],
      [
        "b",
        "a"
      ],
      [
        "i",
        "ro"
      ],
      [
        "y",
        "u"
      ],
      [
        "Ġs",
        "am"
      ],
      [
        "Ġto",
        "u"
      ],
      [
        "is",
        "en"
      ],
      [
        "Ġj",
        "i"
      ],
      [
        "ak",
        "us"
      ],
      [
        "Ġsam",
        "urai"
      ],
      [
        "l",
        "er"
      ],
      [
        "Ġt",
        "ai"
      ],
      [
        "re",
        "ak"
      ],
      [
        "Ġga",
        "ku"
      ],
      [
        "ta",
        "in"
      ],
      [
        "Ġm",
        "ir"
      ],
      [
        "Ġf",
        "ai"
      ],
      [
        "Ġv",
        "al"
      ],
      [
        "Ġfai",
        "ry"
      ],
      [
        "r",
        "is"
      ],
      [
        "er",
        "u"
      ],
      [
        "ro",
        "ss"
      ],
      [
        "Ġre",
        "d"
      ],
      [
        "ĠâĢ",
        "ĵ"
      ],
      [
        "a",
        "h"
      ],
      [
        "Ġd",
        "ig"
      ],
      [
        "Ġk",
        "ill"
      ],
      [
        "Ġk",
        "iss"
      ],
      [
        "Ġin",
        "f"
      ],
      [
        "Ġko",
        "k"
      ],
      [
        "Ġne",
        "x"
      ],
      [
        "Ġha",
        "jime"
      ],
      [
        "Ġchild",
        "ren"
      ],
      [
        "Ġdig",
        "imon"
      ],
      [
        "n",
        "s"
      ],
      [
        "Ġs",
        "in"
      ],
      [
        "Ġre",
        "i"
      ],
      [
        "Ġii",
        "i"
      ],
      [
        "b",
        "it"
      ],
      [
        "ke",
        "tsu"
      ],
      [
        "Ġf",
        "u"
      ],
      [
        "Ġg",
        "en"
      ],
      [
        "Ġp",
        "re"
      ],
      [
        "j",
        "a"
      ],
      [
        "t",
        "achi"
      ],
      [
        "Ġv",
        "amp"
      ],
      [
        "fu",
        "ku"
      ],
      [
        "Ġvamp",
        "ire"
      ],
      [
        "f",
        "riend"
      ],
      [
        "as",
        "ha"
      ],
      [
        "Ġt",
        "on"
      ],
      [
        "Ġp",
        "h"
      ],
      [
        "Ġst",
        "age"
      ],
      [
        "Ġbey",
        "ond"
      ],
      [
        "l",
        "ord"
      ],
      [
        "Ġb",
        "aby"
      ],
      [
        "Ġt",
        "ime"
      ],
      [
        "Ġk",
        "i"
      ],
      [
        "Ġk",
        "uma"
      ],
      [
        "Ġover",
        "lord"
      ],
      [
        "Ġtai",
        "zai"
      ],
      [
        "e",
        "ar"
      ],
      [
        "Ġb",
        "is"
      ],
      [
        "ko",
        "i"
      ],
      [
        "ashi",
        "ta"
      ],
      [
        "ushi",
        "tsu"
      ],
      [
        "20",
        "1"
      ],
      [
        "Ġhig",
        "urashi"
      ],
      [
        ")",
        ","
      ],
      [
        "a",
        "f"
      ],
      [
        "ic",
        "k"
      ],
      [
        "Ġmag",
        "i"
      ],
      [
        "Ġne",
        "ko"
      ],
      [
        "Ġtak",
        "agi"
      ],
      [
        "k",
        "ki"
      ],
      [
        "Ġ",
        "8"
      ],
      [
        "Ġs",
        "ak"
      ],
      [
        "re",
        "i"
      ],
      [
        "Ġk",
        "ak"
      ],
      [
        "Ġk",
        "iz"
      ],
      [
        "Ġsu",
        "b"
      ],
      [
        "ir",
        "st"
      ],
      [
        "l",
        "ing"
      ],
      [
        "Ġ",
        "art"
      ],
      [
        "Ġf",
        "re"
      ],
      [
        ".",
        ","
      ],
      [
        "Ġjo",
        "jo"
      ],
      [
        "Ġshi",
        "t"
      ],
      [
        "Ġser",
        "v"
      ],
      [
        "w",
        "ay"
      ],
      [
        "Ġa",
        "gg"
      ],
      [
        "Ġg",
        "al"
      ],
      [
        "Ġre",
        "b"
      ],
      [
        "Ġe",
        "v"
      ],
      [
        "tsu",
        "ko"
      ],
      [
        "ak",
        "ai"
      ],
      [
        "ik",
        "an"
      ],
      [
        "Ġb",
        "aku"
      ],
      [
        "Ġg",
        "u"
      ],
      [
        "Ġp",
        "an"
      ],
      [
        "Ġe",
        "l"
      ],
      [
        "Ġn",
        "in"
      ],
      [
        "Ġfam",
        "ily"
      ],
      [
        "e",
        "x"
      ],
      [
        "Ġt",
        "an"
      ],
      [
        "Ġh",
        "er"
      ],
      [
        "Ġre",
        "s"
      ],
      [
        "Ġz",
        "oku"
      ],
      [
        "Ġs",
        "o"
      ],
      [
        "Ġl",
        "ord"
      ],
      [
        "Ġme",
        "m"
      ],
      [
        "Ġo",
        "w"
      ],
      [
        "Ġy",
        "uru"
      ],
      [
        "Ġst",
        "r"
      ],
      [
        "Ġz",
        "om"
      ],
      [
        "ge",
        "on"
      ],
      [
        "Ġclo",
        "ver"
      ],
      [
        "b",
        "le"
      ],
      [
        "i",
        "p"
      ],
      [
        "Ġ",
        "id"
      ],
      [
        "Ġ",
        "und"
      ],
      [
        "Ġs",
        "ky"
      ],
      [
        "Ġd",
        "en"
      ],
      [
        "Ġn",
        "ichi"
      ],
      [
        "Ġhor",
        "iz"
      ],
      [
        "ge",
        "ki"
      ],
      [
        "tt",
        "e"
      ],
      [
        "Ġhaiky",
        "uu"
      ],
      [
        "Ġnichi",
        "jou"
      ],
      [
        "Ġhoriz",
        "on"
      ],
      [
        "b",
        "er"
      ],
      [
        "z",
        "aki"
      ],
      [
        "Ġc",
        "ol"
      ],
      [
        "ag",
        "ami"
      ],
      [
        "ashi",
        "i"
      ],
      [
        "Ġne",
        "ver"
      ],
      [
        "at",
        "o"
      ],
      [
        "Ġshi",
        "ro"
      ],
      [
        "Ġ1",
        "00"
      ],
      [
        "Ġcer",
        "tain"
      ],
      [
        "Ġmir",
        "ai"
      ],
      [
        "k",
        "aku"
      ],
      [
        "x",
        "d"
      ],
      [
        "Ġw",
        "on"
      ],
      [
        "Ġf",
        "rom"
      ],
      [
        "Ġd",
        "xd"
      ],
      [
        "Ġg",
        "un"
      ],
      [
        "Ġre",
        "al"
      ],
      [
        "Ġnex",
        "t"
      ],
      [
        "b",
        "as"
      ],
      [
        "g",
        "an"
      ],
      [
        "h",
        "an"
      ],
      [
        "an",
        "et"
      ],
      [
        "Ġor",
        "der"
      ],
      [
        "ro",
        "w"
      ],
      [
        "Ġbut",
        "ler"
      ],
      [
        "ku",
        "ro"
      ],
      [
        "ver",
        "y"
      ],
      [
        "Ġtsu",
        "bas"
      ],
      [
[...]
