{
  "version": "1.0",
  "truncation": null,
  "padding": null,
  "added_tokens": [
    {
      "id": 0,
      "content": "[PAD]",
      "single_word": false,
      "lstrip": false,
      "rstrip": false,
      "normalized": false,
      "special": true
    },
    {
      "id": 1,
      "content": "[UNK]",
      "single_word": false,
      "lstrip": false,
      "rstrip": false,
      "normalized": false,
      "special": true
    },
    {
      "id": 2,
      "content": "[CLS]",
      "single_word": false,
      "lstrip": false,
      "rstrip": false,
      "normalized": false,
      "special": true
    },
    {
      "id": 3,
      "content": "[SEP]",
      "single_word": false,
      "lstrip": false,
      "rstrip": false,
      "normalized": false,
      "special": true
    },
    {
      "id": 4,
      "content": "[MASK]",
      "single_word": false,
      "lstrip": false,
      "rstrip": false,
      "normalized": false,
      "special": true
    }
  ],
  "normalizer": null,
  "pre_tokenizer": {
    "type": "ByteLevel",
    "add_prefix_space": true,
    "trim_offsets": true,
    "use_regex": true
  },
  "post_processor": null,
  "decoder": {
    "type": "ByteLevel",
    "add_prefix_space": true,
    "trim_offsets": true,
    "use_regex": true
  },
  "model": {
    "type": "BPE",
    "dropout": null,
    "unk_token": "[UNK]",
    "continuing_subword_prefix": null,
    "end_of_word_suffix": null,
    "fuse_unk": false,
    "byte_fallback": false,
    "ignore_merges": false,
    "vocab": {
      "[PAD]": 0,
      "[UNK]": 1,
      "[CLS]": 2,
      "[SEP]": 3,
      "[MASK]": 4,
      "!": 5,
      "\"": 6,
      "#": 7,
      "$": 8,
      "%": 9,
      "&": 10,
      "'": 11,
      "(": 12,
      ")": 13,
      "*": 14,
      "+": 15,
      ",": 16,
      "-": 17,
      ".": 18,
      "/": 19,
      "0": 20,
      "1": 21,
      "2": 22,
      "3": 23,
      "4": 24,
      "5": 25,
      "6": 26,
      "7": 27,
      "8": 28,
      "9": 29,
      ":": 30,
      ";": 31,
      "<": 32,
      "=": 33,
      ">": 34,
      "?": 35,
      "@": 36,
      "A": 37,
      "B": 38,
      "C": 39,
      "D": 40,
      "E": 41,
      "F": 42,
      "G": 43,
      "H": 44,
      "I": 45,
      "J": 46,
      "K": 47,
      "L": 48,
      "M": 49,
      "N": 50,
      "O": 51,
      "P": 52,
      "Q": 53,
      "R": 54,
      "S": 55,
      "T": 56,
      "U": 57,
      "V": 58,
      "W": 59,
      "X": 60,
      "Y": 61,
      "Z": 62,
      "[": 63,
      "\\": 64,
      "]": 65,
      "^": 66,
      "_": 67,
      "`": 68,
      "a": 69,
      "b": 70,
      "c": 71,
      "d": 72,
      "e": 73,
      "f": 74,
      "g": 75,
      "h": 76,
      "i": 77,
      "j": 78,
      "k": 79,
      "l": 80,
      "m": 81,
      "n": 82,
      "o": 83,
      "p": 84,
      "q": 85,
      "r": 86,
      "s": 87,
      "t": 88,
      "u": 89,
      "v": 90,
      "w": 91,
      "x": 92,
      "y": 93,
      "z": 94,
      "{": 95,
      "|": 96,
      "}": 97,
      "~": 98,
      "¡": 99,
      "¢": 100,
      "£": 101,
      "¤": 102,
      "¥": 103,
      "¦": 104,
      "§": 105,
      "¨": 106,
      "©": 107,
      "ª": 108,
      "«": 109,
      "¬": 110,
      "®": 111,
      "¯": 112,
      "°": 113,
      "±": 114,
      "²": 115,
      "³": 116,
      "´": 117,
      "µ": 118,
      "¶": 119,
      "·": 120,
      "¸": 121,
      "¹": 122,
      "º": 123,
      "»": 124,
      "¼": 125,
      "½": 126,
      "¾": 127,
      "¿": 128,
      "À": 129,
      "Á": 130,
      "Â": 131,
      "Ã": 132,
      "Ä": 133,
      "Å": 134,
      "Æ": 135,
      "Ç": 136,
      "È": 137,
      "É": 138,
      "Ê": 139,
      "Ë": 140,
      "Ì": 141,
      "Í": 142,
      "Î": 143,
      "Ï": 144,
      "Ð": 145,
      "Ñ": 146,
      "Ò": 147,
      "Ó": 148,
      "Ô": 149,
      "Õ": 150,
      "Ö": 151,
      "×": 152,
      "Ø": 153,
      "Ù": 154,
      "Ú": 155,
      "Û": 156,
      "Ü": 157,
      "Ý": 158,
      "Þ": 159,
      "ß": 160,
      "à": 161,
      "á": 162,
      "â": 163,
      "ã": 164,
      "ä": 165,
      "å": 166,
      "æ": 167,
      "ç": 168,
      "è": 169,
      "é": 170,
      "ê": 171,
      "ë": 172,
      "ì": 173,
      "í": 174,
      "î": 175,
      "ï": 176,
      "ð": 177,
      "ñ": 178,
      "ò": 179,
      "ó": 180,
      "ô": 181,
      "õ": 182,
      "ö": 183,
      "÷": 184,
      "ø": 185,
      "ù": 186,
      "ú": 187,
      "û": 188,
      "ü": 189,
      "ý": 190,
      "þ": 191,
      "ÿ": 192,
      "Ā": 193,
      "ā": 194,
      "Ă": 195,
      "ă": 196,
      "Ą": 197,
      "ą": 198,
      "Ć": 199,
      "ć": 200,
      "Ĉ": 201,
      "ĉ": 202,
      "Ċ": 203,
      "ċ": 204,
      "Č": 205,
      "č": 206,
      "Ď": 207,
      "ď": 208,
      "Đ": 209,
      "đ": 210,
      "Ē": 211,
      "ē": 212,
      "Ĕ": 213,
      "ĕ": 214,
      "Ė": 215,
      "ė": 216,
      "Ę": 217,
      "ę": 218,
      "Ě": 219,
      "ě": 220,
      "Ĝ": 221,
      "ĝ": 222,
      "Ğ": 223,
      "ğ": 224,
      "Ġ": 225,
      "ġ": 226,
      "Ģ": 227,
      "ģ": 228,
      "Ĥ": 229,
      "ĥ": 230,
      "Ħ": 231,
      "ħ": 232,
      "Ĩ": 233,
      "ĩ": 234,
      "Ī": 235,
      "ī": 236,
      "Ĭ": 237,
      "ĭ": 238,
      "Į": 239,
      "į": 240,
      "İ": 241,
      "ı": 242,
      "Ĳ": 243,
      "ĳ": 244,
      "Ĵ": 245,
      "ĵ": 246,
      "Ķ": 247,
      "ķ": 248,
      "ĸ": 249,
      "Ĺ": 250,
      "ĺ": 251,
      "Ļ": 252,
      "ļ": 253,
      "Ľ": 254,
      "ľ": 255,
      "Ŀ": 256,
      "ŀ": 257,
      "Ł": 258,
      "ł": 259,
      "Ń": 260,
      "Ġt": 261,
      "he": 262,
      "Ġa": 263,
      "in": 264,
      "Ġthe": 265,
      "Ġs": 266,
      "er": 267,
      "Ġo": 268,
      "re": 269,
      "is": 270,
      "nd": 271,
      "Ġw": 272,
      "Ġf": 273,
      "at": 274,
      "on": 275,
      "Ġb": 276,
      "es": 277,
      "or": 278,
      "en": 279,
      "Ġc": 280,
      "an": 281,
      "ing": 282,
      "Ġh": 283,
      "it": 284,
      "Ġto": 285,
      "ar": 286,
      "ed": 287,
      "Ġof": 288,
      "ou": 289,
      "Ġm": 290,
      "Ġand": 291,
      "Ġp": 292,
      "al": 293,
      "Ġd": 294,
      "Ġin": 295,
      "as": 296,
      "om": 297,
      "le": 298,
      "Ġhe": 299,
      "ĠT": 300,
      "ic": 301,
      "ir": 302,
      "il": 303,
      "ĠS": 304,
      "Ġth": 305,
      "Ġg": 306,
      "ĠA": 307,
      "Ġn": 308,
      "im": 309,
      "Ġl": 310,
      "am": 311,
      "Ġe": 312,
      "Ġis": 313,
      "ion": 314,
      "ent": 315,
      "st": 316,
      "ow": 317,
      "Ġbe": 318,
      "ac": 319,
      "ĠM": 320,
      "id": 321,
      "Ġre": 322,
      "ly": 323,
      "ot": 324,
      "ol": 325,
      "Ġon": 326,
      "ut": 327,
      "et": 328,
      "Ġfor": 329,
      "ve": 330,
      "Ġst": 331,
      "ur": 332,
      "ver": 333,
      "ho": 334,
      "ak": 335,
      "Ġhis": 336,
      "ith": 337,
      "ĠH": 338,
      "Ġan": 339,
      "ig": 340,
      "un": 341,
      "'s": 342,
      "us": 343,
      "Ġher": 344,
      "ec": 345,
      "Ġwith": 346,
      "ter": 347,
      "ĠK": 348,
      "el": 349,
      "ay": 350,
      "hi": 351,
      "ad": 352,
      "Ġby": 353,
      "Ġfr": 354,
      "Ġas": 355,
      "ro": 356,
      "her": 357,
      "Ġthat": 358,
      "ĠThe": 359,
      "ag": 360,
      "Ġv": 361,
      "um": 362,
      "em": 363,
      "ĠC": 364,
      "ĠI": 365,
      "ĠB": 366,
      "ce": 367,
      "ap": 368,
      "ul": 369,
      "ation": 370,
      "Ġal": 371,
      "ĠN": 372,
      "if": 373,
      "ong": 374,
      "ĠD": 375,
      "Ġtheir": 376,
      "os": 377,
      "ld": 378,
      "ĠW": 379,
      "ill": 380,
      "igh": 381,
      "ous": 382,
      "ain": 383,
      "ts": 384,
      "Ġtr": 385,
      "and": 386,
      "ies": 387,
      "od": 388,
      "ide": 389,
      "ers": 390,
      "iv": 391,
      "ie": 392,
      "ure": 393,
      "Ġwho": 394,
      "ear": 395,
      "ĠR": 396,
      "Ġr": 397,
      "th": 398,
      "Ġfrom": 399,
      "Ġwor": 400,
      "Ġy": 401,
      "up": 402,
      "ĠG": 403,
      "ĠO": 404,
      "Ġat": 405,
      "ĠY": 406,
      "ĠE": 407,
      "ĠF": 408,
      "Ġse": 409,
      "ĠP": 410,
      "Ġcom": 411,
      "ess": 412,
      "ok": 413,
      "Ġch": 414,
      "Ġit": 415,
      "Ġ\"": 416,
      "est": 417,
      "ĠL": 418,
      "ud": 419,
      "ate": 420,
      "Ġshe": 421,
      "ch": 422,
      "Ġk": 423,
      "Ġne": 424,
      "Ġare": 425,
      "Ġcon": 426,
      "op": 427,
      "Ġhas": 428,
      "ang": 429,
      "ore": 430,
      "Ġwas": 431,
      "ik": 432,
      "Ġun": 433,
      "ĠJ": 434,
      "ind": 435,
      "oun": 436,
      "ave": 437,
      "Ġhim": 438,
      "Ġthey": 439,
      "Ġsc": 440,
      "âĢ": 441,
      "Ġsp": 442,
      "Ġab": 443,
      "ab": 444,
      "uk": 445,
      "ity": 446,
      "rou": 447,
      "Ġle": 448,
      "ive": 449,
      "Ġde": 450,
      "ome": 451,
      "all": 452,
      "ime": 453,
      "gh": 454,
      "Ġex": 455,
      "ial": 456,
      "Ġint": 457,
      "art": 458,
      "hen": 459,
      "ant": 460,
      "se": 461,
      "ight": 462,
      "ct": 463,
      "Ġpl": 464,
      "Ġno": 465,
      "Ġor": 466,
      "Ġvide": 467,
      "qu": 468,
      "ort": 469,
      "Ġsh": 470,
      "ect": 471,
      "Ġj": 472,
      "ust": 473,
      "Ġvideo": 474,
      "Ġworld": 475,
      "irl": 476,
      "usic": 477,
      "Ġlo": 478,
      "out": 479,
      "ire": 480,
      "hool": 481,
      "ist": 482,
      "Ġpro": 483,
      "ĠU": 484,
      "ace": 485,
      "Ġwh": 486,
      "iend": 487,
      "ame": 488,
      "ious": 489,
      "ĠIn": 490,
      "âĢĶ": 491,
      "ĠSh": 492,
      "Ġcl": 493,
      "ack": 494,
      "Ġsong": 495,
      "Ġen": 496,
      "Ġpr": 497,
      "Ġup": 498,
      "Ġgirl": 499,
      "iz": 500,
      "Ġnew": 501,
      "Ġinto": 502,
      "Ġbut": 503,
      "ife": 504,
      "Ġthem": 505,
      "fter": 506,
      "own": 507,
      "oy": 508,
      "ast": 509,
      "..": 510,
      "Ġschool": 511,
      "Ġall": 512,
      "ell": 513,
      "ard": 514,
      "Ġout": 515,
      "Ġfe": 516,
      "Ġfriend": 517,
      "ated": 518,
      "our": 519,
      "are": 520,
      "ans": 521,
      "Ġthis": 522,
      "ass": 523,
      "ue": 524,
      "ever": 525,
      "ge": 526,
      "av": 527,
      "Ġbec": 528,
      "Ġone": 529,
      "ake": 530,
      "Ġman": 531,
      "Ġwill": 532,
      "ory": 533,
      "ally": 534,
      "pp": 535,
      "ai": 536,
      "Ġlife": 537,
      "ub": 538,
      "ther": 539,
      "Ġnot": 540,
      "Ġev": 541,
      "one": 542,
      "Ġstr": 543,
      "Ġad": 544,
      "owever": 545,
      "uc": 546,
      "Ġgo": 547,
      "Ġhave": 548,
      "very": 549,
      "Ġday": 550,
      "Ġdis": 551,
      "Ġso": 552,
      "aw": 553,
      "Ġfind": 554,
      "Ġag": 555,
      "ĠMusic": 556,
      "ĠTh": 557,
      "Ġabout": 558,
      "other": 559,
      "ach": 560,
      "Ġpre": 561,
      "Ġar": 562,
      "age": 563,
      "Ġdo": 564,
      "Ġser": 565,
      "Ġmo": 566,
      "reat": 567,
      "ine": 568,
      "ets": 569,
      "ne": 570,
      "sel": 571,
      "ary": 572,
      "Ġac": 573,
      "ep": 574,
      "Ġwhen": 575,
      "Ġ1": 576,
      "tr": 577,
      "Ġcan": 578,
      "ond": 579,
      "ild": 580,
      "Ġgr": 581,
      "Ġother": 582,
      "Ġte": 583,
      "Ġyear": 584,
      "Ġ(": 585,
      "Ġcomp": 586,
      "yst": 587,
      "Ġpe": 588,
      "ich": 589,
      "Ġhum": 590,
      "ĠHowever": 591,
      "oll": 592,
      "Ġbr": 593,
      "ĠAs": 594,
      "Ġres": 595,
      "urn": 596,
      "und": 597,
      "ĠAn": 598,
      "orm": 599,
      "Ġtw": 600,
      "hile": 601,
      "ents": 602,
      "ily": 603,
      "Ġpow": 604,
      "Ġstud": 605,
      "Ġme": 606,
      "ib": 607,
      "oung": 608,
      "ite": 609,
      "Ġonly": 610,
      "ance": 611,
      "here": 612,
      "Ġ2": 613,
      "ice": 614,
      "Ġkn": 615,
      "per": 616,
      "tle": 617,
      "wn": 618,
      "ings": 619,
      "Ġyoung": 620,
      "ob": 621,
      "ia": 622,
      "ful": 623,
      "og": 624,
      "Ġanim": 625,
      "Ġtime": 626,
      "ives": 627,
      "apan": 628,
      "Ġfriends": 629,
      "ĠCh": 630,
      "ss": 631,
      "oc": 632,
      "ters": 633,
      "Ġafter": 634,
      "irst": 635,
      "Ġus": 636,
      "ĠJapan": 637,
      "Ġfeat": 638,
      "Ġatt": 639,
      "app": 640,
      "ug": 641,
      "ks": 642,
      "Ġtwo": 643,
      "Ġstory": 644,
      "old": 645,
      "ens": 646,
      "self": 647,
      "Ġseries": 648,
      "ff": 649,
      "isod": 650,
      "Ġfam": 651,
      "Ġwhich": 652,
      "Ġbeg": 653,
      "Ġmyst": 654,
      "over": 655,
      "ough": 656,
      "ree": 657,
      "pisod": 658,
      "Ġro": 659,
      "Ġoff": 660,
      "Ġsec": 661,
      "ish": 662,
      "act": 663,
      "Ġapp": 664,
      "ical": 665,
      "ĠHe": 666,
      "Ġim": 667,
      "az": 668,
      "Ġfirst": 669,
      "ment": 670,
      "Ġmyster": 671,
      "Ġdec": 672,
      "ather": 673,
      "Ġinc": 674,
      "ecial": 675,
      "pl": 676,
      "Ġmore": 677,
      "able": 678,
      "ased": 679,
      "Ġcr": 680,
      "ats": 681,
      "ike": 682,
      "Ġwhere": 683,
      "Ġhel": 684,
      "we": 685,
      "end": 686,
      "ions": 687,
      "Ġevery": 688,
      "ins": 689,
      "ves": 690,
      "ult": 691,
      "rough": 692,
      "Ġover": 693,
      "mer": 694,
      "Ġagain": 695,
      "Ġpower": 696,
      "Ġdes": 697,
      "ĠIt": 698,
      "round": 699,
      "its": 700,
      "akes": 701,
      "Ġepisod": 702,
      "uki": 703,
      "ĠBut": 704,
      "ose": 705,
      "ence": 706,
      "ase": 707,
      "Ġdr": 708,
      "Ġboy": 709,
      "ĠAl": 710,
      "Ġhuman": 711,
      "amed": 712,
      "Ġqu": 713,
      "Ġinv": 714,
      "Ġpart": 715,
      "tain": 716,
      "Ġend": 717,
      "emon": 718,
      "arn": 719,
      "Ġchild": 720,
      "ows": 721,
      "Ġmem": 722,
      "Ġhelp": 723,
      "ĠV": 724,
      "uring": 725,
      "ren": 726,
      "Ġbet": 727,
      "Ġbeen": 728,
      "ople": 729,
      "ord": 730,
      "Ġown": 731,
      "hip": 732,
      "Ġreal": 733,
      "ures": 734,
      "Ġway": 735,
      "so": 736,
      "arr": 737,
      "ip": 738,
      "ict": 739,
      "get": 740,
      "Ġyears": 741,
      "arth": 742,
      "ĠZ": 743,
      "ould": 744,
      "ji": 745,
      "Ġbecome": 746,
      "Ġhigh": 747,
      "Ġmysterious": 748,
      "Ġord": 749,
      "...": 750,
      "inn": 751,
      "ations": 752,
      "ark": 753,
      "les": 754,
      "way": 755,
      "hes": 756,
      "Ġits": 757,
      "Ġchar": 758,
      "Ġpeople": 759,
      "vent": 760,
      "Ġrec": 761,
      "Ġanime": 762,
      "Ġsur": 763,
      "ces": 764,
      "ise": 765,
      "ek": 766,
      "ĠAfter": 767,
      "Ġent": 768,
      "Ġbeing": 769,
      "Ġmag": 770,
      "ason": 771,
      "ath": 772,
      "Ġcall": 773,
      "Ġbl": 774,
      "under": 775,
      "Ġmusic": 776,
      "aki": 777,
      "gr": 778,
      "ween": 779,
      "ĠSt": 780,
      "ian": 781,
      "Ġfamily": 782,
      "Ġnamed": 783,
      "ange": 784,
      "Ġdisc": 785,
      "Ġwe": 786,
      "Ġalso": 787,
      "als": 788,
      "ick": 789,
      "Ġwork": 790,
      "den": 791,
      "Ġbetween": 792,
      "ade": 793,
      "form": 794,
      "ere": 795,
      "ident": 796,
      "ting": 797,
      "Ġsup": 798,
      "Ġthere": 799,
      "Ġmust": 800,
      "ya": 801,
      "ĠYu": 802,
      "Ġcont": 803,
      "roup": 804,
      "Ġper": 805,
      "vers": 806,
      "Ġthrough": 807,
      "Ġjust": 808,
      "uch": 809,
      "ail": 810,
      "ĠThis": 811,
      "ream": 812,
      "ors": 813,
      "Ġany": 814,
      "Ġback": 815,
      "Ġstudent": 816,
      "Ġlove": 817,
      "Ġget": 818,
      "ater": 819,
      "iss": 820,
      "Ġunder": 821,
      "Ġspecial": 822,
      "ei": 823,
      "fer": 824,
      "Ġact": 825,
      "ition": 826,
      "fore": 827,
      "ĠWhen": 828,
      "ĠOne": 829,
      "ta": 830,
      "Ġmon": 831,
      "Ġgroup": 832,
      "amp": 833,
      "Ġsome": 834,
      "ured": 835,
      "Ġplay": 836,
      "Ġbat": 837,
      "ilm": 838,
      "oss": 839,
      "ĠWith": 840,
      "yo": 841,
      "ama": 842,
      "led": 843,
      "ĠAr": 844,
      "'t": 845,
      "ami": 846,
      "ates": 847,
      "ound": 848,
      "ĠUn": 849,
      "Ġclass": 850,
      "air": 851,
      "ash": 852,
      "cess": 853,
      "Ġrele": 854,
      "Ġcharac": 855,
      "Ġwhile": 856,
      "Ġthan": 857,
      "lud": 858,
      "oin": 859,
      "inal": 860,
      "ari": 861,
      "Ġgirls": 862,
      "Ġnow": 863,
      "pt": 864,
      "Ġshort": 865,
      "Ġwhat": 866,
      "ĠEarth": 867,
      "ince": 868,
      "aus": 869,
      "ual": 870,
      "aru": 871,
      "Ġprot": 872,
      "ign": 873,
      "Ġgame": 874,
      "ber": 875,
      "ating": 876,
      "Ġem": 877,
      "Ġfilm": 878,
      "Ġfather": 879,
      "umi": 880,
      "Ġknown": 881,
      "au": 882,
      "Ġrel": 883,
      "Ġ20": 884,
      "Ġmake": 885,
      "Ġeach": 886,
      "Ġrem": 887,
      "iving": 888,
      "Ġplan": 889,
      "Ġsk": 890,
      "Ġturn": 891,
      "ale": 892,
      "uct": 893,
      "ese": 894,
      "ĠTak": 895,
      "ost": 896,
      "ĠAk": 897,
      "ying": 898,
      "Ġret": 899,
      "ble": 900,
      "Ġtake": 901,
      "Ġfight": 902,
      "vel": 903,
      "oth": 904,
      "ĠOn": 905,
      "ori": 906,
      "Ġlead": 907,
      "Ġtoget": 908,
      "Ġtogether": 909,
      "te": 910,
      "Ġpers": 911,
      "ara": 912,
      "Ġagainst": 913,
      "ĠTok": 914,
      "Ġbefore": 915,
      "ven": 916,
      "Ġwar": 917,
      "Ġcalled": 918,
      "gram": 919,
      "hed": 920,
      "Ġhimself": 921,
      "Ġteam": 922,
      "Ġwere": 923,
      "Ġhome": 924,
      "aving": 925,
      "ied": 926,
      "Ġaround": 927,
      "Ġfinds": 928,
      "Ġold": 929,
      "Ġlives": 930,
      "Ġtrans": 931,
      "Ġseem": 932,
      "Ġorder": 933,
      "orn": 934,
      "ĠTo": 935,
      "ons": 936,
      "Ġdiscover": 937,
      "awa": 938,
      "Ġlearn": 939,
      "Ġacc": 940,
      "ret": 941,
      "Ġinter": 942,
      "ĠSe": 943,
      "ress": 944,
      "ura": 945,
      "Ġdif": 946,
      "Ġlong": 947,
      "Ġseason": 948,
      "pect": 949,
      "Ġbecom": 950,
      "Ġset": 951,
      "ĠBl": 952,
      "Ġinclud": 953,
      "Ġass": 954,
      "ides": 955,
      "emy": 956,
      "Ġwom": 957,
      "ities": 958,
      "ĠShe": 959,
      "ood": 960,
      "Ġprogram": 961,
      "Ġfoll": 962,
      "ittle": 963,
      "Ġdest": 964,
      "Ġlike": 965,
      "ired": 966,
      ".\"": 967,
      "less": 968,
      "owing": 969,
      "Ġlive": 970,
      "Ġepisode": 971,
      "ted": 972,
      "ĠSp": 973,
      "ually": 974,
      "Ġdef": 975,
      "Ġthese": 976,
      "Ġam": 977,
      "Ġcre": 978,
      "ands": 979,
      "Ġeven": 980,
      "Ġdream": 981,
      "af": 982,
      "ants": 983,
      "Ġthree": 984,
      "Ġcity": 985,
      "man": 986,
      "Ġcol": 987,
      "Ġsis": 988,
      "Ġconf": 989,
      "side": 990,
      "augh": 991,
      "ashi": 992,
      "Ġhad": 993,
      "aking": 994,
      "ival": 995,
      "ness": 996,
      "Ġcoun": 997,
      "Ġcontin": 998,
      "ĠX": 999,
      "Ġhapp": 1000,
      "Ġmost": 1001,
      "Ġappear": 1002,
      "hik": 1003,
      "ved": 1004,
      "oto": 1005,
      "Ġbo": 1006,
      "ĠMe": 1007,
      "ited": 1008,
      "ĠUta": 1009,
      "Ġyou": 1010,
      "ars": 1011,
      "Ġbattle": 1012,
      "hing": 1013,
      "Ġdoes": 1014,
      ",\"": 1015,
      "aid": 1016,
      "ced": 1017,
      "HK": 1018,
      "ĠPr": 1019,
      "Ġenc": 1020,
      "Ġreturn": 1021,
      "Ġcap": 1022,
      "eng": 1023,
      "Ġperson": 1024,
      "ĠNHK": 1025,
      "Ġanimation": 1026,
      "Ġplace": 1027,
      "Ġadvent": 1028,
      "Ġsm": 1029,
      "ĠJapanese": 1030,
      "ink": 1031,
      "udden": 1032,
      "Ġorig": 1033,
      "land": 1034,
      "Ġfeatured": 1035,
      "ately": 1036,
      "Ġbegins": 1037,
      "Ġsame": 1038,
      "Ġimp": 1039,
      "vie": 1040,
      "aku": 1041,
      "Ġfl": 1042,
      "red": 1043,
      "Ġdemon": 1044,
      "Ġform": 1045,
      "Ġcomm": 1046,
      "Ġmany": 1047,
      "ories": 1048,
      "Ġgu": 1049,
      "ling": 1050,
      "Ġanother": 1051,
      "yu": 1052,
      "Ġprotect": 1053,
      "aster": 1054,
      "Ġstrange": 1055,
      "ina": 1056,
      "ward": 1057,
      "Ġ3": 1058,
      "ana": 1059,
      "inna": 1060,
      "anga": 1061,
      "ech": 1062,
      "Ġtrain": 1063,
      "Ġtakes": 1064,
      "Ġsw": 1065,
      "Ġcat": 1066,
      "ĠTs": 1067,
      "ody": 1068,
      "ĠRe": 1069,
      "Ġcreat": 1070,
      "ĠMinna": 1071,
      "ĠThey": 1072,
      "io": 1073,
      "Ġalong": 1074,
      "Ġob": 1075,
      "ĠCl": 1076,
      "Ġarr": 1077,
      "ular": 1078,
      "VD": 1079,
      "Ġmother": 1080,
      "Ġbel": 1081,
      "ci": 1082,
      "bers": 1083,
      "Ġsee": 1084,
      "aut": 1085,
      "ichi": 1086,
      "ouse": 1087,
      "Ġdown": 1088,
      "ix": 1089,
      "Ġhop": 1090,
      "Ġonce": 1091,
      "Ġprom": 1092,
      "ty": 1093,
      "Ġsoon": 1094,
      "lect": 1095,
      "Ġfut": 1096,
      "ney": 1097,
      "oshi": 1098,
      "omet": 1099,
      "Ġmonst": 1100,
      "pite": 1101,
      "Ġjour": 1102,
      "Ġsudden": 1103,
      "Ġlittle": 1104,
      "cc": 1105,
      "ĠTokyo": 1106,
      "the": 1107,
      "ull": 1108,
      "Ġrun": 1109,
      "Ġes": 1110,
      "ross": 1111,
      "ortun": 1112,
      "Ġpeace": 1113,
      "Ġsecret": 1114,
      "Ġsuper": 1115,
      "Ġif": 1116,
      "uke": 1117,
      "Ġdiffer": 1118,
      "ien": 1119,
      "ior": 1120,
      "aka": 1121,
      "Ġexper": 1122,
      "Ġsl": 1123,
      "Ġlook": 1124,
      "Ġmeets": 1125,
      "ry": 1126,
      "Ġhow": 1127,
      "Ġmanga": 1128,
      "Ġpast": 1129,
      "ues": 1130,
      "Ġboth": 1131,
      "Ġstart": 1132,
      "Ġfeel": 1133,
      "Ġencoun": 1134,
      "ĠQ": 1135,
      "Ġbeh": 1136,
      "thing": 1137,
      "Ġpass": 1138,
      "ered": 1139,
      "ĠWhile": 1140,
      "ĠShin": 1141,
      "ety": 1142,
      "Ġcons": 1143,
      "Ġdet": 1144,
      "min": 1145,
      "Ġjourney": 1146,
      "eep": 1147,
      "ĠAt": 1148,
      "Ġwell": 1149,
      "ao": 1150,
      "Ġtal": 1151,
      "Ġmiss": 1152,
      "Ġanimated": 1153,
      "you": 1154,
      "Ġmeet": 1155,
      "ible": 1156,
      "iko": 1157,
      "Ġsave": 1158,
      "year": 1159,
      "Ġfall": 1160,
      "Ġbest": 1161,
      "Ġsecond": 1162,
      "arious": 1163,
      "ving": 1164,
      "Ġcome": 1165,
      "icial": 1166,
      "ute": 1167,
      "iro": 1168,
      "Ġsister": 1169,
      "Ġabil": 1170,
      "fr": 1171,
      "agon": 1172,
      "Ġattack": 1173,
      "Ġfuture": 1174,
      "ject": 1175,
      "Ġwould": 1176,
      "ĠTV": 1177,
      "Ġaway": 1178,
      "ĠKing": 1179,
      "ft": 1180,
      "inally": 1181,
      "ademy": 1182,
      "Ġepisodes": 1183,
      "Ġvery": 1184,
      "Ġmagic": 1185,
      "Ġsho": 1186,
      "Ġinst": 1187,
      "ots": 1188,
      "Ġbrother": 1189,
      "Ġevil": 1190,
      "earch": 1191,
      "ional": 1192,
      "gend": 1193,
      "Ġmembers": 1194,
      "Ġsum": 1195,
      "Ġgreat": 1196,
      "Ġvill": 1197,
      "Ġdecides": 1198,
      "ier": 1199,
      "ause": 1200,
      "ird": 1201,
      "Ġhead": 1202,
      "Ġuni": 1203,
      "Ġrob": 1204,
      "uka": 1205,
      "ex": 1206,
      "ile": 1207,
      "Ġhero": 1208,
      "Ġcharacters": 1209,
      "ugg": 1210,
      "ĠDr": 1211,
      "Ġpres": 1212,
      "ense": 1213,
      "Ġmay": 1214,
      "Ġnight": 1215,
      "Ġbeaut": 1216,
      "urs": 1217,
      "Ġherself": 1218,
      "Ġnever": 1219,
      "ima": 1220,
      "âĢĻ": 1221,
      "Ġexpl": 1222,
      "Ġbecomes": 1223,
      "ata": 1224,
      "Ġdifferent": 1225,
      "Ġchildren": 1226,
      "arts": 1227,
      "Ġco": 1228,
      "Ġname": 1229,
      "Ġbre": 1230,
      "ah": 1231,
      "Ġaw": 1232,
      "ĠWh": 1233,
      "Ġtown": 1234,
      "ĠMi": 1235,
      "Ġstop": 1236,
      "Ġhumans": 1237,
      "pr": 1238,
      "Ġspir": 1239,
      "ization": 1240,
      "cap": 1241,
      "Ġable": 1242,
      "uck": 1243,
      "anger": 1244,
      "Ġreg": 1245,
      "Ġtrave": 1246,
      "Ġrest": 1247,
      "Ġwoman": 1248,
      "dom": 1249,
      "ĠNow": 1250,
      "aren": 1251,
      "Ġcompan": 1252,
      "Ġincluded": 1253,
      "Ġthough": 1254,
      "oh": 1255,
      "orld": 1256,
      "ron": 1257,
      "ume": 1258,
      "ann": 1259,
      "Ġsing": 1260,
      "Ġsuddenly": 1261,
      "err": 1262,
      "Ġmade": 1263,
      "Ġposs": 1264,
      "ĠSc": 1265,
      "Ġsex": 1266,
      "mon": 1267,
      "Ġcho": 1268,
      "Ġstudents": 1269,
      "Ġreleased": 1270,
      "Ġgets": 1271,
      "ush": 1272,
      "ten": 1273,
      "Ġel": 1274,
      "Ġbehind": 1275,
      "irect": 1276,
      "Ġclub": 1277,
      "Ġliving": 1278,
      "Ġart": 1279,
      "Ġskill": 1280,
      "gan": 1281,
      "orts": 1282,
      "Ġjoin": 1283,
      "hood": 1284,
      "Ġpop": 1285,
      "Ġlost": 1286,
      "ma": 1287,
      "Ġshow": 1288,
      "duc": 1289,
      "ĠDes": 1290,
      "Ġfour": 1291,
      "Ġthreat": 1292,
      "Ġpowers": 1293,
      "iful": 1294,
      "ait": 1295,
      "Ġthose": 1296,
      "til": 1297,
      "agi": 1298,
      "Ġoriginal": 1299,
      "Ġcomes": 1300,
      "Ġknow": 1301,
      "hib": 1302,
      "ĠBe": 1303,
      "ĠDVD": 1304,
      "uth": 1305,
      "ĠIs": 1306,
      "Ġfore": 1307,
      "Ġvis": 1308,
      "Ġdeath": 1309,
      "ared": 1310,
      "Ġmain": 1311,
      "ĠMik": 1312,
      "Ġvol": 1313,
      "Ġdefe": 1314,
      "cial": 1315,
      "ked": 1316,
      "olog": 1317,
      "Ġcomple": 1318,
      "ways": 1319,
      "Ġcent": 1320,
      "Ġ19": 1321,
      "Ġkill": 1322,
      "Ġrep": 1323,
      "Ġvarious": 1324,
      "Ġed": 1325,
      "ĠAc": 1326,
      "ph": 1327,
      "to": 1328,
      "Ġtell": 1329,
      "ita": 1330,
      "Ġfeaturing": 1331,
      "Ġplanet": 1332,
      "Ġid": 1333,
      "oku": 1334,
      "ights": 1335,
      "Ġattem": 1336,
      "atsu": 1337,
      "ĠLe": 1338,
      "Ġkeep": 1339,
      "Ġcontr": 1340,
      "Ġloc": 1341,
      "ize": 1342,
      "Ġsurv": 1343,
      "incess": 1344,
      "Ġhouse": 1345,
      "ady": 1346,
      "ple": 1347,
      "Ġmovie": 1348,
      "inary": 1349,
      "ĠNe": 1350,
      "Ġthen": 1351,
      "ato": 1352,
      "chan": 1353,
      "day": 1354,
      "atch": 1355,
      "Ġstrong": 1356,
      "selves": 1357,
      ").": 1358,
      "Ġcould": 1359,
      "Ġsince": 1360,
      "Ġsomet": 1361,
      "ĠAm": 1362,
      "Ġgen": 1363,
      "Ġpowerful": 1364,
      "xt": 1365,
      "ane": 1366,
      "Ġthings": 1367,
      "ĠKur": 1368,
      "omi": 1369,
      "ĠEn": 1370,
      "Ġspace": 1371,
      "Ġlegend": 1372,
      "Ġsmall": 1373,
      "king": 1374,
      "Ġthemselves": 1375,
      "Ġescap": 1376,
      "00": 1377,
      "Ġbody": 1378,
      "aken": 1379,
      "ĠEm": 1380,
      "Ġarm": 1381,
      "Ġuse": 1382,
      "iel": 1383,
      "nown": 1384,
      "Ġsuc": 1385,
      "Ġsuch": 1386,
      "Ġfar": 1387,
      "ived": 1388,
      "Ġdirect": 1389,
      "ains": 1390,
      "Ġbeautiful": 1391,
      "oon": 1392,
      "Ġlater": 1393,
      "une": 1394,
      "ational": 1395,
      "res": 1396,
      "Ġrece": 1397,
      "Ġseems": 1398,
      "Ġalways": 1399,
      "ĠFr": 1400,
      "ists": 1401,
      "Ġdark": 1402,
      "ĠMar": 1403,
      "Ġevent": 1404,
      "Ġcare": 1405,
      "Ġph": 1406,
      "Ġcountr": 1407,
      "uz": 1408,
      "Ġmuch": 1409,
      "Ġind": 1410,
      "ĠThere": 1411,
      "Ġsit": 1412,
      "Ġupon": 1413,
      "Ġop": 1414,
      "Ġstrugg": 1415,
      "Ġmagical": 1416,
      "Ġdist": 1417,
      "uction": 1418,
      "ĠGr": 1419,
      "ĠAcademy": 1420,
      "br": 1421,
      "Ġlast": 1422,
      "Ġever": 1423,
      "ience": 1424,
      "Ġband": 1425,
      "ĠAnd": 1426,
      "Ġevents": 1427,
      "oid": 1428,
      "Ġopp": 1429,
      "ĠSak": 1430,
      "ics": 1431,
      "Ġdays": 1432,
      "uation": 1433,
      "oko": 1434,
      "Ġunc": 1435,
      "Ġjob": 1436,
      "Ġsearch": 1437,
      "Ġwr": 1438,
      "Ġwants": 1439,
      "ĠBased": 1440,
      "ko": 1441,
      "Ġmet": 1442,
      "ĠFu": 1443,
      "ead": 1444,
      "Ġstill": 1445,
      "ĠHer": 1446,
      "ĠYou": 1447,
      "Ġdep": 1448,
      "Ġcharacter": 1449,
      "aces": 1450,
      "ĠFor": 1451,
      "ni": 1452,
      "ĠKan": 1453,
      "Ġdev": 1454,
      "Ġidol": 1455,
      "Ġtrou": 1456,
      "Ġbegin": 1457,
      "lic": 1458,
      "Ġduring": 1459,
      "Ġorgan": 1460,
      "ormal": 1461,
      "Ġface": 1462,
      "Ġbu": 1463,
      "idd": 1464,
      "Ġcompet": 1465,
      "pected": 1466,
      "ey": 1467,
      "Ġaccident": 1468,
      "Ġgrand": 1469,
      "Ġfo": 1470,
      "uri": 1471,
      "ural": 1472,
      "ĠOr": 1473,
      "osh": 1474,
      "Ġclassm": 1475,
      "Ġchang": 1476,
      "Ġkind": 1477,
      "velop": 1478,
      "acher": 1479,
      "Ġleft": 1480,
      "Ġfollows": 1481,
      "aughter": 1482,
      "chi": 1483,
      "Ġdue": 1484,
      "ĠMin": 1485,
      "Ġimm": 1486,
      "ering": 1487,
      "Ġking": 1488,
      "friend": 1489,
      "Ġchildhood": 1490,
      "Ġinf": 1491,
      "Ġtrue": 1492,
      "Ġmakes": 1493,
      "ĠTr": 1494,
      "Ġuntil": 1495,
      "Ġnext": 1496,
      "Ġgood": 1497,
      "que": 1498,
      "ĠDespite": 1499,
      "Ġgoes": 1500,
      "Ġgod": 1501,
      "though": 1502,
      "Ġrelations": 1503,
      "Ġsu": 1504,
      "Ġsim": 1505,
      "Ġfinally": 1506,
      "Ġgrad": 1507,
      "Ġdanger": 1508,
      "Ġeveryone": 1509,
      "Ġperform": 1510,
      "Ġtravel": 1511,
      "Ġwit": 1512,
      "Ġland": 1513,
      "ĠHis": 1514,
      "ames": 1515,
      "Ġkid": 1516,
      "Ġhard": 1517,
      "Ġdestro": 1518,
      "ĠSchool": 1519,
      "Ġwithin": 1520,
      "ĠKaz": 1521,
      "Ġcour": 1522,
      "ĠWorld": 1523,
      "aim": 1524,
      "port": 1525,
      "ino": 1526,
      "Ġfound": 1527,
      "Ġins": 1528,
      "Ġ-": 1529,
      "Ġhumanity": 1530,
      "fortun": 1531,
      "ray": 1532,
      "atter": 1533,
      "omp": 1534,
      "aves": 1535,
      "Ġcoll": 1536,
      "Ġheart": 1537,
      "Ġgl": 1538,
      "ĠHigh": 1539,
      "Ġrelationship": 1540,
      "cy": 1541,
      "Ġterr": 1542,
      "Ġtre": 1543,
      "Ġpol": 1544,
      "ĠShi": 1545,
      "Ġago": 1546,
      "ora": 1547,
      "Ġhun": 1548,
      "ĠHar": 1549,
      "abor": 1550,
      "cl": 1551,
      "ako": 1552,
      "ock": 1553,
      "Ġer": 1554,
      "Ġhaving": 1555,
      "Ġdel": 1556,
      "ches": 1557,
      "Ġput": 1558,
      "ĠTw": 1559,
      "cept": 1560,
      "ized": 1561,
      "Ġdiscovers": 1562,
      "),": 1563,
      "Ġfate": 1564,
      "ĠSec": 1565,
      "uma": 1566,
      "Ġbelie": 1567,
      "Ġmen": 1568,
      "ĠNo": 1569,
      "\".": 1570,
      "iddle": 1571,
      "Ġformer": 1572,
      "fect": 1573,
      "Ġneed": 1574,
      "Ġrelease": 1575,
      "ning": 1576,
      "Ġmaster": 1577,
      "Ġused": 1578,
      "Ġothers": 1579,
      "Ġquick": 1580,
      "Ġtoo": 1581,
      "Ġey": 1582,
      "Ġdevelop": 1583,
      "Ġwant": 1584,
      "ĠTom": 1585,
      "ira": 1586,
      "ĠGod": 1587,
      "Ġchall": 1588,
      "ires": 1589,
      "Ġsub": 1590,
      "Ġparen": 1591,
      "Ġbring": 1592,
      "Ġappears": 1593,
      "Ġyet": 1594,
      "ening": 1595,
      "Ġsomething": 1596,
      "Ġhand": 1597,
      "Ġcountry": 1598,
      "Ġsol": 1599,
      "like": 1600,
      "Ġfull": 1601,
      "ital": 1602,
      "Ġhowever": 1603,
      "Ġbreak": 1604,
      "aj": 1605,
      "cer": 1606,
      "while": 1607,
      "Ġtop": 1608,
      "Ġcur": 1609,
      "elf": 1610,
      "Ġresc": 1611,
      "oi": 1612,
      "asy": 1613,
      "Ġisland": 1614,
      "Ġ201": 1615,
      "me": 1616,
      "uo": 1617,
      "estig": 1618,
      "ball": 1619,
      "Ġbook": 1620,
      "ield": 1621,
      "Ġcaus": 1622,
      "osed": 1623,
      "Ġpromot": 1624,
      "ank": 1625,
      "Ġexp": 1626,
      "Ġadv": 1627,
      "Ġrobot": 1628,
      "Ã©": 1629,
      "anwhile": 1630,
      "Ġpil": 1631,
      "Ġmonsters": 1632,
      "orr": 1633,
      "ement": 1634,
      "Ġnear": 1635,
      "Ġforces": 1636,
      "ects": 1637,
      "ĠCon": 1638,
      "VA": 1639,
      "par": 1640,
      "imes": 1641,
      "Ġteacher": 1642,
      "Ġinvol": 1643,
      "Ġtransform": 1644,
      "ĠWhat": 1645,
      "Ġfell": 1646,
      "Ġpopular": 1647,
      "ys": 1648,
      "achi": 1649,
      "izes": 1650,
      "ient": 1651,
      "ingly": 1652,
      "Ġgoing": 1653,
      "ears": 1654,
      "Ġdreams": 1655,
      "erg": 1656,
      "ĠTe": 1657,
      "Ġacross": 1658,
      "Ġquest": 1659,
      "ished": 1660,
      "ened": 1661,
      "ĠPro": 1662,
      "ĠDe": 1663,
      "Ġinvestig": 1664,
      "Ġmission": 1665,
      "Ġparents": 1666,
      "arou": 1667,
      "ages": 1668,
      "Ġencounter": 1669,
      "ertain": 1670,
      "Ġofficial": 1671,
      "Ġdraw": 1672,
      "ĠSpecial": 1673,
      "ĠMeanwhile": 1674,
      "yp": 1675,
      "Ġmis": 1676,
      "ĠSat": 1677,
      "inc": 1678,
      "ll": 1679,
      "Ġnormal": 1680,
      "Ġbecause": 1681,
      "Ġpersonal": 1682,
      "joy": 1683,
      "ĠShort": 1684,
      "Ġtech": 1685,
      "Ġmin": 1686,
      "ision": 1687,
      "ermin": 1688,
      "ĠHir": 1689,
      "Ġ4": 1690,
      "ĠAnim": 1691,
      "Ġemb": 1692,
      "Ġorganization": 1693,
      "Ġquickly": 1694,
      "ently": 1695,
      "ĠMas": 1696,
      "ager": 1697,
      "Ġvillage": 1698,
      "ha": 1699,
      "ms": 1700,
      "iness": 1701,
      "idden": 1702,
      "Ġtries": 1703,
      "ĠOVA": 1704,
      "ner": 1705,
      "oul": 1706,
      "Ġda": 1707,
      "ĠYam": 1708,
      "Ġfeelings": 1709,
      "Ġcomplete": 1710,
      "ĠAlthough": 1711,
      "Ġap": 1712,
      "Ġsent": 1713,
      "Ġmod": 1714,
      "uto": 1715,
      "ific": 1716,
      "Ġvers": 1717,
      "Ġche": 1718,
      "ĠChi": 1719,
      "ric": 1720,
      "Ġcapt": 1721,
      "Ġbased": 1722,
      "uu": 1723,
      "Ġthr": 1724,
      "Ġnat": 1725,
      "Ġstarts": 1726,
      "aged": 1727,
      "Ġwhose": 1728,
      "Ġeverything": 1729,
      "Ġsuccess": 1730,
      "bles": 1731,
      "Ġeff": 1732,
      "ention": 1733,
      "Ġreve": 1734,
      "Ġste": 1735,
      "Ġmember": 1736,
      "Ġability": 1737,
      "uya": 1738,
      "Ġdaughter": 1739,
      "uko": 1740,
      "Ġmiddle": 1741,
      "Ġlight": 1742,
      "Ġenjoy": 1743,
      "Ġusing": 1744,
      "Ġcreated": 1745,
      "Ġcomb": 1746,
      "Ġturns": 1747,
      "Ġref": 1748,
      "antly": 1749,
      "ĠBlu": 1750,
      "ais": 1751,
      "iting": 1752,
      "str": 1753,
      "ĠKy": 1754,
      "oka": 1755,
      "ax": 1756,
      "Ġexist": 1757,
      "Ġordinary": 1758,
      "Ġentire": 1759,
      "Ġlet": 1760,
      "ove": 1761,
      "Ġsaf": 1762,
      "Ġwarr": 1763,
      "ided": 1764,
      "iven": 1765,
      "Ġrace": 1766,
      "Ġspend": 1767,
      "ĠSecond": 1768,
      "Ġstories": 1769,
      "urd": 1770,
      "ĠCity": 1771,
      "Ġrev": 1772,
      "ĠKou": 1773,
      "Ġwithout": 1774,
      "mercial": 1775,
      "Ġpossess": 1776,
      "Ġskills": 1777,
      "Ġdestroy": 1778,
      "oro": 1779,
      "Ġson": 1780,
      "Ġocc": 1781,
      "Ġfive": 1782,
      "ĠMo": 1783,
      "tern": 1784,
      "Ġlearns": 1785,
      "Ġspirit": 1786,
      "iar": 1787,
      "Ġside": 1788,
      "Ġself": 1789,
      "verse": 1790,
      "Ġunex": 1791,
      "Ġcompany": 1792,
      "not": 1793,
      "Ġ5": 1794,
      "ury": 1795,
      "Ġbig": 1796,
      "ĠBr": 1797,
      "cient": 1798,
      "ming": 1799,
      "pir": 1800,
      "Ġfem": 1801,
      "Ġmight": 1802,
      "Ġdeep": 1803,
      "Ġexc": 1804,
      "Ġadventure": 1805,
      "Ġtraining": 1806,
      "ower": 1807,
      "Ġchance": 1808,
      "Ġwomen": 1809,
      "Ġalien": 1810,
      "Ġscen": 1811,
      "Ġtoward": 1812,
      "Ġtas": 1813,
      "ika": 1814,
      "Ġbecoming": 1815,
      "Ġdefeat": 1816,
      "Ġweap": 1817,
      "Ġtit": 1818,
      "ances": 1819,
      "Ġhist": 1820,
      "ito": 1821,
      "Ġpartic": 1822,
      "iant": 1823,
      "pts": 1824,
      "ountain": 1825,
      "Ġblood": 1826,
      "ative": 1827,
      "ork": 1828,
      "Ġpar": 1829,
      "Ġmemories": 1830,
      "Ġpeaceful": 1831,
      "ĠKen": 1832,
      "Ġsingle": 1833,
      "Ġsever": 1834,
      "ka": 1835,
      "ki": 1836,
      "line": 1837,
      "ui": 1838,
      "Ġdead": 1839,
      "Ġsword": 1840,
      "Ġpath": 1841,
      "ĠMan": 1842,
      "Ġtrying": 1843,
      "Ġencounters": 1844,
      "ĠMon": 1845,
      "Ġdaily": 1846,
      "Ġadventures": 1847,
      "Ġfun": 1848,
      "Ġhold": 1849,
      "Ġnothing": 1850,
      "Ġunexpected": 1851,
      "bor": 1852,
      "ines": 1853,
      "ĠAy": 1854,
      "Ġele": 1855,
      "rop": 1856,
      "ĠAll": 1857,
      "Ġtells": 1858,
      "known": 1859,
      "host": 1860,
      "Ġlegendary": 1861,
      "Ġmed": 1862,
      "ĠNan": 1863,
      "iao": 1864,
      "fess": 1865,
      "Ġhands": 1866,
      "ĠHan": 1867,
      "ada": 1868,
      "Ġleader": 1869,
      "Ġescape": 1870,
      "pire": 1871,
      "ĠJun": 1872,
      "Ġends": 1873,
      "gel": 1874,
      "Ġchange": 1875,
      "Ġdog": 1876,
      "fortunately": 1877,
      "ament": 1878,
      "Ġproble": 1879,
      "Ġhope": 1880,
      "asure": 1881,
      "Ġdoesn": 1882,
      "ined": 1883,
      "Ġadd": 1884,
      "Ġpurs": 1885,
      "irou": 1886,
      "Ġabilities": 1887,
      "by": 1888,
      "com": 1889,
      "Ġcult": 1890,
      "Ġmaking": 1891,
      "ically": 1892,
      "Ġtruth": 1893,
      "Ġright": 1894,
      "Ġadap": 1895,
      "Ġprev": 1896,
      "uru": 1897,
      "Ġancient": 1898,
      "ective": 1899,
      "apped": 1900,
      "Ġbro": 1901,
      "Ġcast": 1902,
      "ology": 1903,
      "uel": 1904,
      "Ġdisapp": 1905,
      "ocus": 1906,
      "Ġdemons": 1907,
      "Ġpilot": 1908,
      "Ġfact": 1909,
      "ution": 1910,
      "Ġstep": 1911,
      "Ġrul": 1912,
      "\",": 1913,
      "Ġfinal": 1914,
      "Ġearth": 1915,
      "Ġcontinue": 1916,
      "ility": 1917,
      "Ġalone": 1918,
      "Ġtry": 1919,
      "ĠEx": 1920,
      "Ġext": 1921,
      "ermined": 1922,
      "Ġfemale": 1923,
      "Ġfail": 1924,
      "hie": 1925,
      "Ġcommercial": 1926,
      "Ġ10": 1927,
      "Ġeduc": 1928,
      "Ġsituation": 1929,
      "aught": 1930,
      "Ġcontrol": 1931,
      "ator": 1932,
      "Ġforced": 1933,
      "inj": 1934,
      "Ġsets": 1935,
      "ĠAd": 1936,
      "ĠMag": 1937,
      "Ġstand": 1938,
      "Ġcreatures": 1939,
      "Ġpo": 1940,
      "ades": 1941,
      "Ġvict": 1942,
      "Ġworks": 1943,
      "ĠLi": 1944,
      "Ġattend": 1945,
      "Ġfocus": 1946,
      "Ġmot": 1947,
      "aven": 1948,
      "Ġcontinues": 1949,
      "ĠTen": 1950,
      "ays": 1951,
      "ĠPl": 1952,
      "Ġfew": 1953,
      "Ġfree": 1954,
      "Ġcame": 1955,
      "irth": 1956,
      "ĠGen": 1957,
      "ĠMiy": 1958,
      "Ġversion": 1959,
      "bum": 1960,
      "yle": 1961,
      "Ġpur": 1962,
      "Ġdecide": 1963,
      "Ġsurpr": 1964,
      "ele": 1965,
      "uit": 1966,
      "Ġsix": 1967,
      "ĠWill": 1968,
      "artment": 1969,
      "Ġunique": 1970,
      "Ġbus": 1971,
      "Ġmarr": 1972,
      "ĠMak": 1973,
      "Ġproduc": 1974,
      "Ġcollabor": 1975,
      "acing": 1976,
      "ĠKa": 1977,
      "aps": 1978,
      "ĠDuring": 1979,
      "artial": 1980,
      "ortal": 1981,
      "Ġfair": 1982,
      "oses": 1983,
      "ĠGu": 1984,
      "Ġfeatures": 1985,
      "ds": 1986,
      "Ġcar": 1987,
      "ilit": 1988,
      "aining": 1989,
      "iri": 1990,
      "ĠPok": 1991,
      "inning": 1992,
      "Ġmonster": 1993,
      "kai": 1994,
      "eration": 1995,
      "oru": 1996,
      "Ġmom": 1997,
      "alf": 1998,
      "Ġru": 1999,
      "Ġtaking": 2000,
      "Ġmind": 2001,
      "Ġlim": 2002,
      "ĠOs": 2003,
      "estival": 2004,
      "Ġroom": 2005,
      "Ġanything": 2006,
      "Ġfighting": 2007,
      "Ġsummer": 2008,
      "ination": 2009,
      "ĠKe": 2010,
      "illed": 2011,
      "Ġconst": 2012,
      "ky": 2013,
      "oo": 2014,
      "ĠKam": 2015,
      "Ġdeal": 2016,
      "ystem": 2017,
      "rent": 2018,
      "ĠStar": 2019,
      "Ġred": 2020,
      "ĠNew": 2021,
      "Ġfant": 2022,
      "Ġhar": 2023,
      "Ġmy": 2024,
      "ices": 2025,
      "irc": 2026,
      "Ġprincess": 2027,
      "Ġcollect": 2028,
      "Ġattempt": 2029,
      "be": 2030,
      "ison": 2031,
      "ishes": 2032,
      "Ġbase": 2033,
      "ĠCom": 2034,
      "Ġinstead": 2035,
      "eared": 2036,
      "ĠIm": 2037,
      "yuu": 2038,
      "ued": 2039,
      "Ġinn": 2040,
      "aches": 2041,
      "Ġstre": 2042,
      "ĠCr": 2043,
      "Ġcannot": 2044,
      "aff": 2045,
      "Ġenough": 2046,
      "Ġamong": 2047,
      "Ġcolle": 2048,
      "Ġforest": 2049,
      "Ġbuild": 2050,
      "Ġvir": 2051,
      "Ġproject": 2052,
      "oney": 2053,
      "ĠYuu": 2054,
      "iver": 2055,
      "sy": 2056,
      "ern": 2057,
      "Ġmurd": 2058,
      "bit": 2059,
      "Ġide": 2060,
      "ises": 2061,
      "Ġwish": 2062,
      "ĠOk": 2063,
      "Ġtalent": 2064,
      "!!": 2065,
      "ero": 2066,
      "ism": 2067,
      "Ġmas": 2068,
      "Ġenemy": 2069,
      "Ġinterest": 2070,
      "Ġclassmates": 2071,
      "ergy": 2072,
      "ont": 2073,
      "ano": 2074,
      "Ġplaying": 2075,
      "ĠUnfortunately": 2076,
      "The": 2077,
      "ring": 2078,
      "eru": 2079,
      "enge": 2080,
      "Ġdid": 2081,
      "aced": 2082,
      "Ġreb": 2083,
      "ube": 2084,
      "undled": 2085,
      "Ġgetting": 2086,
      "ompan": 2087,
      "stand": 2088,
      "Ġstren": 2089,
      "ung": 2090,
      "Ġalbum": 2091,
      "ored": 2092,
      "Ġintro": 2093,
      "Ġplans": 2094,
      "cing": 2095,
      "iec": 2096,
      "Ġaff": 2097,
      "Ġthird": 2098,
      "ĠNob": 2099,
      "ĠKingdom": 2100,
      "go": 2101,
      "Ġresult": 2102,
      "Ġdangerous": 2103,
      "Ġprevious": 2104,
      "Ġtaken": 2105,
      "anch": 2106,
      "una": 2107,
      "kun": 2108,
      "lo": 2109,
      "Ġaim": 2110,
      "Ġfire": 2111,
      "ĠTog": 2112,
      "oki": 2113,
      "Ġfamous": 2114,
      "Ġtrouble": 2115,
      "jo": 2116,
      "jou": 2117,
      "Ġident": 2118,
      "Ġship": 2119,
      "edy": 2120,
      "ĠMom": 2121,
      "ĠDemon": 2122,
      "tra": 2123,
      "Ġav": 2124,
      "ĠNag": 2125,
      "Ġeng": 2126,
      "ĠClub": 2127,
      "Ġstreng": 2128,
      "ments": 2129,
      "nat": 2130,
      "Ġsoci": 2131,
      "ĠThough": 2132,
      "Ġmove": 2133,
      "Ġtechn": 2134,
      "Ġful": 2135,
      "ĠSa": 2136,
      "Ġreality": 2137,
      "ck": 2138,
      "Ġaired": 2139,
      "atic": 2140,
      "Ġpub": 2141,
      "Ġnum": 2142,
      "vern": 2143,
      "Ġclos": 2144,
      "ultim": 2145,
      "Ġkingdom": 2146,
      "hou": 2147,
      "ump": 2148,
      "ĠUs": 2149,
      "Ġyounger": 2150,
      "Ġboys": 2151,
      "Ġhopes": 2152,
      "Ġfalls": 2153,
      "Ġill": 2154,
      "read": 2155,
      "Ġoften": 2156,
      "Ġyour": 2157,
      "Ġdesper": 2158,
      "Ġdestr": 2159,
      "Ġexperience": 2160,
      "iy": 2161,
      "Ġborn": 2162,
      "Ġmartial": 2163,
      "ential": 2164,
      "owed": 2165,
      "ether": 2166,
      "ĠKo": 2167,
      "Ġbecame": 2168,
      "Ġworking": 2169,
      "Ġsold": 2170,
      "Ġstay": 2171,
      "ĠWar": 2172,
      "ection": 2173,
      "ĠShou": 2174,
      "Ġfellow": 2175,
      "iors": 2176,
      "ken": 2177,
      "yn": 2178,
      "Ġbirth": 2179,
      "Ġgive": 2180,
      "Ġseek": 2181,
      "ustr": 2182,
      "Ġresp": 2183,
      "fully": 2184,
      "Ġdespite": 2185,
      "ĠâĢ": 2186,
      "Ġline": 2187,
      "iding": 2188,
      "Ġforce": 2189,
      "Ġcha": 2190,
      "cil": 2191,
      "Ġage": 2192,
      "Ġcle": 2193,
      "let": 2194,
      "uman": 2195,
      "ĠOff": 2196,
      "Ġactually": 2197,
      "Ġlooking": 2198,
      "Ġvolume": 2199,
      "Ġchalleng": 2200,
      "kind": 2201,
      "Ġwa": 2202,
      "ests": 2203,
      "ĠTwo": 2204,
      "ym": 2205,
      "orp": 2206,
      "Ġann": 2207,
      "Ġtrip": 2208,
      "Ġprod": 2209,
      "Ġanimals": 2210,
      "versary": 2211,
      "Ġcamp": 2212,
      "Ġhot": 2213,
      "Ġmer": 2214,
      "ĠRec": 2215,
      "Ġrival": 2216,
      "Ġclose": 2217,
      "leep": 2218,
      "ths": 2219,
      "ĠGirl": 2220,
      "Ġconsid": 2221,
      "Ġpresent": 2222,
      "Ġhistory": 2223,
      "ised": 2224,
      "Ġlar": 2225,
      "otic": 2226,
      "uts": 2227,
      "Ġnovel": 2228,
      "hiko": 2229,
      "Ġdirected": 2230,
      "Ġcollaboration": 2231,
      "fic": 2232,
      "Ġcarr": 2233,
      "Ġpot": 2234,
      "ases": 2235,
      "Ġrequ": 2236,
      "use": 2237,
      "venge": 2238,
      "Ġseveral": 2239,
      "ged": 2240,
      "Ġ7": 2241,
      "Ġmilit": 2242,
      "ĠSer": 2243,
      "Ġstar": 2244,
      "Ġconn": 2245,
      "Ġleave": 2246,
      "Ġtheme": 2247,
      "Ġgoal": 2248,
      "Ġfriendship": 2249,
      "Ġlocal": 2250,
      "elebr": 2251,
      "Ġsociety": 2252,
      "aun": 2253,
      "ians": 2254,
      "ipp": 2255,
      "ĠTan": 2256,
      "versity": 2257,
      "Ġsomeone": 2258,
      "Ġtransfer": 2259,
      "Ġexperien": 2260,
      "ency": 2261,
      "Ġassist": 2262,
      "ĠPrincess": 2263,
      "Ġchanges": 2264,
      "Ġsav": 2265,
      "Ġwin": 2266,
      "ĠAi": 2267,
      "Ġvisit": 2268,
      "Ġultim": 2269,
      "Ġcute": 2270,
      "Ġmountain": 2271,
      "Ġdem": 2272,
      "Ġgang": 2273,
      "ĠNa": 2274,
      "Ġenergy": 2275,
      "Ġbatt": 2276,
      "Ġalongside": 2277,
      "Ġadapt": 2278,
      "aro": 2279,
      "ĠEd": 2280,
      "Ġarrives": 2281,
      "Ġreveal": 2282,
      "Ġhalf": 2283,
      "aya": 2284,
      "ĠThese": 2285,
      "Ġunknown": 2286,
      "Ġgovern": 2287,
      "Ġleads": 2288,
      "Ġair": 2289,
      "Ġcelebr": 2290,
      "Ġgre": 2291,
      "Ġgiven": 2292,
      "istic": 2293,
      "Ġattention": 2294,
      "Ġappro": 2295,
      "Ġsupp": 2296,
      "Ġeyes": 2297,
      "natural": 2298,
      "lict": 2299,
      "san": 2300,
      "Ġsoul": 2301,
      "umes": 2302,
      "ĠYuk": 2303,
      "ount": 2304,
      "Ġpolice": 2305,
      "iol": 2306,
      "Ġhidden": 2307,
      "uta": 2308,
      "ĠKag": 2309,
      "iew": 2310,
      "Ġdiffic": 2311,
      "Ġrescue": 2312,
      "Ġdifficult": 2313,
      "Ġwatch": 2314,
      "Ġant": 2315,
      "Ġfamil": 2316,
      "Ġsisters": 2317,
      "sen": 2318,
      "ishi": 2319,
      "Ġfig": 2320,
      "ushi": 2321,
      "Ġsend": 2322,
      "ude": 2323,
      "Ġaccidentally": 2324,
      "Ġ&": 2325,
      "Ġanni": 2326,
      "ĠTheir": 2327,
      "Ġunf": 2328,
      "Ġfollowing": 2329,
      "Ġdetermined": 2330,
      "bo": 2331,
      "now": 2332,
      "head": 2333,
      "iet": 2334,
      "ĠMir": 2335,
      "emies": 2336,
      "ĠEl": 2337,
      "izing": 2338,
      "Ġknows": 2339,
      "ĠFrom": 2340,
      "Ġwal": 2341,
      "Ġple": 2342,
      "ĠSup": 2343,
      "Ġgiant": 2344,
      "osing": 2345,
      "ares": 2346,
      "Ġreturns": 2347,
      "Ġsafety": 2348,
      "Ġparticip": 2349,
      "alth": 2350,
      "Ġinside": 2351,
      "Ġview": 2352,
      "ĠFl": 2353,
      "Ġsees": 2354,
      "Ġleaves": 2355,
      "Ġshorts": 2356,
      "Ġblack": 2357,
      "Ġsupernatural": 2358,
      "Ġreceives": 2359,
      "ground": 2360,
      "ius": 2361,
      "Ġ6": 2362,
      "Ġcertain": 2363,
      "Ġmat": 2364,
      "ĠMis": 2365,
      "ĠKir": 2366,
      "ĠGo": 2367,
      "Ġincluding": 2368,
      "Ġassass": 2369,
      "of": 2370,
      "rets": 2371,
      "Ġni": 2372,
      "ĠHik": 2373,
      "ĠIk": 2374,
      "ĠJi": 2375,
      "Ġprofess": 2376,
      "Ġclaim": 2377,
      "Ġserv": 2378,
      "Ġteen": 2379,
      "Ġrealizes": 2380,
      "oe": 2381,
      "ra": 2382,
      "reme": 2383,
      "Ġfood": 2384,
      "acy": 2385,
      "osp": 2386,
      "Ġrom": 2387,
      "Ġcontain": 2388,
      "Ġspe": 2389,
      "ĠUp": 2390,
      "uchi": 2391,
      "ept": 2392,
      "Ġolder": 2393,
      "annel": 2394,
      "Ġeducational": 2395,
      "but": 2396,
      "Ġwond": 2397,
      "Ġbad": 2398,
      "asa": 2399,
      "omb": 2400,
      "ĠSan": 2401,
      "imi": 2402,
      "tract": 2403,
      "rought": 2404,
      "Ġeventually": 2405,
      "Ġfre": 2406,
      "Ġpair": 2407,
      "Ġmeans": 2408,
      "Ġimag": 2409,
      "Ġmeeting": 2410,
      "come": 2411,
      "Ġcase": 2412,
      "asts": 2413,
      "ained": 2414,
      "Ġenemies": 2415,
      "Ġtele": 2416,
      "icture": 2417,
      "Ġsurround": 2418,
      "Ġnature": 2419,
      "Ġ'": 2420,
      "Ġsaid": 2421,
      "ĠBo": 2422,
      "Ġparty": 2423,
      "igned": 2424,
      "Ġguard": 2425,
      "ĠTogether": 2426,
      "Ġsystem": 2427,
      "Ġhost": 2428,
      "Ġreach": 2429,
      "Ġvo": 2430,
      "Ġvamp": 2431,
      "ĠPre": 2432,
      "Ġplot": 2433,
      "Ġpract": 2434,
      "Ġperfect": 2435,
      "Ġsexual": 2436,
      "Ġstruggles": 2437,
      "Ġsuff": 2438,
      "Ġtitle": 2439,
      "Ġmilitary": 2440,
      "ĠSou": 2441,
      "ĠSun": 2442,
      "Ġghost": 2443,
      "ivil": 2444,
      "upt": 2445,
      "Ġscient": 2446,
      "Ġjo": 2447,
      "Ġactiv": 2448,
      "ĠEmpire": 2449,
      "Ġkidn": 2450,
      "ising": 2451,
      "Ġpoin": 2452,
      "ope": 2453,
      "quel": 2454,
      "Ġturned": 2455,
      "Ġlooks": 2456,
      "Ġstrength": 2457,
      "Ġjoins": 2458,
      "most": 2459,
      "Ġwater": 2460,
      "Ġbundled": 2461,
      "urai": 2462,
      "ĠBlack": 2463,
      "ga": 2464,
      "jin": 2465,
      "na": 2466,
      "uing": 2467,
      "wa": 2468,
      "ene": 2469,
      "Ġcover": 2470,
      "Ġthing": 2471,
      "ĠAg": 2472,
      "Ġled": 2473,
      "Ġreason": 2474,
      "ĠRin": 2475,
      "aby": 2476,
      "ĠDragon": 2477,
      "Ġinvolved": 2478,
      "cr": 2479,
      "time": 2480,
      "ites": 2481,
      "cend": 2482,
      "Ġleaving": 2483,
      "Ġprove": 2484,
      "Ġconfron": 2485,
      "ĠXiao": 2486,
      "oly": 2487,
      "Ġtyp": 2488,
      "Ġcross": 2489,
      "Ġmech": 2490,
      "imin": 2491,
      "Ġens": 2492,
      "Ġuses": 2493,
      "Ġmystery": 2494,
      "Ġeveryday": 2495,
      "Ġsky": 2496,
      "Ġarmy": 2497,
      "Ġcompletely": 2498,
      "inja": 2499,
      "cious": 2500,
      "Ġmoney": 2501,
      "ĠMiz": 2502,
      "olves": 2503,
      "eless": 2504,
      "uku": 2505,
      "Ġloves": 2506,
      "avor": 2507,
      "Ġcompetition": 2508,
      "hab": 2509,
      "hara": 2510,
      "yal": 2511,
      "Ġcy": 2512,
      "Ġdiv": 2513,
      "Ġinform": 2514,
      "Ġconflict": 2515,
      "Ġobs": 2516,
      "Ġshop": 2517,
      "Ġuniverse": 2518,
      "Ġattempts": 2519,
      "ĠYouT": 2520,
      "Ġfoot": 2521,
      "Ġexistence": 2522,
      "Ġdestruction": 2523,
      "father": 2524,
      "ister": 2525,
      "Ġbrought": 2526,
      "iter": 2527,
      "ĠMa": 2528,
      "urther": 2529,
      "ivid": 2530,
      "Ġprov": 2531,
      "Ġarts": 2532,
      "DVD": 2533,
      "Ġwishes": 2534,
      "Ġgames": 2535,
      "adow": 2536,
      "ĠBat": 2537,
      "Ġincident": 2538,
      "Ġspecials": 2539,
      "Ġseemingly": 2540,
      "Ġcreate": 2541,
      "Ġpassion": 2542,
      "Ġspirits": 2543,
      "Ġwait": 2544,
      "ĠTou": 2545,
      "ĠSuz": 2546,
      "Ġgives": 2547,
      "Ġlate": 2548,
      "ote": 2549,
      "andon": 2550,
      "ĠRyou": 2551,
      "Ġabs": 2552,
      "ĠShir": 2553,
      "ĠChr": 2554,
      "ĠZh": 2555,
      "Ġmissing": 2556,
      "Ġthought": 2557,
      "Ġuncover": 2558,
      "sp": 2559,
      "iny": 2560,
      "ĠSu": 2561,
      "Ġrevenge": 2562,
      "ĠRob": 2563,
      "etsu": 2564,
      "Ġachie": 2565,
      "Ġprotagon": 2566,
      "Ġemot": 2567,
      "Ġclassmate": 2568,
      "Ġcombat": 2569,
      "uly": 2570,
      "uge": 2571,
      "Ġsus": 2572,
      "Ġcard": 2573,
      "Ġcond": 2574,
      "ĠFoll": 2575,
      "Ġweb": 2576,
      "ĠAkira": 2577,
      "ched": 2578,
      "Ġsign": 2579,
      "Ġreun": 2580,
      "Ġviol": 2581,
      "ĠEpisod": 2582,
      "Ġneigh": 2583,
      "Ġconqu": 2584,
      "Ġhappy": 2585,
      "Ġimport": 2586,
      "Ġruns": 2587,
      "Ġterror": 2588,
      "iece": 2589,
      "gu": 2590,
      "ger": 2591,
      "sh": 2592,
      "uro": 2593,
      "ĠDark": 2594,
      "Ġsepar": 2595,
      "ĠOfficial": 2596,
      "med": 2597,
      "Ġtimes": 2598,
      "Ġpost": 2599,
      "ĠStr": 2600,
      "idents": 2601,
      "ĠPe": 2602,
      "Ġshows": 2603,
      "Ġshould": 2604,
      "peror": 2605,
      "Ġsupport": 2606,
      "Ġappearance": 2607,
      "ba": 2608,
      "ono": 2609,
      "ica": 2610,
      "ĠKn": 2611,
      "ledge": 2612,
      "aur": 2613,
      "Ġtar": 2614,
      "Ġtale": 2615,
      "hether": 2616,
      "ready": 2617,
      "Ġcou": 2618,
      "Ġmaid": 2619,
      "Ġfranch": 2620,
      "ember": 2621,
      "ief": 2622,
      "Ġenv": 2623,
      "ĠThree": 2624,
      "Ġ12": 2625,
      "Ġgrow": 2626,
      "Ġteach": 2627,
      "itsu": 2628,
      "Ġgovernment": 2629,
      "ĠYouTube": 2630,
      "Ġcaught": 2631,
      "aring": 2632,
      "arks": 2633,
      "Ġwhole": 2634,
      "ĠRen": 2635,
      "ĠChin": 2636,
      "Ġsummon": 2637,
      "ĠSakura": 2638,
      "Ġtest": 2639,
      "ĠEach": 2640,
      "Ġprevent": 2641,
      "Ġwitness": 2642,
      "cast": 2643,
      "Ġten": 2644,
      "Ġcivil": 2645,
      "Ġgot": 2646,
      "urb": 2647,
      "ĠHaving": 2648,
      "ĠWe": 2649,
      "Ġcomedy": 2650,
      "ĠLu": 2651,
      "Ġstruggle": 2652,
      "where": 2653,
      "Ġz": 2654,
      "Ġtourn": 2655,
      "ĠSho": 2656,
      "ĠKei": 2657,
      "Ġprince": 2658,
      "Ġprep": 2659,
      "Ġexplore": 2660,
      "Ġmodern": 2661,
      "Ġpurp": 2662,
      "Ġfulf": 2663,
      "Ġlarge": 2664,
      "pic": 2665,
      "Ġbond": 2666,
      "ĠSw": 2667,
      "Ġear": 2668,
      "vert": 2669,
      "ĠNar": 2670,
      "ift": 2671,
      "Ġtrack": 2672,
      "ĠEvery": 2673,
      "Ġitself": 2674,
      "Ġoutside": 2675,
      "Ġcrew": 2676,
      "ĠTsuk": 2677,
      "Ġcreature": 2678,
      "Ġgradually": 2679,
      "Ġbaseball": 2680,
      "Ġwife": 2681,
      "ences": 2682,
      "Ġhom": 2683,
      "Ġhorr": 2684,
      "iron": 2685,
      "owly": 2686,
      "ĠLittle": 2687,
      "Ġabandon": 2688,
      "Ġbegan": 2689,
      "Ġ200": 2690,
      "Ġheroes": 2691,
      "Ġtreasure": 2692,
      "Ġfranchise": 2693,
      "mas": 2694,
      "Ġpain": 2695,
      "ĠTam": 2696,
      "ĠSen": 2697,
      "Ġless": 2698,
      "ĠKyou": 2699,
      "Ġrum": 2700,
      "Ġanyone": 2701,
      "Ġhappens": 2702,
      "Ġgener": 2703,
      "Ã©mon": 2704,
      "ĠTeam": 2705,
      "ĠAnimated": 2706,
      "Ġcollege": 2707,
      "ew": 2708,
      "lish": 2709,
      "Ġcirc": 2710,
      "edic": 2711,
      "Ġinj": 2712,
      "aga": 2713,
      "ĠNats": 2714,
      "Ġrecr": 2715,
      "Ġaction": 2716,
      "Ġstarted": 2717,
      "Ġattacked": 2718,
      "Ġmoment": 2719,
      "Ġrespons": 2720,
      "work": 2721,
      "Ġ9": 2722,
      "Ġtem": 2723,
      "ery": 2724,
      "Ġfront": 2725,
      "ĠOt": 2726,
      "ĠEven": 2727,
      "Ġseven": 2728,
      "ĠChar": 2729,
      "mentary": 2730,
      "ploy": 2731,
      "Ġways": 2732,
      "ny": 2733,
      "rap": 2734,
      "Ġthink": 2735,
      "ĠKai": 2736,
      "Ġalready": 2737,
      "Ġclan": 2738,
      "Ġ15": 2739,
      "Ġdragon": 2740,
      "Ġ202": 2741,
      "Ġremains": 2742,
      "Ġdefend": 2743,
      "Ġsurvive": 2744,
      "Ġopportun": 2745,
      "Ġeye": 2746,
      "Ġsteal": 2747,
      "Ġchaos": 2748,
      "bl": 2749,
      "nder": 2750,
      "Ġlack": 2751,
      "ĠAlong": 2752,
      "Ġpartner": 2753,
      "Ġpassed": 2754,
      "Ġopening": 2755,
      "Ġfairy": 2756,
      "Ġanniversary": 2757,
      "atr": 2758,
      "asing": 2759,
      "ĠAz": 2760,
      "ĠHin": 2761,
      "ĠYuki": 2762,
      "iki": 2763,
      "ikes": 2764,
      "Ġwhy": 2765,
      "Ġgrant": 2766,
      "ĠPokÃ©mon": 2767,
      "Ġpublic": 2768,
      "Ġpotential": 2769,
      "Ġest": 2770,
      "arre": 2771,
      "alax": 2772,
      "amoto": 2773,
      "Ġbeings": 2774,
      "ceed": 2775,
      "ĠFour": 2776,
      "Ġsecrets": 2777,
      "Ġowner": 2778,
      "ĠMiku": 2779,
      "Ġgrandfather": 2780,
      "ĠSuper": 2781,
      "Ġprotagonist": 2782,
      "aired": 2783,
      "hy": 2784,
      "za": 2785,
      "Ġmach": 2786,
      "ster": 2787,
      "Ġreally": 2788,
      "Ġali": 2789,
      "earing": 2790,
      "Ġchannel": 2791,
      "undred": 2792,
      "Ġknowledge": 2793,
      "ev": 2794,
      "Ġswe": 2795,
      "Ġour": 2796,
      "aning": 2797,
      "anced": 2798,
      "ley": 2799,
      "ĠSo": 2800,
      "Ġgather": 2801,
      "ĠIz": 2802,
      "Ġsea": 2803,
      "Ġseen": 2804,
      "udd": 2805,
      "Ġconv": 2806,
      "Ġdoing": 2807,
      "Ġaccept": 2808,
      "Ġbeginning": 2809,
      "Ġbetter": 2810,
      "Ġrobots": 2811,
      "Ġadaptation": 2812,
      "ĠUpon": 2813,
      "Ġod": 2814,
      "Ġhon": 2815,
      "ĠSum": 2816,
      "ĠHay": 2817,
      "ĠHell": 2818,
      "ĠLord": 2819,
      "Ġmob": 2820,
      "ĠAngel": 2821,
      "ugi": 2822,
      "ĠQue": 2823,
      "coming": 2824,
      "sw": 2825,
      "int": 2826,
      "oring": 2827,
      "olf": 2828,
      "Ġfollow": 2829,
      "Ġcourse": 2830,
      "Ġera": 2831,
      "Ġinvestigate": 2832,
      "Ġbusiness": 2833,
      "Ġproduced": 2834,
      "Ġcloser": 2835,
      "Ġbattles": 2836,
      "dess": 2837,
      "Ġsleep": 2838,
      "isa": 2839,
      "Ġmale": 2840,
      "Ġmatter": 2841,
      "ĠDet": 2842,
      "Ġdesire": 2843,
      "ĠHaruka": 2844,
      "Ġweapons": 2845,
      "gg": 2846,
      "ned": 2847,
      "roll": 2848,
      "Ġcut": 2849,
      "itch": 2850,
      "asion": 2851,
      "ĠKit": 2852,
      "ĠThen": 2853,
      "Ġconcer": 2854,
      "Ġmankind": 2855,
      "Ġtechnology": 2856,
      "alaxy": 2857,
      "my": 2858,
      "itive": 2859,
      "ĠDa": 2860,
      "ĠRy": 2861,
      "Ġchanged": 2862,
      "Ġchallenge": 2863,
      "Ġinnoc": 2864,
      "Ġtournament": 2865,
      "che": 2866,
      "Ġsqu": 2867,
      "ĠSoon": 2868,
      "ĠMay": 2869,
      "ĠHats": 2870,
      "ĠIch": 2871,
      "ĠPh": 2872,
      "Ġappeared": 2873,
      "Ġkilled": 2874,
      "Ġfantasy": 2875,
      "Ġidentity": 2876,
      "Ġfulfill": 2877,
      "yama": 2878,
      "Ġmist": 2879,
      "ified": 2880,
      "osuke": 2881,
      "ivate": 2882,
      "Ġattract": 2883,
      "Ġprop": 2884,
      "Ġquiet": 2885,
      "Ġpresident": 2886,
      "ĠHero": 2887,
      "Ġgods": 2888,
      "Ġwarrior": 2889,
      "band": 2890,
      "ler": 2891,
      "Ġfestival": 2892,
      "asaki": 2893,
      "Ġstum": 2894,
      "usion": 2895,
      "ĠCol": 2896,
      "Ġcoming": 2897,
      "Ġkids": 2898,
      "Ġannoun": 2899,
      "Ġvoice": 2900,
      "Ġsal": 2901,
      "Ġwand": 2902,
      "Ġpos": 2903,
      "Ġstore": 2904,
      "Ġspec": 2905,
      "Ġwhom": 2906,
      "ĠThrough": 2907,
      "Ġarrival": 2908,
      "Ġcurrent": 2909,
      "Ġtarget": 2910,
      "ida": 2911,
      "lying": 2912,
      "ĠII": 2913,
      "Ġseal": 2914,
      "Ġextra": 2915,
      "Ġdecided": 2916,
      "Ġrealm": 2917,
      "Ġrealize": 2918,
      "Ġcentury": 2919,
      "Ġintroduc": 2920,
      "Ġfilled": 2921,
      "ĠAoi": 2922,
      "ĠHaru": 2923,
      "igious": 2924,
      "ousuke": 2925,
      "ĠEr": 2926,
      "abe": 2927,
      "Ġenter": 2928,
      "Ġjustice": 2929,
      "Ġplayers": 2930,
      "Ġrunning": 2931,
      "ĠIsland": 2932,
      "Ġphys": 2933,
      "Ġindivid": 2934,
      "ĠMakoto": 2935,
      "Ġ8": 2936,
      "itter": 2937,
      "Ġdon": 2938,
      "ĠKore": 2939,
      "ading": 2940,
      "ĠCho": 2941,
      "Ġrap": 2942,
      "Ġwhite": 2943,
      "ĠThat": 2944,
      "Ġacademy": 2945,
      "Ġgrows": 2946,
      "ĠUni": 2947,
      "Ġleading": 2948,
      "Ġobtain": 2949,
      "Ġscenes": 2950,
      "Ġproblems": 2951,
      "Ġlimited": 2952,
      "Ġconsidered": 2953,
      "Ġsaved": 2954,
      "gress": 2955,
      "mi": 2956,
      "vision": 2957,
      "yr": 2958,
      "ĠShik": 2959,
      "Ġasks": 2960,
      "ĠBy": 2961,
      "ĠFe": 2962,
      "ĠLove": 2963,
      "Ġgirlfriend": 2964,
      "ĠStud": 2965,
      "Ġplayer": 2966,
      "Ġlonger": 2967,
      "Ġwitch": 2968,
      "Ġwarriors": 2969,
      "Ġsurprise": 2970,
      "Ġmurder": 2971,
      "ĠRecap": 2972,
      "Ġsupposed": 2973,
      "ĠChrist": 2974,
      "co": 2975,
      "uan": 2976,
      "era": 2977,
      "itial": 2978,
      "ĠSei": 2979,
      "Ġlot": 2980,
      "ental": 2981,
      "uter": 2982,
      "ĠGreat": 2983,
      "antic": 2984,
      "Ġshown": 2985,
      "Ġbrings": 2986,
      "pective": 2987,
      "Ġcommon": 2988,
      "Ġdetective": 2989,
      "Ġelse": 2990,
      "Ġbelieves": 2991,
      "Ġsolve": 2992,
      "ajor": 2993,
      "ee": 2994,
      "ony": 2995,
      "Ġmess": 2996,
      "Ġdom": 2997,
      "ilar": 2998,
      "Ġemer": 2999,
      "ague": 3000,
      "Ġ13": 3001,
      "Ġunderstand": 3002,
      "Ġintern": 3003,
      "Ġartist": 3004,
      "Ġweapon": 3005,
      "'re": 3006,
      "iod": 3007,
      "Ġfaces": 3008,
      "ĠSet": 3009,
      "ĠAmer": 3010,
      "Ġbear": 3011,
      "ĠNi": 3012,
      "ĠWat": 3013,
      "Ġworse": 3014,
      "ĠBlue": 3015,
      "Ġelite": 3016,
      "ĠGirls": 3017,
      "Ġopportunity": 3018,
      "Ġfear": 3019,
      "Ġfurther": 3020,
      "Ġmass": 3021,
      "Ġpsy": 3022,
      "ĠTa": 3023,
      "Ġthous": 3024,
      "Ġexam": 3025,
      "Ġnewly": 3026,
      "aze": 3027,
      "Ġpossible": 3028,
      "Ġtravels": 3029,
      "ĠShiz": 3030,
      "ĠQueen": 3031,
      "Ġbal": 3032,
      "Ġlif": 3033,
      "Ġecc": 3034,
      "ĠMy": 3035,
      "els": 3036,
      "ĠNor": 3037,
      "ĠPar": 3038,
      "ĠShu": 3039,
      "Ġadult": 3040,
      "ĠAnime": 3041,
      "Ġaliens": 3042,
      "cle": 3043,
      "inks": 3044,
      "Ġsense": 3045,
      "erm": 3046,
      "Ġwent": 3047,
      "Ġcost": 3048,
      "edi": 3049,
      "ĠDue": 3050,
      "Ġvideos": 3051,
      "ĠUr": 3052,
      "ocal": 3053,
      "Ġincre": 3054,
      "ĠEpisode": 3055,
      "iance": 3056,
      "oved": 3057,
      "yond": 3058,
      "Ġfin": 3059,
      "Ġfavor": 3060,
      "Ġpicture": 3061,
      "Ġdut": 3062,
      "ims": 3063,
      "Ġeasy": 3064,
      "ĠJin": 3065,
      "ustom": 3066,
      "undam": 3067,
      "Ġrole": 3068,
      "Ġoffice": 3069,
      "Ġaccompan": 3070,
      "Ġcauses": 3071,
      "Ġapartment": 3072,
      "Ġconstantly": 3073,
      "Ġmobile": 3074,
      "ges": 3075,
      "hel": 3076,
      "Ġfle": 3077,
      "Ġbas": 3078,
      "ĠSince": 3079,
      "entric": 3080,
      "ĠKot": 3081,
      "ults": 3082,
      "Ġalmost": 3083,
      "Ġrather": 3084,
      "Ġuns": 3085,
      "Ġscre": 3086,
      "ishing": 3087,
      "Ġtransport": 3088,
      "ressed": 3089,
      "hika": 3090,
      "Ġcapable": 3091,
      "Ġpurpose": 3092,
      "Ġabandoned": 3093,
      "'ll": 3094,
      "iers": 3095,
      "erful": 3096,
      "Ġfigh": 3097,
      "Ġearn": 3098,
      "uno": 3099,
      "ĠCan": 3100,
      "ĠBD": 3101,
      "Ġmemory": 3102,
      "eko": 3103,
      "itional": 3104,
      "Ġvolumes": 3105,
      "Ġneeds": 3106,
      "Ġfigure": 3107,
      "ER": 3108,
      "mother": 3109,
      "ert": 3110,
      "Ġoper": 3111,
      "ither": 3112,
      "ico": 3113,
      "Ġisn": 3114,
      "Ġstyle": 3115,
      "igo": 3116,
      "ĠRan": 3117,
      "Ġworlds": 3118,
      "Ġrecap": 3119,
      "Ġslowly": 3120,
      "Ġchosen": 3121,
      "lings": 3122,
      "Ġaud": 3123,
      "Ġfights": 3124,
      "Ġhundred": 3125,
      "imens": 3126,
      "aying": 3127,
      "ĠCo": 3128,
      "ĠLup": 3129,
      "ĠVal": 3130,
      "Ġseeks": 3131,
      "incarn": 3132,
      "Ġchallenges": 3133,
      "rest": 3134,
      "anks": 3135,
      "ilt": 3136,
      "amurai": 3137,
      "ĠHim": 3138,
      "room": 3139,
      "ously": 3140,
      "iest": 3141,
      "ĠRed": 3142,
      "ĠRyu": 3143,
      "Ġunable": 3144,
      "Ġhappen": 3145,
      "Ġproblem": 3146,
      "ĠHatsune": 3147,
      "face": 3148,
      "Ġga": 3149,
      "odies": 3150,
      "ĠYosh": 3151,
      "Ġkey": 3152,
      "Ġspread": 3153,
      "Ġbox": 3154,
      "Ġimmedi": 3155,
      "Ġsimple": 3156,
      "Ġavoid": 3157,
      "key": 3158,
      "Ġut": 3159,
      "Ġpet": 3160,
      "idence": 3161,
      "usive": 3162,
      "ifth": 3163,
      "ĠGundam": 3164,
      "Ġadm": 3165,
      "ĠThird": 3166,
      "Ġmoon": 3167,
      "Ġdesires": 3168,
      "Ġentr": 3169,
      "Ġcatch": 3170,
      "Ġshoc": 3171,
      "Ġelementary": 3172,
      "Ġextreme": 3173,
      "Ġfamiliar": 3174,
      "got": 3175,
      "Ġcause": 3176,
      "ĠSay": 3177,
      "Ġlived": 3178,
      "idst": 3179,
      "Ġstage": 3180,
      "ĠAki": 3181,
      "Ġexperim": 3182,
      "Ġbrothers": 3183,
      "Ġchoice": 3184,
      "Ġforever": 3185,
      "ĠLupin": 3186,
      "ship": 3187,
      "Ġwind": 3188,
      "Ġwild": 3189,
      "itten": 3190,
      "Ġmir": 3191,
      "Ġninja": 3192,
      "Ġready": 3193,
      "ĠNak": 3194,
      "Ġtruly": 3195,
      "elling": 3196,
      "Ġsocial": 3197,
      "ibly": 3198,
      "oci": 3199,
      "ought": 3200,
      "Ġthroughout": 3201,
      "Ġtask": 3202,
      "girl": 3203,
      "lu": 3204,
      "Ġbiz": 3205,
      "Ġtold": 3206,
      "alm": 3207,
      "imid": 3208,
      "adcast": 3209,
      "aper": 3210,
      "oking": 3211,
      "Ġfeature": 3212,
      "Ġending": 3213,
      "Ġcompanions": 3214,
      "Ġartif": 3215,
      "ĠFuj": 3216,
      "Ġachieve": 3217,
      "Ġeccentric": 3218,
      "Ġsil": 3219,
      "Ġinhab": 3220,
      "Ġlands": 3221,
      "ĠMah": 3222,
      "Ġtrad": 3223,
      "Ġacqu": 3224,
      "Ġdesign": 3225,
      "Ġconfess": 3226,
      "ĠTsub": 3227,
      "Ġcenter": 3228,
      "Ġpersonality": 3229,
      "Ġoccur": 3230,
      "Ġvirt": 3231,
      "ospital": 3232,
      "Ġpoint": 3233,
      "ĠFollowing": 3234,
      "Ġneighbor": 3235,
      "Ġcouple": 3236,
      "Ġestab": 3237,
      "heart": 3238,
      "Ġtook": 3239,
      "Ġfort": 3240,
      "ĠHy": 3241,
      "ĠKak": 3242,
      "ĠIf": 3243,
      "Ġprest": 3244,
      "Ġopen": 3245,
      "Ġbizarre": 3246,
      "Ġwo": 3247,
      "Ġboss": 3248,
      "oration": 3249,
      "Ġmajor": 3250,
      "Ġbeyond": 3251,
      "ĠMus": 3252,
      "Ġstat": 3253,
      "uses": 3254,
      "used": 3255,
      "aint": 3256,
      "Ġunit": 3257,
      "ĠJust": 3258,
      "ected": 3259,
      "Ġenroll": 3260,
      "ograp": 3261,
      "azy": 3262,
      "Ġovercome": 3263,
      "Ġadventur": 3264,
      "Ġfeels": 3265,
      "Ġgreatest": 3266,
      "Ġtowards": 3267,
      "Ġinformation": 3268,
      "ĠSword": 3269,
      "light": 3270,
      "men": 3271,
      "sc": 3272,
      "Ġcold": 3273,
      "Ġstate": 3274,
      "roid": 3275,
      "upp": 3276,
      "aba": 3277,
      "Ġdrama": 3278,
      "Ġweak": 3279,
      "Ġlearning": 3280,
      "resent": 3281,
      "Ġimmortal": 3282,
      "Ġembark": 3283,
      "ĠMovie": 3284,
      "Ġrules": 3285,
      "Ġtelevision": 3286,
      "Ġenviron": 3287,
      "hold": 3288,
      "hiro": 3289,
      "Ġsac": 3290,
      "Ġfier": 3291,
      "Ġbar": 3292,
      "Ġeld": 3293,
      "Ġbefriend": 3294,
      "ĠMits": 3295,
      "ĠKid": 3296,
      "ĠKaw": 3297,
      "Ġmanages": 3298,
      "Ġpret": 3299,
      "Ġanimal": 3300,
      "Ġcrime": 3301,
      "Ġcouncil": 3302,
      "Ġimpro": 3303,
      "Ġdistr": 3304,
      "Ġwrong": 3305,
      "Ġbuilding": 3306,
      "Ġultimate": 3307,
      "Ġvampire": 3308,
      "found": 3309,
      "Ġsound": 3310,
      "Ġwon": 3311,
      "Ġluck": 3312,
      "ĠHana": 3313,
      "ĠKon": 3314,
      "illion": 3315,
      "Ġlevel": 3316,
      "Ġoffers": 3317,
      "Ġhelping": 3318,
      "isc": 3319,
      "oud": 3320,
      "Ġdou": 3321,
      "asu": 3322,
      "Ġheld": 3323,
      "Ġonline": 3324,
      "Ġansw": 3325,
      "ĠChen": 3326,
      "ĠPart": 3327,
      "oke": 3328,
      "Ġexcept": 3329,
      "Ġmoves": 3330,
      "ogn": 3331,
      "Ġquite": 3332,
      "Ġyouth": 3333,
      "Ġperformance": 3334,
      "fecture": 3335,
      "Ġfocuses": 3336,
      "Ġdesperate": 3337,
      "Ġprofessional": 3338,
      "oz": 3339,
      "wh": 3340,
      "ãĥ": 3341,
      "Ġve": 3342,
      "isis": 3343,
      "Ġwhether": 3344,
      "itions": 3345,
      "Ġinher": 3346,
      "olk": 3347,
      "Ġones": 3348,
      "Ġval": 3349,
      "Ġchamp": 3350,
      "ably": 3351,
      "ctor": 3352,
      "Ġdescend": 3353,
      "Ġrecently": 3354,
      "ĠSeason": 3355,
      "resh": 3356,
      "Ġimportant": 3357,
      "ĠChinese": 3358,
      "Ġprestigious": 3359,
      "Ġsib": 3360,
      "ones": 3361,
      "Ġnation": 3362,
      "Ġeas": 3363,
      "Ġreincarn": 3364,
      "ĠKar": 3365,
      "ĠGe": 3366,
      "ĠGre": 3367,
      "Ġallies": 3368,
      "Ġacce": 3369,
      "Ġemploy": 3370,
      "ĠOnce": 3371,
      "Ġregular": 3372,
      "ĠGrand": 3373,
      "ĠFuji": 3374,
      "Ġcourage": 3375,
      "ĠSatoshi": 3376,
      "Ġdestroyed": 3377,
      "Ġcultiv": 3378,
      "Ġenvironment": 3379,
      "de": 3380,
      "world": 3381,
      "Ġhus": 3382,
      "Ġhere": 3383,
      "otion": 3384,
      "Ġrise": 3385,
      "alls": 3386,
      "ards": 3387,
      "Ġdisp": 3388,
      "Ġincred": 3389,
      "ĠPrince": 3390,
      "Ġoriginally": 3391,
      "Ġcommun": 3392,
      "phan": 3393,
      "ĠEng": 3394,
      "Ġpromote": 3395,
      "Ġdrawn": 3396,
      "ĠAnimation": 3397,
      "Ġspends": 3398,
      "Ġexperiences": 3399,
      "Ġassassin": 3400,
      "Ġimmediately": 3401,
      "Ġdied": 3402,
      "Ġequ": 3403,
      "utes": 3404,
      "Ġvari": 3405,
      "ĠCent": 3406,
      "ellig": 3407,
      "Ġfinding": 3408,
      "Ġbrand": 3409,
      "Ġroad": 3410,
      "orning": 3411,
      "hin": 3412,
      "lished": 3413,
      "Ġsour": 3414,
      "Ġhospital": 3415,
      "imon": 3416,
      "olution": 3417,
      "Ġstars": 3418,
      "ĠYe": 3419,
      "Ġunus": 3420,
      "ella": 3421,
      "Ġdecl": 3422,
      "ending": 3423,
      "Ġdrag": 3424,
      "ission": 3425,
      "Ġnumber": 3426,
      "bled": 3427,
      "Ġbound": 3428,
      "ĠHit": 3429,
      "ĠKob": 3430,
      "anda": 3431,
      "ĠEv": 3432,
      "ĠPol": 3433,
      "action": 3434,
      "Ġsumm": 3435,
      "ala": 3436,
      "iru": 3437,
      "ĠHi": 3438,
      "ĠKas": 3439,
      "....": 3440,
      "Ġprepar": 3441,
      "Ġdiscovered": 3442,
      "ĠMeg": 3443,
      "Ġawaken": 3444,
      "Ġstrongest": 3445,
      "attered": 3446,
      "Ġdeveloped": 3447,
      "Ġholds": 3448,
      "Ġrule": 3449,
      "ĠChristmas": 3450,
      "Ġcustom": 3451,
      "ĠTian": 3452,
      "ĠSug": 3453,
      "Ġlies": 3454,
      "ĠMid": 3455,
      "ĠBec": 3456,
      "cean": 3457,
      "Ġselect": 3458,
      "Ġhelps": 3459,
      "eki": 3460,
      "Ġreluct": 3461,
      "Ġremain": 3462,
      "ĠSpir": 3463,
      "Ġbeloved": 3464,
      "Ġcausing": 3465,
      "Ġtasked": 3466,
      "Ġunexpectedly": 3467,
      "affic": 3468,
      "jima": 3469,
      "Ġhide": 3470,
      "itude": 3471,
      "Ġground": 3472,
      "Ġforward": 3473,
      "akens": 3474,
      "ĠNot": 3475,
      "ĠDi": 3476,
      "Ġtrio": 3477,
      "Ġagre": 3478,
      "ĠChild": 3479,
      "Ġcrisis": 3480,
      "icked": 3481,
      "Ġperiod": 3482,
      "Ġcount": 3483,
      "Ġattacks": 3484,
      "Ġreveals": 3485,
      "Ġinnocent": 3486,
      "ging": 3487,
      "Ġpay": 3488,
      "imura": 3489,
      "acts": 3490,
      "ĠMai": 3491,
      "ĠMats": 3492,
      "umb": 3493,
      "izens": 3494,
      "Ġbright": 3495,
      "Ġ21": 3496,
      "Ġcommand": 3497,
      "ĠPlan": 3498,
      "reak": 3499,
      "Ġpark": 3500,
      "Ġdone": 3501,
      "Ġheav": 3502,
      "Ġlone": 3503,
      "ĠMor": 3504,
      "ĠMoon": 3505,
      "usa": 3506,
      "ĠBoy": 3507,
      "ĠDou": 3508,
      "Ġtrib": 3509,
      "andy": 3510,
      "ĠRei": 3511,
      "Ġshare": 3512,
      "Ġgrowing": 3513,
      "Ġhappened": 3514,
      "Ġinstr": 3515,
      "Ġsitu": 3516,
      "Ġmedia": 3517,
      "Ġconfront": 3518,
      "Ġhusband": 3519,
      "Ġsun": 3520,
      "Ġsure": 3521,
      "Ġbodies": 3522,
      "edd": 3523,
      "Ġmorning": 3524,
      "aman": 3525,
      "acle": 3526,
      "Ġstation": 3527,
      "aded": 3528,
      "Ġvac": 3529,
      "outa": 3530,
      "Ġprocess": 3531,
      "ĠUnder": 3532,
      "Ġresist": 3533,
      "ĠHeaven": 3534,
      "iple": 3535,
      "Ġwealth": 3536,
      "Ġmonths": 3537,
      "Ġremaining": 3538,
      "Ġconspir": 3539,
      "Ġsimilar": 3540,
      "Ġquestion": 3541,
      "\"âĢĶ": 3542,
      "col": 3543,
      "een": 3544,
      "Ġtreat": 3545,
      "Ġmatch": 3546,
      "icious": 3547,
      "ĠSon": 3548,
      "Ġgold": 3549,
      "ĠHoly": 3550,
      "ĠKom": 3551,
      "ulation": 3552,
      "Ġrare": 3553,
      "ĠLife": 3554,
      "sequ": 3555,
      "Ġshadow": 3556,
      "Ġ18": 3557,
      "Ġcomplic": 3558,
      "Ġcomputer": 3559,
      "Ġoffer": 3560,
      "Ġtroubles": 3561,
      "Ġpromotional": 3562,
      "Ġswords": 3563,
      "Ġkidnapped": 3564,
      "Ġauth": 3565,
      "Ġot": 3566,
      "Ġpun": 3567,
      "verage": 3568,
      "uss": 3569,
      "ĠKu": 3570,
      "ĠIts": 3571,
      "ifying": 3572,
      "illing": 3573,
      "Ġrais": 3574,
      "Ġworth": 3575,
      "ĠOver": 3576,
      "Ġarea": 3577,
      "iku": 3578,
      "ction": 3579,
      "Ġcolor": 3580,
      "Ġfalling": 3581,
      "Ġgenius": 3582,
      "Ġsearching": 3583,
      "Ġerotic": 3584,
      "Ġadvanced": 3585,
      "Ġefforts": 3586,
      "Ġactivities": 3587,
      "ON": 3588,
      "human": 3589,
      "uff": 3590,
      "Ġsamurai": 3591,
      "Ġcit": 3592,
      "ani": 3593,
      "Ġhair": 3594,
      "Ġhuge": 3595,
      "Ġpir": 3596,
      "Ġdi": 3597,
      "Ġduo": 3598,
      "ĠHun": 3599,
      "ĠKat": 3600,
      "ĠDora": 3601,
      "Ġtraffic": 3602,
      "Ġorphan": 3603,
      "Ġcrush": 3604,
      "Ġcaptain": 3605,
      "view": 3606,
      "Ġflo": 3607,
      "Ġprotecting": 3608,
      "Ġuniversity": 3609,
      "Ġmaintain": 3610,
      "Ġsurvival": 3611,
      "ĠNobita": 3612,
      "ĠBattle": 3613,
      "Ġsituations": 3614,
      "cher": 3615,
      "jects": 3616,
      "mo": 3617,
      "Ġund": 3618,
      "Ġinitial": 3619,
      "Ġloses": 3620,
      "ider": 3621,
      "ott": 3622,
      "Ġangel": 3623,
      "iger": 3624,
      "rod": 3625,
      "aging": 3626,
      "Ġwords": 3627,
      "ĠGun": 3628,
      "Ġpred": 3629,
      "Ġreturned": 3630,
      "hibi": 3631,
      "Ġedition": 3632,
      "Ġgrandmother": 3633,
      "Ġwanted": 3634,
      "ĠProject": 3635,
      "Ġdeadly": 3636,
      "Ġearly": 3637,
      "Ġvariety": 3638,
      "ĠDoraemon": 3639,
      "con": 3640,
      "iage": 3641,
      "âĺ": 3642,
      "erv": 3643,
      "Ġfresh": 3644,
      "ĠTown": 3645,
      "Ġiss": 3646,
      "ĠMr": 3647,
      "iga": 3648,
      "ĠCat": 3649,
      "Ġunr": 3650,
      "Ġshy": 3651,
      "Ġjun": 3652,
      "Ġsongs": 3653,
      "epend": 3654,
      "Ġ14": 3655,
      "Ġresearch": 3656,
      "Ġweek": 3657,
      "ĠSpace": 3658,
      "Ġesp": 3659,
      "Ġawakens": 3660,
      "Ġdefeated": 3661,
      "Ġdepict": 3662,
      "Ġdevast": 3663,
      "Ġpolit": 3664,
      "Ġcaused": 3665,
      "Ġsafe": 3666,
      "borg": 3667,
      "Ġbroadcast": 3668,
      "Ġconquer": 3669,
      "Ġunusual": 3670,
      "ining": 3671,
      "Ġwakes": 3672,
      "Ġgone": 3673,
      "amura": 3674,
      "ached": 3675,
      "Ġtrust": 3676,
      "ĠGal": 3677,
      "angers": 3678,
      "Ġexact": 3679,
      "Ġpros": 3680,
      "Ġprison": 3681,
      "ansion": 3682,
      "Ġadop": 3683,
      "perial": 3684,
      "Ġenters": 3685,
      "Ġobject": 3686,
      "Ġinflu": 3687,
      "Ġsuit": 3688,
      "Ġcapture": 3689,
      "Ġmechan": 3690,
      "Ġpsych": 3691,
      "uals": 3692,
      "zu": 3693,
      "Ġfield": 3694,
      "Ġbaby": 3695,
      "ĠSome": 3696,
      "ĠShib": 3697,
      "ĠMaster": 3698,
      "ĠRyo": 3699,
      "Ġrain": 3700,
      "Ġnoble": 3701,
      "Ġbrave": 3702,
      "Ġrecord": 3703,
      "ails": 3704,
      "Ġambit": 3705,
      "Ġhoping": 3706,
      "ensei": 3707,
      "Ġoppon": 3708,
      "class": 3709,
      "Ġvictory": 3710,
      "Ġsends": 3711,
      "Ġscientist": 3712,
      "Ġodd": 3713,
      "pting": 3714,
      "ãģ": 3715,
      "Ġbene": 3716,
      "Ġcorn": 3717,
      "oms": 3718,
      "omen": 3719,
      "ĠSl": 3720,
      "ĠSub": 3721,
      "Ġthus": 3722,
      "amu": 3723,
      "ĠDec": 3724,
      "Ġworr": 3725,
      "ĠFam": 3726,
      "opp": 3727,
      "Ġsport": 3728,
      "oya": 3729,
      "Ġdoor": 3730,
      "Ġforms": 3731,
      "ĠForce": 3732,
      "Ġgoddess": 3733,
      "Ġinvolving": 3734,
      "Ġapart": 3735,
      "Ġbirthday": 3736,
      "ĠHikaru": 3737,
      "Ġfavorite": 3738,
      "Ġsiblings": 3739,
      "eal": 3740,
      "uce": 3741,
      "Ġtree": 3742,
      "rel": 3743,
      "Ġbur": 3744,
      "Ġcats": 3745,
      "Ġgain": 3746,
      "Ġgalaxy": 3747,
      "ĠMad": 3748,
      "ĠDig": 3749,
      "ĠRes": 3750,
      "ĠGoku": 3751,
      "abbit": 3752,
      "Ġintellig": 3753,
      "Ġsocc": 3754,
      "ĠChu": 3755,
      "azing": 3756,
      "Ġwarm": 3757,
      "Ġrepresent": 3758,
      "Ġpossesses": 3759,
      "ĠMagic": 3760,
      "Ġauthor": 3761,
      "Ġsoccer": 3762,
      "boy": 3763,
      "tal": 3764,
      "Ġsn": 3765,
      "orc": 3766,
      "ederation": 3767,
      "Ġdie": 3768,
      "Ġlow": 3769,
      "ĠKi": 3770,
      "ĠKok": 3771,
      "ĠFestival": 3772,
      "ĠLing": 3773,
      "Ġspring": 3774,
      "ĠShim": 3775,
      "Ġnewfound": 3776,
      "astic": 3777,
      "Ġ100": 3778,
      "ecially": 3779,
      "ĠTakashi": 3780,
      "Ġsecretly": 3781,
      "Ġjoined": 3782,
      "Ġpoor": 3783,
      "Ġparticipate": 3784,
      "Ġbalance": 3785,
      "AR": 3786,
      "anc": 3787,
      "alle": 3788,
      "Ġdoll": 3789,
      "ilation": 3790,
      "Ġlaun": 3791,
      "unge": 3792,
      "agic": 3793,
      "emor": 3794,
      "ĠEve": 3795,
      "Ġcomr": 3796,
      "essed": 3797,
      "Ġexpect": 3798,
      "Ġupcoming": 3799,
      "Ġsole": 3800,
      "Ġ16": 3801,
      "azine": 3802,
      "Ġsurface": 3803,
      "ĠSeven": 3804,
      "ĠQu": 3805,
      "Ġcareer": 3806,
      "Ġbelieve": 3807,
      "ĠConan": 3808,
      "Ġclear": 3809,
      "ae": 3810,
      "who": 3811,
      "Ġsin": 3812,
      "Ġfac": 3813,
      "Ġbit": 3814,
      "Ġhit": 3815,
      "Ġgent": 3816,
      "Ġlosing": 3817,
      "Ġbetr": 3818,
      "ĠCap": 3819,
      "ĠIr": 3820,
      "ĠDo": 3821,
      "Ġprogress": 3822,
      "Ġserious": 3823,
      "Ġinvasion": 3824,
      "ĠZe": 3825,
      "Ġrecogn": 3826,
      "Ġcalls": 3827,
      "Ġblue": 3828,
      "ĠArt": 3829,
      "Ġstarting": 3830,
      "ĠQin": 3831,
      "Ġ199": 3832,
      "ĠEmperor": 3833,
      "Ġdirector": 3834,
      "Ġidols": 3835,
      "Ġletter": 3836,
      "Ġrevolves": 3837,
      "Ġstreet": 3838,
      "Ġtalented": 3839,
      "Ġromantic": 3840,
      "Ġsquad": 3841,
      "Ġstumbles": 3842,
      "Ġvirtual": 3843,
      "Ġsource": 3844,
      "aits": 3845,
      "ket": 3846,
      "mates": 3847,
      "no": 3848,
      "rup": 3849,
      "ona": 3850,
      "Ġmult": 3851,
      "Ġpiece": 3852,
      "ican": 3853,
      "ĠShen": 3854,
      "Ġthinks": 3855,
      "Ġnec": 3856,
      "Ġlose": 3857,
      "Ġrepl": 3858,
      "ĠHam": 3859,
      "ĠHak": 3860,
      "hern": 3861,
      "ĠLong": 3862,
      "Ġ11": 3863,
      "Ġresol": 3864,
      "Ġstudy": 3865,
      "ĠChina": 3866,
      "lessly": 3867,
      "Ġfourth": 3868,
      "Ġkeeps": 3869,
      "Ġstronger": 3870,
      "Ġtechni": 3871,
      "Ġsuccessfully": 3872,
      "Ġidea": 3873,
      "ĠKorean": 3874,
      "hearted": 3875,
      "hu": 3876,
      "Ġsen": 3877,
      "ĠMore": 3878,
      "Ġvast": 3879,
      "ĠDream": 3880,
      "Ġtrapped": 3881,
      "ode": 3882,
      "ĠLin": 3883,
      "ĠLight": 3884,
      "Ġallows": 3885,
      "Ġmanager": 3886,
      "Ġroyal": 3887,
      "Ġmysteries": 3888,
      "Ġboyfriend": 3889,
      "Ġassigned": 3890,
      "Ġbelong": 3891,
      "Ġvillain": 3892,
      "Ġcenters": 3893,
      "Ġsoldiers": 3894,
      "Ġwaiting": 3895,
      "aurant": 3896,
      "iya": 3897,
      "pired": 3898,
      "ton": 3899,
      "uy": 3900,
      "uary": 3901,
      "Ġaverage": 3902,
      "Ġsat": 3903,
      "eremon": 3904,
      "ators": 3905,
      "ashes": 3906,
      "ĠTets": 3907,
      "Ġnarr": 3908,
      "ĠMari": 3909,
      "Ġread": 3910,
      "ĠKami": 3911,
      "Ġnews": 3912,
      "Ġdoctor": 3913,
      "ĠAlice": 3914,
      "Ġentertain": 3915,
      "ashion": 3916,
      "Ġthanks": 3917,
      "arsh": 3918,
      "Ġ30": 3919,
      "Ġtraveling": 3920,
      "Ġskilled": 3921,
      "Ġsurviv": 3922,
      "Ġcompete": 3923,
      "Ġgradu": 3924,
      "Ġstreets": 3925,
      "Ġmasc": 3926,
      "ĠâĢľ": 3927,
      "Ġmountains": 3928,
      "Ġemotions": 3929,
      "Ġhonor": 3930,
      "Ġextremely": 3931,
      "ners": 3932,
      "ole": 3933,
      "pe": 3934,
      "Ġsnow": 3935,
      "eral": 3936,
      "Ġfict": 3937,
      "aries": 3938,
      "Ġmark": 3939,
      "Ġdedic": 3940,
      "ĠTac": 3941,
      "icate": 3942,
      "iled": 3943,
      "Ġlikes": 3944,
      "ĠKus": 3945,
      "ĠInd": 3946,
      "ape": 3947,
      "Ġalive": 3948,
      "ĠDiv": 3949,
      "ĠWu": 3950,
      "Ġrid": 3951,
      "ĠLand": 3952,
      "angu": 3953,
      "Ġunlike": 3954,
      "Ġrespective": 3955,
      "Ġmeant": 3956,
      "Ġboard": 3957,
      "Ġcapital": 3958,
      "Ġtales": 3959,
      "Ġfallen": 3960,
      "Ġrestore": 3961,
      "Ġrecru": 3962,
      "Ġtransported": 3963,
      "Ġaccepts": 3964,
      "Ġgentle": 3965,
      "field": 3966,
      "ium": 3967,
      "ns": 3968,
      "wor": 3969,
      "hei": 3970,
      "erous": 3971,
      "Ġwield": 3972,
      "orious": 3973,
      "Ġandroid": 3974,
      "ĠTal": 3975,
      "ĠSaki": 3976,
      "Ġgiving": 3977,
      "Ġelect": 3978,
      "oles": 3979,
      "ĠHon": 3980,
      "Ġris": 3981,
      "ĠYun": 3982,
      "ĠJack": 3983,
      "Ġsche": 3984,
      "Ġdeb": 3985,
      "oyama": 3986,
      "ubb": 3987,
      "engu": 3988,
      "Ġtalking": 3989,
      "Ġbuilt": 3990,
      "ĠMirai": 3991,
      "Ġfierce": 3992,
      "Ġsight": 3993,
      "Ġbird": 3994,
      "orcer": 3995,
      "ality": 3996,
      "Ġhearts": 3997,
      "icts": 3998,
      "Ġnames": 3999,
      "ĠMur": 4000,
      "ĠKim": 4001,
      "ĠDay": 4002,
      "ĠYoshi": 4003,
      "ĠFederation": 4004,
      "avel": 4005,
      "âĢĿ": 4006,
      "Ġspell": 4007,
      "Ġleg": 4008,
      "atsuki": 4009,
      "ordinary": 4010,
      "ĠYuuki": 4011,
      "ological": 4012,
      "Ġ198": 4013,
      "Ġdarkness": 4014,
      "Ġdistant": 4015,
      "Ġbreaks": 4016,
      "ĠSpecials": 4017,
      "Ġexciting": 4018,
      "Ġscene": 4019,
      "Ġparticular": 4020,
      "Ġfootage": 4021,
      "Ġsweet": 4022,
      "Ġphysical": 4023,
      "ĠBecause": 4024,
      "uous": 4025,
      "isf": 4026,
      "Ġcorr": 4027,
      "Ġpupp": 4028,
      "icks": 4029,
      "ĠAb": 4030,
      "Ġlat": 4031,
      "olen": 4032,
      "urity": 4033,
      "ĠHot": 4034,
      "ĠFut": 4035,
      "Ġloved": 4036,
      "Ġproper": 4037,
      "Ġdisaster": 4038,
      "Ġmeaning": 4039,
      "ibr": 4040,
      "ibility": 4041,
      "Ġunderground": 4042,
      "Ġamb": 4043,
      "Ġyoukai": 4044,
      "Ġformed": 4045,
      "Ġpromise": 4046,
      "Ġbeauty": 4047,
      "Ġregard": 4048,
      "Ġnearby": 4049,
      "ĠCont": 4050,
      "Ġembarks": 4051,
      "ĠYamato": 4052,
      "Ġeffort": 4053,
      "Ġmarriage": 4054,
      "Ġrevealed": 4055,
      "Ġclaims": 4056,
      "Ġposted": 4057,
      "Ġposition": 4058,
      "Ġcitizens": 4059,
      "AN": 4060,
      "IN": 4061,
      "off": 4062,
      "Ġsad": 4063,
      "Ġfolk": 4064,
      "Ġcaf": 4065,
      "Ġheaven": 4066,
      "owers": 4067,
      "ĠMel": 4068,
      "Ġaltern": 4069,
      "ĠZen": 4070,
      "Ġrecent": 4071,
      "ĠAkane": 4072,
      "ĠXia": 4073,
      "ĠWhite": 4074,
      "Ġsinger": 4075,
      "Ġreceive": 4076,
      "Ġmodel": 4077,
      "piring": 4078,
      "ewel": 4079,
      "!\"": 4080,
      "ean": 4081,
      "ke": 4082,
      "Ġbomb": 4083,
      "eds": 4084,
      "Ġdimens": 4085,
      "Ġnine": 4086,
      "Ġlaw": 4087,
      "Ġloss": 4088,
      "Ġforgot": 4089,
      "Ġstolen": 4090,
      "ĠDai": 4091,
      "ivals": 4092,
      "ĠInc": 4093,
      "ĠShun": 4094,
      "Ġwilling": 4095,
      "aware": 4096,
      "Ġdesp": 4097,
      "Ġremember": 4098,
      "ĠProm": 4099,
      "Ġtalk": 4100,
      "Ġphot": 4101,
      "Ġfox": 4102,
      "Ġbooks": 4103,
      "ĠDev": 4104,
      "fort": 4105,
      "free": 4106,
      "Ġmad": 4107,
      "Ġmix": 4108,
      "Ġdorm": 4109,
      "Ġgam": 4110,
      "Ġna": 4111,
      "Ġeat": 4112,
      "ette": 4113,
      "ĠHear": 4114,
      "aders": 4115,
      "agers": 4116,
      "umst": 4117,
      "ĠBel": 4118,
      "Ġraces": 4119,
      "ĠGold": 4120,
      "ĠFirst": 4121,
      "ĠFair": 4122,
      "ĠPer": 4123,
      "Ġchap": 4124,
      "Ġexch": 4125,
      "Ġbrut": 4126,
      "Ġdestiny": 4127,
      "Ġcommit": 4128,
      "Ġarrive": 4129,
      "Ġarrived": 4130,
      "Ġkilling": 4131,
      "Ġcurse": 4132,
      "Ġdraws": 4133,
      "Ġdisappear": 4134,
      "Ġmatters": 4135,
      "Ġthousand": 4136,
      "Ġvacation": 4137,
      "âĺĨ": 4138,
      "ST": 4139,
      "mes": 4140,
      "pan": 4141,
      "ral": 4142,
      "zaki": 4143,
      "Ġaid": 4144,
      "Ġsens": 4145,
      "Ġsaves": 4146,
      "Ġhat": 4147,
      "eda": 4148,
      "edom": 4149,
      "asures": 4150,
      "ented": 4151,
      "Ġstands": 4152,
      "ems": 4153,
      "ĠNight": 4154,
      "Ġruth": 4155,
      "Ġunw": 4156,
      "âĢ¦": 4157,
      "Ġintent": 4158,
      "Ġshr": 4159,
      "Ġprivate": 4160,
      "ĠAss": 4161,
      "Ġtwin": 4162,
      "Ġrock": 4163,
      "ended": 4164,
      "Ġdrink": 4165,
      "Ġrecover": 4166,
      "Ġsetting": 4167,
      "aft": 4168,
      "Ġhappiness": 4169,
      "Ġcreating": 4170,
      "Ġsometimes": 4171,
      "Ġreceived": 4172,
      "Ġcaptured": 4173,
      "ĠGuard": 4174,
      "Ġcollection": 4175,
      "Ġnumerous": 4176,
      "Ġwatching": 4177,
      "Ġspeak": 4178,
      "Ġcircumst": 4179,
      "Ġresponsible": 4180,
      "Ġmachine": 4181,
      "ĠUniversity": 4182,
      "cent": 4183,
      "hic": 4184,
      "matic": 4185,
      "rd": 4186,
      "att": 4187,
      "Ġcurs": 4188,
      "Ġmut": 4189,
      "ili": 4190,
      "ĠSait": 4191,
      "idou": 4192,
      "ĠIc": 4193,
      "ĠDong": 4194,
      "Ġrout": 4195,
      "ĠYan": 4196,
      "ĠInst": 4197,
      "ours": 4198,
      "Ġcomposed": 4199,
      "actic": 4200,
      "ends": 4201,
      "Ġguy": 4202,
      "Ġheads": 4203,
      "Ġrestaurant": 4204,
      "Ġdevil": 4205,
      "Ġhunt": 4206,
      "Ġenjoying": 4207,
      "Ġconstant": 4208,
      "Ġrequest": 4209,
      "Ġpractice": 4210,
      "Ġinjured": 4211,
      "Ġeasily": 4212,
      "how": 4213,
      "nis": 4214,
      "pro": 4215,
      "war": 4216,
      "Ġahead": 4217,
      "Ġsays": 4218,
      "Ġceremon": 4219,
      "itation": 4220,
      "Ġdance": 4221,
      "icy": 4222,
      "Ġeight": 4223,
      "ĠHok": 4224,
      "ado": 4225,
      "ĠCoun": 4226,
      "ĠFeng": 4227,
      "Ġjoy": 4228,
      "Ġenig": 4229,
      "arden": 4230,
      "Ġpress": 4231,
      "Ġmoved": 4232,
      "ĠVill": 4233,
      "Ġmagazine": 4234,
      "Ġregion": 4235,
      "Ġinfam": 4236,
      "utsu": 4237,
      "Ġseparated": 4238,
      "hus": 4239,
      "Ġocean": 4240,
      "Ġfan": 4241,
      "Ġfish": 4242,
      "Ġcher": 4243,
      "ancing": 4244,
      "ĠMet": 4245,
      "ĠMori": 4246,
      "uries": 4247,
      "ĠBan": 4248,
      "anded": 4249,
      "ĠGhost": 4250,
      "ounen": 4251,
      "Ġspot": 4252,
      "Ġclim": 4253,
      "Ġnotices": 4254,
      "Ġarc": 4255,
      "Ġresidents": 4256,
      "play": 4257,
      "arring": 4258,
      "inner": 4259,
      "Ġseeing": 4260,
      "Ġcheerful": 4261,
      "Ġproduction": 4262,
      "Ġromance": 4263,
      "Ġspecies": 4264,
      "Ġextraordinary": 4265,
      "Ġagrees": 4266,
      "ĠPlanet": 4267,
      "Ġjunior": 4268,
      "fu": 4269,
      "yan": 4270,
      "zuki": 4271,
      "Ġsaving": 4272,
      "orou": 4273,
      "Ġmere": 4274,
      "Ġdate": 4275,
      "ĠTai": 4276,
      "ĠSil": 4277,
      "ĠSur": 4278,
      "Ġonto": 4279,
      "Ġstone": 4280,
      "ĠHu": 4281,
      "ĠBa": 4282,
      "Ġloyal": 4283,
      "izard": 4284,
      "Ġoffic": 4285,
      "ĠUnaired": 4286,
      "ĠOnly": 4287,
      "clusive": 4288,
      "Ġseeking": 4289,
      "Ġsurrounded": 4290,
      "Ġcyborg": 4291,
      "Ġinhabit": 4292,
      "Ġespecially": 4293,
      "bidden": 4294,
      "oom": 4295,
      "Ġban": 4296,
      "Ġcow": 4297,
      "acles": 4298,
      "ecul": 4299,
      "ĠFortun": 4300,
      "ĠLuc": 4301,
      "anta": 4302,
      "Ġallow": 4303,
      "Ġmoving": 4304,
      "appy": 4305,
      "Ġcruel": 4306,
      "Ġdemonic": 4307,
      "Ġcommemor": 4308,
      "Ġswim": 4309,
      "Ġdeliver": 4310,
      "incip": 4311,
      "Ġrefuses": 4312,
      "ĠEdo": 4313,
      "Ġantics": 4314,
      "ĠIzumi": 4315,
      "Ġindividuals": 4316,
      "Ġtraditional": 4317,
      "Ġconspiracy": 4318,
      "eculiar": 4319,
      "?!": 4320,
      "OL": 4321,
      "bek": 4322,
      "dr": 4323,
      "ef": 4324,
      "inos": 4325,
      "Ġpeculiar": 4326,
      "Ġdig": 4327,
      "Ġnon": 4328,
      "Ġnone": 4329,
      "iminal": 4330,
      "ĠMot": 4331,
      "verted": 4332,
      "ĠCorp": 4333,
      "Ġtrial": 4334,
      "ĠYi": 4335,
      "Ġ17": 4336,
      "Ġpresence": 4337,
      "Ġelimin": 4338,
      "Ġindepend": 4339,
      "ĠSakur": 4340,
      "Ġcourt": 4341,
      "Ġglob": 4342,
      "Ġaims": 4343,
      "Ġcelebrate": 4344,
      "Ġcivilization": 4345,
      "ĠStudio": 4346,
      "yl": 4347,
      "onus": 4348,
      "Ġbul": 4349,
      "Ġhomet": 4350,
      "Ġtow": 4351,
      "Ġpat": 4352,
      "Ġparts": 4353,
      "oma": 4354,
      "ĠHib": 4355,
      "agawa": 4356,
      "ĠId": 4357,
      "ĠFuk": 4358,
      "ĠLive": 4359,
      "Ġagency": 4360,
      "ĠThus": 4361,
      "Ġresur": 4362,
      "Ġusual": 4363,
      "Ġclassic": 4364,
      "Ġfilms": 4365,
      "teen": 4366,
      "arent": 4367,
      "Ġsucceed": 4368,
      "uzz": 4369,
      "Ġhunter": 4370,
      "Ġrescued": 4371,
      "Ġnatural": 4372,
      "Ġhandsome": 4373,
      "Ġaddition": 4374,
      "Ġpursue": 4375,
      "Ġbroken": 4376,
      "ĠMiyuki": 4377,
      "ĠBox": 4378,
      "ĠDetective": 4379,
      "Ġelder": 4380,
      "Ġimprove": 4381,
      "Ġotaku": 4382,
      "Ġhometown": 4383,
      "gi": 4384,
      "ju": 4385,
      "ku": 4386,
      "ply": 4387,
      "ror": 4388,
      "val": 4389,
      "Ġast": 4390,
      "Ġsights": 4391,
      "Ġfashion": 4392,
      "Ġtour": 4393,
      "Ġmansion": 4394,
      "Ġport": 4395,
      "Ġdam": 4396,
      "iced": 4397,
      "ĠSek": 4398,
      "ĠAman": 4399,
      "ĠAcc": 4400,
      "Ġnor": 4401,
      "Ġreaches": 4402,
      "utation": 4403,
      "unt": 4404,
      "ĠKum": 4405,
      "eland": 4406,
      "Ġrich": 4407,
      "Ġracing": 4408,
      "Ġword": 4409,
      "ĠOh": 4410,
      "Ġscience": 4411,
      "Ġdece": 4412,
      "Ġhighly": 4413,
      "Ġcontinent": 4414,
      "ĠBefore": 4415,
      "Ġhousehold": 4416,
      "ĠEnter": 4417,
      "ĠOrig": 4418,
      "ĠKyoto": 4419,
      "Ġultimately": 4420,
      "Ġcontains": 4421,
      "ĠChildren": 4422,
      "Ġbetray": 4423,
      "Ġcircumstances": 4424,
      "beknown": 4425,
      "ault": 4426,
      "aign": 4427,
      "for": 4428,
      "Ġfast": 4429,
      "atari": 4430,
      "Ġhor": 4431,
      "Ġduel": 4432,
      "ĠSqu": 4433,
      "Ġnav": 4434,
      "ĠKun": 4435,
      "Ġtragic": 4436,
      "ĠOd": 4437,
      "ĠYuri": 4438,
      "ĠEle": 4439,
      "ĠLuck": 4440,
      "ichirou": 4441,
      "obu": 4442,
      "Ġbegun": 4443,
      "Ġactions": 4444,
      "ĠTakah": 4445,
      "Ġinteract": 4446,
      "ĠMini": 4447,
      "Ġhistor": 4448,
      "Ġsteps": 4449,
      "Ġcommercials": 4450,
      "ĠPokemon": 4451,
      "Ġsoldier": 4452,
      "Ġsuspic": 4453,
      "Ġintroduces": 4454,
      "ĠAmerican": 4455,
      "Ġmassive": 4456,
      "husi": 4457,
      "beknownst": 4458,
      "rupt": 4459,
      "Ġ0": 4460,
      "erget": 4461,
      "Ġwat": 4462,
      "Ġwood": 4463,
      "Ġfears": 4464,
      "ature": 4465,
      "ille": 4466,
      "ĠSaw": 4467,
      "Ġeager": 4468,
      "owd": 4469,
      "ĠMei": 4470,
      "ota": 4471,
      "ument": 4472,
      "Ġtra": 4473,
      "ĠGl": 4474,
      "Ġleast": 4475,
      "new": 4476,
      "ĠAsh": 4477,
      "Ġenthusi": 4478,
      "Ġworker": 4479,
      "ĠYui": 4480,
      "minute": 4481,
      "Ġsimply": 4482,
      "Ġdevelopment": 4483,
      "ĠProfess": 4484,
      "ĠYamada": 4485,
      "Ġdisappeared": 4486,
      "Ġearthqu": 4487,
      "Ġdesperately": 4488,
      "Ġcampaign": 4489,
      "Ġunfold": 4490,
      "ĠPrefecture": 4491,
      "Ġrumors": 4492,
      "Ġsealed": 4493,
      "Ġduty": 4494,
      "Ġsacr": 4495,
      "edding": 4496,
      "ĠContin": 4497,
      "Ġenigmatic": 4498,
      "aith": 4499,
      "gy": 4500,
      "life": 4501,
      "whel": 4502,
      "ze": 4503,
      "itory": 4504,
      "Ġdrop": 4505,
      "ĠTatsu": 4506,
      "Ġlord": 4507,
      "Ġegg": 4508,
      "ĠMam": 4509,
      "Ġretr": 4510,
      "eter": 4511,
      "urou": 4512,
      "akura": 4513,
      "unning": 4514,
      "ĠKens": 4515,
      "umber": 4516,
      "ĠWang": 4517,
      "Ġrad": 4518,
      "ĠYet": 4519,
      "Ġscr": 4520,
      "Ġabove": 4521,
      "pping": 4522,
      "awn": 4523,
      "Ġgrown": 4524,
      "Ġdecision": 4525,
      "Ġcriminal": 4526,
      "ĠZero": 4527,
      "uddenly": 4528,
      "Ġfeeling": 4529,
      "Ġpasses": 4530,
      "Ġcompanion": 4531,
      "Ġphone": 4532,
      "Ġdepicts": 4533,
      "ĠMinami": 4534,
      "Ġexpress": 4535,
      "Ġmini": 4536,
      "Ġminutes": 4537,
      "Ġentirely": 4538,
      "Ġcastle": 4539,
      "going": 4540,
      "ipped": 4541,
      "Ġassistant": 4542,
      "ĠJiang": 4543,
      "Ġteenager": 4544,
      "Ġstatus": 4545,
      "Ġlonely": 4546,
      "ĠSubaru": 4547,
      "Ġcomrades": 4548,
      "Ġforgotten": 4549,
      "duction": 4550,
      "motion": 4551,
      "night": 4552,
      "overy": 4553,
      "ãĤ": 4554,
      "Ġaut": 4555,
      "Ġfought": 4556,
      "irt": 4557,
      "Ġthief": 4558,
      "Ġstorm": 4559,
      "ĠHuman": 4560,
      "ĠNever": 4561,
      "ĠNana": 4562,
      "ĠWho": 4563,
      "Ġtrail": 4564,
      "ĠRik": 4565,
      "ĠGass": 4566,
      "ĠPik": 4567,
      "ĠJoe": 4568,
      "henomen": 4569,
      "Ġacts": 4570,
      "Ġapprent": 4571,
      "Ġinvites": 4572,
      "Ġplays": 4573,
      "Ġreputation": 4574,
      "ĠAmong": 4575,
      "Ġwritten": 4576,
      "Ġtransforms": 4577,
      "Ġmischi": 4578,
      "Ġdidn": 4579,
      "ĠShoujo": 4580,
      "Ġapproach": 4581,
      "Ġservice": 4582,
      "Ġsummoned": 4583,
      "ĠHinata": 4584,
      "rupted": 4585,
      "Ġmascot": 4586,
      "Ġexchange": 4587,
      "Ġceremony": 4588,
      "19": 4589,
      "more": 4590,
      "shi": 4591,
      "rect": 4592,
      "Ġfacing": 4593,
      "Ġharsh": 4594,
      "Ġmar": 4595,
      "ĠMac": 4596,
      "ĠMach": 4597,
      "ett": 4598,
      "unch": 4599,
      "ĠKin": 4600,
      "Ġvent": 4601,
      "ĠBudd": 4602,
      "ĠRem": 4603,
      "ĠRock": 4604,
      "ĠFan": 4605,
      "anging": 4606,
      "Ġspent": 4607,
      "Ġmusical": 4608,
      "Ġcontact": 4609,
      "Ġbackground": 4610,
      "ashiro": 4611,
      "Ġturning": 4612,
      "Ġteams": 4613,
      "Ġaccom": 4614,
      "Ġcolon": 4615,
      "Ġimpress": 4616,
      "ohara": 4617,
      "Ġcountries": 4618,
      "Ġjobs": 4619,
      "Ġinspired": 4620,
      "Ġcountryside": 4621,
      "Ġspiritual": 4622,
      "Ġmarried": 4623,
      "Ġmyth": 4624,
      "Ġillustr": 4625,
      "ĠKnights": 4626,
      "Ġsinister": 4627,
      "Ġruthless": 4628,
      "Ġinfamous": 4629,
      "ergetic": 4630,
      "ri": 4631,
      "rous": 4632,
      "Ġath": 4633,
      "Ġball": 4634,
      "Ġhig": 4635,
      "aragi": 4636,
      "ilities": 4637,
      "ĠSuddenly": 4638,
      "Ġgif": 4639,
      "ols": 4640,
      "Ġstaff": 4641,
      "akug": 4642,
      "ushed": 4643,
      "ayashi": 4644,
      "rog": 4645,
      "ieve": 4646,
      "ĠRoy": 4647,
      "ĠGa": 4648,
      "ĠGaku": 4649,
      "ĠFur": 4650,
      "Ġsequel": 4651,
      "Ġdebut": 4652,
      "Ġplaces": 4653,
      "ĠShounen": 4654,
      "Ġstudio": 4655,
      "obi": 4656,
      "Ġcrash": 4657,
      "Ġcrimin": 4658,
      "Ġended": 4659,
      "ĠYuuta": 4660,
      "Ġemperor": 4661,
      "Ġflash": 4662,
      "Ġawaits": 4663,
      "Ġuncle": 4664,
      "Ġviolent": 4665,
      "Ġfighter": 4666,
      "Ġcorrupt": 4667,
      "Ġcriminals": 4668,
      "OR": 4669,
      "kou": 4670,
      "ped": 4671,
      "yuki": 4672,
      "Ġfifth": 4673,
      "Ġhaun": 4674,
      "omo": 4675,
      "ĠTime": 4676,
      "imoto": 4677,
      "ĠMountain": 4678,
      "ĠHiy": 4679,
      "ushes": 4680,
      "adows": 4681,
      "Ġasked": 4682,
      "ĠNatsu": 4683,
      "ĠDep": 4684,
      "ĠYas": 4685,
      "uda": 4686,
      "Ġneg": 4687,
      "Ġstranger": 4688,
      "ips": 4689,
      "ĠStars": 4690,
      "Ġencour": 4691,
      "Ġthreatens": 4692,
      "Ġopens": 4693,
      "Ġgraduation": 4694,
      "Ġteachers": 4695,
      "ĠUsing": 4696,
      "Ġfrequ": 4697,
      "Ġsuffering": 4698,
      "Ġcondition": 4699,
      "Ġwitnesses": 4700,
      "Ġpreparing": 4701,
      "Ġcorner": 4702,
      "do": 4703,
      "hest": 4704,
      "Ġcorp": 4705,
      "itor": 4706,
      "Ġdying": 4707,
      "ĠMu": 4708,
      "Ġrenown": 4709,
      "etic": 4710,
      "unk": 4711,
      "ĠDis": 4712,
      "ĠDais": 4713,
      "ĠRyuu": 4714,
      "ĠYang": 4715,
      "ĠEi": 4716,
      "ĠLa": 4717,
      "abel": 4718,
      "Ġenl": 4719,
      "elled": 4720,
      "Ġdism": 4721,
      "Ġ22": 4722,
      "oba": 4723,
      "ochi": 4724,
      "gry": 4725,
      "Ġcounter": 4726,
      "Ġreturning": 4727,
      "Ġnightm": 4728,
      "Ġchoose": 4729,
      "Ġcarefree": 4730,
      "Ġrelationships": 4731,
      "Ġattending": 4732,
      "Ġconnection": 4733,
      "ĠEnglish": 4734,
      "ĠProfessor": 4735,
      "MA": 4736,
      "body": 4737,
      "lord": 4738,
      "Ġ#": 4739,
      "Ġsay": 4740,
      "Ġsym": 4741,
      "Ġbull": 4742,
      "Ġcand": 4743,
      "Ġhur": 4744,
      "Ġtoy": 4745,
      "Ġmater": 4746,
      "ĠTakes": 4747,
      "Ġnur": 4748,
      "Ġbeat": 4749,
      "ĠMed": 4750,
      "ĠHiro": 4751,
      "ĠKiy": 4752,
      "ĠCard": 4753,
      "ĠFire": 4754,
      "Ġkiss": 4755,
      "ops": 4756,
      "Ġunp": 4757,
      "Ġsports": 4758,
      "abi": 4759,
      "Ġexpected": 4760,
      "outarou": 4761,
      "isting": 4762,
      "Ġfriendly": 4763,
      "Ġknight": 4764,
      "Ġsmart": 4765,
      "oha": 4766,
      "Ġcomplex": 4767,
      "Ġrepe": 4768,
      "Ġstruggling": 4769,
      "Ġnearly": 4770,
      "ĠSatou": 4771,
      "Ġthrown": 4772,
      "Ġmarry": 4773,
      "ĠPhant": 4774,
      "Ġcomplicated": 4775,
      "ĠVillage": 4776,
      "duct": 4777,
      "fers": 4778,
      "gun": 4779,
      "mit": 4780,
      "xi": 4781,
      "Ġver": 4782,
      "Ġice": 4783,
      "hero": 4784,
      "inter": 4785,
      "Ġsne": 4786,
      "Ġfaced": 4787,
      "ena": 4788,
      "Ġcam": 4789,
      "Ġphenomen": 4790,
      "Ġheal": 4791,
      "Ġlady": 4792,
      "Ġeither": 4793,
      "Ġreign": 4794,
      "Ġforbidden": 4795,
      "aker": 4796,
      "ĠHow": 4797,
      "ĠHaj": 4798,
      "using": 4799,
      "Ġfrustr": 4800,
      "Ġvan": 4801,
      "ĠNao": 4802,
      "Ġrivals": 4803,
      "ĠOg": 4804,
      "Ġshowing": 4805,
      "ĠShig": 4806,
      "Ġenergetic": 4807,
      "ĠChou": 4808,
      "Ġhell": 4809,
      "ĠVol": 4810,
      "Ġbloss": 4811,
      "ossible": 4812,
      "Ġremote": 4813,
      "ĠClass": 4814,
      "Ġbehav": 4815,
      "ĠLegend": 4816,
      "000": 4817,
      "Ġoppos": 4818,
      "ĠKazuya": 4819,
      "Ġterrible": 4820,
      "haired": 4821,
      "Ġruler": 4822,
      "Ġstanding": 4823,
      "ĠOsamu": 4824,
      "Ġaffection": 4825,
      "crib": 4826,
      "Ġrecruit": 4827,
      "Ġmessage": 4828,
      "Ġentrance": 4829,
      "Ġestablished": 4830,
      "Ġincredible": 4831,
      "Ġprosper": 4832,
      "Ġlatest": 4833,
      "Ġphotograp": 4834,
      "!?": 4835,
      "AS": 4836,
      "back": 4837,
      "dan": 4838,
      "ĠâĢĶ": 4839,
      "Ġtur": 4840,
      "Ġsorcer": 4841,
      "Ġflying": 4842,
      "Ġcell": 4843,
      "Ġtom": 4844,
      "Ġpen": 4845,
      "Ġpig": 4846,
      "Ġdinos": 4847,
      "oman": 4848,
      "ĠTake": 4849,
      "ĠSix": 4850,
      "Ġgun": 4851,
      "ĠAI": 4852,
      "Ġbeach": 4853,
      "ĠHosh": 4854,
      "ĠKoy": 4855,
      "ĠCar": 4856,
      "Ġring": 4857,
      "ĠYears": 4858,
      "ĠEur": 4859,
      "Ġjump": 4860,
      "ĠUl": 4861,
      "asty": 4862,
      "Ġmanage": 4863,
      "onder": 4864,
      "Ġtwist": 4865,
      "ĠChang": 4866,
      "Ġoverwhel": 4867,
      "Ġinvited": 4868,
      "Ġsomehow": 4869,
      "ĠAkari": 4870,
      "akuza": 4871,
      "wards": 4872,
      "Ġthoughts": 4873,
      "Ġvisits": 4874,
      "Ġkeeping": 4875,
      "aimed": 4876,
      "ĠHiroshi": 4877,
      "ĠKenji": 4878,
      "Ġculture": 4879,
      "ĠKaoru": 4880,
      "Ġruins": 4881,
      "Ġapproaches": 4882,
      "Ġwalk": 4883,
      "ĠMisaki": 4884,
      "ĠFourth": 4885,
      "Ġconcert": 4886,
      "Ġrapid": 4887,
      "Ġaudience": 4888,
      "Ġpretty": 4889,
      "Ġcountless": 4890,
      "Ġfictional": 4891,
      "Ġrenowned": 4892,
      "II": 4893,
      "gest": 4894,
      "ients": 4895,
      "tw": 4896,
      "Ġwake": 4897,
      "atory": 4898,
      "ĠTour": 4899,
      "imate": 4900,
      "Ġlust": 4901,
      "Ġet": 4902,
      "ĠMil": 4903,
      "otional": 4904,
      "ĠHol": 4905,
      "Ġaspiring": 4906,
      "ĠRain": 4907,
      "ĠYoung": 4908,
      "ĠFive": 4909,
      "ĠLater": 4910,
      "inder": 4911,
      "Ġexec": 4912,
      "Ġschooler": 4913,
      "Ġdisgu": 4914,
      "Ġstudying": 4915,
      "Ġ25": 4916,
      "ples": 4917,
      "ording": 4918,
      "ianc": 4919,
      "Ġcontest": 4920,
      "Ġacting": 4921,
      "Ġempire": 4922,
      "Ġimpossible": 4923,
      "Ġobl": 4924,
      "Ġgeneration": 4925,
      "fortunate": 4926,
      "Ġquestions": 4927,
      "Ġpersonalities": 4928,
      "ompany": 4929,
      "Ġfreedom": 4930,
      "Ġsurrounding": 4931,
      "Ġguardian": 4932,
      "Ġconvin": 4933,
      "ĠIII": 4934,
      "Ġdomin": 4935,
      "Ġcultivation": 4936,
      "Ġinitially": 4937,
      "Ġresolve": 4938,
      "ĠHeart": 4939,
      "Ġshrine": 4940,
      "Ġearthquake": 4941,
      "Ġapprentice": 4942,
      "aise": 4943,
      "bi": 4944,
      "cho": 4945,
      "fl": 4946,
      "site": 4947,
      "Ġwolf": 4948,
      "Ġbed": 4949,
      "Ġhear": 4950,
      "ĠSora": 4951,
      "Ġlist": 4952,
      "ĠMars": 4953,
      "elt": 4954,
      "road": 4955,
      "ĠCy": 4956,
      "ĠComp": 4957,
      "ĠDon": 4958,
      "Ġran": 4959,
      "Ġrabbit": 4960,
      "ĠYear": 4961,
      "ĠEnd": 4962,
      "Ġcomfort": 4963,
      "udou": 4964,
      "Ġunle": 4965,
      "ĠJu": 4966,
      "ability": 4967,
      "Ġexists": 4968,
      "Ġexclusive": 4969,
      "ques": 4970,
      "Ġmanaged": 4971,
      "Ġprecious": 4972,
      "Ġserial": 4973,
      "ishima": 4974,
      "Ġhumanoid": 4975,
      "arrass": 4976,
      "Ġrecl": 4977,
      "Ġcontent": 4978,
      "ailed": 4979,
      "Ġreleases": 4980,
      "ĠTakumi": 4981,
      "Ġesc": 4982,
      "ĠQi": 4983,
      "ronic": 4984,
      "hibana": 4985,
      "Ġlocated": 4986,
      "Ġputs": 4987,
      "ĠTwitter": 4988,
      "Ġinvestigation": 4989,
      "Ġenjoys": 4990,
      "Ġmotor": 4991,
      "ĠâĢĵ": 4992,
      "Ġtransferred": 4993,
      "Ġmecha": 4994,
      "Ġgeneral": 4995,
      "ĠShiki": 4996,
      "Ġraised": 4997,
      "IS": 4998,
      "bu": 4999,
      "bling": 5000,
      "down": 5001,
      "ux": 5002,
      "zuka": 5003,
      "inqu": 5004,
      "Ġsect": 5005,
      "erate": 5006,
      "Ġwall": 5007,
      "Ġwedding": 5008,
      "Ġfit": 5009,
      "Ġfaith": 5010,
      "Ġinex": 5011,
      "ilia": 5012,
      "imp": 5013,
      "Ġbeasts": 5014,
      "eting": 5015,
      "ĠCompany": 5016,
      "ulous": 5017,
      "Ġrac": 5018,
      "ĠYo": 5019,
      "Ġunfortunate": 5020,
      "Ġintense": 5021,
      "ustry": 5022,
      "Ġclash": 5023,
      "Ġprior": 5024,
      "achu": 5025,
      "Ġresults": 5026,
      "urning": 5027,
      "azaki": 5028,
      "ionship": 5029,
      "Ġpartners": 5030,
      "ickn": 5031,
      "Ġperil": 5032,
      "ĠSequel": 5033,
      "Ġbattlefield": 5034,
      "ĠReg": 5035,
      "Ġobst": 5036,
      "Ġinstit": 5037,
      "Ġfails": 5038,
      "ĠMagical": 5039,
      "Ġprodig": 5040,
      "Ġsouls": 5041,
      "Ġtypical": 5042,
      "Ġprepare": 5043,
      "ĠDetermined": 5044,
      "Ġlifest": 5045,
      "Ġshocked": 5046,
      "Ġchampion": 5047,
      "Ġwealthy": 5048,
      "ĠTachibana": 5049,
      "ĠPromotional": 5050,
      "Ġaccompl": 5051,
      "bs": 5052,
      "por": 5053,
      "zou": 5054,
      "Ġign": 5055,
      "Ġsaw": 5056,
      "Ġwarn": 5057,
      "Ġwearing": 5058,
      "Ġcases": 5059,
      "Ġhy": 5060,
      "outs": 5061,
      "Ġment": 5062,
      "Ġisol": 5063,
      "enty": 5064,
      "ĠHime": 5065,
      "ĠHouse": 5066,
      "ayama": 5067,
      "umo": 5068,
      "ĠLet": 5069,
      "Ġstrives": 5070,
      "ystal": 5071,
      "Ġresem": 5072,
      "ffy": 5073,
      "order": 5074,
      "ĠBlade": 5075,
      "Ġinclude": 5076,
      "lection": 5077,
      "ĠQing": 5078,
      "ahara": 5079,
      "Ġsinging": 5080,
      "Ġjoining": 5081,
      "Ġmetho": 5082,
      "Ġdestroying": 5083,
      "Ġbringing": 5084,
      "hief": 5085,
      "Ġmotion": 5086,
      "ĠAgency": 5087,
      "Ġdivine": 5088,
      "Ġteaching": 5089,
      "Ġpolitical": 5090,
      "Ġnecess": 5091,
      "ĠFortunately": 5092,
      "ĠPikachu": 5093,
      "bors": 5094,
      "ivers": 5095,
      "Ġbust": 5096,
      "eno": 5097,
      "outh": 5098,
      "Ġmor": 5099,
      "Ġpack": 5100,
      "asc": 5101,
      "irty": 5102,
      "Ġgave": 5103,
      "aked": 5104,
      "ĠHong": 5105,
      "ĠKait": 5106,
      "adise": 5107,
      "Ġfrag": 5108,
      "agami": 5109,
      "agement": 5110,
      "umu": 5111,
      "ĠYor": 5112,
      "chant": 5113,
      "Ġexorc": 5114,
      "Ġtend": 5115,
      "Ġ24": 5116,
      "Ġincidents": 5117,
      "Ġqueen": 5118,
      "Ġorigin": 5119,
      "ĠClan": 5120,
      "theless": 5121,
      "Ġslave": 5122,
      "Ġaware": 5123,
      "Ġdelinqu": 5124,
      "Ġpilots": 5125,
      "Ġspending": 5126,
      "Ġmoments": 5127,
      "ĠNagisa": 5128,
      "Ġexperienced": 5129,
      "Ġghosts": 5130,
      "Ġthinking": 5131,
      "Ġgranted": 5132,
      "Ġexactly": 5133,
      "eing": 5134,
      "li": 5135,
      "Ġir": 5136,
      "Ġbott": 5137,
      "Ġbonus": 5138,
      "orous": 5139,
      "Ġcal": 5140,
      "Ġhous": 5141,
      "alace": 5142,
      "ĠToshi": 5143,
      "ĠSas": 5144,
      "ĠSol": 5145,
      "Ġgag": 5146,
      "Ġnational": 5147,
      "ĠMich": 5148,
      "Ġstarring": 5149,
      "ĠHat": 5150,
      "ĠHina": 5151,
      "ĠKana": 5152,
      "adem": 5153,
      "Ġvows": 5154,
      "ĠWak": 5155,
      "Ġramp": 5156,
      "ĠGame": 5157,
      "ĠEver": 5158,
      "ĠFore": 5159,
      "atever": 5160,
      "ĠJoin": 5161,
      "Ġlover": 5162,
      "formed": 5163,
      "airs": 5164,
      "anna": 5165,
      "Ġpopulation": 5166,
      "Ġescapes": 5167,
      "Ġdisturb": 5168,
      "oshima": 5169,
      "ĠKazuki": 5170,
      "Ġfateful": 5171,
      "Ġtransformed": 5172,
      "Ġembarrass": 5173,
      "ternal": 5174,
      "Ġextin": 5175,
      "Ġengine": 5176,
      "Ġcarry": 5177,
      "ĠServ": 5178,
      "Ġgrew": 5179,
      "Ġwalking": 5180,
      "Ġpleasure": 5181,
      "Ġservant": 5182,
      "Ġwonder": 5183,
      "Ġtype": 5184,
      "Ġensure": 5185,
      "Ġadventurer": 5186,
      "Ġbefriends": 5187,
      "ĠPolice": 5188,
      "Ġunravel": 5189,
      "Ġpsychic": 5190,
      "Ġsatisf": 5191,
      "Ġcursed": 5192,
      "Ġinhabitants": 5193,
      "Ġathlet": 5194,
      "iancÃ©": 5195,
      "ease": 5196,
      "kan": 5197,
      "het": 5198,
      "erve": 5199,
      "Ġcul": 5200,
      "Ġcous": 5201,
      "Ġpick": 5202,
      "Ġheir": 5203,
      "Ġhealth": 5204,
      "ĠTem": 5205,
      "ĠAo": 5206,
      "Ġlur": 5207,
      "Ġep": 5208,
      "Ġstuck": 5209,
      "usuke": 5210,
      "ĠBack": 5211,
      "ĠWest": 5212,
      "ĠFo": 5213,
      "Ġseg": 5214,
      "roud": 5215,
      "antage": 5216,
      "Ġschools": 5217,
      "Ġusually": 5218,
      "Ġdesert": 5219,
      "ĠStory": 5220,
      "Ġmonth": 5221,
      "ĠSea": 5222,
      "ĠXi": 5223,
      "Ġshoot": 5224,
      "Ġvillains": 5225,
      "Ġawait": 5226,
      "Ġindustry": 5227,
      "Ġdrawing": 5228,
      "Ġminute": 5229,
      "Ġsevere": 5230,
      "Ġpursuit": 5231,
      "Ġwinter": 5232,
      "ĠHikari": 5233,
      "Ġexplores": 5234,
      "ĠNatsume": 5235,
      "Ġindividual": 5236,
      "Ġaccompanied": 5237,
      "Ġfighters": 5238,
      "Ġambitious": 5239,
      "Ġintelligence": 5240,
      "Ġnavig": 5241,
      "Ġcandid": 5242,
      "EN": 5243,
      "St": 5244,
      "iac": 5245,
      "mate": 5246,
      "zuru": 5247,
      "inity": 5248,
      "Ġwinning": 5249,
      "Ġble": 5250,
      "Ġhol": 5251,
      "ĠTower": 5252,
      "ido": 5253,
      "uted": 5254,
      "ĠKis": 5255,
      "Ġask": 5256,
      "Ġvenge": 5257,
      "ĠCG": 5258,
      "ĠBell": 5259,
      "ĠBai": 5260,
      "ĠBoku": 5261,
      "ĠNon": 5262,
      "ills": 5263,
      "ighter": 5264,
      "ĠLan": 5265,
      "Ġshattered": 5266,
      "ĠShink": 5267,
      "Ġprim": 5268,
      "Ġnotice": 5269,
      "Ġserve": 5270,
      "uga": 5271,
      "ĠVan": 5272,
      "Ġcalling": 5273,
      "Ġmonkey": 5274,
      "uctive": 5275,
      "Ġsett": 5276,
      "Ġflower": 5277,
      "Ġexplos": 5278,
      "Ġexplains": 5279,
      "Ġforeign": 5280,
      "ĠLeon": 5281,
      "Ġcontroll": 5282,
      "Ġcontract": 5283,
      "Ġdepartment": 5284,
      "ĠDeath": 5285,
      "ĠKouji": 5286,
      "Ġpaths": 5287,
      "Ġwebsite": 5288,
      "ĠKitty": 5289,
      "ĠNorth": 5290,
      "Ġutil": 5291,
      "Ġridic": 5292,
      "Ġunlikely": 5293,
      "ĠInstead": 5294,
      "Ġindependent": 5295,
      "Ġhistorical": 5296,
      "Ġmaterial": 5297,
      "ĠTakeshi": 5298,
      "--": 5299,
      "PG": 5300,
      "han": 5301,
      "vol": 5302,
      "Ġtens": 5303,
      "inite": 5304,
      "Ġwel": 5305,
      "Ġwound": 5306,
      "ĠfiancÃ©": 5307,
      "orable": 5308,
      "itable": 5309,
      "Ġmillion": 5310,
      "ĠAts": 5311,
      "Ġliter": 5312,
      "amil": 5313,
      "ĠHou": 5314,
      "ĠKab": 5315,
      "ader": 5316,
      "agle": 5317,
      "iff": 5318,
      "ify": 5319,
      "Ġtried": 5320,
      "ĠRay": 5321,
      "ĠRose": 5322,
      "ĠLuo": 5323,
      "Ġspaces": 5324,
      "Ġshut": 5325,
      "istr": 5326,
      "ĠShadow": 5327,
      "Ġadvert": 5328,
      "Ġteaches": 5329,
      "ogatari": 5330,
      "Ġdesigned": 5331,
      "venth": 5332,
      "Ġrelated": 5333,
      "othing": 5334,
      "Ġbreaking": 5335,
      "Ġtelling": 5336,
      "Ġperformed": 5337,
      "Ġhunting": 5338,
      "Ġcurious": 5339,
      "Ġsuccessful": 5340,
      "ĠBrit": 5341,
      "Ġfairies": 5342,
      "Ġideal": 5343,
      "Ġinterested": 5344,
      "Ġresulting": 5345,
      "useum": 5346,
      "Ġwonders": 5347,
      "Ġvampires": 5348,
      "Ġannounced": 5349,
      "Ġshocking": 5350,
      "ĠTsubasa": 5351,
      "Ġanswer": 5352,
      "allel": 5353,
      "Ġcafe": 5354,
      "ĠFairy": 5355,
      "incipal": 5356,
      "Ġbehavior": 5357,
      "just": 5358,
      "juu": 5359,
      "kward": 5360,
      "ugh": 5361,
      "Ġur": 5362,
      "inem": 5363,
      "Ġopt": 5364,
      "real": 5365,
      "orge": 5366,
      "Ġhiding": 5367,
      "ĠTit": 5368,
      "irm": 5369,
      "ĠSk": 5370,
      "ĠSanta": 5371,
      "Ġgift": 5372,
      "ĠApr": 5373,
      "ĠMaki": 5374,
      "idable": 5375,
      "olute": 5376,
      "eted": 5377,
      "hose": 5378,
      "ĠBig": 5379,
      "ula": 5380,
      "ĠDor": 5381,
      "Ġconsequ": 5382,
      "Ġspl": 5383,
      "ukawa": 5384,
      "Ġintr": 5385,
      "Ġshadows": 5386,
      "Ġpriest": 5387,
      "Ġupper": 5388,
      "avoc": 5389,
      "Ġresour": 5390,
      "Ġappre": 5391,
      "Ġimage": 5392,
      "Ġcharge": 5393,
      "luded": 5394,
      "Ġinterrupted": 5395,
      "Ġformidable": 5396,
      "ĠCla": 5397,
      "ĠNeo": 5398,
      "Ġcouldn": 5399,
      "Ġhardship": 5400,
      "Ġadvantage": 5401,
      "Ġthrone": 5402,
      "Ġtitled": 5403,
      "Ġvictims": 5404,
      "Ġsurprised": 5405,
      "Ġdealing": 5406,
      "Ġharmon": 5407,
      "Ġfully": 5408,
      "Ġconnect": 5409,
      "Ġprovide": 5410,
      "ĠIchigo": 5411,
      "Ġinternational": 5412,
      "Ġselected": 5413,
      "ĠSpirit": 5414,
      "ĠHunter": 5415,
      "Ġinfluence": 5416,
      "Ġbeneath": 5417,
      "enguin": 5418,
      "Ġdimension": 5419,
      "AM": 5420,
      "cen": 5421,
      "eed": 5422,
      "haps": 5423,
      "part": 5424,
      "ule": 5425,
      "vies": 5426,
      "wise": 5427,
      "Ġx": 5428,
      "Ġtut": 5429,
      "Ġwide": 5430,
      "Ġbreat": 5431,
      "Ġtouch": 5432,
      "arm": 5433,
      "Ġmage": 5434,
      "Ġmidst": 5435,
      "ĠSong": 5436,
      "Ġlie": 5437,
      "Ġbeast": 5438,
      "ĠHaz": 5439,
      "ĠHoshi": 5440,
      "igg": 5441,
      "ĠBur": 5442,
      "ĠBun": 5443,
      "ĠBand": 5444,
      "osm": 5445,
      "ĠWind": 5446,
      "Ġtraged": 5447,
      "oda": 5448,
      "ĠOf": 5449,
      "ĠEvent": 5450,
      "ĠPor": 5451,
      "anged": 5452,
      "Ġextr": 5453,
      "Ġexhib": 5454,
      "heng": 5455,
      "quar": 5456,
      "Ġwhatever": 5457,
      "Ġmanip": 5458,
      "Ġstrate": 5459,
      "Ġgrade": 5460,
      "Ġpeers": 5461,
      "Ġstudies": 5462,
      "Ġorders": 5463,
      "Ġfollowed": 5464,
      "Ġpromises": 5465,
      "Ġexpert": 5466,
      "Ġconscious": 5467,
      "Ġdeterm": 5468,
      "Ġawkward": 5469,
      "ĠMiki": 5470,
      "Ġreceiving": 5471,
      "Ġbelieved": 5472,
      "Ġholding": 5473,
      "Ġbusy": 5474,
      "ĠImm": 5475,
      "Ġteenage": 5476,
      "Ġhorror": 5477,
      "Ġbasket": 5478,
      "Ġfortune": 5479,
      "ĠDigimon": 5480,
      "ĠGokuu": 5481,
      "Ġdebt": 5482,
      "panman": 5483,
      "Ġofficer": 5484,
      "ĠIdol": 5485,
      "Ġdetermine": 5486,
      "!.": 5487,
      ".,": 5488,
      "Ġtast": 5489,
      "inth": 5490,
      "Ġsugg": 5491,
      "Ġcop": 5492,
      "Ġcities": 5493,
      "Ġhavoc": 5494,
      "Ġpit": 5495,
      "ald": 5496,
      "ĠSus": 5497,
      "ĠSky": 5498,
      "Ġnickn": 5499,
      "Ġeating": 5500,
      "ĠMaj": 5501,
      "lym": 5502,
      "Ġforget": 5503,
      "Ġforcing": 5504,
      "Ġanth": 5505,
      "ĠKous": 5506,
      "aped": 5507,
      "ulated": 5508,
      "ĠWarr": 5509,
      "ĠWonder": 5510,
      "illa": 5511,
      "illen": 5512,
      "ĠRo": 5513,
      "Ġunl": 5514,
      "alled": 5515,
      "Ġprize": 5516,
      "Ġknowing": 5517,
      "ugs": 5518,
      "Ġapparent": 5519,
      "Ġendless": 5520,
      "ventures": 5521,
      "isei": 5522,
      "Ġentered": 5523,
      "ĠArmy": 5524,
      "oinc": 5525,
      "Ġdestined": 5526,
      "ĠRealm": 5527,
      "Ġdevice": 5528,
      "Ġsubject": 5529,
      "Ġreborn": 5530,
      "Ġpreviously": 5531,
      "Ġseparate": 5532,
      "ĠPeople": 5533,
      "ĠKnight": 5534,
      "evous": 5535,
      "ĠAmerica": 5536,
      "Ġexams": 5537,
      "issioned": 5538,
      "Ġworries": 5539,
      "ungeon": 5540,
      "Ġsenior": 5541,
      "Ġpuppet": 5542,
      "Ġalternate": 5543,
      "Ġdespair": 5544,
      "Ġbrutal": 5545,
      "ĠGasshou": 5546,
      "ĠDepartment": 5547,
      "?\"": 5548,
      "AT": 5549,
      "fit": 5550,
      "gal": 5551,
      "jirou": 5552,
      "kn": 5553,
      "lier": 5554,
      "va": 5555,
      "Ġter": 5556,
      "Ġfans": 5557,
      "Ġbi": 5558,
      "Ġbare": 5559,
      "Ġbath": 5560,
      "Ġhil": 5561,
      "Ġtotal": 5562,
      "omu": 5563,
      "oming": 5564,
      "iling": 5565,
      "iltr": 5566,
      "otte": 5567,
      "Ġstream": 5568,
      "ĠKant": 5569,
      "ĠKimi": 5570,
      "ayer": 5571,
      "ĠBoth": 5572,
      "Ġrising": 5573,
      "ĠYak": 5574,
      "ĠYum": 5575,
      "Ġchase": 5576,
      "Ġkept": 5577,
      "Ġunaware": 5578,
      "ĠShiro": 5579,
      "Ġallowing": 5580,
      "ellow": 5581,
      "Ġserves": 5582,
      "Ġmovies": 5583,
      "Ġcompilation": 5584,
      "ĠAnpanman": 5585,
      "place": 5586,
      "ĠArata": 5587,
      "ĠUnited": 5588,
      "Ġdiscovering": 5589,
      "hikawa": 5590,
      "Ġguide": 5591,
      "ĠShinji": 5592,
      "ĠBeast": 5593,
      "Ġkiller": 5594,
      "ĠMarch": 5595,
      "Ġopened": 5596,
      "Ġtroubled": 5597,
      "Ġversions": 5598,
      "Ġexcited": 5599,
      "Ġparallel": 5600,
      "Ġadded": 5601,
      "Ġfailed": 5602,
      "ĠComm": 5603,
      "ĠImperial": 5604,
      "ĠMomo": 5605,
      "Ġchaotic": 5606,
      "ĠTanaka": 5607,
      "Ġfamilies": 5608,
      "Ġimagination": 5609,
      "Ġpassionate": 5610,
      "ĠSuzuki": 5611,
      "girls": 5612,
      "which": 5613,
      "ĠGreen": 5614,
      "ĠKasumi": 5615,
      "Ġeliminate": 5616,
      "Ġmischievous": 5617,
      "Ġnurse": 5618,
      "ĠEurope": 5619,
      "Ġprodigy": 5620,
      "Ġlifestyle": 5621,
      "Ġspaceship": 5622,
      "Ġhilarious": 5623,
      "'ve": 5624,
      "DOL": 5625,
      "fight": 5626,
      "maru": 5627,
      "ping": 5628,
      "well": 5629,
      "zo": 5630,
      "Ġpul": 5631,
      "Ġhears": 5632,
      "ils": 5633,
      "ĠSab": 5634,
      "ĠSoul": 5635,
      "ĠMio": 5636,
      "ĠHa": 5637,
      "ĠKik": 5638,
      "ĠKog": 5639,
      "ĠChe": 5640,
      "Ġalthough": 5641,
      "ĠNat": 5642,
      "ĠNam": 5643,
      "ĠDen": 5644,
      "ĠRom": 5645,
      "Ġround": 5646,
      "ĠGer": 5647,
      "ĠYume": 5648,
      "ested": 5649,
      "Ġneither": 5650,
      "Ġunre": 5651,
      "ĠJoh": 5652,
      "ĠJewel": 5653,
      "Ġouter": 5654,
      "asses": 5655,
      "Ġgoals": 5656,
      "Ġtwins": 5657,
      "Ġinvaders": 5658,
      "Ġamount": 5659,
      "aido": 5660,
      "Ġimpr": 5661,
      "Ġcoop": 5662,
      "Ġarmed": 5663,
      "Ġkindness": 5664,
      "Ġinfiltr": 5665,
      "Ġhunters": 5666,
      "ĠDef": 5667,
      "Ġ50": 5668,
      "ĠLiu": 5669,
      "ĠGeneral": 5670,
      "Ġillness": 5671,
      "Ġconnected": 5672,
      "Ġgreen": 5673,
      "Ġmachines": 5674,
      "school": 5675,
      "ĠMidori": 5676,
      "Ġinstruct": 5677,
      "Ġmechanical": 5678,
      "Ġopponents": 5679,
      "ĠZeon": 5680,
      "Ġglobal": 5681,
      "Ġnecessary": 5682,
      "Ġbottom": 5683,
      "ĠEventually": 5684,
      "ĠGasshoudan": 5685,
      "och": 5686,
      "Ġtheater": 5687,
      "estern": 5688,
      "Ġhired": 5689,
      "arily": 5690,
      "Ġpiec": 5691,
      "Ġdre": 5692,
      "Ġdies": 5693,
      "asingly": 5694,
      "lear": 5695,
      "ĠSac": 5696,
      "ĠAya": 5697,
      "sters": 5698,
      "ĠMao": 5699,
      "ĠHig": 5700,
      "ĠKats": 5701,
      "emi": 5702,
      "ĠBar": 5703,
      "ĠBet": 5704,
      "ĠBond": 5705,
      "ĠNeko": 5706,
      "ĠDog": 5707,
      "Ġranks": 5708,
      "ĠFilm": 5709,
      "ortals": 5710,
      "ĠShins": 5711,
      "Ġbrain": 5712,
      "iba": 5713,
      "Ġcrazy": 5714,
      "Ġquir": 5715,
      "Ġinvent": 5716,
      "Ġentity": 5717,
      "Ġgroups": 5718,
      "Ġplayed": 5719,
      "ĠUnable": 5720,
      "Ġplanets": 5721,
      "Ġleaders": 5722,
      "Ġlearned": 5723,
      "Ġincludes": 5724,
      "Ġassault": 5725,
      "Ġlively": 5726,
      "Ġdefense": 5727,
      "Ġcommissioned": 5728,
      "Ġcatast": 5729,
      "Ġheroine": 5730,
      "Ġcooking": 5731,
      "Ġshowc": 5732,
      "Ġ197": 5733,
      "phone": 5734,
      "ĠLeague": 5735,
      "Ġimmense": 5736,
      "Ġwitches": 5737,
      "Ġterrifying": 5738,
      "Ġpromoting": 5739,
      "Ġtransforming": 5740,
      "ĠNanami": 5741,
      "Ġeducation": 5742,
      "standing": 5743,
      "Ġsignific": 5744,
      "ĠNaruto": 5745,
      "Ġincreasingly": 5746,
      "Ġduties": 5747,
      "Ġartificial": 5748,
      "Ġcommunity": 5749,
      "Ġcustomers": 5750,
      "Ġpirate": 5751,
      "Ġissues": 5752,
      "Ġtechniques": 5753,
      "Ġdedicated": 5754,
      "ĠApril": 5755,
      "AL": 5756,
      "EL": 5757,
      "NA": 5758,
      "cure": 5759,
      "hand": 5760,
      "long": 5761,
      "nt": 5762,
      "pa": 5763,
      "erved": 5764,
      "Ġboun": 5765,
      "Ġcalm": 5766,
      "Ġchibi": 5767,
      "Ġtough": 5768,
      "Ġmel": 5769,
      "Ġpuzz": 5770,
      "ĠTats": 5771,
      "iles": 5772,
      "ĠSect": 5773,
      "ĠAug": 5774,
      "Ġnet": 5775,
      "Ġnations": 5776,
      "style": 5777,
      "ĠMyst": 5778,
      "ĠHere": 5779,
      "ĠHaku": 5780,
      "ĠKent": 5781,
      "ĠDan": 5782,
      "ĠWor": 5783,
      "ĠWal": 5784,
      "ander": 5785,
      "ĠYur": 5786,
      "ĠFifth": 5787,
      "Ġconvers": 5788,
      "ively": 5789,
      "usted": 5790,
      "Ġproves": 5791,
      "ĠIns": 5792,
      "away": 5793,
      "Ġdoc": 5794,
      "ogue": 5795,
      "ugawa": 5796,
      "ĠHead": 5797,
      "Ġdescrib": 5798,
      "ordin": 5799,
      "iction": 5800,
      "ictures": 5801,
      "ailor": 5802,
      "Ġunderw": 5803,
      "Ġplanned": 5804,
      "Ġsettle": 5805,
      "Ġcreation": 5806,
      "Ġboat": 5807,
      "Ġconsists": 5808,
      "Ġthreaten": 5809,
      "Ġthreatening": 5810,
      "Ġdefeating": 5811,
      "Ġescaped": 5812,
      "Ġarms": 5813,
      "uzu": 5814,
      "Ġtreasures": 5815,
      "Ġdevelops": 5816,
      "Ġtasks": 5817,
      "ĠAlliance": 5818,
      "Ġavail": 5819,
      "Ġfigures": 5820,
      "Ġtennis": 5821,
      "Ġresponsibility": 5822,
      "Ġtemple": 5823,
      "hyth": 5824,
      "ĠSummer": 5825,
      "ĠParty": 5826,
      "Ġswordsman": 5827,
      "ĠFamily": 5828,
      "ealous": 5829,
      "ĠNevertheless": 5830,
      "ĠRoyal": 5831,
      "ĠHajime": 5832,
      "amiliar": 5833,
      "Ġbasketball": 5834,
      "born": 5835,
      "ca": 5836,
      "even": 5837,
      "iable": 5838,
      "pow": 5839,
      "sensei": 5840,
      "ypt": 5841,
      "Ġtyr": 5842,
      "Ġsung": 5843,
      "Ġfat": 5844,
      "Ġcor": 5845,
      "anagi": 5846,
      "ĠTad": 5847,
      "icing": 5848,
      "ĠApp": 5849,
      "imaru": 5850,
      "ĠMat": 5851,
      "ĠMob": 5852,
      "Ġstick": 5853,
      "until": 5854,
      "ĠKoh": 5855,
      "elve": 5856,
      "Ġasp": 5857,
      "umans": 5858,
      "ĠNy": 5859,
      "ĠNaka": 5860,
      "ĠDest": 5861,
      "osity": 5862,
      "ĠWitch": 5863,
      "ĠOlym": 5864,
      "ĠYok": 5865,
      "ĠEagle": 5866,
      "Ġconstr": 5867,
      "Ġplaced": 5868,
      "Ġshared": 5869,
      "Ġshape": 5870,
      "izu": 5871,
      "Ġnewest": 5872,
      "ĠAsa": 5873,
      "ĠAsuka": 5874,
      "Ġmean": 5875,
      "Ġmystical": 5876,
      "azawa": 5877,
      "Ġcrit": 5878,
      "Ġcrowd": 5879,
      "Ġdram": 5880,
      "Ġentry": 5881,
      "Ġdiscuss": 5882,
      "ĠUnbeknownst": 5883,
      "Ġseasons": 5884,
      "Ġcolony": 5885,
      "engoku": 5886,
      "Ġcatches": 5887,
      "Ġdifferences": 5888,
      "Ġexploring": 5889,
      "ĠBeing": 5890,
      "ĠIsh": 5891,
      "ĠKanata": 5892,
      "Ġchanging": 5893,
      "Ġparody": 5894,
      "Ġattends": 5895,
      "Ġspeed": 5896,
      "Ġabsolute": 5897,
      "Ġcards": 5898,
      "Ġprepares": 5899,
      "Ġwandering": 5900,
      "Ġthousands": 5901,
      "ĠShizuka": 5902,
      "Ġestablish": 5903,
      "Ġinherit": 5904,
      "ĠMegumi": 5905,
      "Ġreluctantly": 5906,
      "Ġgolden": 5907,
      "Ġcolorful": 5908,
      "Ġdepicting": 5909,
      "Ġfacility": 5910,
      "ĠMoreover": 5911,
      "Ġentertainment": 5912,
      "ĠGolden": 5913,
      "Ġdeceased": 5914,
      "inderella": 5915,
      "hythm": 5916,
      "Bl": 5917,
      "bow": 5918,
      "hime": 5919,
      "ker": 5920,
      "sl": 5921,
      "sm": 5922,
      "Ġtimid": 5923,
      "Ġace": 5924,
      "Ġsell": 5925,
      "Ġwear": 5926,
      "Ġmortal": 5927,
      "ĠTor": 5928,
      "ĠToy": 5929,
      "ĠTama": 5930,
      "ĠSystem": 5931,
      "Ġlabor": 5932,
      "unaga": 5933,
      "ĠCast": 5934,
      "ĠCoc": 5935,
      "ĠIw": 5936,
      "Ġalter": 5937,
      "Ġalike": 5938,
      "ĠNing": 5939,
      "ĠYumi": 5940,
      "ĠLike": 5941,
      "udo": 5942,
      "ores": 5943,
      "iking": 5944,
      "Ġallowed": 5945,
      "Ġnotorious": 5946,
      "Ġstrict": 5947,
      "Ġadults": 5948,
      "Ġacadem": 5949,
      "Ġbrill": 5950,
      "Ġoverse": 5951,
      "ĠVict": 5952,
      "Ġdiscovery": 5953,
      "ĠArmed": 5954,
      "asha": 5955,
      "ashima": 5956,
      "ointed": 5957,
      "pty": 5958,
      "Ġordered": 5959,
      "Ġdetermin": 5960,
      "Ġsurviving": 5961,
      "omiya": 5962,
      "oids": 5963,
      "ĠTezuka": 5964,
      "Ġinvestigating": 5965,
      "Ġmurdered": 5966,
      "Ġmercen": 5967,
      "Ġunfamiliar": 5968,
      "headed": 5969,
      "ĠRobot": 5970,
      "Ġsusp": 5971,
      "Ġbonds": 5972,
      "Ġaccepted": 5973,
      "Ġodds": 5974,
      "Ġscreened": 5975,
      "Ġadmir": 5976,
      "ĠMahou": 5977,
      "Ġenrolls": 5978,
      "Ġtribe": 5979,
      "Ġadopted": 5980,
      "Ġchapter": 5981,
      "Ġtrials": 5982,
      "ĠSquad": 5983,
      "Ġretrieve": 5984,
      "ĠPhantom": 5985,
      "Ġresources": 5986,
      "Ġconsciousness": 5987,
      "ĠAugust": 5988,
      "AC": 5989,
      "ael": 5990,
      "dou": 5991,
      "his": 5992,
      "vation": 5993,
      "esis": 5994,
      "Ġdial": 5995,
      "asant": 5996,
      "ĠMer": 5997,
      "idance": 5998,
      "akawa": 5999,
      "eling": 6000,
      "ĠBu": 6001,
      "andom": 6002,
      "Ġriver": 6003,
      "ĠGet": 6004,
      "ĠGalaxy": 6005,
      "ĠPop": 6006,
      "ĠPicture": 6007,
      "Ġcomedic": 6008,
      "ĠLo": 6009,
      "ĠLady": 6010,
      "Ġkara": 6011,
      "Ġwast": 6012,
      "ĠJan": 6013,
      "Ġspin": 6014,
      "Ġclum": 6015,
      "pped": 6016,
      "uclear": 6017,
      "Ġsoft": 6018,
      "ĠThings": 6019,
      "Ġaccess": 6020,
      "Ġresort": 6021,
      "occhi": 6022,
      "Ġusers": 6023,
      "apping": 6024,
      "ensive": 6025,
      "Ġsecurity": 6026,
      "azu": 6027,
      "Ġcrown": 6028,
      "ender": 6029,
      "Ġdeser": 6030,
      "Ġsomewhere": 6031,
      "Ġnowhere": 6032,
      "Ġassign": 6033,
      "ĠXian": 6034,
      "hiki": 6035,
      "Ġtrained": 6036,
      "Ġmissions": 6037,
      "Ġgreater": 6038,
      "exist": 6039,
      "Ġthreats": 6040,
      "hiba": 6041,
      "Ġfarm": 6042,
      "Ġputting": 6043,
      "injas": 6044,
      "Ġmotiv": 6045,
      "Ġinteresting": 6046,
      "Ġcarries": 6047,
      "Ġcarrying": 6048,
      "board": 6049,
      "Ġimagined": 6050,
      "ĠSouth": 6051,
      "Ġobsessed": 6052,
      "Ġviolence": 6053,
      "ĠLuffy": 6054,
      "Ġsleeping": 6055,
      "Ġcurrently": 6056,
      "ĠKakeru": 6057,
      "ĠMusashi": 6058,
      "Ġtower": 6059,
      "ĠSekai": 6060,
      "Ġgifted": 6061,
      "Ġetc": 6062,
      "Ġcousin": 6063,
      "Ġconsequences": 6064,
      "Ġtragedy": 6065,
      "Ġpieces": 6066,
      "99": 6067,
      "ET": 6068,
      "break": 6069,
      "der": 6070,
      "gen": 6071,
      "house": 6072,
      "mind": 6073,
      "Ġi": 6074,
      "Ġtears": 6075,
      "Ġsed": 6076,
      "Ġshi": 6077,
      "Ġfer": 6078,
      "Ġfly": 6079,
      "itar": 6080,
      "Ġpush": 6081,
      "Ġheard": 6082,
      "ĠTon": 6083,
      "ĠTod": 6084,
      "icide": 6085,
      "Ġgym": 6086,
      "Ġgained": 6087,
      "Ġrefer": 6088,
      "Ġrevel": 6089,
      "urch": 6090,
      "ĠHai": 6091,
      "ĠIchi": 6092,
      "ĠBundled": 6093,
      "ĠNagi": 6094,
      "ĠWatch": 6095,
      "earches": 6096,
      "ĠGroup": 6097,
      "ĠYork": 6098,
      "ĠFate": 6099,
      "Ġscattered": 6100,
      "Ġspark": 6101,
      "Ġshot": 6102,
      "Ġproceed": 6103,
      "ĠShinn": 6104,
      "ubi": 6105,
      "Ġagent": 6106,
      "Ġbride": 6107,
      "ĠAnna": 6108,
      "hered": 6109,
      "Ġremin": 6110,
      "Ġguidance": 6111,
      "Ġsuperhero": 6112,
      "Ġcoach": 6113,
      "Ġthreatened": 6114,
      "Ġvisual": 6115,
      "Ġcenturies": 6116,
      "Ġdistance": 6117,
      "ĠGrail": 6118,
      "Ġuncon": 6119,
      "Ġkinds": 6120,
      "Ġperforming": 6121,
      "Ġoccup": 6122,
      "ĠMonogatari": 6123,
      "ynasty": 6124,
      "ombie": 6125,
      "ĠMizuki": 6126,
      "Ġterrorist": 6127,
      "Ġ2020": 6128,
      "Ġintroduced": 6129,
      "ociation": 6130,
      "ĠCentury": 6131,
      "Ġreluctant": 6132,
      "Ġlaunch": 6133,
      "ĠCaptain": 6134,
      "Ġsurvivors": 6135,
      "Ġdigital": 6136,
      "Ġhorse": 6137,
      "ĠHiyori": 6138,
      "Ġmotorcy": 6139,
      "Ġterms": 6140,
      "20": 6141,
      "EC": 6142,
      "Sh": 6143,
      "gn": 6144,
      "gar": 6145,
      "hist": 6146,
      "haru": 6147,
      "nament": 6148,
      "po": 6149,
      "pei": 6150,
      "Ġtiny": 6151,
      "Ġsake": 6152,
      "Ġwrest": 6153,
      "Ġbudd": 6154,
      "orimid": 6155,
      "arine": 6156,
      "Ġpaper": 6157,
      "Ġdating": 6158,
      "ĠTens": 6159,
      "amon": 6160,
      "step": 6161,
      "ĠMim": 6162,
      "ĠMiddle": 6163,
      "igen": 6164,
      "igami": 6165,
      "ĠKer": 6166,
      "ĠCup": 6167,
      "ĠCirc": 6168,
      "ĠCinderella": 6169,
      "ĠIrod": 6170,
      "ĠNinja": 6171,
      "ĠDirect": 6172,
      "ĠWhether": 6173,
      "Ġride": 6174,
      "ĠPV": 6175,
      "ĠPret": 6176,
      "ession": 6177,
      "Ġconc": 6178,
      "ĠIntern": 6179,
      "Ġprice": 6180,
      "Ġnote": 6181,
      "Ġwhenever": 6182,
      "Ġgrants": 6183,
      "ĠCha": 6184,
      "ishment": 6185,
      "ĠStage": 6186,
      "Ġactress": 6187,
      "ĠArts": 6188,
      "ĠXuan": 6189,
      "yuan": 6190,
      "Ġtalents": 6191,
      "Ġcook": 6192,
      "cape": 6193,
      "anny": 6194,
      "Ġpopularity": 6195,
      "ype": 6196,
      "Ġmisunder": 6197,
      "Ġelements": 6198,
      "Ġfactions": 6199,
      "ĠTenchi": 6200,
      "Ġsixth": 6201,
      "Ġvirus": 6202,
      "Ġhotel": 6203,
      "ĠNaoto": 6204,
      "Ġhostile": 6205,
      "ĠZhu": 6206,
      "Ġreunion": 6207,
      "ĠKeiichi": 6208,
      "ĠHayato": 6209,
      "Ġsupposedly": 6210,
      "Ġreincarnated": 6211,
      "Ġincredibly": 6212,
      "Ġawakened": 6213,
      "Ġrisk": 6214,
      "ubbed": 6215,
      "icycle": 6216,
      "ĠTakahashi": 6217,
      "Ġrepeated": 6218,
      "Ġopposite": 6219,
      "yptic": 6220,
      "orimidori": 6221,
      "ĠIrodorimidori": 6222,
      "fall": 6223,
      "law": 6224,
      "mosp": 6225,
      "Ġwip": 6226,
      "atives": 6227,
      "Ġhab": 6228,
      "ede": 6229,
      "edition": 6230,
      "Ġdro": 6231,
      "Ġhes": 6232,
      "ĠTang": 6233,
      "ĠTerr": 6234,
      "ĠSai": 6235,
      "ĠSnow": 6236,
      "Ġgains": 6237,
      "ĠAst": 6238,
      "amb": 6239,
      "ams": 6240,
      "amond": 6241,
      "oted": 6242,
      "ĠKoi": 6243,
      "elest": 6244,
      "ago": 6245,
      "ulate": 6246,
      "ifice": 6247,
      "Ġworst": 6248,
      "ĠOct": 6249,
      "ĠYos": 6250,
      "Ġseas": 6251,
      "ĠPan": 6252,
      "ĠPower": 6253,
      "Ġchasing": 6254,
      "Ġunits": 6255,
      "ĠJean": 6256,
      "Ġspy": 6257,
      "Ġabrupt": 6258,
      "ables": 6259,
      "Ġexter": 6260,
      "ante": 6261,
      "orthern": 6262,
      "ĠUS": 6263,
      "ĠUnd": 6264,
      "Ġfeud": 6265,
      "ublic": 6266,
      "Ġdecades": 6267,
      "plic": 6268,
      "Ġcrimes": 6269,
      "Ġqual": 6270,
      "Ġdisci": 6271,
      "Ġweird": 6272,
      "Ġremind": 6273,
      "ĠTakeru": 6274,
      "ĠSeish": 6275,
      "Ġcreates": 6276,
      "Ġslight": 6277,
      "Ġmagician": 6278,
      "Ġinstantly": 6279,
      "Ġcool": 6280,
      "ĠWhy": 6281,
      "ohan": 6282,
      "Ġarmor": 6283,
      "ĠOrgan": 6284,
      "ĠMinato": 6285,
      "ĠTrans": 6286,
      "claimed": 6287,
      "Ġneeded": 6288,
      "Ġmedic": 6289,
      "ĠOsh": 6290,
      "ĠKeita": 6291,
      "Ġharm": 6292,
      "Ġaffect": 6293,
      "Ġcampus": 6294,
      "Ġanti": 6295,
      "Ġwalks": 6296,
      "Ġcontaining": 6297,
      "Ġpoints": 6298,
      "ĠTsukasa": 6299,
      "Ġconvince": 6300,
      "Ġwanders": 6301,
      "Ġexperiment": 6302,
      "Ġanswers": 6303,
      "Ġvehic": 6304,
      "Ġdeclares": 6305,
      "ĠKobayashi": 6306,
      "Ġpirates": 6307,
      "Ġopponent": 6308,
      "ibrary": 6309,
      "Ġambition": 6310,
      "ĠDevil": 6311,
      "Ġdisappearance": 6312,
      "Ġintentions": 6313,
      "Ġroutine": 6314,
      "Ġclimb": 6315,
      "ĠLuckily": 6316,
      "Ġsneak": 6317,
      "ĠKaito": 6318,
      "An": 6319,
      "kin": 6320,
      "lands": 6321,
      "sec": 6322,
      "ynd": 6323,
      "Ġess": 6324,
      "Ġtick": 6325,
      "Ġsyn": 6326,
      "isu": 6327,
      "atched": 6328,
      "Ġhob": 6329,
      "Ġpure": 6330,
      "Ġden": 6331,
      "ashed": 6332,
      "ĠThose": 6333,
      "ĠSn": 6334,
      "ĠSara": 6335,
      "ĠSana": 6336,
      "Ġninjas": 6337,
      "imo": 6338,
      "owa": 6339,
      "Ġbears": 6340,
      "ĠMiko": 6341,
      "Ġreject": 6342,
      "ĠHappy": 6343,
      "igi": 6344,
      "emble": 6345,
      "ĠCre": 6346,
      "ĠCao": 6347,
      "ĠWan": 6348,
      "ighth": 6349,
      "Ġraise": 6350,
      "ĠFle": 6351,
      "Ġknew": 6352,
      "ikawa": 6353,
      "abb": 6354,
      "anted": 6355,
      "Ġplag": 6356,
      "uster": 6357,
      "izations": 6358,
      "Ġfeared": 6359,
      "Ġstrike": 6360,
      "Ġadorable": 6361,
      "Ġotherwise": 6362,
      "Ġresolves": 6363,
      "Ġ26": 6364,
      "Ġimperial": 6365,
      "Ġblind": 6366,
      "ĠArc": 6367,
      "Ġaccount": 6368,
      "Ġguys": 6369,
      "Ġcreator": 6370,
      "Ġsexy": 6371,
      "Ġlegends": 6372,
      "ĠGoddess": 6373,
      "ergart": 6374,
      "ĠMasaki": 6375,
      "ĠChizuru": 6376,
      "Ġdogs": 6377,
      "Ġminds": 6378,
      "Ġrebell": 6379,
      "Ġclean": 6380,
      "Ġscientific": 6381,
      "Ġcyber": 6382,
      "ĠZhang": 6383,
      "guard": 6384,
      "Ġlessons": 6385,
      "Ġstealing": 6386,
      "atrical": 6387,
      "leyball": 6388,
      "Ġsalary": 6389,
      "Ġspecific": 6390,
      "ĠYoshida": 6391,
      "Ġneighboring": 6392,
      "ĠSpirits": 6393,
      "Ġdevastated": 6394,
      "Ġsuspicious": 6395,
      "ĠTournament": 6396,
      "Ġavailable": 6397,
      "TO": 6398,
      "cest": 6399,
      "hito": 6400,
      "lers": 6401,
      "oard": 6402,
      "pet": 6403,
      "qi": 6404,
      "ye": 6405,
      "Ġ00": 6406,
      "Ġtro": 6407,
      "Ġsearches": 6408,
      "Ġfix": 6409,
      "Ġcure": 6410,
      "ancial": 6411,
      "itute": 6412,
      "itement": 6413,
      "Ġpictures": 6414,
      "Ġdangers": 6415,
      "Ġdancing": 6416,
      "ĠTiger": 6417,
      "ĠSar": 6418,
      "ĠSasaki": 6419,
      "Ġlaugh": 6420,
      "Ġlangu": 6421,
      "amen": 6422,
      "hop": 6423,
      "ĠHid": 6424,
      "ĠHide": 6425,
      "eline": 6426,
      "ĠBear": 6427,
      "ĠNote": 6428,
      "Ġyo": 6429,
      "ĠYao": 6430,
      "ĠEast": 6431,
      "Ġitems": 6432,
      "anting": 6433,
      "Ġjealous": 6434,
      "ĠInter": 6435,
      "ĠShing": 6436,
      "ĠShima": 6437,
      "Ġprincipal": 6438,
      "Ġupside": 6439,
      "Ġevol": 6440,
      "ĠAnt": 6441,
      "ĠAnother": 6442,
      "Ġroof": 6443,
      "ipt": 6444,
      "Ġperverted": 6445,
      "ailing": 6446,
      "Ġactual": 6447,
      "luding": 6448,
      "Ġempty": 6449,
      "Ġteammates": 6450,
      "Ġhappily": 6451,
      "Ġappearing": 6452,
      "Ġpassing": 6453,
      "Ġpresents": 6454,
      "ushima": 6455,
      "Ġattempting": 6456,
      "Ġlocation": 6457,
      "ĠKurumi": 6458,
      "ĠMarine": 6459,
      "ĠMaria": 6460,
      "Ġwriter": 6461,
      "Ġdepths": 6462,
      "Ġbuy": 6463,
      "uriosity": 6464,
      "ĠGods": 6465,
      "Ġ2017": 6466,
      "Ġsuccessor": 6467,
      "Ġrevive": 6468,
      "Ġdeeper": 6469,
      "Ġbroke": 6470,
      "Ġvictim": 6471,
      "Ġpurch": 6472,
      "ĠImp": 6473,
      "Ġrebu": 6474,
      "Ġsuffers": 6475,
      "Ġreasons": 6476,
      "ĠMizu": 6477,
      "Ġemotional": 6478,
      "Ġearlier": 6479,
      "Ġrumored": 6480,
      "Ġtempor": 6481,
      "Ġscreen": 6482,
      "Ġexperimental": 6483,
      "what": 6484,
      "Ġsummons": 6485,
      "ĠBoys": 6486,
      "Ġfloating": 6487,
      "Ġdevastating": 6488,
      "ĠMadoka": 6489,
      "Ġmultiple": 6490,
      "Ġsurvivor": 6491,
      "ĠAssociation": 6492,
      "Ġcamera": 6493,
      "Ġrapidly": 6494,
      "Ġobstacles": 6495,
      "Ġisolated": 6496,
      "Ġathletic": 6497,
      "Ġintrig": 6498,
      "Ġdreamed": 6499,
      "BD": 6500,
      "OS": 6501,
      "bel": 6502,
      "juku": 6503,
      "ran": 6504,
      "rie": 6505,
      "yi": 6506,
      "Ġtall": 6507,
      "Ġfishing": 6508,
      "Ġcart": 6509,
      "Ġchief": 6510,
      "Ġhole": 6511,
      "Ġhours": 6512,
      "Ġhearing": 6513,
      "ĠSin": 6514,
      "ĠSens": 6515,
      "ĠSatsuki": 6516,
      "ĠMem": 6517,
      "olic": 6518,
      "eth": 6519,
      "Ġstir": 6520,
      "ĠHor": 6521,
      "ushing": 6522,
      "ĠKong": 6523,
      "Ġasking": 6524,
      "aguchi": 6525,
      "ĠBon": 6526,
      "ĠBall": 6527,
      "ĠNek": 6528,
      "ĠDeep": 6529,
      "ĠRa": 6530,
      "ĠRi": 6531,
      "ĠRet": 6532,
      "ĠRos": 6533,
      "Ġyakuza": 6534,
      "ĠGin": 6535,
      "ĠGou": 6536,
      "Ġatmosp": 6537,
      "ĠEra": 6538,
      "ĠEgg": 6539,
      "ĠFei": 6540,
      "ĠLed": 6541,
      "Ġkit": 6542,
      "ikin": 6543,
      "Ġune": 6544,
      "ĠJul": 6545,
      "ĠJidou": 6546,
      "Ġaboard": 6547,
      "sei": 6548,
      "Ġfend": 6549,
      "aved": 6550,
      "Ġstrive": 6551,
      "Ġstrikes": 6552,
      "Ġserving": 6553,
      "Ġhumili": 6554,
      "Ġbrief": 6555,
      "ĠChamp": 6556,
      "Ġattitude": 6557,
      "Ġinvitation": 6558,
      "icken": 6559,
      "ĠUnit": 6560,
      "Ġrelax": 6561,
      "Ġremn": 6562,
      "ĠTaka": 6563,
      "ĠTaking": 6564,
      "ĠTokugawa": 6565,
      "Ġprotected": 6566,
      "Ġobjects": 6567,
      "ĠShinobu": 6568,
      "from": 6569,
      "Ġvolleyball": 6570,
      "phic": 6571,
      "Ġwriting": 6572,
      "licts": 6573,
      "Ġcompetitive": 6574,
      "Ġdelicious": 6575,
      "ĠTomoe": 6576,
      "Ġcheer": 6577,
      "Ġcaptiv": 6578,
      "Ġexcitement": 6579,
      "Ġpeacefully": 6580,
      "ĠMonster": 6581,
      "Ġdisappears": 6582,
      "Ġruled": 6583,
      "ĠKamen": 6584,
      "Ġrevealing": 6585,
      "Ġviewer": 6586,
      "Ġhomeland": 6587,
      "Ġinternet": 6588,
      "ĠParis": 6589,
      "ocaloid": 6590,
      "ĠSayaka": 6591,
      "Ġacquaint": 6592,
      "Ġneighborhood": 6593,
      "Ġadventurers": 6594,
      "Ġsacred": 6595,
      "Ġsummary": 6596,
      "Ġcommander": 6597,
      "ĠIchika": 6598,
      "ĠAmano": 6599,
      "Ġapproaching": 6600,
      "Ġoverwhelming": 6601,
      "Ġinstitution": 6602,
      "Ġvengeance": 6603,
      "Ġsplit": 6604,
      "Ġhardships": 6605,
      "ĠGerman": 6606,
      "TV": 6607,
      "car": 6608,
      "eb": 6609,
      "fire": 6610,
      "mist": 6611,
      "nal": 6612,
      "she": 6613,
      "wara": 6614,
      "Ġtort": 6615,
      "Ġbes": 6616,
      "Ġhack": 6617,
      "omed": 6618,
      "ĠTek": 6619,
      "ĠSaint": 6620,
      "Ġnurs": 6621,
      "Ġnuclear": 6622,
      "Ġlazy": 6623,
      "ĠHen": 6624,
      "ĠIse": 6625,
      "ĠDuke": 6626,
      "aints": 6627,
      "Ġtrap": 6628,
      "ĠRPG": 6629,
      "ĠOm": 6630,
      "ĠFant": 6631,
      "Ġcomic": 6632,
      "Ġpride": 6633,
      "arem": 6634,
      "Ġprefecture": 6635,
      "olls": 6636,
      "ĠAnn": 6637,
      "ogi": 6638,
      "azz": 6639,
      "Ġende": 6640,
      "Ġrealms": 6641,
      "Ġcharming": 6642,
      "ĠSte": 6643,
      "ĠYuan": 6644,
      "Ġplanning": 6645,
      "ĠBlood": 6646,
      "Ġconfidence": 6647,
      "Ġhappening": 6648,
      "Ġsmile": 6649,
      "Ġtrains": 6650,
      "Ġexplo": 6651,
      "ĠMiyu": 6652,
      "Ġsucc": 6653,
      "ĠFriend": 6654,
      "ĠGrad": 6655,
      "Ġbelief": 6656,
      "ielding": 6657,
      "Ġadvice": 6658,
      "orrow": 6659,
      "Ġmisad": 6660,
      "ĠChiaki": 6661,
      "Ġpossessing": 6662,
      "Ġpossessed": 6663,
      "Ġoccasion": 6664,
      "ĠKenichi": 6665,
      "ĠNobunaga": 6666,
      "ĠSae": 6667,
      "Ġconduct": 6668,
      "Ġdistrict": 6669,
      "Ġdouble": 6670,
      "Ġissue": 6671,
      "Ġgraduate": 6672,
      "ĠDivision": 6673,
      "ĠHotaru": 6674,
      "proclaimed": 6675,
      "Ġswimming": 6676,
      "Ġmythical": 6677,
      "ĠDaisuke": 6678,
      "Ġnightmare": 6679,
      "ĠForest": 6680,
      "hetic": 6681,
      "powered": 6682,
      "ĠCastle": 6683,
      "elestial": 6684,
      "ES": 6685,
      "HO": 6686,
      "IC": 6687,
      "bon": 6688,
      "eor": 6689,
      "fits": 6690,
      "gawa": 6691,
      "kaido": 6692,
      "maid": 6693,
      "uji": 6694,
      "Ã¼": 6695,
      "Ġsides": 6696,
      "Ġwing": 6697,
      "Ġfame": 6698,
      "Ġcas": 6699,
      "Ġcoinc": 6700,
      "Ġhides": 6701,
      "Ġpill": 6702,
      "asters": 6703,
      "omic": 6704,
      "Ġgaining": 6705,
      "ĠAre": 6706,
      "Ġlad": 6707,
      "Ġlatter": 6708,
      "enth": 6709,
      "Ġrend": 6710,
      "uten": 6711,
      "Ġstuff": 6712,
      "urally": 6713,
      "ĠHel": 6714,
      "agues": 6715,
      "ĠDel": 6716,
      "Ġrandom": 6717,
      "ĠGar": 6718,
      "ĠLala": 6719,
      "Ġspr": 6720,
      "ĠShang": 6721,
      "Ġdrive": 6722,
      "Ġdrug": 6723,
      "Ġdriving": 6724,
      "ĠVe": 6725,
      "lesh": 6726,
      "ashin": 6727,
      "arium": 6728,
      "Ġinterview": 6729,
      "Ġamazing": 6730,
      "Ġconflicts": 6731,
      "Ġguests": 6732,
      "ĠAtt": 6733,
      "Ġvillagers": 6734,
      "Ġregain": 6735,
      "usha": 6736,
      "Ġuncertain": 6737,
      "ĠYouko": 6738,
      "Ġrescues": 6739,
      "Ġ2015": 6740,
      "Ġmisfortun": 6741,
      "Ġeffects": 6742,
      "Ġpossession": 6743,
      "ĠMany": 6744,
      "ĠMonkey": 6745,
      "Ġmedical": 6746,
      "Ġpursuing": 6747,
      "Ġideas": 6748,
      "ĠOkin": 6749,
      "ungle": 6750,
      "Ġassistance": 6751,
      "Ġdemands": 6752,
      "Ġassassins": 6753,
      "Ġprepared": 6754,
      "Ġemerges": 6755,
      "Ġmirror": 6756,
      "Ġdoub": 6757,
      "Ġinherited": 6758,
      "Ġpredic": 6759,
      "Ġtechnique": 6760,
      "ĠTalon": 6761,
      "ĠHokkaido": 6762,
      "ĠCouncil": 6763,
      "Ġcherry": 6764,
      "Ġcommemorate": 6765,
      "Ġsacrifice": 6766,
      "akugan": 6767,
      "Ġverge": 6768,
      "Ġphenomenon": 6769,
      "Ġtaste": 6770,
      "Ġbarely": 6771,
      "Ġbounty": 6772,
      "'m": 6773,
      "cts": 6774,
      "mark": 6775,
      "sk": 6776,
      "uate": 6777,
      "inated": 6778,
      "Ġtheat": 6779,
      "Ġsick": 6780,
      "Ġsize": 6781,
      "Ġom": 6782,
      "isuke": 6783,
      "Ġfasc": 6784,
      "Ġcave": 6785,
      "Ġcuriosity": 6786,
      "anashi": 6787,
      "Ġmouse": 6788,
      "Ġmental": 6789,
      "Ġpull": 6790,
      "Ġdear": 6791,
      "ĠTO": 6792,
      "ĠTech": 6793,
      "icon": 6794,
      "ĠSE": 6795,
      "ĠSam": 6796,
      "ĠSever": 6797,
      "Ġgate": 6798,
      "Ġlink": 6799,
      "star": 6800,
      "ĠMc": 6801,
      "ĠMen": 6802,
      "ids": 6803,
      "iday": 6804,
      "Ġretain": 6805,
      "ĠHall": 6806,
      "ĠKiz": 6807,
      "ĠKage": 6808,
      "Ġfruit": 6809,
      "Ġasleep": 6810,
      "ĠCross": 6811,
      "ĠChibi": 6812,
      "ĠIron": 6813,
      "ĠBure": 6814,
      "Ġrav": 6815,
      "Ġrough": 6816,
      "ĠGorou": 6817,
      "ĠPac": 6818,
      "essing": 6819,
      "Ġconven": 6820,
      "Ġunfortunately": 6821,
      "ĠJing": 6822,
      "ĠJian": 6823,
      "Ġdeals": 6824,
      "Ġintention": 6825,
      "orted": 6826,
      "outhern": 6827,
      "ĠInt": 6828,
      "acky": 6829,
      "Ġenh": 6830,
      "Ġenorm": 6831,
      "izer": 6832,
      "ouri": 6833,
      "Ġagents": 6834,
      "Ġgrave": 6835,
      "ĠAnni": 6836,
      "ober": 6837,
      "Ġquit": 6838,
      "icted": 6839,
      "Ġcharm": 6840,
      "Ġsurreal": 6841,
      "ample": 6842,
      "amiya": 6843,
      "ĠOnline": 6844,
      "onscious": 6845,
      "Ġguild": 6846,
      "Ġarriving": 6847,
      "Ġattacking": 6848,
      "duced": 6849,
      "Ġ196": 6850,
      "Ġsuits": 6851,
      "Ġsuicide": 6852,
      "Ġsolar": 6853,
      "Ġ2018": 6854,
      "Ġpromotion": 6855,
      "ĠOVAs": 6856,
      "Ġsteals": 6857,
      "Ġbiggest": 6858,
      "Ġfailing": 6859,
      "Ġlimits": 6860,
      "Ġdestructive": 6861,
      "Ġchallenging": 6862,
      "Ġrequests": 6863,
      "book": 6864,
      "Ġwonderful": 6865,
      "ĠBook": 6866,
      "ĠPrecure": 6867,
      "Ġensues": 6868,
      "Ġreunited": 6869,
      "Ġdesigns": 6870,
      "Ġsounds": 6871,
      "Ġreincarnation": 6872,
      "ĠEvil": 6873,
      "Ġresistance": 6874,
      "Ġworthy": 6875,
      "ĠDecember": 6876,
      "Ġcowork": 6877,
      "Ġunfolds": 6878,
      "ĠContinent": 6879,
      "ĠTatsuya": 6880,
      "Ġcorruption": 6881,
      "Ġdelinquent": 6882,
      "Ġextinction": 6883,
      "Ġappreci": 6884,
      "ĠDefense": 6885,
      "Ġclumsy": 6886,
      "ergarten": 6887,
      "Ġpredicament": 6888,
      "Japan": 6889,
      "hun": 6890,
      "la": 6891,
      "nes": 6892,
      "pers": 6893,
      "son": 6894,
      "wing": 6895,
      "wide": 6896,
      "Ġtable": 6897,
      "Ġtaught": 6898,
      "Ġaunt": 6899,
      "Ġwizard": 6900,
      "Ġflesh": 6901,
      "onse": 6902,
      "Ġcunning": 6903,
      "ouch": 6904,
      "Ġpoll": 6905,
      "ĠSund": 6906,
      "ĠSoci": 6907,
      "Ġec": 6908,
      "ĠMiss": 6909,
      "ĠMaf": 6910,
      "eta": 6911,
      "Ġstress": 6912,
      "ĠHoney": 6913,
      "unn": 6914,
      "usement": 6915,
      "ĠKiri": 6916,
      "ĠKousuke": 6917,
      "ĠCD": 6918,
      "ĠCure": 6919,
      "ĠIss": 6920,
      "Ġalle": 6921,
      "Ġalche": 6922,
      "ĠDok": 6923,
      "ĠRits": 6924,
      "Ġraid": 6925,
      "Ġrural": 6926,
      "ĠOut": 6927,
      "ĠOur": 6928,
      "ĠPin": 6929,
      "ĠPir": 6930,
      "oken": 6931,
      "ĠLou": 6932,
      "ĠLil": 6933,
      "Ġshel": 6934,
      "Ġconce": 6935,
      "angel": 6936,
      "ĠJo": 6937,
      "Ġspect": 6938,
      "Ġabduct": 6939,
      "ĠUch": 6940,
      "ĠInv": 6941,
      "Ġprin": 6942,
      "Ġprow": 6943,
      "izawa": 6944,
      "asting": 6945,
      "Ġalliance": 6946,
      "Ġmanner": 6947,
      "Ġarrest": 6948,
      "Ġbrink": 6949,
      "Ġyoungest": 6950,
      "ogawa": 6951,
      "ocr": 6952,
      "Ġeverywhere": 6953,
      "Ġmysteriously": 6954,
      "Ġrecon": 6955,
      "Ġdisciple": 6956,
      "versal": 6957,
      "ĠArth": 6958,
      "Ġclassroom": 6959,
      "Ġremem": 6960,
      "Ġcontinued": 6961,
      "Ġflowers": 6962,
      "ĠRein": 6963,
      "Ġsuperior": 6964,
      "fraid": 6965,
      "ĠMiho": 6966,
      "Ġstops": 6967,
      "ĠDVDs": 6968,
      "ĠKaname": 6969,
      "Ġcollaps": 6970,
      "Ġdeveloping": 6971,
      "Ġwanting": 6972,
      "Ġ2011": 6973,
      "Ġrefuge": 6974,
      "Ġfunny": 6975,
      "ĠExtra": 6976,
      "Ġfailure": 6977,
      "Ġfocusing": 6978,
      "Ġaiming": 6979,
      "Ġabsurd": 6980,
      "Ġimportance": 6981,
      "ĠCharl": 6982,
      "chestr": 6983,
      "ĠKorea": 6984,
      "ĠFeeling": 6985,
      "ĠWatan": 6986,
      "Ġoperation": 6987,
      "Ġartifact": 6988,
      "Ġambitions": 6989,
      "ĠOriginal": 6990,
      "ĠMacross": 6991,
      "ĠEiji": 6992,
      "Ġturmo": 6993,
      "Ġatmosphere": 6994,
      "ĠSociety": 6995,
      "IT": 6996,
      "SH": 6997,
      "aight": 6998,
      "cover": 6999,
      "hard": 7000,
      "normal": 7001,
      "ook": 7002,
      "rom": 7003,
      "rome": 7004,
      "van": 7005,
      "Ġtail": 7006,
      "Ġsorts": 7007,
      "erable": 7008,
      "Ġfab": 7009,
      "Ġbicycle": 7010,
      "Ġhorn": 7011,
      "ouds": 7012,
      "Ġmal": 7013,
      "Ġmund": 7014,
      "Ġpalace": 7015,
      "alg": 7016,
      "Ġdull": 7017,
      "Ġdata": 7018,
      "omy": 7019,
      "ĠTas": 7020,
      "icip": 7021,
      "ĠSm": 7022,
      "ĠSch": 7023,
      "ĠSomet": 7024,
      "ĠAh": 7025,
      "ĠAired": 7026,
      "Ġlines": 7027,
      "aming": 7028,
      "ĠMit": 7029,
      "ĠMary": 7030,
      "ĠMaid": 7031,
      "idge": 7032,
      "Ġreached": 7033,
      "otaro": 7034,
      "hoku": 7035,
      "uni": 7036,
      "ĠKod": 7037,
      "Ġfrog": 7038,
      "agn": 7039,
      "umn": 7040,
      "umaki": 7041,
      "ĠBas": 7042,
      "aph": 7043,
      "iform": 7044,
      "ĠDead": 7045,
      "Ġtrigg": 7046,
      "ieving": 7047,
      "ĠRub": 7048,
      "Ġrises": 7049,
      "thr": 7050,
      "ĠGan": 7051,
      "ĠFree": 7052,
      "ĠFron": 7053,
      "Ġseize": 7054,
      "ĠPon": 7055,
      "ĠPers": 7056,
      "ĠLast": 7057,
      "iously": 7058,
      "ĠShuu": 7059,
      "Ġuplo": 7060,
      "Ġstraight": 7061,
      "ogami": 7062,
      "appa": 7063,
      "ugo": 7064,
      "ugu": 7065,
      "Ġcrashes": 7066,
      "ĠAlso": 7067,
      "arry": 7068,
      "Ġentering": 7069,
      "Ġworked": 7070,
      "Ġsupreme": 7071,
      "ĠYuuko": 7072,
      "ĠTaku": 7073,
      "ĠOni": 7074,
      "Ġseemed": 7075,
      "Ġdestination": 7076,
      "ĠSpring": 7077,
      "Ġamidst": 7078,
      "Ġevening": 7079,
      "Ġcontinuation": 7080,
      "inko": 7081,
      "Ġorigins": 7082,
      "ĠReal": 7083,
      "ĠCloud": 7084,
      "ucky": 7085,
      "Ġ193": 7086,
      "Ġescaping": 7087,
      "Ġfool": 7088,
      "clusion": 7089,
      "Ġ2012": 7090,
      "ĠProduction": 7091,
      "Ġchef": 7092,
      "Ġrevolution": 7093,
      "Ġbloody": 7094,
      "Ġparadise": 7095,
      "ĠExc": 7096,
      "ĠKaori": 7097,
      "ĠCommercial": 7098,
      "Ġvirg": 7099,
      "Ġengage": 7100,
      "Ġpublished": 7101,
      "Ġannual": 7102,
      "ĠKaguya": 7103,
      "Ġannih": 7104,
      "Ġdivided": 7105,
      "Ġlacks": 7106,
      "ĠWataru": 7107,
      "Ġhundreds": 7108,
      "Ġsilver": 7109,
      "Ġchampionship": 7110,
      "Ġdragons": 7111,
      "Ġscheme": 7112,
      "Ġresurrect": 7113,
      "ĠGakuen": 7114,
      "Ġsymb": 7115,
      "ĠPororo": 7116,
      "ĠImmortal": 7117,
      "Ġmedicine": 7118,
      "Ġmisadventures": 7119,
      "ĠAnniversary": 7120,
      "ĠSunday": 7121,
      "Ġturmoil": 7122,
      "AK": 7123,
      "HE": 7124,
      "coh": 7125,
      "gets": 7126,
      "set": 7127,
      "tan": 7128,
      "tier": 7129,
      "uf": 7130,
      "Ġcars": 7131,
      "anormal": 7132,
      "Ġhi": 7133,
      "Ġtouc": 7134,
      "Ġpian": 7135,
      "ĠTer": 7136,
      "ĠSousuke": 7137,
      "Ġgarden": 7138,
      "amaru": 7139,
      "amune": 7140,
      "Ġears": 7141,
      "Ġecon": 7142,
      "ĠMuch": 7143,
      "othes": 7144,
      "Ġaside": 7145,
      "Ġvia": 7146,
      "uming": 7147,
      "umed": 7148,
      "ĠCal": 7149,
      "ĠChik": 7150,
      "ĠNine": 7151,
      "ĠNish": 7152,
      "ĠNaz": 7153,
      "ĠWars": 7154,
      "Ġtrait": 7155,
      "anding": 7156,
      "ĠRep": 7157,
      "Ġrhythm": 7158,
      "ĠGing": 7159,
      "Ġattr": 7160,
      "ĠPark": 7161,
      "Ġchain": 7162,
      "Ġwaste": 7163,
      "Ġunt": 7164,
      "ĠJou": 7165,
      "ĠJuly": 7166,
      "seen": 7167,
      "ĠUm": 7168,
      "Ġclans": 7169,
      "Ġadjust": 7170,
      "Ġdisplay": 7171,
      "ibe": 7172,
      "ĠVocaloid": 7173,
      "Ġsurp": 7174,
      "Ġlovely": 7175,
      "Ġactors": 7176,
      "Ġplane": 7177,
      "Ġtransfers": 7178,
      "Ġconfusion": 7179,
      "Ġcontinuing": 7180,
      "ĠXu": 7181,
      "Ġguitar": 7182,
      "Ġhopeless": 7183,
      "Ġdetails": 7184,
      "Ġcoexist": 7185,
      "Ġstopped": 7186,
      "Ġsexually": 7187,
      "Ġchooses": 7188,
      "Ġbandits": 7189,
      "Ġmeteor": 7190,
      "ĠKazu": 7191,
      "ĠKazuma": 7192,
      "Ġhunted": 7193,
      "Ġdelight": 7194,
      "Ġsubm": 7195,
      "Ġeffect": 7196,
      "ropol": 7197,
      "ĠJunior": 7198,
      "Ġadditional": 7199,
      "Ġproducer": 7200,
      "Ġcaring": 7201,
      "ĠOsaka": 7202,
      "Ġfantas": 7203,
      "Ġamongst": 7204,
      "Ġmask": 7205,
      "Ġbattling": 7206,
      "Ġscientists": 7207,
      "Ġactivity": 7208,
      "Ġsigns": 7209,
      "Ġreunite": 7210,
      "urban": 7211,
      "ĠNatsuki": 7212,
      "ĠAlongside": 7213,
      "Ġgathering": 7214,
      "Ġmistake": 7215,
      "Ġmistakes": 7216,
      "Ġwindow": 7217,
      "Ġweakness": 7218,
      "ĠKaras": 7219,
      "Ġdragged": 7220,
      "ĠItsuki": 7221,
      "ĠShibuya": 7222,
      "Ġintelligent": 7223,
      "Ġseriously": 7224,
      "Ġschemes": 7225,
      "Ġhatred": 7226,
      "ĠGuardians": 7227,
      "ĠSilver": 7228,
      "Ġwatches": 7229,
      "Ġdinosaur": 7230,
      "Ġharmony": 7231,
      "quarters": 7232,
      "Ġimprison": 7233,
      "Ġdetermination": 7234,
      "ĠPretty": 7235,
      "ĠOctober": 7236,
      "Ġenormous": 7237,
      "chen": 7238,
      "ja": 7239,
      "sama": 7240,
      "wr": 7241,
      "yun": 7242,
      "Ġing": 7243,
      "Ġille": 7244,
      "only": 7245,
      "Ġbold": 7246,
      "Ġtoday": 7247,
      "arch": 7248,
      "Ġpatr": 7249,
      "Ġdubbed": 7250,
      "Ġinner": 7251,
      "Ġinev": 7252,
      "ĠSing": 7253,
      "ĠSengoku": 7254,
      "Ġgar": 7255,
      "Ġnice": 7256,
      "ĠMuk": 7257,
      "uristic": 7258,
      "igr": 7259,
      "unte": 7260,
      "Ġfright": 7261,
      "ĠIb": 7262,
      "uls": 7263,
      "osal": 7264,
      "ieves": 7265,
      "ĠRail": 7266,
      "ĠRika": 7267,
      "Ġrice": 7268,
      "that": 7269,
      "ĠYa": 7270,
      "ĠFre": 7271,
      "ĠFun": 7272,
      "ĠFumi": 7273,
      "ĠFurther": 7274,
      "ĠPil": 7275,
      "ĠPatr": 7276,
      "okawa": 7277,
      "Ġconcept": 7278,
      "Ġuniform": 7279,
      "Ġintends": 7280,
      "Ġjud": 7281,
      "Ġloving": 7282,
      "ĠUt": 7283,
      "ĠShion": 7284,
      "Ġclues": 7285,
      "Ġarrog": 7286,
      "Ġanimations": 7287,
      "Ġuseless": 7288,
      "Ġdriver": 7289,
      "Ġentang": 7290,
      "Ġweather": 7291,
      "Ġperhaps": 7292,
      "oster": 7293,
      "Ġpersist": 7294,
      "ĠTooru": 7295,
      "ĠXing": 7296,
      "cience": 7297,
      "Ġconsisting": 7298,
      "Ġtraveled": 7299,
      "Ġartists": 7300,
      "Ġvisited": 7301,
      "Ġdeaths": 7302,
      "ĠMikoto": 7303,
      "Ġdirectly": 7304,
      "ĠNoz": 7305,
      "including": 7306,
      "ĠHiroshima": 7307,
      "Ġoccurs": 7308,
      "ropom": 7309,
      "Ġlimit": 7310,
      "Ġmurders": 7311,
      "ĠFlower": 7312,
      "Ġmature": 7313,
      "Ġteenagers": 7314,
      "ĠBatt": 7315,
      "Ġgrowth": 7316,
      "ĠEveryone": 7317,
      "ĠHeroes": 7318,
      "imson": 7319,
      "Ġoccurred": 7320,
      "Ġheavy": 7321,
      "Ġfreshman": 7322,
      "ĠDivine": 7323,
      "ĠSaitou": 7324,
      "ĠAccording": 7325,
      "Ġnegative": 7326,
      "Ġenlists": 7327,
      "Ġconvinces": 7328,
      "Ġperilous": 7329,
      "Ġmentor": 7330,
      "Ġtutor": 7331,
      "Ġcatastrop": 7332,
      "Ġbrilliant": 7333,
      "Ġlanguage": 7334,
      "ĠIsekai": 7335,
      "ĠSeveral": 7336,
      "ĠBureau": 7337,
      "Ġprowess": 7338,
      "BI": 7339,
      "IL": 7340,
      "fly": 7341,
      "farious": 7342,
      "jiro": 7343,
      "press": 7344,
      "tale": 7345,
      "vi": 7346,
      "yles": 7347,
      "Ġts": 7348,
      "Ġtorm": 7349,
      "isher": 7350,
      "atta": 7351,
      "orb": 7352,
      "Ġhang": 7353,
      "alt": 7354,
      "Ġdil": 7355,
      "Ġdire": 7356,
      "lege": 7357,
      "ĠTao": 7358,
      "iring": 7359,
      "ĠSailor": 7360,
      "acter": 7361,
      "ĠMing": 7362,
      "ĠMech": 7363,
      "vey": 7364,
      "urious": 7365,
      "ĠHase": 7366,
      "Ġancest": 7367,
      "usei": 7368,
      "Ġvon": 7369,
      "ĠBro": 7370,
      "Ġalcoh": 7371,
      "ĠNina": 7372,
      "ĠWinter": 7373,
      "ĠRope": 7374,
      "ĠFang": 7375,
      "ĠPat": 7376,
      "ĠPap": 7377,
      "ĠPiece": 7378,
      "okie": 7379,
      "Ġaren": 7380,
      "Ġconclusion": 7381,
      "Ġunst": 7382,
      "ukan": 7383,
      "Ġclock": 7384,
      "Ġclouds": 7385,
      "Ġbutler": 7386,
      "Ġ(\"": 7387,
      "Ġresidence": 7388,
      "Ġuser": 7389,
      "ĠHei": 7390,
      "Ġcryst": 7391,
      "Ġdriven": 7392,
      "ĠAlph": 7393,
      "Ġinvaded": 7394,
      "Ġsomewhat": 7395,
      "ĠAraragi": 7396,
      "ĠUnion": 7397,
      "Ġrelative": 7398,
      "ĠTakuya": 7399,
      "Ġperspective": 7400,
      "Ġwars": 7401,
      "Ġintertw": 7402,
      "Ġconfused": 7403,
      "Ġmostly": 7404,
      "enger": 7405,
      "Ġprotection": 7406,
      "Ġshopping": 7407,
      "Ġheroic": 7408,
      "Ġvision": 7409,
      "ĠLeo": 7410,
      "Ġsurvived": 7411,
      "ĠKuros": 7412,
      "Ġphoto": 7413,
      "Ġperformances": 7414,
      "ĠSecret": 7415,
      "Ġadvance": 7416,
      "ĠKyousuke": 7417,
      "ĠAyumu": 7418,
      "Ġpoison": 7419,
      "Ġstreamed": 7420,
      "Ġcolleagues": 7421,
      "ĠSeries": 7422,
      "Ġcelebration": 7423,
      "Ġreaching": 7424,
      "Ġtypes": 7425,
      "ĠEpisodes": 7426,
      "shaped": 7427,
      "Ġmaiden": 7428,
      "ĠEverything": 7429,
      "Ġattracted": 7430,
      "Ġunderstanding": 7431,
      "ĠKids": 7432,
      "colate": 7433,
      "Ġangels": 7434,
      "ĠFuture": 7435,
      "Ġpressure": 7436,
      "Ġcyborgs": 7437,
      "Ġbanished": 7438,
      "ĠCorps": 7439,
      "ĠCorporation": 7440,
      "Ġwoods": 7441,
      "Ġradio": 7442,
      "Ġhighest": 7443,
      "ĠFurukawa": 7444,
      "Ġbullied": 7445,
      "Ġdisguise": 7446,
      "Ġshooting": 7447,
      "volent": 7448,
      "ĠWonderland": 7449,
      "ĠKanto": 7450,
      "ĠJohn": 7451,
      "Ġreminis": 7452,
      "Ġhesit": 7453,
      "Ġremembers": 7454,
      "In": 7455,
      "RA": 7456,
      "RO": 7457,
      "YO": 7458,
      "da": 7459,
      "lin": 7460,
      "uable": 7461,
      "Ġtests": 7462,
      "Ġafraid": 7463,
      "reced": 7464,
      "Ġfund": 7465,
      "Ġbot": 7466,
      "Ġbitter": 7467,
      "Ġham": 7468,
      "arl": 7469,
      "Ġmid": 7470,
      "aly": 7471,
      "Ġdress": 7472,
      "Ġinad": 7473,
      "asp": 7474,
      "ĠTree": 7475,
      "ĠTarou": 7476,
      "ĠAw": 7477,
      "ĠAle": 7478,
      "ĠAut": 7479,
      "ĠAct": 7480,
      "Ġlabel": 7481,
      "ĠMaru": 7482,
      "ĠMatsu": 7483,
      "iders": 7484,
      "Ġforth": 7485,
      "usu": 7486,
      "ements": 7487,
      "ĠCinem": 7488,
      "ĠBi": 7489,
      "ĠBou": 7490,
      "ĠNik": 7491,
      "ĠDisc": 7492,
      "ĠWild": 7493,
      "ĠWei": 7494,
      "iller": 7495,
      "ideo": 7496,
      "Ġriding": 7497,
      "ĠGang": 7498,
      "ĠGohan": 7499,
      "ĠOre": 7500,
      "ĠYing": 7501,
      "ĠYoko": 7502,
      "ĠFinally": 7503,
      "ĠLily": 7504,
      "Ġnefarious": 7505,
      "ĠJump": 7506,
      "Ġshares": 7507,
      "ectives": 7508,
      "Ġjungle": 7509,
      "ĠUz": 7510,
      "ĠUmi": 7511,
      "ĠShit": 7512,
      "ĠShirou": 7513,
      "izumi": 7514,
      "Ġdisease": 7515,
      "Ġaggress": 7516,
      "others": 7517,
      "Ġprec": 7518,
      "Ġcanc": 7519,
      "iber": 7520,
      "obe": 7521,
      "ogane": 7522,
      "Ġrog": 7523,
      "ishou": 7524,
      "Ġdrif": 7525,
      "ĠStation": 7526,
      "Ġactor": 7527,
      "Ġclasses": 7528,
      "ario": 7529,
      "Ġprotects": 7530,
      "Ġsmo": 7531,
      "ĠTsun": 7532,
      "ĠTsuki": 7533,
      "Ġpromising": 7534,
      "Ġsuperhuman": 7535,
      "ĠShinichi": 7536,
      "eeping": 7537,
      "Ġheading": 7538,
      "aneously": 7539,
      "Ġwrite": 7540,
      "ĠKanade": 7541,
      "Ġgrades": 7542,
      "Ġglory": 7543,
      "Ġglimp": 7544,
      "Ġsubordin": 7545,
      "ĠHiromi": 7546,
      "Ġrevived": 7547,
      "Ġdeeply": 7548,
      "Ġpool": 7549,
      "ĠPlay": 7550,
      "Ġproducts": 7551,
      "Ġruin": 7552,
      "ĠCrystal": 7553,
      "ĠYuuji": 7554,
      "looking": 7555,
      "ĠUshi": 7556,
      "Ġmermaid": 7557,
      "ipping": 7558,
      "Ġdemean": 7559,
      "Ġmatches": 7560,
      "ĠRobo": 7561,
      "Ġemotion": 7562,
      "ĠStraw": 7563,
      "ĠTamaki": 7564,
      "ĠOtome": 7565,
      "Ġattractive": 7566,
      "Ġannounces": 7567,
      "Ġpositive": 7568,
      "Ġobtained": 7569,
      "Ġfinancial": 7570,
      "Ġflee": 7571,
      "ĠYoshino": 7572,
      "Ġinhabited": 7573,
      "ozen": 7574,
      "Ġheavens": 7575,
      "sequently": 7576,
      "Ġparticularly": 7577,
      "Ġregarding": 7578,
      "warming": 7579,
      "Ġastron": 7580,
      "ĠOda": 7581,
      "Ġinteractions": 7582,
      "ĠMamoru": 7583,
      "Ġhigher": 7584,
      "Ġfrequently": 7585,
      "Ġescal": 7586,
      "Ġembarrassing": 7587,
      "Ġnavigate": 7588,
      "Ġexplosion": 7589,
      "Ġstrateg": 7590,
      "Ġanthropom": 7591,
      "Ġmotorcycle": 7592,
      "ĠOrganization": 7593,
      "Ġhobby": 7594,
      "Ġremnants": 7595,
      "Ġmundane": 7596,
      "recedented": 7597,
      "'.": 7598,
      "Ch": 7599,
      "hai": 7600,
      "iqu": 7601,
      "wart": 7602,
      "zy": 7603,
      "Ġtank": 7604,
      "Ġsite": 7605,
      "Ġsaying": 7606,
      "reg": 7607,
      "isan": 7608,
      "isdom": 7609,
      "Ġwits": 7610,
      "Ġwacky": 7611,
      "athered": 7612,
      "Ġbarr": 7613,
      "Ġbank": 7614,
      "orter": 7615,
      "Ġholy": 7616,
      "itual": 7617,
      "Ġmarks": 7618,
      "Ġpink": 7619,
      "Ġdressed": 7620,
      "omon": 7621,
      "ĠTre": 7622,
      "ĠTong": 7623,
      "Ġnaked": 7624,
      "Ġlying": 7625,
      "ĠMal": 7626,
      "ĠMana": 7627,
      "otes": 7628,
      "igata": 7629,
      "ĠBei": 7630,
      "ĠNet": 7631,
      "ĠDore": 7632,
      "ĠDens": 7633,
      "ĠWit": 7634,
      "ĠWolf": 7635,
      "ĠGint": 7636,
      "ĠOz": 7637,
      "ĠOld": 7638,
      "ĠOther": 7639,
      "ĠPle": 7640,
      "ĠLion": 7641,
      "Ġunaired": 7642,
      "Ġplung": 7643,
      "Ġsharing": 7644,
      "Ġclothes": 7645,
      "eller": 7646,
      "avors": 7647,
      "Ġstruck": 7648,
      "Ġstrangers": 7649,
      "Ġdiss": 7650,
      "Ġagree": 7651,
      "Ġcompl": 7652,
      "Ġcompos": 7653,
      "urned": 7654,
      "ibilities": 7655,
      "Ġ23": 7656,
      "Ġ27": 7657,
      "Ġ28": 7658,
      "endo": 7659,
      "Ġblond": 7660,
      "ĠStone": 7661,
      "ĠWithin": 7662,
      "ashing": 7663,
      "oint": 7664,
      "ption": 7665,
      "Ġembr": 7666,
      "Ġrelent": 7667,
      "Ġimpending": 7668,
      "Ġswall": 7669,
      "Ġcoff": 7670,
      "ĠMika": 7671,
      "Ġkills": 7672,
      "Ġ2016": 7673,
      "Ġ2019": 7674,
      "Ġexpedition": 7675,
      "Ġrobotic": 7676,
      "Ġinvolve": 7677,
      "Ġencountered": 7678,
      "Ġmighty": 7679,
      "ĠAyumi": 7680,
      "Ġfreely": 7681,
      "Ġfantastic": 7682,
      "Ġdemise": 7683,
      "Ġassassination": 7684,
      "Ġprofessor": 7685,
      "Ġhostage": 7686,
      "Ġpracticing": 7687,
      "Ġcovers": 7688,
      "ĠWeb": 7689,
      "ĠCollege": 7690,
      "ocalyptic": 7691,
      "Ġutter": 7692,
      "Ġmirac": 7693,
      "Ġlandscape": 7694,
      "ĠTsubaki": 7695,
      "ĠCheng": 7696,
      "related": 7697,
      "uyoshi": 7698,
      "anguard": 7699,
      "Ġboarding": 7700,
      "Ġrecruits": 7701,
      "works": 7702,
      "ĠBaikin": 7703,
      "Ġdrops": 7704,
      "Ġhaunted": 7705,
      "Ġinexplic": 7706,
      "Ġmethods": 7707,
      "Ġblend": 7708,
      "Ġbreath": 7709,
      "Ġdocument": 7710,
      "Ġunderwater": 7711,
      "Ġacademic": 7712,
      "ĠInternational": 7713,
      "ĠChaos": 7714,
      "ĠOkinawa": 7715,
      "Ġcatastrophe": 7716,
      "Ġinadvert": 7717,
      "Ġdemeanor": 7718,
      "AI": 7719,
      "eg": 7720,
      "ees": 7721,
      "ios": 7722,
      "ls": 7723,
      "lock": 7724,
      "making": 7725,
      "raft": 7726,
      "then": 7727,
      "taro": 7728,
      "uis": 7729,
      "âĻ": 7730,
      "Ġerr": 7731,
      "Ġtim": 7732,
      "Ġsem": 7733,
      "Ġsought": 7734,
      "isingly": 7735,
      "Ġfal": 7736,
      "Ġfirm": 7737,
      "ester": 7738,
      "eness": 7739,
      "Ġcandy": 7740,
      "Ġhates": 7741,
      "ales": 7742,
      "Ġdungeon": 7743,
      "asm": 7744,
      "omori": 7745,
      "ication": 7746,
      "iragi": 7747,
      "ĠSwe": 7748,
      "Ġgig": 7749,
      "ĠAD": 7750,
      "Ġlay": 7751,
      "Ġlux": 7752,
      "Ġepic": 7753,
      "ĠMina": 7754,
      "ĠMaya": 7755,
      "ĠHand": 7756,
      "usagi": 7757,
      "ĠKatsu": 7758,
      "elia": 7759,
      "ayoi": 7760,
      "Ġvig": 7761,
      "Ġvoc": 7762,
      "Ġveter": 7763,
      "ĠCour": 7764,
      "ĠCount": 7765,
      "ĠIDOL": 7766,
      "ĠBak": 7767,
      "ĠRio": 7768,
      "Ġroles": 7769,
      "Ġworry": 7770,
      "ĠGon": 7771,
      "ĠOb": 7772,
      "ĠOl": 7773,
      "ĠOok": 7774,
      "okes": 7775,
      "âĢĵ": 7776,
      "Ġspite": 7777,
      "Ġju": 7778,
      "ĠInitial": 7779,
      "acks": 7780,
      "acked": 7781,
      "Ġstring": 7782,
      "troll": 7783,
      "ĠChit": 7784,
      "ĠChannel": 7785,
      "ocks": 7786,
      "pless": 7787,
      "Ġhelpless": 7788,
      "Ġdrown": 7789,
      "ĠAlic": 7790,
      "Ġrealized": 7791,
      "Ġrecre": 7792,
      "ĠStill": 7793,
      "iana": 7794,
      "Ġweight": 7795,
      "Ġassoci": 7796,
      "ĠPrivate": 7797,
      "Ġdemonstr": 7798,
      "Ġfuturistic": 7799,
      "otsu": 7800,
      "ĠBeaut": 7801,
      "ĠSakamoto": 7802,
      "Ġcompeting": 7803,
      "Ġfoes": 7804,
      "ĠOrder": 7805,
      "ĠTomo": 7806,
      "Ġhandle": 7807,
      "Ġsolving": 7808,
      "Ġcombined": 7809,
      "Ġselfish": 7810,
      "piration": 7811,
      "Ġparanormal": 7812,
      "ĠAyaka": 7813,
      "Ġpursued": 7814,
      "ĠComic": 7815,
      "Ġmasters": 7816,
      "Ġstaying": 7817,
      "Ġdifficulties": 7818,
      "Ġprovides": 7819,
      "ĠDarkness": 7820,
      "Ġtracks": 7821,
      "ĠKyouko": 7822,
      "Ġgenerations": 7823,
      "Ġinjury": 7824,
      "Ġexperiments": 7825,
      "ĠFujiko": 7826,
      "Ġexceptional": 7827,
      "ĠSugimoto": 7828,
      "Ġfloor": 7829,
      "Ġburden": 7830,
      "ĠResearch": 7831,
      "Ġdormitory": 7832,
      "Ġbullying": 7833,
      "Ġbetrayed": 7834,
      "Ġventure": 7835,
      "Ġdismay": 7836,
      "Ġreclaim": 7837,
      "Ġracer": 7838,
      "ĠKisaragi": 7839,
      "Ġnetwork": 7840,
      "ĠMyster": 7841,
      "ĠAsahi": 7842,
      "Ġabruptly": 7843,
      "ĠArthur": 7844,
      "Ar": 7845,
      "VE": 7846,
      "aurs": 7847,
      "bre": 7848,
      "egr": 7849,
      "fish": 7850,
      "power": 7851,
      "wan": 7852,
      "heel": 7853,
      "Ġtheatrical": 7854,
      "Ġsan": 7855,
      "Ġsort": 7856,
      "Ġwins": 7857,
      "Ġwears": 7858,
      "Ġwreak": 7859,
      "Ġfelt": 7860,
      "anqu": 7861,
      "Ġmast": 7862,
      "Ġdinner": 7863,
      "Ġhen": 7864,
      "irin": 7865,
      "irrel": 7866,
      "ĠSang": 7867,
      "ĠSaku": 7868,
      "ĠSouta": 7869,
      "Ġgal": 7870,
      "Ġgathered": 7871,
      "ĠAge": 7872,
      "Ġlab": 7873,
      "Ġeternal": 7874,
      "ĠMut": 7875,
      "ĠMond": 7876,
      "Ġreapp": 7877,
      "Ġstal": 7878,
      "Ġstead": 7879,
      "ĠKaren": 7880,
      "eld": 7881,
      "Ġvicious": 7882,
      "umaru": 7883,
      "ĠBaby": 7884,
      "Ġally": 7885,
      "ĠNational": 7886,
      "ĠNishi": 7887,
      "ifies": 7888,
      "ĠDance": 7889,
      "ĠDays": 7890,
      "ĠWuk": 7891,
      "ĠWall": 7892,
      "ĠWater": 7893,
      "Ġroll": 7894,
      "Ġrank": 7895,
      "ĠGarden": 7896,
      "ĠFinal": 7897,
      "Ġseed": 7898,
      "ĠPo": 7899,
      "ĠPink": 7900,
      "ĠPanda": 7901,
      "ĠLam": 7902,
      "ĠLie": 7903,
      "Ġshell": 7904,
      "opard": 7905,
      "ĠJud": 7906,
      "Ġsched": 7907,
      "ukai": 7908,
      "Ġlets": 7909,
      "Ġdepr": 7910,
      "ctuary": 7911,
      "Ġplant": 7912,
      "Ġplots": 7913,
      "avity": 7914,
      "Ġmanif": 7915,
      "Ġdisasters": 7916,
      "Ġpreview": 7917,
      "Ġarch": 7918,
      "Ġgrim": 7919,
      "Ġtwelve": 7920,
      "Ġimages": 7921,
      "ulture": 7922,
      "Ġhumankind": 7923,
      "Ġowned": 7924,
      "Ġrealizing": 7925,
      "Ġblock": 7926,
      "ĠWithout": 7927,
      "ĠUnlike": 7928,
      "ĠToei": 7929,
      "ĠSeeing": 7930,
      "ĠPrism": 7931,
      "ength": 7932,
      "Ġslaves": 7933,
      "Ġexplain": 7934,
      "Ġpossibly": 7935,
      "Ġvisiting": 7936,
      "Ġ194": 7937,
      "Ġedge": 7938,
      "Ġunconscious": 7939,
      "Ġdepart": 7940,
      "ĠKano": 7941,
      "Ġtreacher": 7942,
      "Ġsubst": 7943,
      "Ġ2014": 7944,
      "Ġadvis": 7945,
      "Ġadvances": 7946,
      "ĠMasato": 7947,
      "ĠMasamune": 7948,
      "Ġreflect": 7949,
      "stract": 7950,
      "Ġbigger": 7951,
      "ĠHanako": 7952,
      "Ġadapted": 7953,
      "oof": 7954,
      "Ġharbor": 7955,
      "ĠOkamoto": 7956,
      "Ġmasked": 7957,
      "Ġaimed": 7958,
      "Ġengaged": 7959,
      "Ġrivalry": 7960,
      "Ġpresented": 7961,
      "Ġrequire": 7962,
      "Ġcelebrating": 7963,
      "ĠYukari": 7964,
      "ĠKagami": 7965,
      "Ġunfor": 7966,
      "Ġviewers": 7967,
      "Ġclaiming": 7968,
      "ĠSanada": 7969,
      "Ġguardians": 7970,
      "Ġsuffered": 7971,
      "ĠSuisei": 7972,
      "Ġsweets": 7973,
      "Ġhonest": 7974,
      "ĠAngels": 7975,
      "ĠColor": 7976,
      "Ġartifacts": 7977,
      "Ġdescendant": 7978,
      "Ġheavily": 7979,
      "Ġtroublesome": 7980,
      "Ġadopt": 7981,
      "classman": 7982,
      "azinger": 7983,
      "Ġbelongs": 7984,
      "Ġrecruited": 7985,
      "Ġelectric": 7986,
      "Ġcommitted": 7987,
      "STER": 7988,
      "Ġmutual": 7989,
      "Ġmerely": 7990,
      "ĠHibiki": 7991,
      "Ġbetrayal": 7992,
      "Ġfearsome": 7993,
      "Ġunprecedented": 7994,
      "Ġblossom": 7995,
      "Ġobliv": 7996,
      "Ġculpr": 7997,
      "ĠAtsushi": 7998,
      "ĠOlymp": 7999,
      "ĠShinnosuke": 8000,
      "Ġrepeatedly": 8001,
      "Ġslightly": 8002,
      "Ġtheaters": 8003,
      "Ġshelter": 8004,
      "ĠRuby": 8005,
      "Ġsmooth": 8006,
      "ĠBaikinman": 8007,
      "Ġinadvertently": 8008,
      "ĠWukong": 8009,
      "HS": 8010,
      "des": 8011,
      "daughter": 8012,
      "math": 8013,
      "qing": 8014,
      "rim": 8015,
      "Ġurban": 8016,
      "Ġtag": 8017,
      "Ġterm": 8018,
      "inct": 8019,
      "inations": 8020,
      "restr": 8021,
      "Ġbag": 8022,
      "enix": 8023,
      "anai": 8024,
      "Ġtoys": 8025,
      "arp": 8026,
      "Ġmuseum": 8027,
      "Ġmillen": 8028,
      "Ġproud": 8029,
      "Ġdirty": 8030,
      "lement": 8031,
      "ĠTob": 8032,
      "ĠSent": 8033,
      "ĠSad": 8034,
      "Ġgorge": 8035,
      "ĠMazinger": 8036,
      "utter": 8037,
      "hoenix": 8038,
      "ushika": 8039,
      "ĠKub": 8040,
      "ayuki": 8041,
      "agiri": 8042,
      "Ġvs": 8043,
      "ums": 8044,
      "umin": 8045,
      "ĠCarr": 8046,
      "ĠBen": 8047,
      "apes": 8048,
      "ulations": 8049,
      "ĠDuel": 8050,
      "ĠWestern": 8051,
      "Ġtruck": 8052,
      "Ġtranqu": 8053,
      "ĠRiko": 8054,
      "ĠRuri": 8055,
      "Ġyellow": 8056,
      "ĠGens": 8057,
      "ĠOj": 8058,
      "ĠYO": 8059,
      "Ġseventh": 8060,
      "ĠPast": 8061,
      "Ġchronic": 8062,
      "ĠLost": 8063,
      "Ġconvent": 8064,
      "Ġspots": 8065,
      "Ġdeity": 8066,
      "Ġexample": 8067,
      "Ġintegr": 8068,
      "Ġwhis": 8069,
      "ĠSha": 8070,
      "Ġschoolgirl": 8071,
      "ubble": 8072,
      "Ġstray": 8073,
      "Ġstranded": 8074,
      "awari": 8075,
      "Ġprequel": 8076,
      "Ġpremi": 8077,
      "onda": 8078,
      "Ġrespect": 8079,
      "Ġanimator": 8080,
      "Ġaftermath": 8081,
      "Ġoffered": 8082,
      "Ġdecade": 8083,
      "Ġcraf": 8084,
      "...?": 8085,
      "ĠStates": 8086,
      "ĠArk": 8087,
      "ĠArm": 8088,
      "Ġassem": 8089,
      "andson": 8090,
      "aughty": 8091,
      "Ġmonstrous": 8092,
      "Ġdetectives": 8093,
      "Ġchose": 8094,
      "ĠIshi": 8095,
      "Ġvolunte": 8096,
      "Ġrepair": 8097,
      "ĠAmidst": 8098,
      "Ġarmies": 8099,
      "ĠShiina": 8100,
      "ĠHaruto": 8101,
      "ĠMasters": 8102,
      "Ġrevol": 8103,
      "Ġexcell": 8104,
      "ĠAyase": 8105,
      "ĠTenma": 8106,
      "ĠKamui": 8107,
      "ĠMomoko": 8108,
      "Ġstrengthen": 8109,
      "ĠUsagi": 8110,
      "ciless": 8111,
      "Ġcleaning": 8112,
      "Ġanticip": 8113,
      "Ġsuffer": 8114,
      "ĠSouma": 8115,
      "ĠSuzu": 8116,
      "Ġreunites": 8117,
      "Ġneighbors": 8118,
      "ĠSeiji": 8119,
      "Ġemerg": 8120,
      "Ġcosts": 8121,
      "Ġaccompany": 8122,
      "goti": 8123,
      "Ġacquire": 8124,
      "Ġconfesses": 8125,
      "Ġimmortality": 8126,
      "Ġeldest": 8127,
      "Ġemployee": 8128,
      "Ġexpectations": 8129,
      "Ġmixed": 8130,
      "ĠMeiji": 8131,
      "Ġsacrific": 8132,
      "Ġautom": 8133,
      "ĠCyber": 8134,
      "Ġcandidate": 8135,
      "Ġtensions": 8136,
      "ĠfiancÃ©e": 8137,
      "Ġexhibition": 8138,
      "Ġdeserted": 8139,
      "Ġassignment": 8140,
      "Ġextermin": 8141,
      "ĠSeishun": 8142,
      "Ġplagued": 8143,
      "Ġrebellion": 8144,
      "ĠFriends": 8145,
      "Ġladies": 8146,
      "Ġsurpass": 8147,
      "Ġmasturb": 8148,
      "cked": 8149,
      "gant": 8150,
      "hashi": 8151,
      "haya": 8152,
      "ivery": 8153,
      "nan": 8154,
      "ries": 8155,
      "ties": 8156,
      "tachi": 8157,
      "wd": 8158,
      "Ġaward": 8159,
      "Ġavenge": 8160,
      "Ġsle": 8161,
      "Ġomin": 8162,
      "rem": 8163,
      "isters": 8164,
      "Ġwicked": 8165,
      "Ġfond": 8166,
      "Ġbent": 8167,
      "Ġburning": 8168,
      "oria": 8169,
      "enc": 8170,
      "Ġcarn": 8171,
      "Ġhyp": 8172,
      "Ġharem": 8173,
      "alian": 8174,
      "omach": 8175,
      "ĠTana": 8176,
      "ĠSor": 8177,
      "ĠSim": 8178,
      "ĠSept": 8179,
      "ĠAp": 8180,
      "ĠAin": 8181,
      "ĠAim": 8182,
      "Ġlots": 8183,
      "Ġlights": 8184,
      "Ġbew": 8185,
      "ĠMic": 8186,
      "ĠMartial": 8187,
      "ige": 8188,
      "ĠKyo": 8189,
      "add": 8190,
      "Ġascend": 8191,
      "Ġvice": 8192,
      "ĠCall": 8193,
      "ĠCosm": 8194,
      "ĠIi": 8195,
      "apse": 8196,
      "uled": 8197,
      "ĠNod": 8198,
      "ĠNaru": 8199,
      "ĠNank": 8200,
      "ĠNico": 8201,
      "ĠNyan": 8202,
      "ĠRiku": 8203,
      "ĠRabbit": 8204,
      "ĠOot": 8205,
      "ĠYomi": 8206,
      "Ġitem": 8207,
      "ĠLog": 8208,
      "ĠLiving": 8209,
      "chou": 8210,
      "Ġkar": 8211,
      "Ġareas": 8212,
      "oph": 8213,
      "Ġhasn": 8214,
      "ĠJe": 8215,
      "ounts": 8216,
      "Ġje": 8217,
      "Ġlovers": 8218,
      "ĠInside": 8219,
      "ĠShow": 8220,
      "Ġclosed": 8221,
      "Ġarg": 8222,
      "episod": 8223,
      "try": 8224,
      "Ġgrasp": 8225,
      "Ġotherworld": 8226,
      "Ġtea": 8227,
      "Ġbranch": 8228,
      "Ġrookie": 8229,
      "Ġsects": 8230,
      "azed": 8231,
      "Ġdecis": 8232,
      "ĠVanguard": 8233,
      "ĠZhi": 8234,
      "eking": 8235,
      "Ġunderst": 8236,
      "Ġretreat": 8237,
      "Ġtransp": 8238,
      "Ġamusement": 8239,
      "ĠMew": 8240,
      "Ġsworn": 8241,
      "ĠTsur": 8242,
      "ĠRef": 8243,
      "ĠReiko": 8244,
      "Ġarrang": 8245,
      "Ġpromised": 8246,
      "ĠAthen": 8247,
      "Ġshock": 8248,
      "Ġgreatly": 8249,
      "Ġlocked": 8250,
      "ĠEns": 8251,
      "Ġsitting": 8252,
      "bruary": 8253,
      "Ġkindergarten": 8254,
      "rays": 8255,
      "Ġterritory": 8256,
      "Ġtreated": 8257,
      "Ġerad": 8258,
      "Ġbelieving": 8259,
      "ĠTomoya": 8260,
      "lla": 8261,
      "ification": 8262,
      "Ġthrow": 8263,
      "Ġthrilling": 8264,
      "Ġsteam": 8265,
      "ĠNanase": 8266,
      "byss": 8267,
      "Ġprincesses": 8268,
      "ĠCrown": 8269,
      "Ġclosest": 8270,
      "Ġproduct": 8271,
      "Ġmerciless": 8272,
      "Ġairing": 8273,
      "Ġapproached": 8274,
      "imiya": 8275,
      "Ġconfronts": 8276,
      "ĠZhao": 8277,
      "spaper": 8278,
      "Ġconquest": 8279,
      "Ġwitnessing": 8280,
      "Ġcircle": 8281,
      "Ġgathers": 8282,
      "Ġfulfilling": 8283,
      "ĠStudent": 8284,
      "ĠValley": 8285,
      "Ġenrolled": 8286,
      "ĠHiiragi": 8287,
      "ĠHeavenly": 8288,
      "ĠGalactic": 8289,
      "Ġrecognized": 8290,
      "ĠKamiusagi": 8291,
      "Ġrespectively": 8292,
      "Ġbirds": 8293,
      "Ġalternative": 8294,
      "Ġdrinking": 8295,
      "Ġtrailer": 8296,
      "ĠRikka": 8297,
      "Ġprosperity": 8298,
      "Ġaccomplish": 8299,
      "Ġfragile": 8300,
      "Ġsatisfy": 8301,
      "Ġquirky": 8302,
      "Ġaspires": 8303,
      "Ġdialogue": 8304,
      "ĠJanuary": 8305,
      "Ġtroops": 8306,
      "ĠFurthermore": 8307,
      "Ġdilig": 8308,
      "Ġrogue": 8309,
      "Ġculprit": 8310,
      "restrial": 8311,
      "Ġgorgeous": 8312,
      "Ġominous": 8313,
      "\")": 8314,
      "'d": 8315,
      "FO": 8316,
      "LE": 8317,
      "Pl": 8318,
      "Pr": 8319,
      "bou": 8320,
      "dream": 8321,
      "eks": 8322,
      "fe": 8323,
      "gers": 8324,
      "know": 8325,
      "mend": 8326,
      "made": 8327,
      "maker": 8328,
      "net": 8329,
      "run": 8330,
      "vin": 8331,
      "vable": 8332,
      "with": 8333,
      "wielding": 8334,
      "Ġiron": 8335,
      "iner": 8336,
      "reet": 8337,
      "Ġwre": 8338,
      "Ġwaking": 8339,
      "Ġwinner": 8340,
      "Ġfine": 8341,
      "onym": 8342,
      "Ġboring": 8343,
      "orate": 8344,
      "inger": 8345,
      "iti": 8346,
      "Ġmish": 8347,
      "Ġmaf": 8348,
      "Ġmention": 8349,
      "aling": 8350,
      "Ġdread": 8351,
      "leased": 8352,
      "level": 8353,
      "ĠTar": 8354,
      "ĠSher": 8355,
      "Ġthwart": 8356,
      "Ġge": 8357,
      "ĠAir": 8358,
      "ĠAoba": 8359,
      "ĠAbyss": 8360,
      "Ġlibrary": 8361,
      "amori": 8362,
      "ste": 8363,
      "stick": 8364,
      "Ġreading": 8365,
      "olate": 8366,
      "urry": 8367,
      "ĠHachi": 8368,
      "ĠHonda": 8369,
      "ĠKor": 8370,
      "ĠKos": 8371,
      "ĠKanna": 8372,
      "ros": 8373,
      "ĠColl": 8374,
      "ĠIpp": 8375,
      "ĠBakugan": 8376,
      "ulously": 8377,
      "ĠNE": 8378,
      "ĠNiss": 8379,
      "ĠNohara": 8380,
      "ĠDao": 8381,
      "oush": 8382,
      "ainted": 8383,
      "ivity": 8384,
      "ĠRun": 8385,
      "ĠRok": 8386,
      "ĠRui": 8387,
      "Ġrig": 8388,
      "ĠGai": 8389,
      "ĠGood": 8390,
      "ĠOo": 8391,
      "ĠEin": 8392,
      "ĠEld": 8393,
      "Ġcomical": 8394,
      "ĠLond": 8395,
      "ching": 8396,
      "Ġnegoti": 8397,
      "oping": 8398,
      "Ġabnormal": 8399,
      "Ġlog": 8400,
      "ĠInf": 8401,
      "izon": 8402,
      "Ġnewspaper": 8403,
      "oyuki": 8404,
      "astically": 8405,
      "uber": 8406,
      "ĠThanks": 8407,
      "Ġgrandson": 8408,
      "Ġpeak": 8409,
      "ormally": 8410,
      "perien": 8411,
      "isha": 8412,
      "playing": 8413,
      "Ġcry": 8414,
      "Ġinvading": 8415,
      "ĠVHS": 8416,
      "ords": 8417,
      "ipment": 8418,
      "ĠZheng": 8419,
      "Ġreck": 8420,
      "Ġbloom": 8421,
      "Ġperpet": 8422,
      "Ġskin": 8423,
      "pecting": 8424,
      "aughters": 8425,
      "engumi": 8426,
      "Ġflood": 8427,
      "ĠTsum": 8428,
      "Ġslaughter": 8429,
      "Ġshogun": 8430,
      "Ġexploration": 8431,
      "Ġcov": 8432,
      "Ġelf": 8433,
      "Ġdefeats": 8434,
      "phant": 8435,
      "ĠFrance": 8436,
      "ĠMarie": 8437,
      "Ġmetal": 8438,
      "nium": 8439,
      "oshita": 8440,
      "Ġinfinite": 8441,
      "Ġsolution": 8442,
      "ĠConf": 8443,
      "ĠShortly": 8444,
      "loving": 8445,
      "ynam": 8446,
      "ĠKagura": 8447,
      "Ġsending": 8448,
      "ĠFlame": 8449,
      "ĠPeace": 8450,
      "Ġzombie": 8451,
      "Ġpurposes": 8452,
      "Ġdefending": 8453,
      "ĠAzuma": 8454,
      "ĠHayashi": 8455,
      "Ġinnocence": 8456,
      "Ġwander": 8457,
      "ĠFeat": 8458,
      "ĠFebruary": 8459,
      "Ġemerge": 8460,
      "ĠTaichi": 8461,
      "ĠRanma": 8462,
      "ĠValky": 8463,
      "ĠMitsuki": 8464,
      "ĠKawai": 8465,
      "Ġlevels": 8466,
      "Ġexception": 8467,
      "Ġvalue": 8468,
      "Ġeasier": 8469,
      "Ġtreatment": 8470,
      "Ġpunishment": 8471,
      "Ġobjective": 8472,
      "ĠDigital": 8473,
      "ĠKusanagi": 8474,
      "Ġimpression": 8475,
      "Ġbullies": 8476,
      "xiety": 8477,
      "ĠKoyomi": 8478,
      "Ġconvinced": 8479,
      "Ġmethod": 8480,
      "Ġcalam": 8481,
      "Ġcontrolled": 8482,
      "Ġridiculous": 8483,
      "ĠBritann": 8484,
      "Ġsignificant": 8485,
      "ĠInspect": 8486,
      "Ġmercenary": 8487,
      "Ġadmiration": 8488,
      "Ġwasteland": 8489,
      "Ġsalaryman": 8490,
      "Ġrebuild": 8491,
      "ĠWatanabe": 8492,
      "ĠGinga": 8493,
      "Ġglimpse": 8494,
      "Ġtreacherous": 8495,
      "50": 8496,
      "OT": 8497,
      "OX": 8498,
      "bage": 8499,
      "feng": 8500,
      "hon": 8501,
      "ias": 8502,
      "iang": 8503,
      "kom": 8504,
      "master": 8505,
      "noon": 8506,
      "ses": 8507,
      "spir": 8508,
      "uits": 8509,
      "yc": 8510,
      "yoshi": 8511,
      "zhou": 8512,
      "Åį": 8513,
      "Ġsits": 8514,
      "erk": 8515,
      "Ġwave": 8516,
      "atos": 8517,
      "Ġbow": 8518,
      "anim": 8519,
      "Ġhate": 8520,
      "itting": 8521,
      "Ġtot": 8522,
      "Ġmil": 8523,
      "Ġmouth": 8524,
      "Ġpant": 8525,
      "Ġpicked": 8526,
      "lets": 8527,
      "ĠTab": 8528,
      "ĠTHE": 8529,
      "ĠST": 8530,
      "ĠSal": 8531,
      "Ġgem": 8532,
      "ĠAqu": 8533,
      "iman": 8534,
      "story": 8535,
      "ĠMami": 8536,
      "ĠManga": 8537,
      "otarou": 8538,
      "ĠKay": 8539,
      "ads": 8540,
      "ĠCons": 8541,
      "ĠBor": 8542,
      "ĠBok": 8543,
      "ulating": 8544,
      "ifteen": 8545,
      "ĠDynasty": 8546,
      "ĠWing": 8547,
      "earcher": 8548,
      "Ġrushes": 8549,
      "ĠGate": 8550,
      "ĠFight": 8551,
      "ĠFort": 8552,
      "ĠFaced": 8553,
      "ĠPen": 8554,
      "ĠPet": 8555,
      "ĠPenguin": 8556,
      "ĠLina": 8557,
      "Ġka": 8558,
      "Ġunm": 8559,
      "ĠJirou": 8560,
      "Ġscore": 8561,
      "Ġintended": 8562,
      "Ġintimate": 8563,
      "Ġnobody": 8564,
      "ĠUFO": 8565,
      "ĠShind": 8566,
      "Ġclient": 8567,
      "Ġcloud": 8568,
      "Ġclients": 8569,
      "owned": 8570,
      "Ġevolution": 8571,
      "Ġadvers": 8572,
      "awara": 8573,
      "Ġreserved": 8574,
      "Ġroam": 8575,
      "tainment": 8576,
      "ĠZor": 8577,
      "Ġsurf": 8578,
      "grade": 8579,
      "ĠYuuri": 8580,
      "ĠYuuto": 8581,
      "Ġanymore": 8582,
      "ference": 8583,
      "Ġrelatives": 8584,
      "ĠAkito": 8585,
      "Ġamnes": 8586,
      "Ġflies": 8587,
      "Ġswitch": 8588,
      "ĠRev": 8589,
      "ĠQian": 8590,
      "ministr": 8591,
      "Ġheadquarters": 8592,
      "Ġspirited": 8593,
      "Ġelves": 8594,
      "Ġclubs": 8595,
      "Ġcompleted": 8596,
      "brid": 8597,
      "ĠTrain": 8598,
      "Ġinsects": 8599,
      "Ġglasses": 8600,
      "ĠNoel": 8601,
      "Ġrescuing": 8602,
      "Ġcultural": 8603,
      "ĠKaho": 8604,
      "ĠKaede": 8605,
      "ĠOscar": 8606,
      "ĠKeisuke": 8607,
      "beat": 8608,
      "Ġmovement": 8609,
      "Ġtechnological": 8610,
      "Ġexperiencing": 8611,
      "Ġsavior": 8612,
      "ĠYukimura": 8613,
      "Ġblackm": 8614,
      "Ġ60": 8615,
      "ĠSanr": 8616,
      "Ġcovered": 8617,
      "abyr": 8618,
      "Ġinforms": 8619,
      "Ġabsorb": 8620,
      "Ġzero": 8621,
      "Ġlesson": 8622,
      "ĠNatsumi": 8623,
      "ployed": 8624,
      "Ġ2021": 8625,
      "ĠHello": 8626,
      "ĠDaigo": 8627,
      "Ġstumble": 8628,
      "Ġsalvation": 8629,
      "ĠUniversal": 8630,
      "Ġdesigner": 8631,
      "scale": 8632,
      "ĠHitomi": 8633,
      "Ġfields": 8634,
      "Ġworried": 8635,
      "Ġmulti": 8636,
      "Ġnarrated": 8637,
      "Ġandroids": 8638,
      "Ġchapters": 8639,
      "ĠEntertainment": 8640,
      "Ġenthusiastic": 8641,
      "Ġhurt": 8642,
      "Ġblossoms": 8643,
      "Ġexclusively": 8644,
      "ĠYorushika": 8645,
      "ĠService": 8646,
      "Ġsegments": 8647,
      "ĠWarriors": 8648,
      "ĠShinsengumi": 8649,
      "Ġpuzzle": 8650,
      "Ġconversation": 8651,
      "Ġcritical": 8652,
      "Ġcasual": 8653,
      "Ġconvenience": 8654,
      "chestra": 8655,
      "Ġfantasies": 8656,
      "ĠTanaami": 8657,
      "Ġotherworldly": 8658,
      ".)": 8659,
      "11": 8660,
      "AD": 8661,
      "IG": 8662,
      "UM": 8663,
      "Wh": 8664,
      "bad": 8665,
      "called": 8666,
      "game": 8667,
      "kyuu": 8668,
      "lore": 8669,
      "nia": 8670,
      "powers": 8671,
      "town": 8672,
      "table": 8673,
      "tech": 8674,
      "tarou": 8675,
      "zen": 8676,
      "Ġ...": 8677,
      "Ġselling": 8678,
      "isen": 8679,
      "Ġwalls": 8680,
      "Ġfest": 8681,
      "Ġbunch": 8682,
      "Ġborder": 8683,
      "orphic": 8684,
      "Ġchip": 8685,
      "Ġhires": 8686,
      "itors": 8687,
      "Ġpan": 8688,
      "Ġportal": 8689,
      "aser": 8690,
      "ĠTori": 8691,
      "Ġla": 8692,
      "Ġlake": 8693,
      "ĠMun": 8694,
      "ĠMother": 8695,
      "ĠMichi": 8696,
      "Ġrever": 8697,
      "Ġreact": 8698,
      "otan": 8699,
      "ĠHaw": 8700,
      "ĠHyou": 8701,
      "Ġangry": 8702,
      "ĠKings": 8703,
      "ĠKoto": 8704,
      "eman": 8705,
      "ĠBer": 8706,
      "ĠBul": 8707,
      "ĠBird": 8708,
      "ĠRider": 8709,
      "uper": 8710,
      "ĠGok": 8711,
      "ĠOcean": 8712,
      "ĠYat": 8713,
      "ĠYashiro": 8714,
      "ĠYayoi": 8715,
      "ĠElect": 8716,
      "ĠFest": 8717,
      "ĠPC": 8718,
      "ĠPur": 8719,
      "ĠPres": 8720,
      "Ġchased": 8721,
      "Ġkai": 8722,
      "Ġwasn": 8723,
      "Ġunch": 8724,
      "Ġabroad": 8725,
      "Ġleth": 8726,
      "Ġshin": 8727,
      "Ġsharp": 8728,
      "Ġloose": 8729,
      "Ġclay": 8730,
      "pper": 8731,
      "Ġadoles": 8732,
      "ĠThous": 8733,
      "ĠAsah": 8734,
      "Ġrespected": 8735,
      "Ġknights": 8736,
      "Ġstoryline": 8737,
      "ishiro": 8738,
      "Ġappl": 8739,
      "Ġimmin": 8740,
      "ultaneously": 8741,
      "rench": 8742,
      "ĠZU": 8743,
      "Ġblessed": 8744,
      "ĠYuzuki": 8745,
      "aterrestrial": 8746,
      "ĠWhenever": 8747,
      "Ġmonk": 8748,
      "umiya": 8749,
      "Ġremark": 8750,
      "Ġplants": 8751,
      "ĠTakagi": 8752,
      "Ġwarlord": 8753,
      "awaited": 8754,
      "Ġaccording": 8755,
      "Ġlongs": 8756,
      "Ġcontinu": 8757,
      "Ġcaps": 8758,
      "redict": 8759,
      "type": 8760,
      "Ġlooked": 8761,
      "Ġtalks": 8762,
      "Ġinstall": 8763,
      "Ġheaded": 8764,
      "ext": 8765,
      "ilem": 8766,
      "Ġcompleting": 8767,
      "Ġlocate": 8768,
      "ĠAme": 8769,
      "Ġbodyguard": 8770,
      "Ġfoe": 8771,
      "Ġimmortals": 8772,
      "Ġfounded": 8773,
      "Ġinspiration": 8774,
      "Ġtrees": 8775,
      "ypse": 8776,
      "Ġcheck": 8777,
      "Ġoccult": 8778,
      "Ġpursues": 8779,
      "ĠLiang": 8780,
      "Ġfocused": 8781,
      "Ġmotives": 8782,
      "Ġharass": 8783,
      "Ġharbors": 8784,
      "Ġcolleague": 8785,
      "Ġideals": 8786,
      "eroom": 8787,
      "Ġrebel": 8788,
      "ĠKoji": 8789,
      "Ġcamping": 8790,
      "ĠYukino": 8791,
      "Ġparticipants": 8792,
      "Ġconfronted": 8793,
      "Ġdivision": 8794,
      "Ġuncovers": 8795,
      "Ġmaids": 8796,
      "Ġwitnessed": 8797,
      "Ġhomeroom": 8798,
      "ocalypse": 8799,
      "Ġincrease": 8800,
      "Ġfinish": 8801,
      "Ġflees": 8802,
      "Ġmiracle": 8803,
      "Ġsilent": 8804,
      "Ġdistract": 8805,
      "Ġlucky": 8806,
      "Ġyouthful": 8807,
      "Ġvaluable": 8808,
      "Ġenvironmental": 8809,
      "Ġequipment": 8810,
      "Ġtribes": 8811,
      "Ġtreats": 8812,
      "Ġburied": 8813,
      "ĠKokoro": 8814,
      "Ġlaunched": 8815,
      "ĠQuest": 8816,
      "Ġlegacy": 8817,
      "ĠFutaba": 8818,
      "ĠSaitama": 8819,
      "Ġdamage": 8820,
      "Ġcolonies": 8821,
      "Ġfrustrated": 8822,
      "Ġsorcerer": 8823,
      "Ġdinosaurs": 8824,
      "Ġtwisted": 8825,
      "ĠRainbow": 8826,
      "ĠMichael": 8827,
      "Ġdisturbing": 8828,
      "ĠTemple": 8829,
      "Ġsegment": 8830,
      "Ġadvertis": 8831,
      "ĠHazuki": 8832,
      "ĠBandai": 8833,
      "Ġextraterrestrial": 8834,
      "Ġsuggests": 8835,
      "Ġnickname": 8836,
      "knowing": 8837,
      "Ġpulled": 8838,
      "ELL": 8839,
      "occhio": 8840,
      "Ġgymn": 8841,
      "Ġrevelation": 8842,
      "ĠImpact": 8843,
      "ĠMizuho": 8844,
      "Ġcartoon": 8845,
      "Ġmisfortune": 8846,
      "ĠPacific": 8847,
      "Ġpiano": 8848,
      "ĠPilot": 8849,
      "Ġcrystals": 8850,
      "Ġbottle": 8851,
      "Ġvocals": 8852,
      "Ġoblivious": 8853,
      "ĠSeptember": 8854,
      "ĠLondon": 8855,
      "Ġimminent": 8856,
      ".'": 8857,
      "21": 8858,
      "IP": 8859,
      "OBI": 8860,
      "UN": 8861,
      "eous": 8862,
      "fare": 8863,
      "filled": 8864,
      "mir": 8865,
      "mans": 8866,
      "ps": 8867,
      "vest": 8868,
      "yang": 8869,
      "Ġtire": 8870,
      "Ġtact": 8871,
      "Ġtorn": 8872,
      "Ġtiger": 8873,
      "Ġwest": 8874,
      "Ġwisdom": 8875,
      "Ġfare": 8876,
      "Ġfake": 8877,
      "enced": 8878,
      "Ġcos": 8879,
      "Ġcup": 8880,
      "Ġhanging": 8881,
      "itan": 8882,
      "arc": 8883,
      "oue": 8884,
      "Ġmap": 8885,
      "Ġdaring": 8886,
      "ĠTais": 8887,
      "ĠSally": 8888,
      "ĠSection": 8889,
      "ĠScience": 8890,
      "Ġthieves": 8891,
      "Ġgolf": 8892,
      "ĠAce": 8893,
      "ĠAiri": 8894,
      "imistic": 8895,
      "Ġlaid": 8896,
      "acement": 8897,
      "ĠMito": 8898,
      "ĠMitsu": 8899,
      "ĠMashiro": 8900,
      "ĠMuseum": 8901,
      "ĠMouri": 8902,
      "Ġren": 8903,
      "Ġrely": 8904,
      "Ġreward": 8905,
      "otome": 8906,
      "olph": 8907,
      "utive": 8908,
      "akure": 8909,
      "akami": 8910,
      "akashi": 8911,
      "ĠHach": 8912,
      "ĠHao": 8913,
      "ĠHumans": 8914,
      "Ġanxiety": 8915,
      "iguchi": 8916,
      "unosuke": 8917,
      "ĠKr": 8918,
      "eled": 8919,
      "elly": 8920,
      "hers": 8921,
      "Ġvibr": 8922,
      "umon": 8923,
      "emic": 8924,
      "emesis": 8925,
      "ĠCle": 8926,
      "ĠCaf": 8927,
      "ĠIro": 8928,
      "ĠBes": 8929,
      "apt": 8930,
      "ĠWell": 8931,
      "Ġtrick": 8932,
      "Ġtraps": 8933,
      "odiac": 8934,
      "ĠRad": 8935,
      "ĠRiki": 8936,
      "Ġrail": 8937,
      "Ġyen": 8938,
      "ĠGot": 8939,
      "ĠGak": 8940,
      "ĠGeki": 8941,
      "ĠYue": 8942,
      "ĠEmer": 8943,
      "ĠFull": 8944,
      "Ġsequ": 8945,
      "ĠLang": 8946,
      "ĠLaw": 8947,
      "ĠLuna": 8948,
      "Ġunve": 8949,
      "abouts": 8950,
      "Ġjewel": 8951,
      "Ġwhale": 8952,
      "Ġclothing": 8953,
      "ells": 8954,
      "Ġprefer": 8955,
      "Ġgrace": 8956,
      "Ġrose": 8957,
      "Ġcrystal": 8958,
      "Ġwherever": 8959,
      "Ġendure": 8960,
      "Ġchildish": 8961,
      "Ġrecaps": 8962,
      "Ġcontem": 8963,
      "Ġremained": 8964,
      "Ġretire": 8965,
      "ĠToki": 8966,
      "Ġcreep": 8967,
      "Ġconfident": 8968,
      "ĠXin": 8969,
      "ĠMega": 8970,
      "Ġflight": 8971,
      "astern": 8972,
      "Ġtrainer": 8973,
      "Ġswears": 8974,
      "Ġswept": 8975,
      "Ġswift": 8976,
      "ĠReb": 8977,
      "Ġpromin": 8978,
      "Ġjournal": 8979,
      "ĠShinjuku": 8980,
      "Ġmagicians": 8981,
      "ĠDrag": 8982,
      "Ġbreasts": 8983,
      "Ġtowns": 8984,
      "ucked": 8985,
      "ĠMikiya": 8986,
      "Ġeditor": 8987,
      "Ġopposing": 8988,
      "ĠYoukai": 8989,
      "ĠKanon": 8990,
      "Ġdevoted": 8991,
      "ĠTribe": 8992,
      "ĠKaze": 8993,
      "ĠNove": 8994,
      "Ġ2010": 8995,
      "paralle": 8996,
      "Ġinvolves": 8997,
      "Ġofficially": 8998,
      "ĠKouichi": 8999,
      "Ġbloodline": 9000,
      "ĠNanoha": 9001,
      "Ġcollecting": 9002,
      "Ġintroduction": 9003,
      "Ġengagement": 9004,
      "iyama": 9005,
      "Ġresponse": 9006,
      "Ġchallenged": 9007,
      "Ġplotting": 9008,
      "Ġperfectly": 9009,
      "Ġcrosses": 9010,
      "ĠFollows": 9011,
      "Ġhorrible": 9012,
      "Ġtemper": 9013,
      "blood": 9014,
      "ĠAzusa": 9015,
      "Ġmalevolent": 9016,
      "Ġproposes": 9017,
      "Ġphysically": 9018,
      "ĠSeiya": 9019,
      "ĠWatashi": 9020,
      "Ġlifel": 9021,
      "Ġfleet": 9022,
      "Ġspreading": 9023,
      "iscover": 9024,
      "ĠCentral": 9025,
      "Ġorphaned": 9026,
      "Ġwarmth": 9027,
      "Ġrepresentative": 9028,
      "Ġauthority": 9029,
      "Ġdolls": 9030,
      "ĠTetsuya": 9031,
      "Ġsadistic": 9032,
      "Ġfolklore": 9033,
      "Ġheavenly": 9034,
      "ĠMelody": 9035,
      "Ġsenses": 9036,
      "Ġelderly": 9037,
      "ĠAccompan": 9038,
      "ĠMachine": 9039,
      "Ġfrequent": 9040,
      "Ġdismiss": 9041,
      "MAYO": 9042,
      "Ġunpredict": 9043,
      "Ġsmartphone": 9044,
      "Ġphotograph": 9045,
      "Ġcomfortable": 9046,
      "Ġholiday": 9047,
      "Ġtension": 9048,
      "ĠWarrior": 9049,
      "Ġapparently": 9050,
      "Ġleadership": 9051,
      "TOMAYO": 9052,
      "Ġacquaintances": 9053,
      "Ġdoubt": 9054,
      "ĠTechn": 9055,
      "ĠFrontier": 9056,
      "Ġuploaded": 9057,
      "Ġattracts": 9058,
      "Ġimprisoned": 9059,
      "Ġentangled": 9060,
      "Ġsubordinates": 9061,
      "ĠUshio": 9062,
      "Ġjeopard": 9063,
      "ĠZUTOMAYO": 9064,
      "paralleled": 9065,
      "CG": 9066,
      "God": 9067,
      "IR": 9068,
      "Sp": 9069,
      "can": 9070,
      "duce": 9071,
      "fang": 9072,
      "gas": 9073,
      "has": 9074,
      "hwa": 9075,
      "ique": 9076,
      "lived": 9077,
      "met": 9078,
      "ov": 9079,
      "piece": 9080,
      "ram": 9081,
      "woman": 9082,
      "Ġumb": 9083,
      "Ġsch": 9084,
      "Ġsouth": 9085,
      "isaki": 9086,
      "ishik": 9087,
      "isible": 9088,
      "Ġfet": 9089,
      "Ġfuel": 9090,
      "atisf": 9091,
      "onel": 9092,
      "onia": 9093,
      "Ġbump": 9094,
      "Ġcore": 9095,
      "Ġhaven": 9096,
      "itled": 9097,
      "edo": 9098,
      "along": 9099,
      "omura": 9100,
      "ĠTetsu": 9101,
      "ĠSD": 9102,
      "ĠSym": 9103,
      "ĠSaya": 9104,
      "ĠAR": 9105,
      "Ġnorthern": 9106,
      "imm": 9107,
      "imag": 9108,
      "imited": 9109,
      "Ġlion": 9110,
      "ĠMog": 9111,
      "ĠMash": 9112,
      "ĠMost": 9113,
      "ĠMames": 9114,
      "ĠMuts": 9115,
      "ĠMimi": 9116,
      "ĠMochi": 9117,
      "ola": 9118,
      "utions": 9119,
      "utomu": 9120,
      "Ġstake": 9121,
      "ĠHous": 9122,
      "ĠKind": 9123,
      "ĠKinn": 9124,
      "emed": 9125,
      "ĠCH": 9126,
      "ĠCor": 9127,
      "ĠCamp": 9128,
      "ĠComet": 9129,
      "ĠCiel": 9130,
      "ules": 9131,
      "ĠNations": 9132,
      "ĠWhere": 9133,
      "ĠWork": 9134,
      "ĠRing": 9135,
      "ĠRum": 9136,
      "ĠRuss": 9137,
      "ĠGi": 9138,
      "ĠGek": 9139,
      "ĠFighter": 9140,
      "Ġchair": 9141,
      "Ġchurch": 9142,
      "Ġkick": 9143,
      "Ġkitten": 9144,
      "iker": 9145,
      "Ġunbeknownst": 9146,
      "Ġunknowing": 9147,
      "Ġunparalleled": 9148,
      "Ġsham": 9149,
      "Ġprost": 9150,
      "ĠInu": 9151,
      "Ġclue": 9152,
      "acking": 9153,
      "Ġpriv": 9154,
      "Ġbutter": 9155,
      "Ġnoticed": 9156,
      "nex": 9157,
      "Ġyearns": 9158,
      "Ġcompr": 9159,
      "Ġsecure": 9160,
      "Ġwhereabouts": 9161,
      "Ġdesolate": 9162,
      "Ġquality": 9163,
      "Ġinvade": 9164,
      "Ġhelped": 9165,
      "ĠVio": 9166,
      "ĠVirt": 9167,
      "ĠVideo": 9168,
      "Ġowners": 9169,
      "ĠZhou": 9170,
      "Ġrecalls": 9171,
      "Ġmages": 9172,
      "identally": 9173,
      "Ġanywhere": 9174,
      "Ġunderworld": 9175,
      "Ġspecialized": 9176,
      "Ġactive": 9177,
      "ashita": 9178,
      "Ġskies": 9179,
      "ĠTakanashi": 9180,
      "ressing": 9181,
      "ĠPri": 9182,
      "ĠPriest": 9183,
      "inking": 9184,
      "Ġflour": 9185,
      "ĠTsutomu": 9186,
      "Ġcreators": 9187,
      "Ġslay": 9188,
      "ĠAtl": 9189,
      "Ġseconds": 9190,
      "Ġbread": 9191,
      "Ġregret": 9192,
      "ohama": 9193,
      "ologically": 9194,
      "Ġcentral": 9195,
      "ĠLee": 9196,
      "ĠKuro": 9197,
      "Ġdirection": 9198,
      "ĠGran": 9199,
      "Ġgrader": 9200,
      "Ġinsur": 9201,
      "Ġcollapse": 9202,
      "Ġheartwarming": 9203,
      "Ġglass": 9204,
      "Ġpolar": 9205,
      "Ġdelicate": 9206,
      "Ġmastermind": 9207,
      "ĠTomb": 9208,
      "Ġsolo": 9209,
      "ĠSatomi": 9210,
      "Ġ40": 9211,
      "ĠMasaru": 9212,
      "Ġrefuse": 9213,
      "Ġexisted": 9214,
      "Ġscenery": 9215,
      "ĠJunichi": 9216,
      "Ġvictorious": 9217,
      "ĠCrimson": 9218,
      "Ġannoy": 9219,
      "Ġparticipating": 9220,
      "Ġcertainly": 9221,
      "Ġprofession": 9222,
      "Ġcontained": 9223,
      "Ġsurroundings": 9224,
      "Ġkidnap": 9225,
      "Ġcycle": 9226,
      "ĠMaou": 9227,
      "Ġproviding": 9228,
      "Ġwaitress": 9229,
      "ĠRyouma": 9230,
      "Ġabsence": 9231,
      "Ġconditions": 9232,
      "Ġrumor": 9233,
      "Ġ2022": 9234,
      "ĠHinako": 9235,
      "Ġsquirrel": 9236,
      "Ġquietly": 9237,
      "Ġsales": 9238,
      "ĠErika": 9239,
      "ĠUniverse": 9240,
      "ĠSeiichi": 9241,
      "Ġdomination": 9242,
      "imensional": 9243,
      "ĠValent": 9244,
      "Ġspreads": 9245,
      "Ġentrusted": 9246,
      "Ġfortun": 9247,
      "Ġfiery": 9248,
      "Ġdistrib": 9249,
      "Ġvalues": 9250,
      "Ġdescended": 9251,
      "ĠFujiwara": 9252,
[...]
