{
  "version": "1.0",
  "truncation": null,
  "padding": null,
  "added_tokens": [
    {
      "id": 0,
      "content": "<PAD>",
      "single_word": false,
      "lstrip": false,
      "rstrip": false,
      "normalized": false,
      "special": true
    },
    {
      "id": 1,
      "content": "<UNK>",
      "single_word": false,
      "lstrip": false,
      "rstrip": false,
      "normalized": false,
      "special": true
    }
  ],
  "normalizer": null,
  "pre_tokenizer": {
    "type": "ByteLevel",
    "add_prefix_space": true,
    "trim_offsets": true,
    "use_regex": true
  },
  "post_processor": null,
  "decoder": {
    "type": "ByteLevel",
    "add_prefix_space": true,
    "trim_offsets": true,
    "use_regex": true
  },
  "model": {
    "type": "BPE",
    "dropout": null,
    "unk_token": "<UNK>",
    "continuing_subword_prefix": null,
    "end_of_word_suffix": null,
    "fuse_unk": false,
    "byte_fallback": false,
    "ignore_merges": false,
    "vocab": {
      "<PAD>": 0,
      "<UNK>": 1,
      "!": 2,
      "\"": 3,
      "#": 4,
      "$": 5,
      "%": 6,
      "&": 7,
      "'": 8,
      "(": 9,
      ")": 10,
      "*": 11,
      "+": 12,
      ",": 13,
      "-": 14,
      ".": 15,
      "/": 16,
      "0": 17,
      "1": 18,
      "2": 19,
      "3": 20,
      "4": 21,
      "5": 22,
      "6": 23,
      "7": 24,
      "8": 25,
      "9": 26,
      ":": 27,
      ";": 28,
      "<": 29,
      "=": 30,
      ">": 31,
      "?": 32,
      "@": 33,
      "A": 34,
      "B": 35,
      "C": 36,
      "D": 37,
      "E": 38,
      "F": 39,
      "G": 40,
      "H": 41,
      "I": 42,
      "J": 43,
      "K": 44,
      "L": 45,
      "M": 46,
      "N": 47,
      "O": 48,
      "P": 49,
      "Q": 50,
      "R": 51,
      "S": 52,
      "T": 53,
      "U": 54,
      "V": 55,
      "W": 56,
      "X": 57,
      "Y": 58,
      "Z": 59,
      "[": 60,
      "\\": 61,
      "]": 62,
      "^": 63,
      "_": 64,
      "`": 65,
      "a": 66,
      "b": 67,
      "c": 68,
      "d": 69,
      "e": 70,
      "f": 71,
      "g": 72,
      "h": 73,
      "i": 74,
      "j": 75,
      "k": 76,
      "l": 77,
      "m": 78,
      "n": 79,
      "o": 80,
      "p": 81,
      "q": 82,
      "r": 83,
      "s": 84,
      "t": 85,
      "u": 86,
      "v": 87,
      "w": 88,
      "x": 89,
      "y": 90,
      "z": 91,
      "{": 92,
      "|": 93,
      "}": 94,
      "~": 95,
      "¡": 96,
      "¢": 97,
      "£": 98,
      "¤": 99,
      "¥": 100,
      "¦": 101,
      "§": 102,
      "¨": 103,
      "©": 104,
      "ª": 105,
      "«": 106,
      "¬": 107,
      "®": 108,
      "¯": 109,
      "°": 110,
      "±": 111,
      "²": 112,
      "³": 113,
      "´": 114,
      "µ": 115,
      "¶": 116,
      "·": 117,
      "¸": 118,
      "¹": 119,
      "º": 120,
      "»": 121,
      "¼": 122,
      "½": 123,
      "¾": 124,
      "¿": 125,
      "À": 126,
      "Á": 127,
      "Â": 128,
      "Ã": 129,
      "Ä": 130,
      "Å": 131,
      "Æ": 132,
      "Ç": 133,
      "È": 134,
      "É": 135,
      "Ê": 136,
      "Ë": 137,
      "Ì": 138,
      "Í": 139,
      "Î": 140,
      "Ï": 141,
      "Ð": 142,
      "Ñ": 143,
      "Ò": 144,
      "Ó": 145,
      "Ô": 146,
      "Õ": 147,
      "Ö": 148,
      "×": 149,
      "Ø": 150,
      "Ù": 151,
      "Ú": 152,
      "Û": 153,
      "Ü": 154,
      "Ý": 155,
      "Þ": 156,
      "ß": 157,
      "à": 158,
      "á": 159,
      "â": 160,
      "ã": 161,
      "ä": 162,
      "å": 163,
      "æ": 164,
      "ç": 165,
      "è": 166,
      "é": 167,
      "ê": 168,
      "ë": 169,
      "ì": 170,
      "í": 171,
      "î": 172,
      "ï": 173,
      "ð": 174,
      "ñ": 175,
      "ò": 176,
      "ó": 177,
      "ô": 178,
      "õ": 179,
      "ö": 180,
      "÷": 181,
      "ø": 182,
      "ù": 183,
      "ú": 184,
      "û": 185,
      "ü": 186,
      "ý": 187,
      "þ": 188,
      "ÿ": 189,
      "Ā": 190,
      "ā": 191,
      "Ă": 192,
      "ă": 193,
      "Ą": 194,
      "ą": 195,
      "Ć": 196,
      "ć": 197,
      "Ĉ": 198,
      "ĉ": 199,
      "Ċ": 200,
      "ċ": 201,
      "Č": 202,
      "č": 203,
      "Ď": 204,
      "ď": 205,
      "Đ": 206,
      "đ": 207,
      "Ē": 208,
      "ē": 209,
      "Ĕ": 210,
      "ĕ": 211,
      "Ė": 212,
      "ė": 213,
      "Ę": 214,
      "ę": 215,
      "Ě": 216,
      "ě": 217,
      "Ĝ": 218,
      "ĝ": 219,
      "Ğ": 220,
      "ğ": 221,
      "Ġ": 222,
      "ġ": 223,
      "Ģ": 224,
      "ģ": 225,
      "Ĥ": 226,
      "ĥ": 227,
      "Ħ": 228,
      "ħ": 229,
      "Ĩ": 230,
      "ĩ": 231,
      "Ī": 232,
      "ī": 233,
      "Ĭ": 234,
      "ĭ": 235,
      "Į": 236,
      "į": 237,
      "İ": 238,
      "ı": 239,
      "Ĳ": 240,
      "ĳ": 241,
      "Ĵ": 242,
      "ĵ": 243,
      "Ķ": 244,
      "ķ": 245,
      "ĸ": 246,
      "Ĺ": 247,
      "ĺ": 248,
      "Ļ": 249,
      "ļ": 250,
      "Ľ": 251,
      "ľ": 252,
      "Ŀ": 253,
      "ŀ": 254,
      "Ł": 255,
      "ł": 256,
      "Ń": 257,
      "Ġt": 258,
      "he": 259,
      "Ġa": 260,
      "in": 261,
      "Ġthe": 262,
      "Ġs": 263,
      "er": 264,
      "Ġo": 265,
      "re": 266,
      "is": 267,
      "nd": 268,
      "Ġw": 269,
      "Ġf": 270,
      "Ġb": 271,
      "at": 272,
      "on": 273,
      "es": 274,
      "en": 275,
      "or": 276,
      "it": 277,
      "an": 278,
      "Ġc": 279,
      "ou": 280,
      "ing": 281,
      "Ġh": 282,
      "Ġto": 283,
      "ar": 284,
      "ed": 285,
      "Ġof": 286,
      "Ġm": 287,
      "Ġand": 288,
      "Ġp": 289,
      "al": 290,
      "Ġd": 291,
      "Ġin": 292,
      "as": 293,
      "om": 294,
      "le": 295,
      "Ġhe": 296,
      "ic": 297,
      "ĠT": 298,
      "ir": 299,
      "ĠA": 300,
      "il": 301,
      "im": 302,
      "Ġth": 303,
      "ĠS": 304,
      "Ġg": 305,
      "Ġn": 306,
      "ĠM": 307,
      "am": 308,
      "ce": 309,
      "Ġl": 310,
      "Ġe": 311,
      "Ġis": 312,
      "ion": 313,
      "ent": 314,
      "st": 315,
      "Ġbe": 316,
      "ow": 317,
      "id": 318,
      "Ġre": 319,
      "ol": 320,
      "ot": 321,
      "ly": 322,
      "Ġon": 323,
      "ut": 324,
      "et": 325,
      "Ġfor": 326,
      "ch": 327,
      "ve": 328,
      "Ġst": 329,
      "ak": 330,
      "ver": 331,
      "ur": 332,
      "Ġhis": 333,
      "ith": 334,
      "Ġby": 335,
      "un": 336,
      "Ġan": 337,
      "ig": 338,
      "ĠH": 339,
      "'s": 340,
      "us": 341,
      "Ġher": 342,
      "Ġwith": 343,
      "ter": 344,
      "ĠK": 345,
      "el": 346,
      "ay": 347,
      "Ġwh": 348,
      "ec": 349,
      "ad": 350,
      "Ġfr": 351,
      "ac": 352,
      "ro": 353,
      "Ġas": 354,
      "our": 355,
      "her": 356,
      "Ġthat": 357,
      "ag": 358,
      "Ġv": 359,
      "um": 360,
      "ĠC": 361,
      "ĠR": 362,
      "em": 363,
      "ĠThe": 364,
      "ĠB": 365,
      "ĠI": 366,
      "hi": 367,
      "ap": 368,
      "os": 369,
      "ation": 370,
      "Ġal": 371,
      "ul": 372,
      "ĠN": 373,
      "ew": 374,
      "if": 375,
      "ong": 376,
      "Ġtheir": 377,
      "Ġtr": 378,
      "ĠW": 379,
      "ĠD": 380,
      "ill": 381,
      "ld": 382,
      "ous": 383,
      "igh": 384,
      "ain": 385,
      "ts": 386,
      "od": 387,
      "and": 388,
      "ide": 389,
      "ies": 390,
      "ie": 391,
      "ers": 392,
      "iv": 393,
      "ource": 394,
      "ear": 395,
      "ure": 396,
      "Source": 397,
      "Ġr": 398,
      "th": 399,
      "Ġfrom": 400,
      "ĠG": 401,
      "Ġch": 402,
      "ĠY": 403,
      "Ġy": 404,
      "Ġwor": 405,
      "Ġwho": 406,
      "up": 407,
      "ĠO": 408,
      "ĠE": 409,
      "ĠF": 410,
      "Ġat": 411,
      "ĠP": 412,
      "ok": 413,
      "Ġcom": 414,
      "rit": 415,
      "Ġse": 416,
      "op": 417,
      "ess": 418,
      "ik": 419,
      "Ġit": 420,
      "est": 421,
      "ate": 422,
      "ud": 423,
      "ĠL": 424,
      "Ġshe": 425,
      "Ġ\"": 426,
      "Ġk": 427,
      "Ġcon": 428,
      "ang": 429,
      "Ġare": 430,
      "Ġhas": 431,
      "ore": 432,
      "Ġun": 433,
      "ĠJ": 434,
      "ind": 435,
      "Ġwas": 436,
      "oun": 437,
      "âĢ": 438,
      "ime": 439,
      "Ġthey": 440,
      "ave": 441,
      "ab": 442,
      "ial": 443,
      "Ġhim": 444,
      "uk": 445,
      "Ġab": 446,
      "Ġsp": 447,
      "Ġsh": 448,
      "Ġde": 449,
      "rou": 450,
      "Ġle": 451,
      "ive": 452,
      "ity": 453,
      "gh": 454,
      "ome": 455,
      "all": 456,
      "Ġint": 457,
      "Ġex": 458,
      "hen": 459,
      "art": 460,
      "ant": 461,
      "ight": 462,
      "ct": 463,
      "Ġpl": 464,
      "Ġvide": 465,
      "qu": 466,
      "Ġno": 467,
      "Ġor": 468,
      "ect": 469,
      "ort": 470,
      "ust": 471,
      "Ġj": 472,
      "irl": 473,
      "Ġvideo": 474,
      "ool": 475,
      "usic": 476,
      "Ġworld": 477,
      "ĠSh": 478,
      "Ġlo": 479,
      "ire": 480,
      "out": 481,
      "ace": 482,
      "se": 483,
      "Ġpro": 484,
      "ist": 485,
      "ever": 486,
      "ans": 487,
      "chool": 488,
      "iend": 489,
      "ious": 490,
      "ated": 491,
      "ame": 492,
      "âĢĶ": 493,
      "ĠU": 494,
      "ack": 495,
      "Ġcl": 496,
      "iz": 497,
      "ĠAn": 498,
      "Ġup": 499,
      "Ġen": 500,
      "Ġsong": 501,
      "Ġgirl": 502,
      "Ġpr": 503,
      "Ġnew": 504,
      "Ġbut": 505,
      "Ġinto": 506,
      "Ġthem": 507,
      "Ġall": 508,
      "oy": 509,
      "ĠIn": 510,
      "fter": 511,
      "ast": 512,
      "ife": 513,
      "ten": 514,
      "own": 515,
      "ard": 516,
      "are": 517,
      "Ġout": 518,
      "Ġschool": 519,
      "ell": 520,
      "ub": 521,
      "Ġfriend": 522,
      "Ġthis": 523,
      "..": 524,
      "ach": 525,
      "ge": 526,
      "Ġbec": 527,
      "ake": 528,
      "ai": 529,
      "ass": 530,
      "ue": 531,
      "Ġone": 532,
      "av": 533,
      "Ġwill": 534,
      "Ġman": 535,
      "ally": 536,
      "ory": 537,
      "ĠMA": 538,
      "pp": 539,
      "Ġnot": 540,
      "ther": 541,
      "Ġfe": 542,
      "ĠMAL": 543,
      "Ġev": 544,
      "Ġlife": 545,
      "one": 546,
      "owever": 547,
      "oc": 548,
      "Ġte": 549,
      "ritten": 550,
      "Ġad": 551,
      "Ġstr": 552,
      "Ġgo": 553,
      "Ġhave": 554,
      "Written": 555,
      "Ġdis": 556,
      "very": 557,
      "Ġfind": 558,
      "Ġday": 559,
      "aw": 560,
      "Ġag": 561,
      "rite": 562,
      "other": 563,
      "ĠRew": 564,
      "ia": 565,
      "og": 566,
      "ĠRewrite": 567,
      "ĠMusic": 568,
      "Ġpre": 569,
      "Ġar": 570,
      "Ġabout": 571,
      "age": 572,
      "oll": 573,
      "reat": 574,
      "Ġser": 575,
      "sel": 576,
      "Ġmo": 577,
      "tr": 578,
      "uc": 579,
      "ine": 580,
      "ets": 581,
      "ite": 582,
      "Ġwhen": 583,
      "ary": 584,
      "ib": 585,
      "Ġ(": 586,
      "ep": 587,
      "Ġcan": 588,
      "ĠĊ": 589,
      "ne": 590,
      "Ġgr": 591,
      "ond": 592,
      "Ġother": 593,
      "Ġme": 594,
      "ild": 595,
      "Ġ1": 596,
      "Ġcomp": 597,
      "yst": 598,
      "ich": 599,
      "Ġyear": 600,
      "Ġbr": 601,
      "ĠTh": 602,
      "Ġres": 603,
      "und": 604,
      "Ġhum": 605,
      "ff": 606,
      "Ġtw": 607,
      "Ġac": 608,
      "Ġpe": 609,
      "orm": 610,
      "ily": 611,
      "ents": 612,
      "ance": 613,
      "oung": 614,
      "Ġpow": 615,
      "here": 616,
      "ĠCh": 617,
      "Ġdo": 618,
      "Ġstud": 619,
      "Ġonly": 620,
      "ob": 621,
      "urn": 622,
      "Ġkn": 623,
      "tle": 624,
      "ss": 625,
      "ings": 626,
      "Ġso": 627,
      "wn": 628,
      "ice": 629,
      "per": 630,
      "Ġyoung": 631,
      "Ġ2": 632,
      "Ġanim": 633,
      "ose": 634,
      "Ġtime": 635,
      "apan": 636,
      "ĠHowever": 637,
      "ful": 638,
      "Ġfriends": 639,
      "ĠAs": 640,
      "ives": 641,
      "ks": 642,
      "ĠJapan": 643,
      "irst": 644,
      "ters": 645,
      "app": 646,
      "Ġtwo": 647,
      "Ġus": 648,
      "Ġafter": 649,
      "Ġbeg": 650,
      "ough": 651,
      "ug": 652,
      "ip": 653,
      "self": 654,
      "Ġfeat": 655,
      "old": 656,
      "over": 657,
      "ment": 658,
      "Ġfam": 659,
      "Ġstory": 660,
      "isod": 661,
      "ens": 662,
      "Ġatt": 663,
      "ree": 664,
      "Ġseries": 665,
      "ish": 666,
      "Ġmyst": 667,
      "pisod": 668,
      "Ġwhich": 669,
      "act": 670,
      "Ġro": 671,
      "cl": 672,
      "Ġapp": 673,
      "Ġoff": 674,
      "Ġfirst": 675,
      "az": 676,
      "ile": 677,
      "Ġsec": 678,
      "Ġim": 679,
      "ical": 680,
      "Ġmore": 681,
      "Ġmyster": 682,
      "ather": 683,
      "NN": 684,
      "ĠHe": 685,
      "ased": 686,
      "ats": 687,
      "ĠANN": 688,
      "able": 689,
      "ins": 690,
      "ions": 691,
      "Ġhel": 692,
      "ecial": 693,
      "Ġevery": 694,
      "we": 695,
      "end": 696,
      "Ġwhere": 697,
      "Ġagain": 698,
      "Ġover": 699,
      "Ġcr": 700,
      "mer": 701,
      "ves": 702,
      "ike": 703,
      "Ġdes": 704,
      "ĠV": 705,
      "round": 706,
      "rough": 707,
      "ult": 708,
      "Ġdec": 709,
      "pl": 710,
      "uki": 711,
      "Ġdr": 712,
      "akes": 713,
      "Ġpower": 714,
      "Ġsc": 715,
      "tain": 716,
      "its": 717,
      "ence": 718,
      "ows": 719,
      "Ġboy": 720,
      "Ġend": 721,
      "arn": 722,
      "Ġepisod": 723,
      "Ġhelp": 724,
      "amed": 725,
      "Ġhuman": 726,
      "Ġpart": 727,
      "ĠIt": 728,
      "ood": 729,
      "ase": 730,
      "Ġqu": 731,
      "uring": 732,
      "Ġinv": 733,
      "Ġmem": 734,
      "emon": 735,
      "Ġchild": 736,
      "ĠBut": 737,
      "Ġtrans": 738,
      "ren": 739,
      "Ġbet": 740,
      "Ġbeen": 741,
      "Ġreal": 742,
      "hip": 743,
      "ord": 744,
      "Ġown": 745,
      "get": 746,
      "Ġway": 747,
      "ĠAl": 748,
      "ures": 749,
      "so": 750,
      "arr": 751,
      "arth": 752,
      "ict": 753,
      "ĠZ": 754,
      "Ġbecome": 755,
      "ould": 756,
      "ople": 757,
      "Ġyears": 758,
      "Ġhigh": 759,
      "ji": 760,
      "Ġmysterious": 761,
      "inn": 762,
      "uch": 763,
      "les": 764,
      "cover": 765,
      "ations": 766,
      "ark": 767,
      "hes": 768,
      "vent": 769,
      "ek": 770,
      "Ġord": 771,
      "Ġsur": 772,
      "way": 773,
      "Ġits": 774,
      "ath": 775,
      "...": 776,
      "ise": 777,
      "Ġchar": 778,
      "ost": 779,
      "Ġne": 780,
      "ces": 781,
      "Ġmusic": 782,
      "Ġfamily": 783,
      "Ġanime": 784,
      "Ġbeing": 785,
      "under": 786,
      "Ġpeople": 787,
      "Ġmust": 788,
      "ween": 789,
      "Ġbl": 790,
      "Ġent": 791,
      "Ġwe": 792,
      "ason": 793,
      "aki": 794,
      "den": 795,
      "Ġnamed": 796,
      "ian": 797,
      "als": 798,
      "Ġwork": 799,
      "Ġcall": 800,
      "gr": 801,
      "ilm": 802,
      "ade": 803,
      "Ġalso": 804,
      "ange": 805,
      "form": 806,
      "ick": 807,
      "Ġbetween": 808,
      "ĠSt": 809,
      "Ġmag": 810,
      "Ġcont": 811,
      "ident": 812,
      "ere": 813,
      "ei": 814,
      "Ġsup": 815,
      "ting": 816,
      "Ġthere": 817,
      "vers": 818,
      "roup": 819,
      "Ġper": 820,
      "ya": 821,
      "ream": 822,
      "Ġback": 823,
      "ors": 824,
      "Ġlove": 825,
      "Ġthrough": 826,
      "ĠYu": 827,
      "fore": 828,
      "Ġjust": 829,
      "ail": 830,
      "iss": 831,
      "Ġany": 832,
      "Ġunder": 833,
      "Ġact": 834,
      "ater": 835,
      "Ġget": 836,
      "Ġstudent": 837,
      "ĠAfter": 838,
      "ates": 839,
      "fer": 840,
      "Ġrec": 841,
      "ition": 842,
      "Ġgroup": 843,
      "Ġplay": 844,
      "Ġmon": 845,
      "ama": 846,
      "ta": 847,
      "amp": 848,
      "yo": 849,
      "Ġspecial": 850,
      "Ġbat": 851,
      "hile": 852,
      "led": 853,
      "'t": 854,
      "ami": 855,
      "oss": 856,
      "ound": 857,
      "ured": 858,
      "The": 859,
      "pt": 860,
      "ĠAr": 861,
      "aus": 862,
      "inal": 863,
      "Ġgirls": 864,
      "ari": 865,
      "ash": 866,
      "Ġwhile": 867,
      "icial": 868,
      "cess": 869,
      "Ġgame": 870,
      "Ġrele": 871,
      "umi": 872,
      "Ġwhat": 873,
      "air": 874,
      "Ġnow": 875,
      "Ġshort": 876,
      "Ġthan": 877,
      "aru": 878,
      "Ġfilm": 879,
      "ĠEarth": 880,
      "oin": 881,
      "Ġmake": 882,
      "Ġcharac": 883,
      "au": 884,
      "ating": 885,
      "Ġclass": 886,
      "ual": 887,
      "Ġfather": 888,
      "ber": 889,
      "ince": 890,
      "ĠThis": 891,
      "clud": 892,
      "Ġrel": 893,
      "iving": 894,
      "ign": 895,
      "Ġrem": 896,
      "Ġprot": 897,
      "ĠAk": 898,
      "Ġsome": 899,
      "ven": 900,
      "Ġfight": 901,
      "ori": 902,
      "ĠTak": 903,
      "Ġeach": 904,
      "ese": 905,
      "Ġem": 906,
      "ying": 907,
      "Ġtoget": 908,
      "Ġtogether": 909,
      "Ġ20": 910,
      "Ġret": 911,
      "Ġturn": 912,
      "Ġplan": 913,
      "Ġtake": 914,
      "ited": 915,
      "ale": 916,
      "ble": 917,
      "te": 918,
      "Ġsk": 919,
      "Ġlead": 920,
      "ĠWith": 921,
      "ĠWhen": 922,
      "oth": 923,
      "ĠUn": 924,
      "Ġagainst": 925,
      "Ġknown": 926,
      "Ġbefore": 927,
      "Ġfinds": 928,
      "uct": 929,
      "ara": 930,
      "vel": 931,
      "Ġaround": 932,
      "Ġteam": 933,
      "ura": 934,
      "ress": 935,
      "Ġpers": 936,
      "hed": 937,
      "Ġhome": 938,
      "Ġdiscover": 939,
      "Ġhimself": 940,
      "Ġwar": 941,
      "aving": 942,
      "Ġfoll": 943,
      "Ġinter": 944,
      "gram": 945,
      "ret": 946,
      "ied": 947,
      "Ġlearn": 948,
      "Ġseem": 949,
      "less": 950,
      "ĠTok": 951,
      "Ġlives": 952,
      "ĠSe": 953,
      "ĠOne": 954,
      "Ġwere": 955,
      "awa": 956,
      "orn": 957,
      "Ġlong": 958,
      "Ġold": 959,
      "ons": 960,
      "pect": 961,
      "Ġdif": 962,
      "ides": 963,
      "Ġcalled": 964,
      "Ġbecom": 965,
      "Ġorder": 966,
      "Ġinclud": 967,
      "ĠBl": 968,
      "ittle": 969,
      "af": 970,
      "DB": 971,
      "ually": 972,
      "Ġeven": 973,
      "Ġdest": 974,
      "emy": 975,
      "Ġseason": 976,
      "ities": 977,
      "Ġacc": 978,
      "Ġcre": 979,
      "Ġprogram": 980,
      "Ġset": 981,
      "Ġlive": 982,
      "Ġthree": 983,
      "owing": 984,
      "Ġass": 985,
      "ted": 986,
      "ival": 987,
      "Ġlike": 988,
      "ashi": 989,
      "Ġwom": 990,
      "Ġdream": 991,
      "man": 992,
      "ired": 993,
      "Ġdef": 994,
      "augh": 995,
      "Ġthese": 996,
      "ĠOn": 997,
      "Ġam": 998,
      "Ġcontin": 999,
      "ants": 1000,
      "Ġhad": 1001,
      "ĠShe": 1002,
      "Ġepisode": 1003,
      "Ġcoun": 1004,
      "Ġappear": 1005,
      "land": 1006,
      "oto": 1007,
      ".\"": 1008,
      "aking": 1009,
      "ĠX": 1010,
      "ness": 1011,
      "Ġhapp": 1012,
      "side": 1013,
      "Ġsis": 1014,
      "ĠSp": 1015,
      "fr": 1016,
      "Ġcol": 1017,
      "ĠTo": 1018,
      "ved": 1019,
      "Ġbegins": 1020,
      "Ġcity": 1021,
      "Ġbattle": 1022,
      "oshi": 1023,
      "Ġdoes": 1024,
      "ĠUta": 1025,
      "io": 1026,
      "Ġbo": 1027,
      "Ġenc": 1028,
      "hing": 1029,
      "ars": 1030,
      "Ġyou": 1031,
      "Ġreturn": 1032,
      "ink": 1033,
      "Ġmost": 1034,
      "ands": 1035,
      "Ġadvent": 1036,
      "Ġplace": 1037,
      "eng": 1038,
      "aid": 1039,
      "ced": 1040,
      "Ġsm": 1041,
      "ichi": 1042,
      "ĠPr": 1043,
      "Ġanimation": 1044,
      "HK": 1045,
      "ix": 1046,
      "aku": 1047,
      "udden": 1048,
      "Ġperson": 1049,
      "ling": 1050,
      ",\"": 1051,
      "ately": 1052,
      "ĠJapanese": 1053,
      "Ġorig": 1054,
      "ĠNHK": 1055,
      "Ġanother": 1056,
      "Ġsame": 1057,
      "ĠAni": 1058,
      "ĠRe": 1059,
      "Ġimp": 1060,
      "Ġform": 1061,
      "Ġcomm": 1062,
      "Ġcap": 1063,
      "anga": 1064,
      "Ġfl": 1065,
      "ĠYou": 1066,
      "Ġfeatured": 1067,
      "ina": 1068,
      "Ġmany": 1069,
      "Ġgu": 1070,
      "Ġprotect": 1071,
      "Ġdemon": 1072,
      "uu": 1073,
      "Ġtakes": 1074,
      "red": 1075,
      "ĠAniDB": 1076,
      "bers": 1077,
      "ĠTs": 1078,
      "ories": 1079,
      "aster": 1080,
      "ana": 1081,
      "Ġsw": 1082,
      "ody": 1083,
      "Ġmother": 1084,
      "inna": 1085,
      "aut": 1086,
      "Ġsoon": 1087,
      "Ġ3": 1088,
      "ward": 1089,
      "ular": 1090,
      "ĠMe": 1091,
      "aka": 1092,
      "ney": 1093,
      "Ġhop": 1094,
      "ty": 1095,
      "Ġstrange": 1096,
      "Ġcreat": 1097,
      "Ġbel": 1098,
      "VD": 1099,
      "Ġsee": 1100,
      "Ġalong": 1101,
      "Ġob": 1102,
      "ĠMinna": 1103,
      "Ġarr": 1104,
      "Ġfut": 1105,
      "Ġprom": 1106,
      "Ġsecret": 1107,
      "ull": 1108,
      "uke": 1109,
      "Ġjour": 1110,
      "Ġonce": 1111,
      "ĠCl": 1112,
      "Ġlittle": 1113,
      "Ġif": 1114,
      "ior": 1115,
      "Ġcat": 1116,
      "ues": 1117,
      "Ġsudden": 1118,
      "Ġdown": 1119,
      "Ġtrain": 1120,
      "lect": 1121,
      "ient": 1122,
      "Ġencoun": 1123,
      "ĠThey": 1124,
      "ah": 1125,
      "Ġsuper": 1126,
      "ock": 1127,
      "Ġinc": 1128,
      "Ġhow": 1129,
      "Ġsl": 1130,
      "ien": 1131,
      "iko": 1132,
      "Ġes": 1133,
      "Ġbeh": 1134,
      "ouse": 1135,
      "min": 1136,
      "Ġboth": 1137,
      "pite": 1138,
      "ry": 1139,
      "Ġlook": 1140,
      "the": 1141,
      "ĠTokyo": 1142,
      "Ġdiffer": 1143,
      "ortun": 1144,
      "Ġanimated": 1145,
      "Ġdet": 1146,
      "ĠShin": 1147,
      "ross": 1148,
      "Ġjourney": 1149,
      "Ġpass": 1150,
      "Ġrun": 1151,
      "Ġcons": 1152,
      "Ġwell": 1153,
      "omet": 1154,
      "Ġmov": 1155,
      "Ġpeace": 1156,
      "Ġmonst": 1157,
      "Ġexper": 1158,
      "Ġfeel": 1159,
      "ao": 1160,
      "Ġmanga": 1161,
      "thing": 1162,
      "Ġmeets": 1163,
      "you": 1164,
      "ann": 1165,
      "Ġed": 1166,
      "Ġsave": 1167,
      "eep": 1168,
      "Ġmiss": 1169,
      "Ġpast": 1170,
      "Ġcome": 1171,
      "ĠShi": 1172,
      "Ġstart": 1173,
      "Ġmeet": 1174,
      "ety": 1175,
      "chan": 1176,
      "ered": 1177,
      "agon": 1178,
      "ft": 1179,
      "ĠQ": 1180,
      "Ġfall": 1181,
      "ible": 1182,
      "Ġconf": 1183,
      "iro": 1184,
      "arious": 1185,
      "Ġabil": 1186,
      "Ġfuture": 1187,
      "ject": 1188,
      "Ġtal": 1189,
      "earch": 1190,
      "Ġbrother": 1191,
      "ĠOff": 1192,
      "Ġsister": 1193,
      "ĠTV": 1194,
      "iy": 1195,
      "year": 1196,
      "inally": 1197,
      "Ġmembers": 1198,
      "ause": 1199,
      "Ġbest": 1200,
      "ĠKing": 1201,
      "ĠDr": 1202,
      "ute": 1203,
      "Ġaway": 1204,
      "uka": 1205,
      "ugg": 1206,
      "Ġwould": 1207,
      "ademy": 1208,
      "Ġsecond": 1209,
      "ko": 1210,
      "ĠEn": 1211,
      "gend": 1212,
      "Ġpres": 1213,
      "Ġdecides": 1214,
      "ird": 1215,
      "Ġevil": 1216,
      "ots": 1217,
      "ier": 1218,
      "Ġgreat": 1219,
      "Ġherself": 1220,
      "âĢĻ": 1221,
      "Ġrob": 1222,
      "Ġhead": 1223,
      "Ġvery": 1224,
      "Ġbecomes": 1225,
      "Ġnight": 1226,
      "Ġattack": 1227,
      "Ġepisodes": 1228,
      "ex": 1229,
      "Ġuni": 1230,
      "oh": 1231,
      "ima": 1232,
      "Ġbeaut": 1233,
      "Ġvill": 1234,
      "ense": 1235,
      "edia": 1236,
      "Ġmay": 1237,
      "aren": 1238,
      "ional": 1239,
      "Ġhero": 1240,
      "ĠAc": 1241,
      "Ġstop": 1242,
      "urs": 1243,
      "anger": 1244,
      "ĠOfficial": 1245,
      "ĠAt": 1246,
      "ĠWh": 1247,
      "Ġsum": 1248,
      "ata": 1249,
      "Ġinst": 1250,
      "Ġcompan": 1251,
      "Ġmagic": 1252,
      "Ġexpl": 1253,
      "Ġtown": 1254,
      "arts": 1255,
      "Ġdifferent": 1256,
      "ush": 1257,
      "Ġcharacters": 1258,
      "Ġrest": 1259,
      "Ġspir": 1260,
      "Ġchildren": 1261,
      "ph": 1262,
      "Ġmade": 1263,
      "orts": 1264,
      "Ġthough": 1265,
      "Ġaw": 1266,
      "cap": 1267,
      "Ġable": 1268,
      "uck": 1269,
      "Ġnever": 1270,
      "dom": 1271,
      "mon": 1272,
      "orld": 1273,
      "Ġname": 1274,
      "Ġsex": 1275,
      "Ġhumans": 1276,
      "Ġstudents": 1277,
      "Ġreleased": 1278,
      "Ġliving": 1279,
      "Ġtrave": 1280,
      "Ġbehind": 1281,
      "ume": 1282,
      "Ġreg": 1283,
      "Ġposs": 1284,
      "Ġbre": 1285,
      "ont": 1286,
      "Ġwoman": 1287,
      "irect": 1288,
      "cer": 1289,
      "pr": 1290,
      "ving": 1291,
      "duc": 1292,
      "ma": 1293,
      "Ġthreat": 1294,
      "Ġsuddenly": 1295,
      "ĠWhile": 1296,
      "Ġcomes": 1297,
      "Ġincluded": 1298,
      "Ġgets": 1299,
      "Ġpop": 1300,
      "Ġart": 1301,
      "oon": 1302,
      "Ġsing": 1303,
      "Ġclub": 1304,
      "ization": 1305,
      "Ġdeath": 1306,
      "Ġlost": 1307,
      "uth": 1308,
      "Ġpowers": 1309,
      "Ġskill": 1310,
      "Ġoriginal": 1311,
      "ait": 1312,
      "Ġjoin": 1313,
      "lated": 1314,
      "Ġmain": 1315,
      "ize": 1316,
      "iful": 1317,
      "Ġshow": 1318,
      "Ġmat": 1319,
      "til": 1320,
      "Ġel": 1321,
      "hood": 1322,
      "Ġfour": 1323,
      "Ġknow": 1324,
      "ĠAm": 1325,
      "Ġthose": 1326,
      "ience": 1327,
      "Ġtell": 1328,
      "Ġfore": 1329,
      "ared": 1330,
      "agi": 1331,
      "ĠDVD": 1332,
      "ĠBe": 1333,
      "Ġcontr": 1334,
      "Ġ19": 1335,
      "omi": 1336,
      "Ġvis": 1337,
      "Ġco": 1338,
      "gan": 1339,
      "Ġthen": 1340,
      "ĠFr": 1341,
      "Ġmovie": 1342,
      "Ġdefe": 1343,
      "olog": 1344,
      "Ġcomple": 1345,
      "Ġvarious": 1346,
      "Ġid": 1347,
      "oku": 1348,
      "ube": 1349,
      "ĠIs": 1350,
      "ational": 1351,
      "atsu": 1352,
      "Ġter": 1353,
      "Ġkeep": 1354,
      "ways": 1355,
      "ple": 1356,
      "ane": 1357,
      "cy": 1358,
      "Ġsuch": 1359,
      "ady": 1360,
      "Ġvol": 1361,
      "ĠChi": 1362,
      "ato": 1363,
      "Ġcould": 1364,
      "Ġfeaturing": 1365,
      "Ġkill": 1366,
      "Ġspace": 1367,
      "selves": 1368,
      "aken": 1369,
      "Ġsurv": 1370,
      "ĠMik": 1371,
      "ĠKur": 1372,
      "ights": 1373,
      ").": 1374,
      "Ġattem": 1375,
      "00": 1376,
      "ask": 1377,
      "cc": 1378,
      "ili": 1379,
      "Ġthings": 1380,
      "Ġloc": 1381,
      "ita": 1382,
      "ĠEm": 1383,
      "Ġ-": 1384,
      "Ġlegend": 1385,
      "incess": 1386,
      "Ġsince": 1387,
      "Ġpowerful": 1388,
      "Ġplanet": 1389,
      "inary": 1390,
      "Ġph": 1391,
      "day": 1392,
      "Ġrep": 1393,
      "Ġthemselves": 1394,
      "Ġgen": 1395,
      "une": 1396,
      "Ġstrong": 1397,
      "Ġsuc": 1398,
      "oko": 1399,
      "Ġstrugg": 1400,
      "Ġtranslated": 1401,
      "Ġbody": 1402,
      "Ġind": 1403,
      "Ġescap": 1404,
      "oid": 1405,
      "xt": 1406,
      "Ġsomet": 1407,
      "Ġseems": 1408,
      "to": 1409,
      "uz": 1410,
      "Ġcent": 1411,
      "Ġarm": 1412,
      "Ġcare": 1413,
      "Ġsmall": 1414,
      "Ġuse": 1415,
      "Ġopp": 1416,
      "Ġlater": 1417,
      "Ġfollows": 1418,
      "ĠNow": 1419,
      "ĠLe": 1420,
      "Ġbeautiful": 1421,
      "ains": 1422,
      "Ġsoc": 1423,
      "Ġdirect": 1424,
      "Ġlast": 1425,
      "ĠAnim": 1426,
      "Ġevent": 1427,
      "ĠGr": 1428,
      "Ġalways": 1429,
      "ived": 1430,
      "iel": 1431,
      "Ġduring": 1432,
      "ĠSak": 1433,
      "Ġsearch": 1434,
      "ists": 1435,
      "Ġcountr": 1436,
      "Ġsit": 1437,
      "Ġhouse": 1438,
      "uction": 1439,
      "osh": 1440,
      "Ġstill": 1441,
      "ĠKan": 1442,
      "Ġupon": 1443,
      "Ġmuch": 1444,
      "ĠMar": 1445,
      "ĠAnime": 1446,
      "Ġtrou": 1447,
      "ey": 1448,
      "ics": 1449,
      "Ġdep": 1450,
      "Ġleft": 1451,
      "nown": 1452,
      "Ġop": 1453,
      "Ġfar": 1454,
      "Ġdist": 1455,
      "Ġdark": 1456,
      "aces": 1457,
      "Ġband": 1458,
      "ĠAcademy": 1459,
      "uation": 1460,
      "Ġer": 1461,
      "Ġwants": 1462,
      "Ġrece": 1463,
      "ĠDes": 1464,
      "Ġcharacter": 1465,
      "Ġidol": 1466,
      "Ġever": 1467,
      "Ġcompet": 1468,
      "Ġjob": 1469,
      "Ġface": 1470,
      "Ġinf": 1471,
      "ĠDe": 1472,
      "Ġevents": 1473,
      "ni": 1474,
      "Ġdev": 1475,
      "Ġbegin": 1476,
      "pected": 1477,
      "Ġaccident": 1478,
      "com": 1479,
      "ĠAnd": 1480,
      "uri": 1481,
      "Ġkind": 1482,
      "Ġdays": 1483,
      "Ġmagical": 1484,
      "lic": 1485,
      "Ġmet": 1486,
      "ĠTe": 1487,
      "ĠNew": 1488,
      "ches": 1489,
      "aughter": 1490,
      "ino": 1491,
      "res": 1492,
      "Ġdanger": 1493,
      "ĠOr": 1494,
      "Ġclassm": 1495,
      "friend": 1496,
      "ering": 1497,
      "ĠWik": 1498,
      "though": 1499,
      "br": 1500,
      "ames": 1501,
      "Ġbu": 1502,
      "idd": 1503,
      "Ġtrue": 1504,
      "Ġgood": 1505,
      "Ġchildhood": 1506,
      "Ġfinally": 1507,
      "ank": 1508,
      "ĠHer": 1509,
      "Ġgrand": 1510,
      "ural": 1511,
      "Ġking": 1512,
      "Ġdue": 1513,
      "Ġgod": 1514,
      "Ġuntil": 1515,
      "Ġrelations": 1516,
      "cept": 1517,
      "Ġgrad": 1518,
      "Ġsim": 1519,
      "que": 1520,
      "velop": 1521,
      "Ġchang": 1522,
      "ĠTr": 1523,
      "ĠThere": 1524,
      "ormal": 1525,
      "Ġimm": 1526,
      "Ġdestro": 1527,
      "Ġland": 1528,
      "Ġteac": 1529,
      "Ġins": 1530,
      "ĠFor": 1531,
      "Ġorgan": 1532,
      "Ġeveryone": 1533,
      "Ġgoes": 1534,
      "Ġtravel": 1535,
      "Ġnext": 1536,
      "Ġheart": 1537,
      "ĠWorld": 1538,
      "uit": 1539,
      "Ġdel": 1540,
      "Ġisland": 1541,
      "ĠSchool": 1542,
      "ki": 1543,
      "ll": 1544,
      "Ġdiscovers": 1545,
      "Ġtre": 1546,
      "Ġwit": 1547,
      "ĠCr": 1548,
      "Ġperform": 1549,
      "yr": 1550,
      "ĠFu": 1551,
      "aim": 1552,
      "Ġfo": 1553,
      "Ġmakes": 1554,
      "Ġhumanity": 1555,
      "aj": 1556,
      "ako": 1557,
      "abor": 1558,
      "Ġwithin": 1559,
      "ĠBased": 1560,
      "Ġchall": 1561,
      "port": 1562,
      "Ġhard": 1563,
      "ĠHigh": 1564,
      "),": 1565,
      "Ã©": 1566,
      "Ġfound": 1567,
      "ĠYouT": 1568,
      "Ġrelationship": 1569,
      "Ġhun": 1570,
      "Ġhaving": 1571,
      "ĠNo": 1572,
      "ora": 1573,
      "Ġkid": 1574,
      "Ġformer": 1575,
      "uma": 1576,
      "Ġfate": 1577,
      "Ġbelie": 1578,
      "ĠSec": 1579,
      "ĠMin": 1580,
      "Ġcoll": 1581,
      "ka": 1582,
      "while": 1583,
      "Ġparen": 1584,
      "Ġgl": 1585,
      "Ġhowever": 1586,
      "ĠCom": 1587,
      "Ġago": 1588,
      "Ġneed": 1589,
      "ĠYouTube": 1590,
      "Ġvi": 1591,
      "Ġsol": 1592,
      "Ġcour": 1593,
      "Ġpol": 1594,
      "str": 1595,
      "ized": 1596,
      "aves": 1597,
      "fortun": 1598,
      "Ġput": 1599,
      "ead": 1600,
      "ening": 1601,
      "Ġtoo": 1602,
      "ning": 1603,
      "Ġappears": 1604,
      "Ġwant": 1605,
      "Ġfull": 1606,
      "Ġsub": 1607,
      "tern": 1608,
      "Ġyet": 1609,
      "imes": 1610,
      "iddle": 1611,
      "ital": 1612,
      "ĠHar": 1613,
      "ires": 1614,
      "ĠKaz": 1615,
      "anwhile": 1616,
      "fect": 1617,
      "ĠTom": 1618,
      "Ġmen": 1619,
      "ha": 1620,
      "oi": 1621,
      "ray": 1622,
      "Ġquick": 1623,
      "ball": 1624,
      "Ġhand": 1625,
      "uo": 1626,
      "Ġcountry": 1627,
      "atch": 1628,
      "Ġcur": 1629,
      "\".": 1630,
      "ira": 1631,
      "Ġbring": 1632,
      "Ġused": 1633,
      "me": 1634,
      "ingly": 1635,
      "Ġnear": 1636,
      "Ġdevelop": 1637,
      "izes": 1638,
      "ĠHis": 1639,
      "elf": 1640,
      "Ġ201": 1641,
      "Ġpopular": 1642,
      "Ġrelease": 1643,
      "Ġsomething": 1644,
      "ika": 1645,
      "yu": 1646,
      "Ġothers": 1647,
      "like": 1648,
      "uff": 1649,
      "ision": 1650,
      "Ġcaus": 1651,
      "Ġmaster": 1652,
      "ĠGod": 1653,
      "Ġresc": 1654,
      "As": 1655,
      "Ġtransform": 1656,
      "Ġbook": 1657,
      "arou": 1658,
      "In": 1659,
      "ork": 1660,
      "ĠTw": 1661,
      "ears": 1662,
      "Ġdreams": 1663,
      "cial": 1664,
      "Ġey": 1665,
      "Ġencounter": 1666,
      "Ġrobot": 1667,
      "orr": 1668,
      "ermin": 1669,
      "Ġparents": 1670,
      "Ġtop": 1671,
      "ĠPro": 1672,
      "Ġpromot": 1673,
      "ield": 1674,
      "Ġbecause": 1675,
      "Ġofficial": 1676,
      "asy": 1677,
      "Ġforces": 1678,
      "osed": 1679,
      "Ġbreak": 1680,
      "ner": 1681,
      "estig": 1682,
      "Ġexp": 1683,
      "Ġadv": 1684,
      "Ġinvol": 1685,
      "par": 1686,
      "Ġfell": 1687,
      "ages": 1688,
      "Ġquest": 1689,
      "ened": 1690,
      "ms": 1691,
      "ects": 1692,
      "Ġmis": 1693,
      "oul": 1694,
      "Ġpil": 1695,
      "Ġmission": 1696,
      "ys": 1697,
      "Ġacross": 1698,
      "Ġteacher": 1699,
      "ĠMo": 1700,
      "Ġtries": 1701,
      "Ġmonsters": 1702,
      "Ġpersonal": 1703,
      "Ġap": 1704,
      "iness": 1705,
      "Ġgoing": 1706,
      "erg": 1707,
      "ished": 1708,
      "Ġreve": 1709,
      "Ġdraw": 1710,
      "Ġterr": 1711,
      "Ġvers": 1712,
      "Ġmin": 1713,
      "ĠSat": 1714,
      "ently": 1715,
      "ative": 1716,
      "Ġeff": 1717,
      "idden": 1718,
      "Ġtech": 1719,
      "joy": 1720,
      "Ġinvestig": 1721,
      "Ġemb": 1722,
      "Ġref": 1723,
      "Ġ4": 1724,
      "ific": 1725,
      "ĠYam": 1726,
      "Ġsent": 1727,
      "Ġbased": 1728,
      "Ġmod": 1729,
      "Ġwhose": 1730,
      "ĠHir": 1731,
      "Ġturns": 1732,
      "ĠSpecial": 1733,
      "ĠDespite": 1734,
      "Ġcomplete": 1735,
      "Ġsuccess": 1736,
      "Ġdaughter": 1737,
      "Ġnormal": 1738,
      "aged": 1739,
      "Ġfeelings": 1740,
      "Ġvillage": 1741,
      "Ġquickly": 1742,
      "ove": 1743,
      "Ġda": 1744,
      "Ġthr": 1745,
      "Ġusing": 1746,
      "Ġeverything": 1747,
      "achi": 1748,
      "ĠMas": 1749,
      "ager": 1750,
      "Ġcomb": 1751,
      "Ġcreated": 1752,
      "Ġspend": 1753,
      "Ġability": 1754,
      "pan": 1755,
      "Ġsaf": 1756,
      "Ġrev": 1757,
      "urd": 1758,
      "chi": 1759,
      "Ġche": 1760,
      "Ġentire": 1761,
      "Ġnat": 1762,
      "Ġanc": 1763,
      "Ġstarts": 1764,
      "ĠCity": 1765,
      "ĠSecond": 1766,
      "ho": 1767,
      "oro": 1768,
      "ĠOV": 1769,
      "ĠShort": 1770,
      "Ġson": 1771,
      "Ġwarr": 1772,
      "ito": 1773,
      "ĠKy": 1774,
      "Ġlearns": 1775,
      "Ġcompany": 1776,
      "bles": 1777,
      "Ġocc": 1778,
      "uko": 1779,
      "Th": 1780,
      "Ġorganization": 1781,
      "Ġ5": 1782,
      "Ġside": 1783,
      "ĠWhat": 1784,
      "yp": 1785,
      "inc": 1786,
      "Ġmiddle": 1787,
      "verse": 1788,
      "ĠKou": 1789,
      "Ġlet": 1790,
      "ax": 1791,
      "Ġfem": 1792,
      "Ġchance": 1793,
      "Ġenjoy": 1794,
      "Ġmember": 1795,
      "Ġadventure": 1796,
      "Ġprev": 1797,
      "Ġcapt": 1798,
      "ided": 1799,
      "Ġexist": 1800,
      "uel": 1801,
      "ury": 1802,
      "Ġwithout": 1803,
      "Ġpossess": 1804,
      "Ġfun": 1805,
      "Ġlight": 1806,
      "Ġrace": 1807,
      "mercial": 1808,
      "Ġfive": 1809,
      "ĠBlu": 1810,
      "iant": 1811,
      "ric": 1812,
      "ention": 1813,
      "uto": 1814,
      "Ġstories": 1815,
      "Ġskills": 1816,
      "Ġdestroy": 1817,
      "ming": 1818,
      "ised": 1819,
      "Ġalien": 1820,
      "iven": 1821,
      "oka": 1822,
      "Ġunex": 1823,
      "pir": 1824,
      "Ġmight": 1825,
      "uya": 1826,
      "ertain": 1827,
      "Ġordinary": 1828,
      "ĠNan": 1829,
      "Ġspirit": 1830,
      "Ġbig": 1831,
      "ĠTen": 1832,
      "Ġsword": 1833,
      "Ġtit": 1834,
      "Ġtoward": 1835,
      "Ġste": 1836,
      "Ġadventures": 1837,
      "pts": 1838,
      "ĠMan": 1839,
      "Ġself": 1840,
      "ui": 1841,
      "antly": 1842,
      "Ġdefeat": 1843,
      "Ġdeep": 1844,
      "not": 1845,
      "Ġtells": 1846,
      "ĠHan": 1847,
      "ĠMiy": 1848,
      "Ġdisc": 1849,
      "annel": 1850,
      "Ġencounters": 1851,
      "Ġhist": 1852,
      "Ġsever": 1853,
      "Ġpartic": 1854,
      "oice": 1855,
      "ĠKen": 1856,
      "ines": 1857,
      "Ġfact": 1858,
      "Ġpar": 1859,
      "ower": 1860,
      "Ġdead": 1861,
      "Ġmemories": 1862,
      "ermined": 1863,
      "king": 1864,
      "Ġhold": 1865,
      "estival": 1866,
      "Ġnothing": 1867,
      "Ġends": 1868,
      "Ġblood": 1869,
      "line": 1870,
      "ountain": 1871,
      "Ġwomen": 1872,
      "host": 1873,
      "ĠJun": 1874,
      "Ġhope": 1875,
      "Ġlegendary": 1876,
      "ances": 1877,
      "Ġtrying": 1878,
      "Ġscen": 1879,
      "Ġweap": 1880,
      "Ġescape": 1881,
      "ishi": 1882,
      "However": 1883,
      "ament": 1884,
      "Ġtruth": 1885,
      "ĠPl": 1886,
      "Ġproble": 1887,
      "Ġadap": 1888,
      "Ġbecoming": 1889,
      "Ġtraining": 1890,
      "bor": 1891,
      "pire": 1892,
      "Ġpath": 1893,
      "asure": 1894,
      "chie": 1895,
      "ĠXia": 1896,
      "Ġunexpected": 1897,
      "fess": 1898,
      "ĠAlthough": 1899,
      "Ġchange": 1900,
      "Ġpeaceful": 1901,
      "Ġsingle": 1902,
      "Ġdaily": 1903,
      "bs": 1904,
      "ĠMon": 1905,
      "Ġearth": 1906,
      "uses": 1907,
      "Ġleader": 1908,
      "Ġdog": 1909,
      "ĠBr": 1910,
      "ĠAll": 1911,
      "Ġfemale": 1912,
      "ined": 1913,
      "Ġcast": 1914,
      "Ġabilities": 1915,
      "by": 1916,
      "rop": 1917,
      "ĠOVA": 1918,
      "gel": 1919,
      "ada": 1920,
      "Ġcontinues": 1921,
      "ĠPok": 1922,
      "Ġhands": 1923,
      "ĠGu": 1924,
      "Ġfinal": 1925,
      "Ġpurs": 1926,
      "Ġdisapp": 1927,
      "Ġdoesn": 1928,
      "Ġancient": 1929,
      "ĠKa": 1930,
      "be": 1931,
      "Ġmaking": 1932,
      "ĠAy": 1933,
      "Ġcontrol": 1934,
      "ology": 1935,
      "Ġbro": 1936,
      "unch": 1937,
      "Ġvict": 1938,
      "fortunately": 1939,
      "Ġcult": 1940,
      "Ġmarr": 1941,
      "irou": 1942,
      "ement": 1943,
      "Ġcommercial": 1944,
      "Ġright": 1945,
      "Ġworks": 1946,
      "artment": 1947,
      "Ġproduc": 1948,
      "Ġsurpr": 1949,
      "Ġcontinue": 1950,
      "Ġsituation": 1951,
      "oru": 1952,
      "Ġele": 1953,
      "bit": 1954,
      "iety": 1955,
      "known": 1956,
      "Ġstand": 1957,
      "ective": 1958,
      "Ġadd": 1959,
      "aught": 1960,
      "\",": 1961,
      "cle": 1962,
      "Ġfoc": 1963,
      "Ġrul": 1964,
      "apped": 1965,
      "Ġpilot": 1966,
      "Ġversion": 1967,
      "Ġmot": 1968,
      "uru": 1969,
      "ushi": 1970,
      "kai": 1971,
      "inj": 1972,
      "Ġsets": 1973,
      "inning": 1974,
      "yle": 1975,
      "Ġsix": 1976,
      "Ġmom": 1977,
      "ution": 1978,
      "Ġforced": 1979,
      "ĠGen": 1980,
      "ĠLi": 1981,
      "Ġdemons": 1982,
      "bum": 1983,
      "Ġfail": 1984,
      "Ġtry": 1985,
      "Ġ10": 1986,
      "Ġfighting": 1987,
      "alf": 1988,
      "Ġalone": 1989,
      "ĠEx": 1990,
      "Ġroom": 1991,
      "Ġstep": 1992,
      "ically": 1993,
      "ays": 1994,
      "Ġext": 1995,
      "ises": 1996,
      "ility": 1997,
      "aining": 1998,
      "Ġattend": 1999,
      "Ġeduc": 2000,
      "Ġtour": 2001,
      "ination": 2002,
      "aps": 2003,
      "Ġtaking": 2004,
      "Ġfree": 2005,
      "ator": 2006,
      "artial": 2007,
      "Ġbus": 2008,
      "ĠMag": 2009,
      "aven": 2010,
      "ook": 2011,
      "irth": 2012,
      "una": 2013,
      "ades": 2014,
      "Ġprincess": 2015,
      "ba": 2016,
      "eration": 2017,
      "ih": 2018,
      "ano": 2019,
      "ilit": 2020,
      "Ġdeal": 2021,
      "ipedia": 2022,
      "Ġdecide": 2023,
      "ued": 2024,
      "acing": 2025,
      "Ġcreatures": 2026,
      "Ġunique": 2027,
      "Ġfair": 2028,
      "Ġfew": 2029,
      "enge": 2030,
      "Ġcar": 2031,
      "ĠKir": 2032,
      "oses": 2033,
      "Ġcollect": 2034,
      "Ġforest": 2035,
      "ele": 2036,
      "ison": 2037,
      "ĠAd": 2038,
      "ĠCon": 2039,
      "ĠWill": 2040,
      "illed": 2041,
      "eru": 2042,
      "ĠYuu": 2043,
      "Ġanything": 2044,
      "Ġamong": 2045,
      "ĠWikipedia": 2046,
      "ishes": 2047,
      "Ġmurd": 2048,
      "Ġpur": 2049,
      "ices": 2050,
      "ung": 2051,
      "ystem": 2052,
      "ky": 2053,
      "Ġide": 2054,
      "Ġfeatures": 2055,
      "cr": 2056,
      "Ġtask": 2057,
      "ĠWe": 2058,
      "Ġru": 2059,
      "Ġconst": 2060,
      "aff": 2061,
      "eared": 2062,
      "ĠNob": 2063,
      "Ġsummer": 2064,
      "Ġcollabor": 2065,
      "Ġmind": 2066,
      "ĠMak": 2067,
      "Ġlim": 2068,
      "Ġenough": 2069,
      "Ġinterest": 2070,
      "Ġclassmates": 2071,
      "stand": 2072,
      "ĠNe": 2073,
      "oney": 2074,
      "tra": 2075,
      "Ġvisit": 2076,
      "ron": 2077,
      "Ġtaken": 2078,
      "ero": 2079,
      "Ġfant": 2080,
      "Ġcame": 2081,
      "Ġhar": 2082,
      "Ġplans": 2083,
      "Ġdid": 2084,
      "ored": 2085,
      "Ġmonster": 2086,
      "ĠMom": 2087,
      "Ġenemy": 2088,
      "jo": 2089,
      "Ġfire": 2090,
      "Ġalbum": 2091,
      "Ġproject": 2092,
      "rent": 2093,
      "Ġbuild": 2094,
      "jou": 2095,
      "ern": 2096,
      "Ġav": 2097,
      "ĠSa": 2098,
      "Ġreb": 2099,
      "Ġred": 2100,
      "ĠOs": 2101,
      "Ġworking": 2102,
      "ĠStar": 2103,
      "kun": 2104,
      "Ġship": 2105,
      "Ġmy": 2106,
      "ergy": 2107,
      "Ġaim": 2108,
      "Ġattempt": 2109,
      "Ġdangerous": 2110,
      "Ġprevious": 2111,
      "ken": 2112,
      "ism": 2113,
      "anch": 2114,
      "Ġinn": 2115,
      "Ġnum": 2116,
      "ump": 2117,
      "ĠIm": 2118,
      "ortal": 2119,
      "cing": 2120,
      "Ġident": 2121,
      "Ġcomed": 2122,
      "iver": 2123,
      "Ġstren": 2124,
      "Ġcannot": 2125,
      "Ġthird": 2126,
      "ĠRy": 2127,
      "Ġresult": 2128,
      "of": 2129,
      "sy": 2130,
      "vern": 2131,
      "ĠKe": 2132,
      "ĠClub": 2133,
      "Ġinstead": 2134,
      "aro": 2135,
      "Ġstre": 2136,
      "ĠKam": 2137,
      "Ġvir": 2138,
      "Ġreality": 2139,
      "Ġtrouble": 2140,
      "cil": 2141,
      "Ġwish": 2142,
      "oki": 2143,
      "Ġkingdom": 2144,
      "Ġful": 2145,
      "aced": 2146,
      "ĠGirl": 2147,
      "Ġmove": 2148,
      "ments": 2149,
      "yn": 2150,
      "let": 2151,
      "Ġgoal": 2152,
      "Ġstreng": 2153,
      "!!": 2154,
      "Ġaired": 2155,
      "Ġbase": 2156,
      "oud": 2157,
      "Ġstay": 2158,
      "Ġexc": 2159,
      "Ġclos": 2160,
      "Ġbecame": 2161,
      "Ġactually": 2162,
      "Ġhopes": 2163,
      "Ġfalls": 2164,
      "Ġill": 2165,
      "ases": 2166,
      "uts": 2167,
      "ĠNag": 2168,
      "ĠDemon": 2169,
      "Ġshop": 2170,
      "Ġtechn": 2171,
      "ising": 2172,
      "Ġplaying": 2173,
      "ĠKingdom": 2174,
      "Ġmer": 2175,
      "uman": 2176,
      "ĠOk": 2177,
      "Ġintro": 2178,
      "ĠShou": 2179,
      "Ġeng": 2180,
      "Ġdesper": 2181,
      "Ġcolle": 2182,
      "Ġtalent": 2183,
      "aya": 2184,
      "ĠIch": 2185,
      "Ġexperience": 2186,
      "nat": 2187,
      "Ġair": 2188,
      "Ġoften": 2189,
      "Ġmartial": 2190,
      "ĠDa": 2191,
      "Ġyounger": 2192,
      "Ġchalleng": 2193,
      "go": 2194,
      "Ġwa": 2195,
      "atic": 2196,
      "Ġgive": 2197,
      "Ġfamous": 2198,
      "Ġdespite": 2199,
      "ĠMeanwhile": 2200,
      "Ġaff": 2201,
      "iding": 2202,
      "Ġforce": 2203,
      "ĠKo": 2204,
      "Ġclose": 2205,
      "ests": 2206,
      "ĠWar": 2207,
      "ĠGo": 2208,
      "ĠUs": 2209,
      "Ġfriendship": 2210,
      "fic": 2211,
      "leep": 2212,
      "Ġfellow": 2213,
      "ra": 2214,
      "Ġgang": 2215,
      "ether": 2216,
      "Ġcha": 2217,
      "fully": 2218,
      "ultim": 2219,
      "iors": 2220,
      "Ġpo": 2221,
      "Ġgetting": 2222,
      "ipp": 2223,
      "ustr": 2224,
      "Ġresp": 2225,
      "Ġboys": 2226,
      "Ġreveal": 2227,
      "ring": 2228,
      "Ġcle": 2229,
      "ential": 2230,
      "Ġunf": 2231,
      "Ġanimals": 2232,
      "Ġconsid": 2233,
      "Ġpresent": 2234,
      "oe": 2235,
      "Ġsold": 2236,
      "Ġwin": 2237,
      "Ġhot": 2238,
      "Ġfollow": 2239,
      "Ġdetermined": 2240,
      "Ġadapt": 2241,
      "Ġborn": 2242,
      "Ġpub": 2243,
      "otic": 2244,
      "Ġyour": 2245,
      "Ġconn": 2246,
      "versary": 2247,
      "venge": 2248,
      "ĠâĢ": 2249,
      "Ġsav": 2250,
      "orp": 2251,
      "ĠTog": 2252,
      "ĠMir": 2253,
      "Ġstar": 2254,
      "Ġseek": 2255,
      "ection": 2256,
      "versity": 2257,
      "Ġleads": 2258,
      "ĠAnimation": 2259,
      "Ġbirth": 2260,
      "ths": 2261,
      "undled": 2262,
      "Ġtrip": 2263,
      "Ġrival": 2264,
      "Ġhistory": 2265,
      "ym": 2266,
      "Ġcarr": 2267,
      "Ġpot": 2268,
      "Ġrequ": 2269,
      "ged": 2270,
      "Ġage": 2271,
      "read": 2272,
      "Ġlar": 2273,
      "Ġseveral": 2274,
      "atter": 2275,
      "Ġline": 2276,
      "Ġant": 2277,
      "ĠKag": 2278,
      "ĠRec": 2279,
      "ĠDuring": 2280,
      "Ġprod": 2281,
      "Ġappro": 2282,
      "kind": 2283,
      "Ġenergy": 2284,
      "Ġdiffic": 2285,
      "Ġdestr": 2286,
      "Ġaccom": 2287,
      "Ġvolume": 2288,
      "Ġdifficult": 2289,
      "iet": 2290,
      "Ġann": 2291,
      "Ġgovern": 2292,
      "Ġexperien": 2293,
      "Ġhidden": 2294,
      "Ġmilit": 2295,
      "Ġdem": 2296,
      "ĠSer": 2297,
      "Ġsomeone": 2298,
      "Ġincluding": 2299,
      "Ġlocal": 2300,
      "Ġgre": 2301,
      "ĠIk": 2302,
      "ĠDragon": 2303,
      "Ġdirected": 2304,
      "Ġsoul": 2305,
      "Ġhalf": 2306,
      "Ġsupp": 2307,
      "Ġ7": 2308,
      "ude": 2309,
      "Ġtheme": 2310,
      "come": 2311,
      "lict": 2312,
      "Ġwal": 2313,
      "Ġfig": 2314,
      "Ġmountain": 2315,
      "Ġgiven": 2316,
      "Ġtele": 2317,
      "ĠThough": 2318,
      "Ġarrives": 2319,
      "Ġ&": 2320,
      "Ġultim": 2321,
      "use": 2322,
      "istic": 2323,
      "izing": 2324,
      "Ġtransfer": 2325,
      "Ġlooking": 2326,
      "Ġaccidentally": 2327,
      "Ġchanges": 2328,
      "Ġcamp": 2329,
      "ount": 2330,
      "but": 2331,
      "nament": 2332,
      "head": 2333,
      "Ġcertain": 2334,
      "acy": 2335,
      "Ġbatt": 2336,
      "Ġcute": 2337,
      "Ġanni": 2338,
      "ĠEd": 2339,
      "ĠFl": 2340,
      "Ġfollowing": 2341,
      "Ġcollaboration": 2342,
      "Ġchannel": 2343,
      "ĠYuk": 2344,
      "Ġalongside": 2345,
      "Ġeventually": 2346,
      "ency": 2347,
      "Ġrealizes": 2348,
      "Ġgiant": 2349,
      "natural": 2350,
      "Ġblack": 2351,
      "reme": 2352,
      "Ġwatch": 2353,
      "iri": 2354,
      "urther": 2355,
      "Ġsees": 2356,
      "Ġknows": 2357,
      "ĠZh": 2358,
      "Ġview": 2359,
      "ox": 2360,
      "Ġfre": 2361,
      "emies": 2362,
      "Ġplot": 2363,
      "Ġsexual": 2364,
      "Ġni": 2365,
      "ĠBlack": 2366,
      "Ġlooks": 2367,
      "Ġstruggles": 2368,
      "Ġwr": 2369,
      "umes": 2370,
      "Ġleave": 2371,
      "Ġnovel": 2372,
      "ards": 2373,
      "rought": 2374,
      "ground": 2375,
      "san": 2376,
      "ĠTan": 2377,
      "ĠHik": 2378,
      "Ġshorts": 2379,
      "Ġteen": 2380,
      "Ġreturns": 2381,
      "Ġsafety": 2382,
      "Ġcele": 2383,
      "Ġple": 2384,
      "ĠSan": 2385,
      "ĠMi": 2386,
      "Ġrom": 2387,
      "pisode": 2388,
      "Ġappearance": 2389,
      "Ġmeeting": 2390,
      "Ġnature": 2391,
      "One": 2392,
      "bl": 2393,
      "asa": 2394,
      "ĠMiz": 2395,
      "Ġolder": 2396,
      "Ġassist": 2397,
      "Ġsociety": 2398,
      "iny": 2399,
      "Ġinside": 2400,
      "Ġghost": 2401,
      "Ġimag": 2402,
      "Ġdesign": 2403,
      "Ġparticip": 2404,
      "now": 2405,
      "Ġbad": 2406,
      "Ġsend": 2407,
      "uku": 2408,
      "ĠPrincess": 2409,
      "Ġsupernatural": 2410,
      "Ġrescue": 2411,
      "ians": 2412,
      "Ġhost": 2413,
      "ĠMis": 2414,
      "osp": 2415,
      "Ġattention": 2416,
      "ck": 2417,
      "ĠEl": 2418,
      "Ġprofess": 2419,
      "Ġmeans": 2420,
      "Ġuses": 2421,
      "Ġsisters": 2422,
      "ĠEmpire": 2423,
      "Ġfood": 2424,
      "Ġreason": 2425,
      "uta": 2426,
      "uro": 2427,
      "ĠNa": 2428,
      "Ġclaim": 2429,
      "ares": 2430,
      "Ġassass": 2431,
      "Ġstrength": 2432,
      "asts": 2433,
      "Ġreach": 2434,
      "iki": 2435,
      "Ġcontain": 2436,
      "Ġserv": 2437,
      "Ġgrow": 2438,
      "Ġparty": 2439,
      "ger": 2440,
      "oo": 2441,
      "Ġsystem": 2442,
      "Ġwond": 2443,
      "Ġled": 2444,
      "oly": 2445,
      "osing": 2446,
      "Ġunknown": 2447,
      "icture": 2448,
      "Ġsurround": 2449,
      "iliar": 2450,
      "ĠTwo": 2451,
      "Ġeyes": 2452,
      "ched": 2453,
      "Ġpair": 2454,
      "Ġspe": 2455,
      "Ġleaves": 2456,
      "gu": 2457,
      "ĠSup": 2458,
      "ained": 2459,
      "Ġuncover": 2460,
      "Ġpract": 2461,
      "ĠFrom": 2462,
      "inja": 2463,
      "ds": 2464,
      "Ġinform": 2465,
      "Ġvamp": 2466,
      "ivid": 2467,
      "Ġabs": 2468,
      "ĠShir": 2469,
      "ĠUnfortunately": 2470,
      "imi": 2471,
      "ĠSuz": 2472,
      "Ġenemies": 2473,
      "ef": 2474,
      "iting": 2475,
      "edi": 2476,
      "Ġmystery": 2477,
      "Ġactiv": 2478,
      "Ġeducational": 2479,
      "oins": 2480,
      "time": 2481,
      "urai": 2482,
      "aches": 2483,
      "Ġprove": 2484,
      "uchi": 2485,
      "Ġperfect": 2486,
      "Ġuniverse": 2487,
      "Ġfoot": 2488,
      "Ġtitle": 2489,
      "Ġmilitary": 2490,
      "sp": 2491,
      "rets": 2492,
      "Ġwishes": 2493,
      "Ġbrought": 2494,
      "Ġmoney": 2495,
      "cend": 2496,
      "upt": 2497,
      "Ġcompletely": 2498,
      "yal": 2499,
      "ica": 2500,
      "Ġthing": 2501,
      "ĠSou": 2502,
      "Ġrevenge": 2503,
      "olves": 2504,
      "ote": 2505,
      "ĠRin": 2506,
      "ĠJi": 2507,
      "Ġjoins": 2508,
      "tract": 2509,
      "Ġneigh": 2510,
      "Ġpassion": 2511,
      "most": 2512,
      "Ġ6": 2513,
      "Ġtimes": 2514,
      "Ġdiv": 2515,
      "ĠAi": 2516,
      "ĠRyou": 2517,
      "andon": 2518,
      "Ġconfr": 2519,
      "Ġloves": 2520,
      "ĠChr": 2521,
      "Ġsky": 2522,
      "Ġreceives": 2523,
      "Ġcompetition": 2524,
      "Ġpolice": 2525,
      "ĠPokÃ©": 2526,
      "jin": 2527,
      "Ġwater": 2528,
      "Ġgames": 2529,
      "quel": 2530,
      "Ġarts": 2531,
      "ĠMa": 2532,
      "Ġturned": 2533,
      "Ġseemingly": 2534,
      "Ġcreate": 2535,
      "Ġattempts": 2536,
      "ĠNews": 2537,
      "Ġkidn": 2538,
      "father": 2539,
      "Ġ'": 2540,
      "imin": 2541,
      "Ġgives": 2542,
      "Ġreun": 2543,
      "ĠTheir": 2544,
      "ope": 2545,
      "Ġeveryday": 2546,
      "Ġobs": 2547,
      "DVD": 2548,
      "wa": 2549,
      "Ġsuff": 2550,
      "Ġcond": 2551,
      "ĠBat": 2552,
      "ĠNats": 2553,
      "Ġleaving": 2554,
      "Ġscient": 2555,
      "Ġcrew": 2556,
      "Ġconflict": 2557,
      "Ġthought": 2558,
      "uge": 2559,
      "Ġhom": 2560,
      "ĠSun": 2561,
      "ĠStr": 2562,
      "Ġprov": 2563,
      "Ġruns": 2564,
      "Ġspirits": 2565,
      "sh": 2566,
      "Ġsaid": 2567,
      "Ġpoin": 2568,
      "Ġlate": 2569,
      "ĠThese": 2570,
      "Ġachie": 2571,
      "alth": 2572,
      "omb": 2573,
      "urb": 2574,
      "ĠDark": 2575,
      "Ġshows": 2576,
      "Ġshould": 2577,
      "avor": 2578,
      "Ġviol": 2579,
      "Ġcombat": 2580,
      "Ġcelebr": 2581,
      "ĠPokÃ©mon": 2582,
      "Ġsign": 2583,
      "Ġwait": 2584,
      "Ġcou": 2585,
      "ĠTa": 2586,
      "ĠTogether": 2587,
      "Ġgovernment": 2588,
      "ius": 2589,
      "na": 2590,
      "Ġsus": 2591,
      "ister": 2592,
      "ĠPre": 2593,
      "Ġimport": 2594,
      "Ġmissing": 2595,
      "Ġstruggle": 2596,
      "Ġinvolved": 2597,
      "cent": 2598,
      "cious": 2599,
      "pon": 2600,
      "pic": 2601,
      "work": 2602,
      "Ġtest": 2603,
      "adow": 2604,
      "ĠChin": 2605,
      "uly": 2606,
      "Ġz": 2607,
      "Ġcase": 2608,
      "Ġhappy": 2609,
      "Ġguard": 2610,
      "ĠSakura": 2611,
      "Ġexistence": 2612,
      "gg": 2613,
      "Ġtem": 2614,
      "ono": 2615,
      "Ġcross": 2616,
      "asc": 2617,
      "Ġgradually": 2618,
      "Ġfulf": 2619,
      "Ġest": 2620,
      "ites": 2621,
      "idents": 2622,
      "ief": 2623,
      "Ġarmy": 2624,
      "uing": 2625,
      "Ġcy": 2626,
      "Ġcover": 2627,
      "iron": 2628,
      "ivil": 2629,
      "Ġsepar": 2630,
      "Ġitself": 2631,
      "Ġens": 2632,
      "etsu": 2633,
      "Ġbegan": 2634,
      "ledge": 2635,
      "Ġten": 2636,
      "Ġcaught": 2637,
      "Ġmaid": 2638,
      "iece": 2639,
      "aby": 2640,
      "Ġteach": 2641,
      "itsu": 2642,
      "Ġspecials": 2643,
      "Ġemot": 2644,
      "hether": 2645,
      "ready": 2646,
      "ĠSen": 2647,
      "ĠKit": 2648,
      "ĠKei": 2649,
      "ĠOt": 2650,
      "Ġprep": 2651,
      "Ġclassmate": 2652,
      "Ġcomedy": 2653,
      "aur": 2654,
      "Ġoutside": 2655,
      "Ġsupport": 2656,
      "Ġprotagon": 2657,
      "Ġhappens": 2658,
      "Sh": 2659,
      "hab": 2660,
      "aring": 2661,
      "ĠSu": 2662,
      "ĠRob": 2663,
      "Ġabandon": 2664,
      "peror": 2665,
      "ĠAnimated": 2666,
      "Ġtreasure": 2667,
      "ga": 2668,
      "lish": 2669,
      "eless": 2670,
      "Ġwhole": 2671,
      "Ġenv": 2672,
      "Ġopportun": 2673,
      "Ġdestruction": 2674,
      "che": 2675,
      "rap": 2676,
      "Ġtyp": 2677,
      "Ġbundled": 2678,
      "Ġcir": 2679,
      "edic": 2680,
      "ĠTam": 2681,
      "Ġfront": 2682,
      "Ġra": 2683,
      "Ġseven": 2684,
      "Ġincident": 2685,
      "Ġgener": 2686,
      "bsite": 2687,
      "nder": 2688,
      "Ġbond": 2689,
      "arre": 2690,
      "Ġmach": 2691,
      "Ġpain": 2692,
      "owly": 2693,
      "olf": 2694,
      "Ġfranch": 2695,
      "ĠRen": 2696,
      "Ġconqu": 2697,
      "Ġbeginning": 2698,
      "ĠAkira": 2699,
      "Ġcreature": 2700,
      "Ġanniversary": 2701,
      "ãĥ": 2702,
      "arks": 2703,
      "Ġpost": 2704,
      "ĠSw": 2705,
      "ster": 2706,
      "used": 2707,
      "Ġrecr": 2708,
      "Ġedited": 2709,
      "Ġwitness": 2710,
      "Ġlarge": 2711,
      "con": 2712,
      "ler": 2713,
      "Ġtale": 2714,
      "ences": 2715,
      "ĠHay": 2716,
      "Ġprevent": 2717,
      "Ġaction": 2718,
      "Ġchallenge": 2719,
      "cast": 2720,
      "za": 2721,
      "Ġwife": 2722,
      "Ġreally": 2723,
      "vert": 2724,
      "earing": 2725,
      "ĠEven": 2726,
      "Ġconcer": 2727,
      "ploy": 2728,
      "Ġheroes": 2729,
      "asing": 2730,
      "ĠPe": 2731,
      "ept": 2732,
      "Ġ12": 2733,
      "ĠTeam": 2734,
      "Ġterror": 2735,
      "Ġsteal": 2736,
      "ery": 2737,
      "itch": 2738,
      "ley": 2739,
      "ĠSo": 2740,
      "Ġear": 2741,
      "osuke": 2742,
      "Ġalready": 2743,
      "ift": 2744,
      "ĠLittle": 2745,
      "Ġpartner": 2746,
      "Ġ200": 2747,
      "Ġmodern": 2748,
      "Ġrespons": 2749,
      "my": 2750,
      "Ġtar": 2751,
      "Ġlack": 2752,
      "ĠKn": 2753,
      "Ġdesire": 2754,
      "Ġsurvive": 2755,
      "Ġod": 2756,
      "ĠMay": 2757,
      "Ġtrack": 2758,
      "ĠChar": 2759,
      "Ġowner": 2760,
      "Ġremains": 2761,
      "ĠTsuk": 2762,
      "Ġchaos": 2763,
      "Ġadaptation": 2764,
      "Ġfranchise": 2765,
      "With": 2766,
      "fo": 2767,
      "int": 2768,
      "ĠFoll": 2769,
      "Ġrealize": 2770,
      "Ġpassed": 2771,
      "Ġsummon": 2772,
      "When": 2773,
      "hy": 2774,
      "ny": 2775,
      "Ġsleep": 2776,
      "oring": 2777,
      "Ġhorr": 2778,
      "ĠSum": 2779,
      "amoto": 2780,
      "Ġseen": 2781,
      "ikes": 2782,
      "Ġdragon": 2783,
      "ĠXiao": 2784,
      "Ġmoment": 2785,
      "aun": 2786,
      "mas": 2787,
      "Ġour": 2788,
      "Ġgather": 2789,
      "ĠGe": 2790,
      "Ġcoming": 2791,
      "undam": 2792,
      "ugi": 2793,
      "Ġrobots": 2794,
      "Ġexplore": 2795,
      "Ġmatter": 2796,
      "ĠIsland": 2797,
      "This": 2798,
      "Ġproduced": 2799,
      "Ġpotential": 2800,
      "Me": 2801,
      "ĠAg": 2802,
      "Ġbeings": 2803,
      "ĠNar": 2804,
      "ĠFour": 2805,
      "Ġconv": 2806,
      "Ġextra": 2807,
      "Ġstarted": 2808,
      "Ġopening": 2809,
      "Ġgrandfather": 2810,
      "Ġgods": 2811,
      "ned": 2812,
      "sw": 2813,
      "ĠTou": 2814,
      "Ġgot": 2815,
      "aga": 2816,
      "Ġmob": 2817,
      "Ġknowledge": 2818,
      "Ġeye": 2819,
      "Ġbusiness": 2820,
      "Ġpurp": 2821,
      "bi": 2822,
      "anced": 2823,
      "ĠKot": 2824,
      "Ġrum": 2825,
      "Ġclan": 2826,
      "Ġ15": 2827,
      "Ġdefend": 2828,
      "Ġfulfill": 2829,
      "Ġ9": 2830,
      "Ġinj": 2831,
      "ceed": 2832,
      "Ġless": 2833,
      "Ġshock": 2834,
      "Ġgrant": 2835,
      "Ġanyone": 2836,
      "Ġtechnology": 2837,
      "Ġpublic": 2838,
      "med": 2839,
      "pet": 2840,
      "vision": 2841,
      "Ġthink": 2842,
      "Ġstum": 2843,
      "ĠKyou": 2844,
      "Ġwhy": 2845,
      "Ġwhom": 2846,
      "Ġali": 2847,
      "undred": 2848,
      "Ġ202": 2849,
      "Ġtournament": 2850,
      "Ġfairy": 2851,
      "Ġbaseball": 2852,
      "Ġswe": 2853,
      "ĠSc": 2854,
      "ousuke": 2855,
      "ĠFilm": 2856,
      "Ġsea": 2857,
      "Ġquiet": 2858,
      "Ġbetter": 2859,
      "Ġpresident": 2860,
      "Ġcourse": 2861,
      "Ġfurther": 2862,
      "ĠAz": 2863,
      "ĠPh": 2864,
      "ĠLove": 2865,
      "Ġprince": 2866,
      "Ġaccept": 2867,
      "Ġappeared": 2868,
      "Ġways": 2869,
      "Ġattacked": 2870,
      "Ġidentity": 2871,
      "ĠGirls": 2872,
      "Ġcloser": 2873,
      "Ġcollege": 2874,
      "Ġbattles": 2875,
      "After": 2876,
      "aired": 2877,
      "aning": 2878,
      "ĠMah": 2879,
      "owed": 2880,
      "ĠGal": 2881,
      "udd": 2882,
      "Ġshown": 2883,
      "Ġdoing": 2884,
      "Ġplayer": 2885,
      "Ġcivil": 2886,
      "ilar": 2887,
      "ĠHats": 2888,
      "ĠYuki": 2889,
      "ĠEr": 2890,
      "Ġindivid": 2891,
      "Ġera": 2892,
      "atr": 2893,
      "ĠKai": 2894,
      "osen": 2895,
      "Ġcho": 2896,
      "ĠUni": 2897,
      "ĠMiku": 2898,
      "ĠSuper": 2899,
      "Ġprotagonist": 2900,
      "isa": 2901,
      "Ġmist": 2902,
      "ĠHell": 2903,
      "ĠGundam": 2904,
      "ĠEvery": 2905,
      "ĠThree": 2906,
      "coming": 2907,
      "Ġinvestigate": 2908,
      "uan": 2909,
      "Ġcut": 2910,
      "ivate": 2911,
      "ĠLord": 2912,
      "Ġprop": 2913,
      "ĠAngel": 2914,
      "Ġnewly": 2915,
      "Ġmankind": 2916,
      "Ġleading": 2917,
      "Ġwarrior": 2918,
      "Ġproblems": 2919,
      "ked": 2920,
      "ading": 2921,
      "Ġvoice": 2922,
      "ified": 2923,
      "ĠEach": 2924,
      "âĢ¦": 2925,
      "abe": 2926,
      "Ġsecrets": 2927,
      "ĠQue": 2928,
      "iod": 2929,
      "Ġfaces": 2930,
      "itive": 2931,
      "ults": 2932,
      "ocal": 2933,
      "Ġdecided": 2934,
      "Ġrealm": 2935,
      "ĠStud": 2936,
      "Ġcommon": 2937,
      "Ġchanged": 2938,
      "ges": 2939,
      "lo": 2940,
      "Ġpos": 2941,
      "ĠAmer": 2942,
      "ĠHin": 2943,
      "ĠHaving": 2944,
      "hiko": 2945,
      "Ġbrings": 2946,
      "Ġacademy": 2947,
      "ishing": 2948,
      "Ġunderstand": 2949,
      "Ġkilled": 2950,
      "ĠHero": 2951,
      "Ġcurrent": 2952,
      "axy": 2953,
      "Ġweapons": 2954,
      "Ġfantasy": 2955,
      "ĠChrist": 2956,
      "Ġsqu": 2957,
      "Ġfilled": 2958,
      "asion": 2959,
      "Ġemer": 2960,
      "Ġbear": 2961,
      "ĠIz": 2962,
      "mentary": 2963,
      "Ġassign": 2964,
      "Ġkids": 2965,
      "Ġsurprise": 2966,
      "itial": 2967,
      "Ġmass": 2968,
      "Ġthous": 2969,
      "usion": 2970,
      "ĠGreat": 2971,
      "Ġintern": 2972,
      "Ġdetective": 2973,
      "Ġwitch": 2974,
      "ajor": 2975,
      "Ġmurder": 2976,
      "Ġsaved": 2977,
      "dess": 2978,
      "oved": 2979,
      "Ġfle": 2980,
      "Ġdon": 2981,
      "lying": 2982,
      "Ġasks": 2983,
      "Ġspec": 2984,
      "Ġrunning": 2985,
      "Ġneeds": 2986,
      "ĊĠ": 2987,
      "inks": 2988,
      "Ġmale": 2989,
      "igious": 2990,
      "Ġlonger": 2991,
      "ĠHaruka": 2992,
      "ĠRecap": 2993,
      "Ġannoun": 2994,
      "Ġopportunity": 2995,
      "ene": 2996,
      "antic": 2997,
      "Ġwarriors": 2998,
      "yond": 2999,
      "Ġwand": 3000,
      "Ġbit": 3001,
      "Ġdom": 3002,
      "ilib": 3003,
      "ĠMy": 3004,
      "ida": 3005,
      "Ġstore": 3006,
      "ĠII": 3007,
      "Ġseal": 3008,
      "Ġremem": 3009,
      "Ġintroduc": 3010,
      "Ġconsidered": 3011,
      "band": 3012,
      "roll": 3013,
      "Ġsal": 3014,
      "Ġlot": 3015,
      "ĠWat": 3016,
      "ĠFestival": 3017,
      "Ġscre": 3018,
      "Ġsolve": 3019,
      "Ġapartment": 3020,
      "Ġinnoc": 3021,
      "ER": 3022,
      "co": 3023,
      "iance": 3024,
      "key": 3025,
      "vie": 3026,
      "Ġfestival": 3027,
      "Ġhon": 3028,
      "ĠSei": 3029,
      "ĠCol": 3030,
      "ustom": 3031,
      "Ġgirlfriend": 3032,
      "Ġgrows": 3033,
      "Ġovercome": 3034,
      "ĠAlong": 3035,
      "eko": 3036,
      "Ġartist": 3037,
      "Ġlimited": 3038,
      "Ġcost": 3039,
      "Ġinhab": 3040,
      "Ġearn": 3041,
      "Ġworse": 3042,
      "Ġacce": 3043,
      "Ġenter": 3044,
      "Ġphys": 3045,
      "Ġbelieves": 3046,
      "Ġmobile": 3047,
      "Ġbiz": 3048,
      "ĠHaru": 3049,
      "room": 3050,
      "Ġattract": 3051,
      "Ġvideos": 3052,
      "Ġarrival": 3053,
      "incarn": 3054,
      "Ġchallenges": 3055,
      "Ġsupposed": 3056,
      "hel": 3057,
      "ony": 3058,
      "anet": 3059,
      "ĠKore": 3060,
      "Ġwhite": 3061,
      "ously": 3062,
      "Ġfigure": 3063,
      "ilibili": 3064,
      "ee": 3065,
      "face": 3066,
      "Ġmess": 3067,
      "ĠHim": 3068,
      "ĠDet": 3069,
      "ĠPar": 3070,
      "ĠJin": 3071,
      "Ġdesires": 3072,
      "Ġplayers": 3073,
      "Ġseeks": 3074,
      "Ġtravels": 3075,
      "Ġweapon": 3076,
      "erful": 3077,
      "Ġfear": 3078,
      "Ġpsy": 3079,
      "asaki": 3080,
      "ims": 3081,
      "Ġrap": 3082,
      "eki": 3083,
      "Ġelite": 3084,
      "Ġavoid": 3085,
      "'re": 3086,
      "Ġfin": 3087,
      "Ġpicture": 3088,
      "Ġgal": 3089,
      "amurai": 3090,
      "idst": 3091,
      "uter": 3092,
      "Ġstyle": 3093,
      "ĠCan": 3094,
      "Ġalmost": 3095,
      "ibly": 3096,
      "Ġtransport": 3097,
      "Ġjustice": 3098,
      "Ġbox": 3099,
      "Ġslowly": 3100,
      "Ġcompanions": 3101,
      "Ġpossible": 3102,
      "Ġcentury": 3103,
      "Ġimmedi": 3104,
      "Ġaliens": 3105,
      "Ġbizarre": 3106,
      "iers": 3107,
      "mi": 3108,
      "Ġbal": 3109,
      "anks": 3110,
      "Ġfort": 3111,
      "ighter": 3112,
      "ĠUr": 3113,
      "Ġ13": 3114,
      "Ġextreme": 3115,
      "era": 3116,
      "Ġlif": 3117,
      "ague": 3118,
      "ĠYosh": 3119,
      "itional": 3120,
      "pective": 3121,
      "ĠAnimeN": 3122,
      "Ġtarget": 3123,
      "zuka": 3124,
      "Ġsense": 3125,
      "Ġoper": 3126,
      "Ġdut": 3127,
      "ĠAoi": 3128,
      "Ġstage": 3129,
      "Ġunable": 3130,
      "Ġhappen": 3131,
      "Ġincre": 3132,
      "Ġscenes": 3133,
      "ĠQueen": 3134,
      "lings": 3135,
      "Ġfights": 3136,
      "asu": 3137,
      "iment": 3138,
      "Ġeasy": 3139,
      "uno": 3140,
      "Ġcauses": 3141,
      "Ġproblem": 3142,
      "Ġabandoned": 3143,
      "Ġsound": 3144,
      "Ġwent": 3145,
      "Ġfavor": 3146,
      "Ġtook": 3147,
      "iest": 3148,
      "Ġworlds": 3149,
      "Ġacqu": 3150,
      "Ġrole": 3151,
      "ĠBlue": 3152,
      "Ġobtain": 3153,
      "Ġbrothers": 3154,
      "Ġconstantly": 3155,
      "ĠMakoto": 3156,
      "Ġaccompan": 3157,
      "Ġestab": 3158,
      "mother": 3159,
      "Ġstate": 3160,
      "ĠDou": 3161,
      "Ġrather": 3162,
      "ĠLup": 3163,
      "aba": 3164,
      "aze": 3165,
      "Ġsimple": 3166,
      "ĠCrunch": 3167,
      "Ġneighbor": 3168,
      "Meanwhile": 3169,
      "bo": 3170,
      "hou": 3171,
      "Ġ8": 3172,
      "aper": 3173,
      "ĠNor": 3174,
      "ĠYoshi": 3175,
      "Ġcatch": 3176,
      "gress": 3177,
      "Ġwild": 3178,
      "Ġga": 3179,
      "els": 3180,
      "Ġtrad": 3181,
      "odies": 3182,
      "Ġkey": 3183,
      "arted": 3184,
      "Ġcouncil": 3185,
      "ccent": 3186,
      "Ġpurpose": 3187,
      "ĠAnimeNfo": 3188,
      "ither": 3189,
      "Ġhundred": 3190,
      "Ġbefriend": 3191,
      "usive": 3192,
      "ĠBD": 3193,
      "ĠNak": 3194,
      "Ġending": 3195,
      "Ġmemory": 3196,
      "Ġartif": 3197,
      "yroll": 3198,
      "Ġoccur": 3199,
      "Ġtelevision": 3200,
      "Ġcouple": 3201,
      "oom": 3202,
      "isis": 3203,
      "Ġpet": 3204,
      "idori": 3205,
      "Ġchamp": 3206,
      "Ġuns": 3207,
      "Ġunit": 3208,
      "ctor": 3209,
      "Ġoffice": 3210,
      "ĠVal": 3211,
      "Ġthroughout": 3212,
      "ĠMeg": 3213,
      "Ġconfess": 3214,
      "Ġmatch": 3215,
      "Ġvolumes": 3216,
      "ĠCrunchyroll": 3217,
      "lu": 3218,
      "Ġwo": 3219,
      "Ġcause": 3220,
      "imens": 3221,
      "Ġlived": 3222,
      "Ġeccent": 3223,
      "Ġbeyond": 3224,
      "Ġready": 3225,
      "igo": 3226,
      "ĠBy": 3227,
      "Ġexam": 3228,
      "ograp": 3229,
      "ĠThat": 3230,
      "claim": 3231,
      "Ġoffers": 3232,
      "Ġopen": 3233,
      "ĠMovie": 3234,
      "ospital": 3235,
      "ĠChinese": 3236,
      "Ġi": 3237,
      "Ġut": 3238,
      "rest": 3239,
      "Ġtold": 3240,
      "ĠHy": 3241,
      "ĠRed": 3242,
      "Ġdrag": 3243,
      "Ġdrama": 3244,
      "Ġcirc": 3245,
      "'ll": 3246,
      "found": 3247,
      "light": 3248,
      "ert": 3249,
      "Ġwind": 3250,
      "Ġninja": 3251,
      "aying": 3252,
      "Ġcapable": 3253,
      "ĠTsub": 3254,
      "Ġwrong": 3255,
      "ĠLupin": 3256,
      "hara": 3257,
      "iew": 3258,
      "men": 3259,
      "Ġmir": 3260,
      "Ġdou": 3261,
      "Ġluck": 3262,
      "Ġeld": 3263,
      "adcast": 3264,
      "aint": 3265,
      "Ġchosen": 3266,
      "ably": 3267,
      "Ġfamiliar": 3268,
      "Ġpersonality": 3269,
      "ĠHatsune": 3270,
      "yama": 3271,
      "Ġfier": 3272,
      "ones": 3273,
      "ĠSet": 3274,
      "Ġisn": 3275,
      "Ġreincarn": 3276,
      "Ġstat": 3277,
      "ĠCat": 3278,
      "Ġspread": 3279,
      "ĠThird": 3280,
      "ressed": 3281,
      "Ġlearning": 3282,
      "Ġimpro": 3283,
      "Ġfeels": 3284,
      "Ġwon": 3285,
      "Ġmajor": 3286,
      "roid": 3287,
      "ĠCent": 3288,
      "Ġtruly": 3289,
      "elling": 3290,
      "phan": 3291,
      "Ġsocial": 3292,
      "Ġembark": 3293,
      "Ġbuilding": 3294,
      "Ġenviron": 3295,
      "Ġeccentric": 3296,
      "ship": 3297,
      "Ġnation": 3298,
      "ĠThen": 3299,
      "illion": 3300,
      "Ġchoice": 3301,
      "ĠFe": 3302,
      "Ġadm": 3303,
      "Ġadult": 3304,
      "Ġfinding": 3305,
      "Ġprest": 3306,
      "Ġmoon": 3307,
      "Ġdescend": 3308,
      "Ġgreatest": 3309,
      "Ġinformation": 3310,
      "Ġachieve": 3311,
      "But": 3312,
      "Ġaud": 3313,
      "ilt": 3314,
      "Ġansw": 3315,
      "ĠKar": 3316,
      "ĠUpon": 3317,
      "Ġfeature": 3318,
      "azy": 3319,
      "Ġcount": 3320,
      "Ġperformance": 3321,
      "Ġvampire": 3322,
      "Ġpoint": 3323,
      "Ġimmediately": 3324,
      "girl": 3325,
      "Ġsil": 3326,
      "Ġsac": 3327,
      "Ġsib": 3328,
      "Ġval": 3329,
      "Ġvari": 3330,
      "ifth": 3331,
      "ogn": 3332,
      "Ġentr": 3333,
      "Ġforever": 3334,
      "Ġfocuses": 3335,
      "ĠSword": 3336,
      "got": 3337,
      "Ġbar": 3338,
      "Ġcard": 3339,
      "alm": 3340,
      "ĠSay": 3341,
      "cha": 3342,
      "uss": 3343,
      "Ġdisp": 3344,
      "Ġemploy": 3345,
      "ĠFuj": 3346,
      "Ġtowards": 3347,
      "Ġimportant": 3348,
      "vil": 3349,
      "oration": 3350,
      "Ġdied": 3351,
      "Ġlands": 3352,
      "utes": 3353,
      "ĠKak": 3354,
      "oke": 3355,
      "ĠLu": 3356,
      "ĠShu": 3357,
      "Ġallies": 3358,
      "action": 3359,
      "Ġrecap": 3360,
      "Ġyouth": 3361,
      "ĠWiki": 3362,
      "hold": 3363,
      "iar": 3364,
      "Ġsite": 3365,
      "Ġboss": 3366,
      "ico": 3367,
      "ĠSince": 3368,
      "ĠMits": 3369,
      "idence": 3370,
      "acle": 3371,
      "ected": 3372,
      "Ġenroll": 3373,
      "Ġmanages": 3374,
      "Ġagre": 3375,
      "Ġanimal": 3376,
      "ought": 3377,
      "ĠEng": 3378,
      "Ġstrongest": 3379,
      "Ġdestroyed": 3380,
      "Ġenvironment": 3381,
      "oz": 3382,
      "Ġchi": 3383,
      "ĠKim": 3384,
      "Ġlevel": 3385,
      "ĠThrough": 3386,
      "Ġcrime": 3387,
      "Ġcrisis": 3388,
      "Ġhelping": 3389,
      "Ġadventur": 3390,
      "resent": 3391,
      "Ġnumber": 3392,
      "Ġdesperate": 3393,
      "Ġultimate": 3394,
      "mo": 3395,
      "amura": 3396,
      "olk": 3397,
      "Ġstars": 3398,
      "ĠKon": 3399,
      "ĠIf": 3400,
      "ibe": 3401,
      "Ġdiscovered": 3402,
      "Ġelse": 3403,
      "Ġspends": 3404,
      "Ġprestigious": 3405,
      "hiro": 3406,
      "Ġwhether": 3407,
      "itions": 3408,
      "ĠHak": 3409,
      "using": 3410,
      "ella": 3411,
      "iple": 3412,
      "Ġbeloved": 3413,
      "Ġsearching": 3414,
      "fecture": 3415,
      "Ġve": 3416,
      "Ġonline": 3417,
      "ĠNi": 3418,
      "oya": 3419,
      "Ġmoves": 3420,
      "Ġquite": 3421,
      "Ġweak": 3422,
      "ission": 3423,
      "orning": 3424,
      "resh": 3425,
      "Ġreveals": 3426,
      "ĠSatoshi": 3427,
      "Ġefforts": 3428,
      "Ġelementary": 3429,
      "ĠChristmas": 3430,
      "itude": 3431,
      "Ġcold": 3432,
      "Ġpup": 3433,
      "Ġheld": 3434,
      "ĠSoon": 3435,
      "ĠMoon": 3436,
      "otion": 3437,
      "Ġrise": 3438,
      "Ġexcept": 3439,
      "Ġoriginally": 3440,
      "An": 3441,
      "edd": 3442,
      "ĠKas": 3443,
      "ĠRyu": 3444,
      "Ġjun": 3445,
      "Ġprocess": 3446,
      "Ġpret": 3447,
      "olden": 3448,
      "Ġroad": 3449,
      "Ġperiod": 3450,
      "Ġhappened": 3451,
      "Ġcommand": 3452,
      "Ġrules": 3453,
      "Ġtasked": 3454,
      "ping": 3455,
      "iter": 3456,
      "imon": 3457,
      "Ġones": 3458,
      "usa": 3459,
      "ĠRan": 3460,
      "ĠDig": 3461,
      "ĠGre": 3462,
      "Ġshare": 3463,
      "Ġdecl": 3464,
      "Ġwebsite": 3465,
      "ĠPrince": 3466,
      "Ġsimilar": 3467,
      "Ġpromote": 3468,
      "Ġsafe": 3469,
      "ĠFollowing": 3470,
      "While": 3471,
      "een": 3472,
      "hat": 3473,
      "jima": 3474,
      "Ġtou": 3475,
      "Ġsun": 3476,
      "Ġcustom": 3477,
      "Ġmedia": 3478,
      "Ġduo": 3479,
      "ĠHam": 3480,
      "ĠKaw": 3481,
      "ĠChen": 3482,
      "ĠDue": 3483,
      "anda": 3484,
      "ĠJust": 3485,
      "Ġexact": 3486,
      "ellig": 3487,
      "Ġhelps": 3488,
      "Ġmonths": 3489,
      "Ġincred": 3490,
      "Ġregular": 3491,
      "Ġcausing": 3492,
      "Ġpsych": 3493,
      "lished": 3494,
      "pecial": 3495,
      "tual": 3496,
      "Ġsom": 3497,
      "Ġbaby": 3498,
      "Ġhospital": 3499,
      "Ġdone": 3500,
      "Ġinher": 3501,
      "ĠSon": 3502,
      "ĠMai": 3503,
      "Ġlies": 3504,
      "Ġeas": 3505,
      "olution": 3506,
      "ĠKu": 3507,
      "ĠKat": 3508,
      "Ġtrio": 3509,
      "Ġprepar": 3510,
      "Ġbrand": 3511,
      "ĠSpir": 3512,
      "Ġcenter": 3513,
      "Ġimmortal": 3514,
      "eal": 3515,
      "uits": 3516,
      "orks": 3517,
      "ĠKob": 3518,
      "ĠDis": 3519,
      "Ġmechan": 3520,
      "ending": 3521,
      "Ġrecently": 3522,
      "Ġremain": 3523,
      "Ġconspir": 3524,
      "Ġsumm": 3525,
      "Ġawaken": 3526,
      "Ġmaintain": 3527,
      "Ġdistr": 3528,
      "Ġpromotional": 3529,
      "Ġdrawn": 3530,
      "Ġexperiences": 3531,
      "Ġprofessional": 3532,
      "\"âĢĶ": 3533,
      "cher": 3534,
      "ging": 3535,
      "Ġwrit": 3536,
      "Ġhus": 3537,
      "Ġpay": 3538,
      "Ġhere": 3539,
      "ĠMor": 3540,
      "ĠMats": 3541,
      "Ġequ": 3542,
      "ĠKid": 3543,
      "ifying": 3544,
      "ĠGun": 3545,
      "ĠPart": 3546,
      "ĠLife": 3547,
      "Ġarea": 3548,
      "abbit": 3549,
      "alls": 3550,
      "sequ": 3551,
      "ĠGrand": 3552,
      "Ġerotic": 3553,
      "ĠFuji": 3554,
      "Ġassassin": 3555,
      "On": 3556,
      "pro": 3557,
      "zu": 3558,
      "Ġpir": 3559,
      "icious": 3560,
      "ĠMad": 3561,
      "Ġforward": 3562,
      "iga": 3563,
      "ĠHana": 3564,
      "Ġselect": 3565,
      "Ġremaining": 3566,
      "Ġattacks": 3567,
      "Ġunexpectedly": 3568,
      "Ġcultiv": 3569,
      "bled": 3570,
      "Ġauth": 3571,
      "ĠTer": 3572,
      "ĠIM": 3573,
      "ĠEpisode": 3574,
      "Ġoffer": 3575,
      "Ġreluct": 3576,
      "ĠSeven": 3577,
      "Ġcaptain": 3578,
      "cycl": 3579,
      "Ġcourage": 3580,
      "Ġrule": 3581,
      "Ġconfront": 3582,
      "Ġfield": 3583,
      "ani": 3584,
      "Ġhuge": 3585,
      "Ġinitial": 3586,
      "ĠSug": 3587,
      "verage": 3588,
      "ĠHit": 3589,
      "ĠRes": 3590,
      "outa": 3591,
      "Ġpred": 3592,
      "Ġgrowing": 3593,
      "Ġcommun": 3594,
      "Ġquestion": 3595,
      "bt": 3596,
      "off": 3597,
      "ãģ": 3598,
      "ĠSub": 3599,
      "aman": 3600,
      "akens": 3601,
      "ĠBec": 3602,
      "illing": 3603,
      "Ġwords": 3604,
      "ĠPol": 3605,
      "angers": 3606,
      "Ġsitu": 3607,
      "Ġtroubles": 3608,
      "Ġvictory": 3609,
      "It": 3610,
      "Ġtreat": 3611,
      "itter": 3612,
      "iru": 3613,
      "Ġlone": 3614,
      "Ġiss": 3615,
      "acts": 3616,
      "Ġunr": 3617,
      "ĠUnder": 3618,
      "ĠHeaven": 3619,
      "icked": 3620,
      "Ġobject": 3621,
      "Ġsecretly": 3622,
      "ensei": 3623,
      "Ġactivities": 3624,
      "ĠBattle": 3625,
      "Ġvariety": 3626,
      "AN": 3627,
      "human": 3628,
      "iage": 3629,
      "world": 3630,
      "ãĤ": 3631,
      "Ġot": 3632,
      "Ġbur": 3633,
      "Ġhide": 3634,
      "amu": 3635,
      "ĠHi": 3636,
      "iku": 3637,
      "ansion": 3638,
      "place": 3639,
      "Ġcook": 3640,
      "oraemon": 3641,
      "Ġwanted": 3642,
      "Ġdeveloped": 3643,
      "Ġcaused": 3644,
      "Ġswords": 3645,
      "affic": 3646,
      "âĺ": 3647,
      "Ġwakes": 3648,
      "Ġheav": 3649,
      "Ġthus": 3650,
      "Ġground": 3651,
      "ott": 3652,
      "Ġstation": 3653,
      "Ġunus": 3654,
      "Ġdoor": 3655,
      "ĠTakashi": 3656,
      "Ġsoccer": 3657,
      "Ġadvanced": 3658,
      "Al": 3659,
      "ON": 3660,
      "hu": 3661,
      "Ġund": 3662,
      "reak": 3663,
      "Ġbound": 3664,
      "Ġbodies": 3665,
      "ala": 3666,
      "Ġgone": 3667,
      "cean": 3668,
      "Ġloses": 3669,
      "Ġangel": 3670,
      "ĠCap": 3671,
      "ction": 3672,
      "Ġ16": 3673,
      "Ġcomplic": 3674,
      "Ġcomputer": 3675,
      "Ġcrush": 3676,
      "lessly": 3677,
      "Ġcolor": 3678,
      "Ġsurvival": 3679,
      "ĠProject": 3680,
      "Ġholds": 3681,
      "St": 3682,
      "boy": 3683,
      "mates": 3684,
      "pting": 3685,
      "uals": 3686,
      "Ġsure": 3687,
      "Ġmark": 3688,
      "ĠMaster": 3689,
      "ĠHun": 3690,
      "aded": 3691,
      "Ġrare": 3692,
      "izens": 3693,
      "Ġadop": 3694,
      "Ġweb": 3695,
      "ĠSeason": 3696,
      "Ġflo": 3697,
      "Ġuniversity": 3698,
      "Ġinstr": 3699,
      "Ġoppon": 3700,
      "Ġdeadly": 3701,
      "attered": 3702,
      "duction": 3703,
      "Ġsamurai": 3704,
      "Ġmorning": 3705,
      "ĠKom": 3706,
      "ĠBilibili": 3707,
      "ĠWu": 3708,
      "âĢĿ": 3709,
      "Ġleg": 3710,
      "Ġorphan": 3711,
      "Ġnewfound": 3712,
      "Ġbright": 3713,
      "Ġ21": 3714,
      "Ġenters": 3715,
      "ĠEnter": 3716,
      "Ġapart": 3717,
      "Ġbroadcast": 3718,
      "Ġearly": 3719,
      "Ġodd": 3720,
      "Ġinnocent": 3721,
      "Ġhusband": 3722,
      "de": 3723,
      "jects": 3724,
      "ĠTian": 3725,
      "amous": 3726,
      "ached": 3727,
      "aging": 3728,
      "ĠDream": 3729,
      "andy": 3730,
      "Ġworth": 3731,
      "ĠLin": 3732,
      "Ġexpect": 3733,
      "anta": 3734,
      "Ġserious": 3735,
      "epend": 3736,
      "Ġ100": 3737,
      "Ġresearch": 3738,
      "ĠOnce": 3739,
      "Ġdepict": 3740,
      "ĠNobita": 3741,
      "ĠHikaru": 3742,
      "Ġsiblings": 3743,
      "Ġsituations": 3744,
      "Un": 3745,
      "hearted": 3746,
      "Ġcorn": 3747,
      "Ġgain": 3748,
      "Ġvac": 3749,
      "Ġtrust": 3750,
      "ĠYun": 3751,
      "Ġresist": 3752,
      "Ġpolit": 3753,
      "Ġpoor": 3754,
      "Ġhair": 3755,
      "Ġpark": 3756,
      "omen": 3757,
      "ĠBoy": 3758,
      "ĠIts": 3759,
      "Ġtraffic": 3760,
      "ĠDoraemon": 3761,
      "ode": 3762,
      "opedia": 3763,
      "Ġsport": 3764,
      "Ġshy": 3765,
      "Ġpros": 3766,
      "Ġallows": 3767,
      "....": 3768,
      "Ġidea": 3769,
      "Ġkidnapped": 3770,
      "Ġauthor": 3771,
      "fl": 3772,
      "Ġsuit": 3773,
      "Ġfresh": 3774,
      "Ġment": 3775,
      "ĠTown": 3776,
      "Ġthinks": 3777,
      "Ġnec": 3778,
      "ĠMus": 3779,
      "olen": 3780,
      "ĠRyo": 3781,
      "ĠPer": 3782,
      "ĠZe": 3783,
      "Ġthanks": 3784,
      "Ġedition": 3785,
      "Ġfalling": 3786,
      "Ġawakens": 3787,
      "Ġjoined": 3788,
      "Ġtree": 3789,
      "Ġsen": 3790,
      "erv": 3791,
      "Ġdoll": 3792,
      "ican": 3793,
      "ĠMore": 3794,
      "olve": 3795,
      "Ġunlike": 3796,
      "Ġshap": 3797,
      "ĠShim": 3798,
      "Ġdoctor": 3799,
      "Ġsole": 3800,
      "Ġweek": 3801,
      "ĠAkane": 3802,
      "Ġprotecting": 3803,
      "Ġdirector": 3804,
      "Ġdarkness": 3805,
      "ĠâĢľ": 3806,
      "Ġsends": 3807,
      "bed": 3808,
      "icate": 3809,
      "ĠKi": 3810,
      "ĠFed": 3811,
      "Ġshadow": 3812,
      "Ġintellig": 3813,
      "Ġsurface": 3814,
      "Ġblue": 3815,
      "ails": 3816,
      "Ġhoping": 3817,
      "Ġkeeps": 3818,
      "Ġgrandmother": 3819,
      "Ġstumbles": 3820,
      "Ġaccepts": 3821,
      "pe": 3822,
      "tal": 3823,
      "uous": 3824,
      "hei": 3825,
      "ining": 3826,
      "Ġsn": 3827,
      "eral": 3828,
      "Ġgent": 3829,
      "ĠMr": 3830,
      "ider": 3831,
      "ĠKok": 3832,
      "agic": 3833,
      "Ġvast": 3834,
      "ument": 3835,
      "aware": 3836,
      "ĠChild": 3837,
      "ĠArt": 3838,
      "ĠSpace": 3839,
      "Ġpromise": 3840,
      "Ġidols": 3841,
      "Ġinflu": 3842,
      "ĠForce": 3843,
      "Ġbelieve": 3844,
      "Ġinvolving": 3845,
      "Ġpossesses": 3846,
      "for": 3847,
      "uce": 3848,
      "Ġsin": 3849,
      "erous": 3850,
      "alle": 3851,
      "iger": 3852,
      "emor": 3853,
      "ĠNot": 3854,
      "ĠYe": 3855,
      "ĠEve": 3856,
      "Ġnoble": 3857,
      "Ġnews": 3858,
      "perial": 3859,
      "class": 3860,
      "Ġrecogn": 3861,
      "Ġambit": 3862,
      "ĠQu": 3863,
      "Ġvillain": 3864,
      "Ġ198": 3865,
      "ĠEmperor": 3866,
      "Ġcareer": 3867,
      "Ġdevast": 3868,
      "Ġsuccessfully": 3869,
      "Ġrevealed": 3870,
      "Ġbirthday": 3871,
      "bling": 3872,
      "ral": 3873,
      "Ġsat": 3874,
      "Ġcit": 3875,
      "Ġpat": 3876,
      "Ġdie": 3877,
      "Ġdedic": 3878,
      "ĠHoly": 3879,
      "ĠRei": 3880,
      "ĠNight": 3881,
      "ĠDi": 3882,
      "Ġrid": 3883,
      "Ġrain": 3884,
      "astic": 3885,
      "Ġ11": 3886,
      "Ġ14": 3887,
      "Ġwealth": 3888,
      "Ġrecord": 3889,
      "aft": 3890,
      "Ġreturned": 3891,
      "ĠEncycl": 3892,
      "Ġ199": 3893,
      "Ġdefeated": 3894,
      "Ġclear": 3895,
      "Ġparticipate": 3896,
      "Ġscientist": 3897,
      "Ġmachine": 3898,
      "Ġinhabit": 3899,
      "Ġbalance": 3900,
      "ĠEncyclopedia": 3901,
      "To": 3902,
      "hin": 3903,
      "ners": 3904,
      "uy": 3905,
      "Ġfict": 3906,
      "Ġhous": 3907,
      "Ġpun": 3908,
      "Ġdi": 3909,
      "ĠKus": 3910,
      "Ġaltern": 3911,
      "ulation": 3912,
      "Ġsho": 3913,
      "Ġmanager": 3914,
      "azing": 3915,
      "Ġboyfriend": 3916,
      "Ġwarm": 3917,
      "ĠPlanet": 3918,
      "ĠGuard": 3919,
      "Ġgalaxy": 3920,
      "Ġfierce": 3921,
      "AR": 3922,
      "ole": 3923,
      "inos": 3924,
      "Ġpiece": 3925,
      "iled": 3926,
      "ilation": 3927,
      "Ġgiving": 3928,
      "ĠMet": 3929,
      "Ġtra": 3930,
      "Ġtrapped": 3931,
      "essed": 3932,
      "ĠLong": 3933,
      "Ġprison": 3934,
      "clusive": 3935,
      "Ġinvasion": 3936,
      "Ġsurviv": 3937,
      "borg": 3938,
      "Ġconquer": 3939,
      "Ġextraord": 3940,
      "Ġfavorite": 3941,
      "Ġgentle": 3942,
      "Now": 3943,
      "ton": 3944,
      "Ġaverage": 3945,
      "Ġbird": 3946,
      "Ġhit": 3947,
      "ashes": 3948,
      "Ġhearts": 3949,
      "ĠTets": 3950,
      "ĠSl": 3951,
      "ĠSite": 3952,
      "Ġstolen": 3953,
      "Ġris": 3954,
      "ĠLing": 3955,
      "Ġintent": 3956,
      "Ġ18": 3957,
      "Ġgenius": 3958,
      "Ġrefuses": 3959,
      "Ġmarriage": 3960,
      "ĠMagic": 3961,
      "Ġunusual": 3962,
      "Ġsource": 3963,
      "ona": 3964,
      "Ġduel": 3965,
      "Ġbetr": 3966,
      "Ġread": 3967,
      "avel": 3968,
      "Ġbrave": 3969,
      "Ġsche": 3970,
      "ĠAlice": 3971,
      "ĠAki": 3972,
      "Ġboard": 3973,
      "Ġbeauty": 3974,
      "Ġrepresent": 3975,
      "Ġcenters": 3976,
      "Ġgoddess": 3977,
      "Ġcapture": 3978,
      "Ġscene": 3979,
      "ĠConan": 3980,
      "Ġtalented": 3981,
      "Ġsoldiers": 3982,
      "Ġromantic": 3983,
      "Ġwaiting": 3984,
      "ĠUniversity": 3985,
      "Ġsquad": 3986,
      "Ġassigned": 3987,
      "Ġthousand": 3988,
      "Ġremember": 3989,
      "Ġextremely": 3990,
      "erm": 3991,
      "ators": 3992,
      "eda": 3993,
      "Ġmult": 3994,
      "ality": 3995,
      "icts": 3996,
      "ĠTai": 3997,
      "ĠMel": 3998,
      "ĠMari": 3999,
      "Ġlose": 4000,
      "Ġworr": 4001,
      "ĠFut": 4002,
      "Ġcomr": 4003,
      "opp": 4004,
      "Ġsongs": 4005,
      "obu": 4006,
      "Ġrock": 4007,
      "azine": 4008,
      "Ġtalking": 4009,
      "Ġnearby": 4010,
      "ĠMirai": 4011,
      "Ġfootage": 4012,
      "Ġemotions": 4013,
      "OL": 4014,
      "bition": 4015,
      "iation": 4016,
      "ke": 4017,
      "pired": 4018,
      "Ġmasc": 4019,
      "Ġnarr": 4020,
      "ĠCoun": 4021,
      "ĠDiv": 4022,
      "Ġmysteries": 4023,
      "atsuki": 4024,
      "Ġforms": 4025,
      "Ġcommit": 4026,
      "Ġexperiment": 4027,
      "Ġphot": 4028,
      "Ġgradu": 4029,
      "Ġmodel": 4030,
      "Ġrevolves": 4031,
      "Ġtransported": 4032,
      "Ġsomew": 4033,
      "free": 4034,
      "Ġsight": 4035,
      "Ġsnow": 4036,
      "Ġwield": 4037,
      "orious": 4038,
      "Ġcats": 4039,
      "Ġcaf": 4040,
      "Ġmix": 4041,
      "asures": 4042,
      "Ġlow": 4043,
      "Ġstone": 4044,
      "umst": 4045,
      "ĠInd": 4046,
      "ĠDai": 4047,
      "angu": 4048,
      "ĠJack": 4049,
      "Ġprogress": 4050,
      "Ġupcoming": 4051,
      "Ġroyal": 4052,
      "Ġentertain": 4053,
      "Ġcalls": 4054,
      "Ġformed": 4055,
      "Ġarrive": 4056,
      "ĠQin": 4057,
      "Ġtraveling": 4058,
      "ontin": 4059,
      "Ġcompete": 4060,
      "Ġletter": 4061,
      "Ġparticular": 4062,
      "Ġnumerous": 4063,
      "Ġstreets": 4064,
      "Ġrecruit": 4065,
      "mes": 4066,
      "war": 4067,
      "zaki": 4068,
      "Ġsad": 4069,
      "orse": 4070,
      "icks": 4071,
      "Ġlosing": 4072,
      "Ġelect": 4073,
      "unge": 4074,
      "hern": 4075,
      "ĠDo": 4076,
      "ivals": 4077,
      "ĠLand": 4078,
      "Ġunw": 4079,
      "Ġspell": 4080,
      "Ġmeant": 4081,
      "ĠChina": 4082,
      "Ġdestiny": 4083,
      "Ġstarting": 4084,
      "Ġfallen": 4085,
      "Ġfourth": 4086,
      "Ġfox": 4087,
      "Ġrequest": 4088,
      "ĠKorean": 4089,
      "Ġcircumst": 4090,
      "how": 4091,
      "rd": 4092,
      "isf": 4093,
      "Ġfolk": 4094,
      "ĠMur": 4095,
      "urity": 4096,
      "ewel": 4097,
      "ĠDay": 4098,
      "ĠFair": 4099,
      "ounen": 4100,
      "Ġexch": 4101,
      "Ġmeaning": 4102,
      "Ġrespective": 4103,
      "Ġstudy": 4104,
      "Ġyoukai": 4105,
      "Ġtales": 4106,
      "Ġrestore": 4107,
      "Ġregard": 4108,
      "Ġskilled": 4109,
      "Ġmatters": 4110,
      "Ġeffort": 4111,
      "Ġdisappear": 4112,
      "Ġmountains": 4113,
      "pecially": 4114,
      "ĠFederation": 4115,
      "IN": 4116,
      "no": 4117,
      "ror": 4118,
      "rup": 4119,
      "Ġandroid": 4120,
      "ĠAb": 4121,
      "ĠAss": 4122,
      "Ġgam": 4123,
      "Ġlikes": 4124,
      "idou": 4125,
      "urou": 4126,
      "ĠHear": 4127,
      "Ġalive": 4128,
      "Ġloyal": 4129,
      "oyama": 4130,
      "Ġdisaster": 4131,
      "Ġdrink": 4132,
      "Ġbelong": 4133,
      "Ġcurse": 4134,
      "Ġtechni": 4135,
      "Ġaims": 4136,
      "Ġexciting": 4137,
      "!\"": 4138,
      "fort": 4139,
      "aries": 4140,
      "eds": 4141,
      "Ġmere": 4142,
      "Ġdate": 4143,
      "Ġdorm": 4144,
      "oma": 4145,
      "owers": 4146,
      "Ġrecover": 4147,
      "ĠKami": 4148,
      "Ġspot": 4149,
      "Ġspring": 4150,
      "Ġshr": 4151,
      "antom": 4152,
      "ĠShun": 4153,
      "Ġproper": 4154,
      "Ġpress": 4155,
      "ĠChannel": 4156,
      "ends": 4157,
      "Ġscience": 4158,
      "ĠYuuki": 4159,
      "arsh": 4160,
      "Ġguy": 4161,
      "Ġcreating": 4162,
      "Ġheads": 4163,
      "ological": 4164,
      "Ġdistant": 4165,
      "Ġreceive": 4166,
      "Ġhunt": 4167,
      "ĠSpecials": 4168,
      "Ġstreet": 4169,
      "Ġwatching": 4170,
      "aurant": 4171,
      "Ġsweet": 4172,
      "Ġposition": 4173,
      "Ġjunior": 4174,
      "ĠBecause": 4175,
      "ju": 4176,
      "val": 4177,
      "Ġaid": 4178,
      "isuke": 4179,
      "edom": 4180,
      "ĠTach": 4181,
      "ĠSome": 4182,
      "ĠSaki": 4183,
      "Ġeat": 4184,
      "oles": 4185,
      "ĠGl": 4186,
      "ĠFam": 4187,
      "ĠPik": 4188,
      "Ġdesp": 4189,
      "ashion": 4190,
      "Ġcapital": 4191,
      "arent": 4192,
      "Ġkilling": 4193,
      "Ġdraws": 4194,
      "Ġembarks": 4195,
      "Ġresponsible": 4196,
      "Ġphysical": 4197,
      "Ġagrees": 4198,
      "nis": 4199,
      "Ġfac": 4200,
      "Ġhat": 4201,
      "Ġdimens": 4202,
      "ĠSek": 4203,
      "Ġna": 4204,
      "Ġnine": 4205,
      "Ġlaw": 4206,
      "acles": 4207,
      "ĠId": 4208,
      "ĠGhost": 4209,
      "ĠOver": 4210,
      "Ġunre": 4211,
      "Ġprivate": 4212,
      "Ġrecent": 4213,
      "Ġmoving": 4214,
      "ĠWhite": 4215,
      "Ġreceived": 4216,
      "Ġvirtual": 4217,
      "Ġromance": 4218,
      "Ġhonor": 4219,
      "ST": 4220,
      "uary": 4221,
      "where": 4222,
      "who": 4223,
      "Ġcurs": 4224,
      "Ġheaven": 4225,
      "ĠSil": 4226,
      "ĠShen": 4227,
      "Ġlab": 4228,
      "Ġstands": 4229,
      "ours": 4230,
      "ĠIr": 4231,
      "Ġjoy": 4232,
      "iao": 4233,
      "ĠZen": 4234,
      "Ġunderground": 4235,
      "Ġbuilt": 4236,
      "Ġbreaks": 4237,
      "Ġmischie": 4238,
      "ĠYamato": 4239,
      "Ġcollection": 4240,
      "Ġseeking": 4241,
      "ĠStudio": 4242,
      "âĺĨ": 4243,
      "Ġextraordinary": 4244,
      "ze": 4245,
      "Ġahead": 4246,
      "Ġcorr": 4247,
      "Ġmed": 4248,
      "Ġport": 4249,
      "imura": 4250,
      "Ġnames": 4251,
      "ĠHot": 4252,
      "aders": 4253,
      "ĠBa": 4254,
      "ĠBox": 4255,
      "ĠLight": 4256,
      "ĠInst": 4257,
      "awn": 4258,
      "Ġtwin": 4259,
      "ĠChu": 4260,
      "ĠTakah": 4261,
      "Ġarrived": 4262,
      "Ġcaptured": 4263,
      "Ġunfold": 4264,
      "Ġspeak": 4265,
      "Ġvacation": 4266,
      "Episode": 4267,
      "field": 4268,
      "eremon": 4269,
      "itation": 4270,
      "ancing": 4271,
      "Ġnon": 4272,
      "Ġlat": 4273,
      "ette": 4274,
      "agers": 4275,
      "Ġrout": 4276,
      "Ġmoved": 4277,
      "ĠVill": 4278,
      "inner": 4279,
      "Ġ30": 4280,
      "Ġseeing": 4281,
      "Ġsinger": 4282,
      "Ġsometimes": 4283,
      "Ġinfamous": 4284,
      "Ġrescued": 4285,
      "Ġconstant": 4286,
      "Ġpractice": 4287,
      "Ġconspiracy": 4288,
      "Ch": 4289,
      "ku": 4290,
      "wh": 4291,
      "Ġsens": 4292,
      "Ġsaving": 4293,
      "orc": 4294,
      "ĠTal": 4295,
      "Ġloss": 4296,
      "ota": 4297,
      "ado": 4298,
      "ĠDong": 4299,
      "ĠYan": 4300,
      "ĠLuc": 4301,
      "ibility": 4302,
      "Ġsetting": 4303,
      "Ġdevil": 4304,
      "Ġbooks": 4305,
      "Ġcheerful": 4306,
      "incip": 4307,
      "piring": 4308,
      "Ġbroken": 4309,
      "Ġcommercials": 4310,
      "ĠShoujo": 4311,
      "Ġposted": 4312,
      "Ġindividuals": 4313,
      "Ġmassive": 4314,
      "Ġtraditional": 4315,
      "ae": 4316,
      "yl": 4317,
      "Ġsays": 4318,
      "att": 4319,
      "Ġcorp": 4320,
      "Ġmad": 4321,
      "Ġeight": 4322,
      "akura": 4323,
      "unt": 4324,
      "ĠHon": 4325,
      "ĠHok": 4326,
      "umo": 4327,
      "ĠRock": 4328,
      "ĠBan": 4329,
      "ĠEle": 4330,
      "izard": 4331,
      "Ġwilling": 4332,
      "Ġbrut": 4333,
      "Ġresur": 4334,
      "Ġresidents": 4335,
      "arring": 4336,
      "ĠZero": 4337,
      "Ġhappiness": 4338,
      "Ġdemonic": 4339,
      "Ġstronger": 4340,
      "Ġmarried": 4341,
      "utsu": 4342,
      "Ġcitizens": 4343,
      "bidden": 4344,
      "ean": 4345,
      "hic": 4346,
      "ri": 4347,
      "Ġfish": 4348,
      "Ġmansion": 4349,
      "icy": 4350,
      "iminal": 4351,
      "ĠSait": 4352,
      "ĠMach": 4353,
      "ĠMei": 4354,
      "ĠHu": 4355,
      "Ġraces": 4356,
      "ĠFeng": 4357,
      "ĠLive": 4358,
      "Ġabove": 4359,
      "Ġloved": 4360,
      "Ġclim": 4361,
      "arden": 4362,
      "Ġdecision": 4363,
      "play": 4364,
      "Ġfilms": 4365,
      "engu": 4366,
      "Ġtalk": 4367,
      "Ġclaims": 4368,
      "Ġtim": 4369,
      "Ġmut": 4370,
      "Ġpec": 4371,
      "Ġdance": 4372,
      "asters": 4373,
      "iced": 4374,
      "ĠMori": 4375,
      "Ġegg": 4376,
      "akug": 4377,
      "ĠCorp": 4378,
      "anded": 4379,
      "ĠFuk": 4380,
      "Ġcomposed": 4381,
      "Ġbegun": 4382,
      "actic": 4383,
      "Ġhighly": 4384,
      "Ġcommemor": 4385,
      "Ġsucceed": 4386,
      "Ġindepend": 4387,
      "Ġdidn": 4388,
      "Ġdesperately": 4389,
      "Ġsuspic": 4390,
      "Ġcircumstances": 4391,
      "bek": 4392,
      "gy": 4393,
      "iya": 4394,
      "Ġwood": 4395,
      "orou": 4396,
      "Ġcow": 4397,
      "Ġceremon": 4398,
      "Ġthief": 4399,
      "ĠMam": 4400,
      "Ġreaches": 4401,
      "ĠHol": 4402,
      "ĠHib": 4403,
      "ĠHaj": 4404,
      "ĠCo": 4405,
      "ĠCy": 4406,
      "Ġruth": 4407,
      "Ġchap": 4408,
      "ĠOd": 4409,
      "ores": 4410,
      "Ġdece": 4411,
      "Ġallow": 4412,
      "ibr": 4413,
      "appy": 4414,
      "ended": 4415,
      "Ġinteract": 4416,
      "ĠProm": 4417,
      "Ġswim": 4418,
      "ĠShib": 4419,
      "Ġregion": 4420,
      "Ġillustr": 4421,
      "Ġproduction": 4422,
      "ĠAmerican": 4423,
      "Ġelder": 4424,
      "Ġimprove": 4425,
      "Ġsacr": 4426,
      "At": 4427,
      "Des": 4428,
      "rous": 4429,
      "view": 4430,
      "Ġfa": 4431,
      "Ġfan": 4432,
      "Ġcher": 4433,
      "ilities": 4434,
      "imoto": 4435,
      "Ġlust": 4436,
      "Ġforgot": 4437,
      "verted": 4438,
      "uliar": 4439,
      "Ġtrial": 4440,
      "ighters": 4441,
      "uda": 4442,
      "Ġagency": 4443,
      "Ġacts": 4444,
      "Ġusual": 4445,
      "Ġoffic": 4446,
      "Ġenth": 4447,
      "Ġcontinent": 4448,
      "Ġespecially": 4449,
      "Ġhunter": 4450,
      "Ġexpress": 4451,
      "Ġnatural": 4452,
      "Ġultimately": 4453,
      "Ġinjured": 4454,
      "Ġeasily": 4455,
      "hod": 4456,
      "more": 4457,
      "ply": 4458,
      "whel": 4459,
      "yuu": 4460,
      "Ġsaves": 4461,
      "Ġfacing": 4462,
      "Ġball": 4463,
      "onus": 4464,
      "Ġdig": 4465,
      "Ġnav": 4466,
      "Ġla": 4467,
      "Ġretr": 4468,
      "uries": 4469,
      "rod": 4470,
      "ems": 4471,
      "Ġdebut": 4472,
      "asty": 4473,
      "Ġnotices": 4474,
      "Ġmagazine": 4475,
      "ossom": 4476,
      "ĠUnaired": 4477,
      "Ġrestaurant": 4478,
      "Ġelimin": 4479,
      "ĠBefore": 4480,
      "Ġdeliver": 4481,
      "ĠKyoto": 4482,
      "ipped": 4483,
      "Ġantics": 4484,
      "Ġsurrounded": 4485,
      "Ġcelebrate": 4486,
      "Ġpeculiar": 4487,
      "beknown": 4488,
      "matic": 4489,
      "och": 4490,
      "por": 4491,
      "Ġwat": 4492,
      "Ġbul": 4493,
      "orcer": 4494,
      "ĠAman": 4495,
      "Ġnone": 4496,
      "ĠMu": 4497,
      "ented": 4498,
      "usi": 4499,
      "ĠFirst": 4500,
      "ops": 4501,
      "obi": 4502,
      "Ġcruel": 4503,
      "Ġhousehold": 4504,
      "Ġminutes": 4505,
      "Ġenjoying": 4506,
      "ĠPokemon": 4507,
      "Ġseparated": 4508,
      "Ġcivilization": 4509,
      "ĠIzumi": 4510,
      "Ġspecies": 4511,
      "Ġotaku": 4512,
      "Ġexchange": 4513,
      "beknownst": 4514,
      "?!": 4515,
      "dr": 4516,
      "fu": 4517,
      "Ġwritten": 4518,
      "atari": 4519,
      "Ġparts": 4520,
      "Ġlord": 4521,
      "ett": 4522,
      "Ġvan": 4523,
      "ĠOh": 4524,
      "Ġleast": 4525,
      "Ġenig": 4526,
      "achu": 4527,
      "oba": 4528,
      "Ġscr": 4529,
      "Ġclassic": 4530,
      "Ġthreatens": 4531,
      "Ġglob": 4532,
      "Ġaddition": 4533,
      "Ġapproach": 4534,
      "ĠEdo": 4535,
      "Ġintroduces": 4536,
      "Ġduty": 4537,
      "OR": 4538,
      "TV": 4539,
      "aign": 4540,
      "life": 4541,
      "erget": 4542,
      "Ġnor": 4543,
      "Ġeager": 4544,
      "Ġbeat": 4545,
      "Ġonto": 4546,
      "ayashi": 4547,
      "ĠBel": 4548,
      "Ġgrown": 4549,
      "Ġbackground": 4550,
      "ĠOnly": 4551,
      "Ġpasses": 4552,
      "Ġpursue": 4553,
      "Ġconcert": 4554,
      "SH": 4555,
      "ev": 4556,
      "overy": 4557,
      "rupt": 4558,
      "Ġbas": 4559,
      "Ġdinos": 4560,
      "ĠTime": 4561,
      "ushed": 4562,
      "rog": 4563,
      "agawa": 4564,
      "Ġtragic": 4565,
      "ĠGok": 4566,
      "ĠYas": 4567,
      "ĠFan": 4568,
      "Ġcriminal": 4569,
      "Ġinvites": 4570,
      "Ġplays": 4571,
      "Ġturning": 4572,
      "Ġfeeling": 4573,
      "Ġpresence": 4574,
      "Ġdepicts": 4575,
      "Ġtransforms": 4576,
      "ĠMiyuki": 4577,
      "ĠRyuu": 4578,
      "Ġbetray": 4579,
      "ĠPikachu": 4580,
      "born": 4581,
      "night": 4582,
      "works": 4583,
      "Ġath": 4584,
      "Ġmask": 4585,
      "omo": 4586,
      "ĠToshi": 4587,
      "ĠTatsu": 4588,
      "ĠSqu": 4589,
      "ĠSaw": 4590,
      "Ġstorm": 4591,
      "ĠKin": 4592,
      "eland": 4593,
      "ĠNet": 4594,
      "ieve": 4595,
      "Ġrad": 4596,
      "Ġrabbit": 4597,
      "ĠShounen": 4598,
      "Ġarc": 4599,
      "ĠYui": 4600,
      "Ġactions": 4601,
      "Ġteams": 4602,
      "Ġcompanion": 4603,
      "Ġawa": 4604,
      "asket": 4605,
      "Ġreput": 4606,
      "uzz": 4607,
      "Ġcarefree": 4608,
      "Ġjobs": 4609,
      "Ġsimply": 4610,
      "Ġcourt": 4611,
      "Ġdevelopment": 4612,
      "ĠProfess": 4613,
      "ĠTencent": 4614,
      "Ġhistor": 4615,
      "Ġcastle": 4616,
      "Ġhandsome": 4617,
      "Ġfrequ": 4618,
      "Ġviolent": 4619,
      "ĠPrefecture": 4620,
      "Ġraised": 4621,
      "Ġcountless": 4622,
      "Ġsinister": 4623,
      "Ġmascot": 4624,
      "rom": 4625,
      "Ġ0": 4626,
      "ĠĠ": 4627,
      "inqu": 4628,
      "Ġocean": 4629,
      "Ġfast": 4630,
      "Ġbomb": 4631,
      "eno": 4632,
      "Ġhig": 4633,
      "Ġdam": 4634,
      "Ġgif": 4635,
      "ĠMil": 4636,
      "Ġstaff": 4637,
      "ĠKun": 4638,
      "ĠKum": 4639,
      "ĠCard": 4640,
      "ĠContin": 4641,
      "ĠDep": 4642,
      "Ġracing": 4643,
      "ĠLuck": 4644,
      "Ġunp": 4645,
      "henomen": 4646,
      "isting": 4647,
      "Ġstranger": 4648,
      "Ġ17": 4649,
      "Ġstudio": 4650,
      "Ġcrash": 4651,
      "ĠSakur": 4652,
      "Ġdestroying": 4653,
      "Ġearthqu": 4654,
      "Ġcyborg": 4655,
      "Ġrumors": 4656,
      "Ġsealed": 4657,
      "Ġcomrades": 4658,
      "ergetic": 4659,
      "body": 4660,
      "kou": 4661,
      "motion": 4662,
      "ux": 4663,
      "Ġfears": 4664,
      "Ġfaced": 4665,
      "Ġtom": 4666,
      "Ġtow": 4667,
      "Ġtoy": 4668,
      "ĠMot": 4669,
      "unning": 4670,
      "Ġtrail": 4671,
      "ĠYo": 4672,
      "ĠYet": 4673,
      "ĠYuri": 4674,
      "Ġword": 4675,
      "anging": 4676,
      "abi": 4677,
      "ĠShig": 4678,
      "ĠIntern": 4679,
      "assh": 4680,
      "Ġcontact": 4681,
      "Ġcounter": 4682,
      "uddenly": 4683,
      "Ġoppos": 4684,
      "Ġcountries": 4685,
      "Ġcountryside": 4686,
      "Ġmini": 4687,
      "Ġentirely": 4688,
      "Ġculture": 4689,
      "Ġteenager": 4690,
      "Ġcondition": 4691,
      "ĠKnights": 4692,
      "Ġlonely": 4693,
      "ium": 4694,
      "Ġsights": 4695,
      "Ġfighter": 4696,
      "ature": 4697,
      "Ġhomet": 4698,
      "leg": 4699,
      "ĠHow": 4700,
      "Ġvent": 4701,
      "ĠRem": 4702,
      "ĠNy": 4703,
      "ĠWang": 4704,
      "Ġrivals": 4705,
      "ĠOg": 4706,
      "Ġunle": 4707,
      "Ġspent": 4708,
      "Ġperil": 4709,
      "Ġbehav": 4710,
      "Ġstruggling": 4711,
      "ĠYamada": 4712,
      "Ġmyth": 4713,
      "going": 4714,
      "Ġconnection": 4715,
      "Ġcampaign": 4716,
      "Ġcontains": 4717,
      "ĠDetective": 4718,
      "Ġstatus": 4719,
      "Ġcorner": 4720,
      "Ġhometown": 4721,
      "gest": 4722,
      "ients": 4723,
      "net": 4724,
      "Ġsym": 4725,
      "rect": 4726,
      "Ġfashion": 4727,
      "Ġban": 4728,
      "ena": 4729,
      "Ġcell": 4730,
      "aragi": 4731,
      "Ġmar": 4732,
      "Ġmater": 4733,
      "Ġdying": 4734,
      "ĠSur": 4735,
      "olute": 4736,
      "unk": 4737,
      "umber": 4738,
      "ĠNao": 4739,
      "ĠFur": 4740,
      "Ġsequel": 4741,
      "ĠLa": 4742,
      "ichirou": 4743,
      "Ġended": 4744,
      "Ġsomehow": 4745,
      "Ġencour": 4746,
      "akuza": 4747,
      "Ġimposs": 4748,
      "Ġimpress": 4749,
      "Ġflash": 4750,
      "Ġobst": 4751,
      "oha": 4752,
      "Ġsoldier": 4753,
      "Ġassistant": 4754,
      "Ġservice": 4755,
      "ĠJiang": 4756,
      "Ġpreparing": 4757,
      "Ġinhabitants": 4758,
      "Ġceremony": 4759,
      "19": 4760,
      "Ġcam": 4761,
      "Ġharsh": 4762,
      "ilies": 4763,
      "owd": 4764,
      "ĠKiy": 4765,
      "ĠRik": 4766,
      "ĠWak": 4767,
      "Ġrich": 4768,
      "Ġuncle": 4769,
      "ĠUl": 4770,
      "teen": 4771,
      "Ġreturning": 4772,
      "Ġrepe": 4773,
      "ĠLegend": 4774,
      "Ġgraduation": 4775,
      "Ġinspired": 4776,
      "Ġmoments": 4777,
      "Ġenthusi": 4778,
      "Ġreputation": 4779,
      "ĠProfessor": 4780,
      "EN": 4781,
      "back": 4782,
      "duct": 4783,
      "kan": 4784,
      "zou": 4785,
      "Ġwolf": 4786,
      "Ġfought": 4787,
      "Ġhaun": 4788,
      "eter": 4789,
      "ĠHuman": 4790,
      "ĠKoy": 4791,
      "adows": 4792,
      "Ġasked": 4793,
      "ĠCar": 4794,
      "ĠEv": 4795,
      "onder": 4796,
      "Ġresolve": 4797,
      "ĠAsh": 4798,
      "ips": 4799,
      "Ġoverwhel": 4800,
      "Ġcontest": 4801,
      "Ġsmart": 4802,
      "Ġnightm": 4803,
      "000": 4804,
      "ĠMini": 4805,
      "Ġterrible": 4806,
      "Ġdisappeared": 4807,
      "Ġruler": 4808,
      "Ġconfron": 4809,
      "Ġestablished": 4810,
      "Ġchampion": 4811,
      "ĠEnglish": 4812,
      "edding": 4813,
      "Ġexactly": 4814,
      "Ġphotograp": 4815,
      "AM": 4816,
      "ped": 4817,
      "hero": 4818,
      "Ġcases": 4819,
      "ĠMars": 4820,
      "ĠMountain": 4821,
      "Ġlist": 4822,
      "Ġforbidden": 4823,
      "ĠHong": 4824,
      "ĠKod": 4825,
      "ĠYear": 4826,
      "Ġexec": 4827,
      "Ġexpected": 4828,
      "Ġjump": 4829,
      "Ġenl": 4830,
      "Ġenergetic": 4831,
      "Ġmanaged": 4832,
      "Ġesc": 4833,
      "Ġdelinqu": 4834,
      "Ġspiritual": 4835,
      "Ġattending": 4836,
      "Ġapproaches": 4837,
      "Ġaccompl": 4838,
      "Ġwitnesses": 4839,
      "ĠVillage": 4840,
      "Ġenigmatic": 4841,
      "OM": 4842,
      "down": 4843,
      "Ġtur": 4844,
      "hest": 4845,
      "Ġaut": 4846,
      "inem": 4847,
      "Ġfifth": 4848,
      "Ġhy": 4849,
      "Ġphenomen": 4850,
      "Ġnational": 4851,
      "cel": 4852,
      "Ġreign": 4853,
      "umb": 4854,
      "ĠCG": 4855,
      "illa": 4856,
      "ĠLan": 4857,
      "Ġsports": 4858,
      "Ġmanage": 4859,
      "Ġresults": 4860,
      "Ġcrimin": 4861,
      "Ġmusical": 4862,
      "gry": 4863,
      "ashiro": 4864,
      "Ġremote": 4865,
      "ĠShiz": 4866,
      "Ġphone": 4867,
      "ĠMinami": 4868,
      "Ġnearly": 4869,
      "ĠSatou": 4870,
      "Ġthrown": 4871,
      "Ġmarry": 4872,
      "Ġruins": 4873,
      "ĠOsamu": 4874,
      "Ġwalking": 4875,
      "Ġfreedom": 4876,
      "ĠNatsume": 4877,
      "ĠChildren": 4878,
      "Ġimpossible": 4879,
      "Ġcriminals": 4880,
      "Ġign": 4881,
      "Ġbull": 4882,
      "ĠAI": 4883,
      "ĠSol": 4884,
      "ĠHime": 4885,
      "ĠHosh": 4886,
      "ushes": 4887,
      "iff": 4888,
      "Ġcomfort": 4889,
      "Ġunaware": 4890,
      "ĠJoe": 4891,
      "Ġplaces": 4892,
      "ĠUS": 4893,
      "Ġtwist": 4894,
      "Ġworker": 4895,
      "formed": 4896,
      "ĠReg": 4897,
      "minute": 4898,
      "Ġcomplex": 4899,
      "ĠOrig": 4900,
      "Ġbringing": 4901,
      "Ġpersonalities": 4902,
      "Ġsteps": 4903,
      "ĠUsing": 4904,
      "Ġghosts": 4905,
      "Ġsuffering": 4906,
      "Ġprepare": 4907,
      "Ġchoose": 4908,
      "ĠSubaru": 4909,
      "Ġnecess": 4910,
      "eing": 4911,
      "tw": 4912,
      "yuki": 4913,
      "atory": 4914,
      "alace": 4915,
      "Ġlady": 4916,
      "aker": 4917,
      "ĠHat": 4918,
      "ĠKens": 4919,
      "ĠBudd": 4920,
      "ĠNana": 4921,
      "ĠGa": 4922,
      "ĠGaku": 4923,
      "ĠFortun": 4924,
      "inder": 4925,
      "Ġshowing": 4926,
      "tainment": 4927,
      "ianc": 4928,
      "Ġacting": 4929,
      "Ġemperor": 4930,
      "ĠClass": 4931,
      "Ġopens": 4932,
      "Ġmotion": 4933,
      "Ġfails": 4934,
      "ĠâĢĵ": 4935,
      "Ġsouls": 4936,
      "Ġsurrounding": 4937,
      "ĠKitty": 4938,
      "Ġsummoned": 4939,
      "ĠTsubasa": 4940,
      "Ġcomplicated": 4941,
      "ĠEntertainment": 4942,
      "rupted": 4943,
      "Ġshrine": 4944,
      "Ġruthless": 4945,
      "mate": 4946,
      "Ġver": 4947,
      "Ġice": 4948,
      "inter": 4949,
      "Ġsay": 4950,
      "Ġcand": 4951,
      "oman": 4952,
      "Ġheal": 4953,
      "ĠTour": 4954,
      "ĠTakes": 4955,
      "ĠBar": 4956,
      "ĠNatsu": 4957,
      "Ġrac": 4958,
      "ĠYang": 4959,
      "Ġexclusive": 4960,
      "outarou": 4961,
      "Ġdism": 4962,
      "Ġdisgu": 4963,
      "ĠThus": 4964,
      "Ġknight": 4965,
      "Ġapprent": 4966,
      "Ġpartners": 4967,
      "Ġinvited": 4968,
      "ĠAkari": 4969,
      "ĠBlade": 4970,
      "ĠClan": 4971,
      "Ġslave": 4972,
      "ĠShik": 4973,
      "Ġsinging": 4974,
      "Ġkeeping": 4975,
      "uffy": 4976,
      "ĠTwitter": 4977,
      "Ġinvestigation": 4978,
      "Ġpursuit": 4979,
      "Ġfocus": 4980,
      "ĠMomo": 4981,
      "Ġwalk": 4982,
      "Ġdivine": 4983,
      "Ġfortune": 4984,
      "Ġbefriends": 4985,
      "ĠIMDB": 4986,
      "ault": 4987,
      "cen": 4988,
      "iang": 4989,
      "juu": 4990,
      "Ġflying": 4991,
      "Ġbed": 4992,
      "Ġinex": 4993,
      "Ġgun": 4994,
      "Ġeither": 4995,
      "enty": 4996,
      "ĠHiro": 4997,
      "agami": 4998,
      "ĠRoy": 4999,
      "ĠBack": 5000,
      "ĠYi": 5001,
      "ĠFire": 5002,
      "udou": 5003,
      "ĠShink": 5004,
      "Ġprior": 5005,
      "Ġfriendly": 5006,
      "ĠVol": 5007,
      "ĠStars": 5008,
      "Ġjoining": 5009,
      "Ġgeneration": 5010,
      "Ġrelationships": 5011,
      "ternal": 5012,
      "Ġmotor": 5013,
      "Ġdomin": 5014,
      "Ġmessage": 5015,
      "claimed": 5016,
      "Ġpretty": 5017,
      "Ġincredible": 5018,
      "Ġprosper": 5019,
      "Ġfictional": 5020,
      "ĠIdol": 5021,
      "Ġlatest": 5022,
      "Despite": 5023,
      "Ġforgotten": 5024,
      "Ġawaits": 5025,
      "lord": 5026,
      "Ġwarn": 5027,
      "Ġbath": 5028,
      "Ġcul": 5029,
      "outs": 5030,
      "Ġmor": 5031,
      "Ġpi": 5032,
      "Ġpack": 5033,
      "imp": 5034,
      "ĠSk": 5035,
      "ĠSora": 5036,
      "ĠMich": 5037,
      "olate": 5038,
      "chant": 5039,
      "ĠHouse": 5040,
      "road": 5041,
      "ĠEnd": 5042,
      "Ġkit": 5043,
      "roud": 5044,
      "Ġexorc": 5045,
      "Ġclash": 5046,
      "Ġschooler": 5047,
      "ogi": 5048,
      "Ġprecious": 5049,
      "Ġ22": 5050,
      "Ġhell": 5051,
      "Ġhumanoid": 5052,
      "ording": 5053,
      "Ġneg": 5054,
      "Ġblossom": 5055,
      "Ġcolon": 5056,
      "ahara": 5057,
      "ĠWho": 5058,
      "Ġlocated": 5059,
      "Ġteachers": 5060,
      "pany": 5061,
      "Ġstanding": 5062,
      "ronic": 5063,
      "Ġtypical": 5064,
      "ĠFourth": 5065,
      "Ġshocked": 5066,
      "Ġinitially": 5067,
      "ĠHeart": 5068,
      "Ġnavig": 5069,
      "Ġearthquake": 5070,
      "bors": 5071,
      "do": 5072,
      "mit": 5073,
      "pers": 5074,
      "vous": 5075,
      "Ġir": 5076,
      "Ġsect": 5077,
      "Ġsne": 5078,
      "Ġwake": 5079,
      "Ġburn": 5080,
      "Ġcal": 5081,
      "Ġpen": 5082,
      "Ġpig": 5083,
      "Ġet": 5084,
      "Ġbeach": 5085,
      "usuke": 5086,
      "elt": 5087,
      "Ġask": 5088,
      "agement": 5089,
      "ĠBand": 5090,
      "ulous": 5091,
      "Ġring": 5092,
      "ĠYoung": 5093,
      "ikawa": 5094,
      "ability": 5095,
      "Ġspaces": 5096,
      "Ġserial": 5097,
      "ibana": 5098,
      "ĠChou": 5099,
      "ĠChang": 5100,
      "Ġcontent": 5101,
      "ailed": 5102,
      "Ġmonth": 5103,
      "Ġempire": 5104,
      "ohara": 5105,
      "Ġexplos": 5106,
      "Ġthoughts": 5107,
      "Ġaware": 5108,
      "Ġtelling": 5109,
      "Ġvisits": 5110,
      "Ġdisturb": 5111,
      "Ġinterested": 5112,
      "Ġgrew": 5113,
      "Ġteaching": 5114,
      "Ġindividual": 5115,
      "Ġunravel": 5116,
      "Ġpolitical": 5117,
      "Ġcorrupt": 5118,
      "Ġfaith": 5119,
      "!?": 5120,
      "ease": 5121,
      "fers": 5122,
      "lock": 5123,
      "rig": 5124,
      "Ġsu": 5125,
      "Ġbene": 5126,
      "Ġcous": 5127,
      "Ġhur": 5128,
      "ilia": 5129,
      "ĠSent": 5130,
      "ĠSix": 5131,
      "Ġnur": 5132,
      "Ġeating": 5133,
      "sters": 5134,
      "Ġrenown": 5135,
      "ĠHiy": 5136,
      "Ġaspiring": 5137,
      "ources": 5138,
      "Ġvenge": 5139,
      "ify": 5140,
      "ĠEur": 5141,
      "Ġintense": 5142,
      "Ġprim": 5143,
      "Ġnotice": 5144,
      "Ġstudying": 5145,
      "Ġ25": 5146,
      "ickn": 5147,
      "ĠTakumi": 5148,
      "wards": 5149,
      "Ġmethod": 5150,
      "ĠCompany": 5151,
      "Ġadvant": 5152,
      "ĠHikari": 5153,
      "Ġlifest": 5154,
      "Ġentrance": 5155,
      "ĠSpirit": 5156,
      "Ġmaterial": 5157,
      "mber": 5158,
      "Ġwall": 5159,
      "Ġfit": 5160,
      "orous": 5161,
      "Ġhiding": 5162,
      "Ġdrop": 5163,
      "Ġhear": 5164,
      "ĠTake": 5165,
      "irm": 5166,
      "ĠSuddenly": 5167,
      "Ġgave": 5168,
      "Ġisol": 5169,
      "eting": 5170,
      "Ġstarring": 5171,
      "adise": 5172,
      "Ġtraged": 5173,
      "ĠGolden": 5174,
      "atever": 5175,
      "ĠLet": 5176,
      "Ġintim": 5177,
      "ishima": 5178,
      "Ġreleases": 5179,
      "othing": 5180,
      "ĠSequel": 5181,
      "Ġobl": 5182,
      "ĠAmong": 5183,
      "Ġcontroll": 5184,
      "Ġcontract": 5185,
      "Ġquestions": 5186,
      "ĠHiroshi": 5187,
      "Ġspending": 5188,
      "ĠKaoru": 5189,
      "Ġaudience": 5190,
      "Ġanswer": 5191,
      "Ġpsychic": 5192,
      "ĠPolice": 5193,
      "allel": 5194,
      "Ġbehavior": 5195,
      "Ar": 5196,
      "look": 5197,
      "ns": 5198,
      "Ġwearing": 5199,
      "Ġbonus": 5200,
      "orable": 5201,
      "Ġpul": 5202,
      "irty": 5203,
      "Ġlur": 5204,
      "Ġbeasts": 5205,
      "ido": 5206,
      "aked": 5207,
      "ĠKana": 5208,
      "ayama": 5209,
      "Ġround": 5210,
      "Ġkiss": 5211,
      "Ġexists": 5212,
      "Ġpriest": 5213,
      "Ġtend": 5214,
      "Ġstrives": 5215,
      "order": 5216,
      "arrass": 5217,
      "ĠYuuta": 5218,
      "Ġmonkey": 5219,
      "ĠShiki": 5220,
      "Ġthreaten": 5221,
      "Ġcouldn": 5222,
      "ĠTezuka": 5223,
      "fortunate": 5224,
      "Ġenjoys": 5225,
      "Ġtitled": 5226,
      "Ġsevere": 5227,
      "Ġideal": 5228,
      "Ġaffection": 5229,
      "ĠMisaki": 5230,
      "Ġguardian": 5231,
      "Ġconvin": 5232,
      "Ġcultivation": 5233,
      "Ġunlikely": 5234,
      "Ġsatisf": 5235,
      "Ġalternate": 5236,
      "AS": 5237,
      "ĠâĢĶ": 5238,
      "Ġtut": 5239,
      "het": 5240,
      "Ġwinning": 5241,
      "Ġbott": 5242,
      "itor": 5243,
      "arily": 5244,
      "asks": 5245,
      "ĠKis": 5246,
      "Ġfrustr": 5247,
      "Ġvows": 5248,
      "ĠRa": 5249,
      "ĠRain": 5250,
      "ĠNever": 5251,
      "ĠDor": 5252,
      "ĠGassh": 5253,
      "ĠYor": 5254,
      "ĠFore": 5255,
      "udo": 5256,
      "ques": 5257,
      "ĠShadow": 5258,
      "Ġcloud": 5259,
      "Ġadvert": 5260,
      "azaki": 5261,
      "ionship": 5262,
      "Ġcryst": 5263,
      "ĠVan": 5264,
      "Ġcalling": 5265,
      "ĠQing": 5266,
      "ĠMarch": 5267,
      "Ġtransformed": 5268,
      "Ġsuccessful": 5269,
      "ĠKenji": 5270,
      "ĠMagical": 5271,
      "Ġexperienced": 5272,
      "Ġpassionate": 5273,
      "ĠHinata": 5274,
      "Ġcursed": 5275,
      "Ġathlet": 5276,
      "IY": 5277,
      "iable": 5278,
      "ivers": 5279,
      "uf": 5280,
      "inite": 5281,
      "rec": 5282,
      "Ġbasket": 5283,
      "estern": 5284,
      "itable": 5285,
      "Ġhol": 5286,
      "Ġpit": 5287,
      "ĠTower": 5288,
      "ĠAo": 5289,
      "otional": 5290,
      "ĠHaz": 5291,
      "ĠHoshi": 5292,
      "Ġfrag": 5293,
      "ĠBell": 5294,
      "ĠDog": 5295,
      "ĠGer": 5296,
      "ĠFive": 5297,
      "Ġunfortunate": 5298,
      "ĠJoh": 5299,
      "ustry": 5300,
      "Ġmecha": 5301,
      "Ġapparent": 5302,
      "Ġendless": 5303,
      "Ġqueen": 5304,
      "ĠArmy": 5305,
      "ĠUnited": 5306,
      "Ġinclude": 5307,
      "ĠBeast": 5308,
      "Ġdepartment": 5309,
      "Ġputs": 5310,
      "haired": 5311,
      "Ġcurious": 5312,
      "Ġdrawing": 5313,
      "ĠNanami": 5314,
      "ĠNeo": 5315,
      "Ġconnect": 5316,
      "Ġcarry": 5317,
      "Ġtransferred": 5318,
      "Ġteenage": 5319,
      "Ġgeneral": 5320,
      "Ġgranted": 5321,
      "ĠIII": 5322,
      "ĠMegumi": 5323,
      "Ġintelligence": 5324,
      "ĠTachibana": 5325,
      "ĠDepartment": 5326,
      "iancÃ©": 5327,
      "Ġrenowned": 5328,
      ".,": 5329,
      "DOL": 5330,
      "iac": 5331,
      "Ġsake": 5332,
      "Ġwel": 5333,
      "Ġbust": 5334,
      "Ġtotal": 5335,
      "Ġmillion": 5336,
      "ĠAug": 5337,
      "ĠSanta": 5338,
      "Ġgag": 5339,
      "ĠMidori": 5340,
      "amiliar": 5341,
      "ĠHina": 5342,
      "ĠKait": 5343,
      "ayer": 5344,
      "ader": 5345,
      "oda": 5346,
      "alled": 5347,
      "ogatari": 5348,
      "Ġknowing": 5349,
      "uga": 5350,
      "Ġfamilies": 5351,
      "Ġdescr": 5352,
      "Ġorigin": 5353,
      "Ġforeign": 5354,
      "Ġdevice": 5355,
      "Ġhardship": 5356,
      "Ġdealing": 5357,
      "Ġreborn": 5358,
      "ĠImm": 5359,
      "Ġengine": 5360,
      "Ġpleasure": 5361,
      "Ġwonders": 5362,
      "Ġseparate": 5363,
      "Ġinternational": 5364,
      "Ġrapid": 5365,
      "Ġselected": 5366,
      "Ġissues": 5367,
      "Ġambitious": 5368,
      "ĠHajime": 5369,
      "Ġadvantage": 5370,
      "bing": 5371,
      "just": 5372,
      "Ġur": 5373,
      "Ġshi": 5374,
      "Ġsorcer": 5375,
      "Ġwedding": 5376,
      "Ġfans": 5377,
      "ede": 5378,
      "Ġmidst": 5379,
      "ald": 5380,
      "ĠToy": 5381,
      "iles": 5382,
      "iltr": 5383,
      "ĠSoul": 5384,
      "Ġgold": 5385,
      "Ġlie": 5386,
      "ĠHa": 5387,
      "ĠKous": 5388,
      "ĠKik": 5389,
      "ĠDon": 5390,
      "ills": 5391,
      "ĠEver": 5392,
      "Ġproves": 5393,
      "Ġschools": 5394,
      "ailor": 5395,
      "Ġdestined": 5396,
      "Ġincidents": 5397,
      "Ġescapes": 5398,
      "Ġhunting": 5399,
      "Ġfateful": 5400,
      "Ġpilots": 5401,
      "Ġparallel": 5402,
      "Ġsurprised": 5403,
      "ynasty": 5404,
      "Ġensure": 5405,
      "ocaloid": 5406,
      "Ġutil": 5407,
      "ĠDigimon": 5408,
      "Ġopponents": 5409,
      "Ġcafe": 5410,
      "Ġindependent": 5411,
      "Ġspaceship": 5412,
      "ET": 5413,
      "PG": 5414,
      "ban": 5415,
      "even": 5416,
      "jirou": 5417,
      "school": 5418,
      "ye": 5419,
      "zuki": 5420,
      "Ġx": 5421,
      "inth": 5422,
      "inity": 5423,
      "Ġwide": 5424,
      "Ġwound": 5425,
      "ĠfiancÃ©": 5426,
      "asingly": 5427,
      "ĠTem": 5428,
      "imaru": 5429,
      "Ġnations": 5430,
      "ĠMedia": 5431,
      "Ġliter": 5432,
      "Ġep": 5433,
      "Ġren": 5434,
      "ĠKab": 5435,
      "Ġwhatever": 5436,
      "umu": 5437,
      "ĠBig": 5438,
      "ĠIw": 5439,
      "ĠWonder": 5440,
      "ĠYak": 5441,
      "ĠJoin": 5442,
      "Ġspl": 5443,
      "Ġexhi": 5444,
      "Ġusually": 5445,
      "Ġinvent": 5446,
      "Ġsurre": 5447,
      "lection": 5448,
      "theless": 5449,
      "Ġawait": 5450,
      "ĠLeon": 5451,
      "oshima": 5452,
      "Ġinfiltr": 5453,
      "ĠDef": 5454,
      "Ġteaches": 5455,
      "Ġembarrass": 5456,
      "Ġ50": 5457,
      "Ġbusy": 5458,
      "Ġpreviously": 5459,
      "Ġwinter": 5460,
      "Ġfollowed": 5461,
      "Ġprodig": 5462,
      "Ġimagination": 5463,
      "Ġservant": 5464,
      "Ġvampires": 5465,
      "Ġthinking": 5466,
      "ĠAmerica": 5467,
      "Ġincreasingly": 5468,
      "Ġartificial": 5469,
      "ĠCaptain": 5470,
      "Ġwealthy": 5471,
      "Ġshoot": 5472,
      "ĠFairy": 5473,
      "Ġdespair": 5474,
      "ĠInstead": 5475,
      "ĠPromotional": 5476,
      "Ġapprentice": 5477,
      "--": 5478,
      "II": 5479,
      "sensei": 5480,
      "ule": 5481,
      "erve": 5482,
      "erate": 5483,
      "itute": 5484,
      "Ġcards": 5485,
      "arm": 5486,
      "Ġheir": 5487,
      "ĠApr": 5488,
      "ĠSas": 5489,
      "ĠSong": 5490,
      "idable": 5491,
      "lym": 5492,
      "Ġstuck": 5493,
      "ĠKats": 5494,
      "agle": 5495,
      "ĠRay": 5496,
      "osm": 5497,
      "ulated": 5498,
      "ĠNishi": 5499,
      "Ġtried": 5500,
      "ĠPor": 5501,
      "Ġconsequ": 5502,
      "Ġshut": 5503,
      "Ġloom": 5504,
      "istr": 5505,
      "izu": 5506,
      "Ġstrate": 5507,
      "Ġagent": 5508,
      "Ġresem": 5509,
      "ictures": 5510,
      "Ġorders": 5511,
      "uctive": 5512,
      "ĠSea": 5513,
      "Ġformidable": 5514,
      "Ġexplains": 5515,
      "Ġarms": 5516,
      "ĠKazuya": 5517,
      "panman": 5518,
      "Ġfairies": 5519,
      "Ġavail": 5520,
      "ĠNagisa": 5521,
      "Ġunfamiliar": 5522,
      "ĠServ": 5523,
      "Ġwonder": 5524,
      "Ġpuppet": 5525,
      "Ġtouch": 5526,
      "Ġdedicated": 5527,
      "Ġridic": 5528,
      "Ġmischievous": 5529,
      "Ġhistorical": 5530,
      "ĠInternational": 5531,
      "Ġnecessary": 5532,
      "'ve": 5533,
      "He": 5534,
      "ca": 5535,
      "haps": 5536,
      "vol": 5537,
      "Ġtens": 5538,
      "inis": 5539,
      "Ġsaw": 5540,
      "Ġsugg": 5541,
      "erved": 5542,
      "Ġopt": 5543,
      "outh": 5544,
      "Ġpick": 5545,
      "ĠAya": 5546,
      "ĠHou": 5547,
      "ĠHig": 5548,
      "adem": 5549,
      "ĠBai": 5550,
      "ula": 5551,
      "ĠDen": 5552,
      "ĠDan": 5553,
      "ĠOf": 5554,
      "anged": 5555,
      "Ġshadows": 5556,
      "Ġdebt": 5557,
      "Ġextr": 5558,
      "Ġallowing": 5559,
      "Ġouter": 5560,
      "avoc": 5561,
      "Ġimage": 5562,
      "Ġbattlefield": 5563,
      "Ġguide": 5564,
      "ĠDeath": 5565,
      "Ġkinds": 5566,
      "ĠKouji": 5567,
      "Ġpaths": 5568,
      "Ġharmon": 5569,
      "Ġresulting": 5570,
      "Ġhorror": 5571,
      "Ġaccompanied": 5572,
      "Ġadventurer": 5573,
      "ĠHunter": 5574,
      "Ġofficer": 5575,
      "ĠTakeshi": 5576,
      "AT": 5577,
      "Bl": 5578,
      "bow": 5579,
      "maru": 5580,
      "pass": 5581,
      "pei": 5582,
      "Ġbreat": 5583,
      "Ġmage": 5584,
      "Ġhealth": 5585,
      "ĠSab": 5586,
      "Ġgift": 5587,
      "Ġbeast": 5588,
      "uted": 5589,
      "acher": 5590,
      "ĠBoku": 5591,
      "ĠWarr": 5592,
      "ĠLuo": 5593,
      "Ġunc": 5594,
      "ĠShins": 5595,
      "ĠAnpanman": 5596,
      "Ġ24": 5597,
      "Ġcharge": 5598,
      "Ġentered": 5599,
      "airs": 5600,
      "Ġincludes": 5601,
      "Ġsett": 5602,
      "Ġpromises": 5603,
      "Ġdifferences": 5604,
      "Ġindustry": 5605,
      "Ġperformed": 5606,
      "ĠComm": 5607,
      "Ġtransforming": 5608,
      "Ġminute": 5609,
      "Ġthrone": 5610,
      "ĠIchigo": 5611,
      "Ġchaotic": 5612,
      "headed": 5613,
      "Ġprovide": 5614,
      "Ġsleeping": 5615,
      "Ġexplores": 5616,
      "ĠPhantom": 5617,
      "Ġannounced": 5618,
      "issioned": 5619,
      "Ġmechanical": 5620,
      "Ġsenior": 5621,
      "which": 5622,
      "Ġcandid": 5623,
      "Ġpiec": 5624,
      "Ġ#": 5625,
      "Ġtast": 5626,
      "Ġbi": 5627,
      "Ġhavoc": 5628,
      "arine": 5629,
      "lear": 5630,
      "ĠAts": 5631,
      "ĠMio": 5632,
      "eted": 5633,
      "Ġalthough": 5634,
      "ĠGame": 5635,
      "ĠLater": 5636,
      "ĠJewel": 5637,
      "ukawa": 5638,
      "ĠShuu": 5639,
      "Ġnewest": 5640,
      "Ġmanip": 5641,
      "ogun": 5642,
      "Ġserve": 5643,
      "Ġserves": 5644,
      "iba": 5645,
      "Ġgrade": 5646,
      "apping": 5647,
      "ĠArts": 5648,
      "Ġrelated": 5649,
      "Ġcreation": 5650,
      "Ġsettle": 5651,
      "Ġdetermin": 5652,
      "Ġconsists": 5653,
      "Ġmovies": 5654,
      "Ġvillains": 5655,
      "Ġshowc": 5656,
      "ĠIshi": 5657,
      "Ġfactions": 5658,
      "ĠLiu": 5659,
      "Ġextin": 5660,
      "ihara": 5661,
      "Ġvirus": 5662,
      "Ġfully": 5663,
      "Ġgreen": 5664,
      "Ġabsolute": 5665,
      "Ġtempor": 5666,
      "Ġtype": 5667,
      "ĠPeople": 5668,
      "ĠSummer": 5669,
      "ĠAgency": 5670,
      "ĠNorth": 5671,
      "ĠGreen": 5672,
      "Ġcooking": 5673,
      "Ġswordsman": 5674,
      "Ġinfluence": 5675,
      "Ġdimension": 5676,
      "ĠSekai": 5677,
      "Ġbasketball": 5678,
      "QIY": 5679,
      "der": 5680,
      "eb": 5681,
      "eed": 5682,
      "pa": 5683,
      "Ġfat": 5684,
      "Ġbare": 5685,
      "Ġhorse": 5686,
      "Ġdies": 5687,
      "Ġhears": 5688,
      "iling": 5689,
      "Ġnickn": 5690,
      "ĠMid": 5691,
      "ĠMaki": 5692,
      "ĠManga": 5693,
      "owa": 5694,
      "Ġforcing": 5695,
      "ĠKog": 5696,
      "ĠColl": 5697,
      "osity": 5698,
      "Ġramp": 5699,
      "Ġrising": 5700,
      "Ġranks": 5701,
      "ĠGet": 5702,
      "ĠYok": 5703,
      "ĠPan": 5704,
      "Ġkept": 5705,
      "ables": 5706,
      "Ġadults": 5707,
      "Ġpeers": 5708,
      "ĠAsa": 5709,
      "Ġcrimes": 5710,
      "Ġdesert": 5711,
      "venth": 5712,
      "ĠTaka": 5713,
      "Ġplanned": 5714,
      "Ġdiscovering": 5715,
      "Ġdefense": 5716,
      "Ġflower": 5717,
      "Ġcatast": 5718,
      "Ġdeterm": 5719,
      "Ġexploring": 5720,
      "Ġpopulation": 5721,
      "ĠAmaz": 5722,
      "Ġarmed": 5723,
      "ĠKanata": 5724,
      "Ġbelieved": 5725,
      "Ġversions": 5726,
      "Ġrebell": 5727,
      "oudan": 5728,
      "Ġconnected": 5729,
      "Ġanti": 5730,
      "useum": 5731,
      "Ġdesigned": 5732,
      "Ġspeed": 5733,
      "ĠKnight": 5734,
      "board": 5735,
      "ĠiQIY": 5736,
      "ĠKakeru": 5737,
      "Ġintentions": 5738,
      "Ġeliminate": 5739,
      "Ġbeneath": 5740,
      "Ġlifestyle": 5741,
      "Ġtragedy": 5742,
      "Ġbottom": 5743,
      "ĠAugust": 5744,
      "Ġdetermine": 5745,
      "ĠiQIYI": 5746,
      "20": 5747,
      "During": 5748,
      "house": 5749,
      "kn": 5750,
      "kawa": 5751,
      "kward": 5752,
      "long": 5753,
      "part": 5754,
      "uild": 5755,
      "well": 5756,
      "Ġtiny": 5757,
      "Ġcop": 5758,
      "ĠTor": 5759,
      "ĠTama": 5760,
      "ĠSens": 5761,
      "ĠMob": 5762,
      "ĠMiko": 5763,
      "Ġforget": 5764,
      "Ġstream": 5765,
      "umans": 5766,
      "ĠCup": 5767,
      "emi": 5768,
      "Ġrank": 5769,
      "thm": 5770,
      "Ġchase": 5771,
      "ĠEi": 5772,
      "Ġlover": 5773,
      "Ġprize": 5774,
      "Ġprincip": 5775,
      "away": 5776,
      "Ġbrill": 5777,
      "hered": 5778,
      "ugawa": 5779,
      "Ġcrazy": 5780,
      "ventures": 5781,
      "engoku": 5782,
      "Ġcatches": 5783,
      "Ġconscious": 5784,
      "exist": 5785,
      "Ġthreatening": 5786,
      "omiya": 5787,
      "Ġdefeating": 5788,
      "Ġtroubled": 5789,
      "Ġfarm": 5790,
      "Ġreceiving": 5791,
      "Ġhunters": 5792,
      "ĠNoz": 5793,
      "Ġsubject": 5794,
      "Ġdevelops": 5795,
      "Ġmisunder": 5796,
      "Ġholding": 5797,
      "Ġadded": 5798,
      "Ġfailed": 5799,
      "Ġeducation": 5800,
      "standing": 5801,
      "ĠTanaka": 5802,
      "Ġodds": 5803,
      "ĠMahou": 5804,
      "Ġestablish": 5805,
      "ealous": 5806,
      "Although": 5807,
      "ungeon": 5808,
      "Ġbrutal": 5809,
      "ĠApril": 5810,
      "!.": 5811,
      "?\"": 5812,
      "iu": 5813,
      "lier": 5814,
      "va": 5815,
      "zuru": 5816,
      "Ġtyr": 5817,
      "Ġtasks": 5818,
      "Ġfighters": 5819,
      "orge": 5820,
      "Ġcities": 5821,
      "Ġhired": 5822,
      "ĠTad": 5823,
      "ĠSoc": 5824,
      "Ġgains": 5825,
      "Ġnet": 5826,
      "ĠMaj": 5827,
      "idai": 5828,
      "olved": 5829,
      "igg": 5830,
      "ĠNat": 5831,
      "ĠWest": 5832,
      "ĠWind": 5833,
      "ĠOlym": 5834,
      "Ġshattered": 5835,
      "Ġgoals": 5836,
      "Ġstudies": 5837,
      "ugs": 5838,
      "Ġgroups": 5839,
      "Ġplanets": 5840,
      "Ġleaders": 5841,
      "ĠRealm": 5842,
      "Ġcommissioned": 5843,
      "anna": 5844,
      "phone": 5845,
      "Ġbreaking": 5846,
      "uzu": 5847,
      "ĠDevil": 5848,
      "Ġterrifying": 5849,
      "ĠAlliance": 5850,
      "ĠImperial": 5851,
      "Ġexcited": 5852,
      "ĠMizuki": 5853,
      "Ġtennis": 5854,
      "Ġbonds": 5855,
      "Ġmachines": 5856,
      "hythm": 5857,
      "Ġshocking": 5858,
      "Ġcustomers": 5859,
      "ĠFamily": 5860,
      "Ġlaunch": 5861,
      "Ġretrieve": 5862,
      "Ġcousin": 5863,
      "ĠEurope": 5864,
      "Ġpieces": 5865,
      "What": 5866,
      "ypt": 5867,
      "Ġsear": 5868,
      "Ġsung": 5869,
      "Ġble": 5870,
      "Ġhil": 5871,
      "Ġheard": 5872,
      "icing": 5873,
      "ĠSana": 5874,
      "ĠMac": 5875,
      "Ġanth": 5876,
      "ĠChe": 5877,
      "ĠNinja": 5878,
      "ĠNeko": 5879,
      "Ġtrib": 5880,
      "Ġseg": 5881,
      "ested": 5882,
      "ĠJing": 5883,
      "Ġspark": 5884,
      "quar": 5885,
      "ubi": 5886,
      "Ġbrain": 5887,
      "azu": 5888,
      "ĠVocaloid": 5889,
      "Ġinvaders": 5890,
      "isei": 5891,
      "ĠStory": 5892,
      "Ġactress": 5893,
      "Ġplayed": 5894,
      "pty": 5895,
      "oinc": 5896,
      "Ġinterrupted": 5897,
      "Ġamount": 5898,
      "Ġmissions": 5899,
      "Ġawkward": 5900,
      "Ġterms": 5901,
      "Ġescaped": 5902,
      "ĠTrans": 5903,
      "ĠProduction": 5904,
      "Ġdiscuss": 5905,
      "Ġdiscovery": 5906,
      "Ġvictims": 5907,
      "ĠGeneral": 5908,
      "Ġcomedic": 5909,
      "Ġillness": 5910,
      "Ġviolence": 5911,
      "Ġzomb": 5912,
      "Ġtemple": 5913,
      "Ġconvince": 5914,
      "girls": 5915,
      "ĠMoreover": 5916,
      "Ġshape": 5917,
      "ĠFortunately": 5918,
      "inderella": 5919,
      "Ġhilarious": 5920,
      "EL": 5921,
      "bol": 5922,
      "Ġace": 5923,
      "Ġtheater": 5924,
      "anagi": 5925,
      "Ġmel": 5926,
      "Ġdub": 5927,
      "Ġdangers": 5928,
      "ĠTit": 5929,
      "ĠTats": 5930,
      "ĠMU": 5931,
      "style": 5932,
      "ĠKant": 5933,
      "Ġasp": 5934,
      "ĠBur": 5935,
      "ĠBrit": 5936,
      "ĠNon": 5937,
      "ideo": 5938,
      "ĠYume": 5939,
      "ĠPret": 5940,
      "Ġconstr": 5941,
      "ĠShiro": 5942,
      "Ġclum": 5943,
      "Ġupper": 5944,
      "Ġprice": 5945,
      "Ġallowed": 5946,
      "ĠInc": 5947,
      "Ġstrict": 5948,
      "ogue": 5949,
      "Ġcompilation": 5950,
      "Ġresources": 5951,
      "Ġcolony": 5952,
      "aido": 5953,
      "Ġheroine": 5954,
      "oids": 5955,
      "Ġwitches": 5956,
      "Ġadvance": 5957,
      "ĠWebsite": 5958,
      "Ġcarrying": 5959,
      "Ġfigures": 5960,
      "ĠHayato": 5961,
      "leyball": 5962,
      "ĠDetermined": 5963,
      "ĠParty": 5964,
      "Ġreluctantly": 5965,
      "ĠZeon": 5966,
      "Ġrisk": 5967,
      "enguin": 5968,
      "akugan": 5969,
      "iate": 5970,
      "wise": 5971,
      "zo": 5972,
      "Ġtears": 5973,
      "Ġfly": 5974,
      "Ġcrit": 5975,
      "Ġcalm": 5976,
      "Ġmill": 5977,
      "Ġdoc": 5978,
      "ashed": 5979,
      "Ġhen": 5980,
      "ĠSus": 5981,
      "ĠMer": 5982,
      "ĠMyst": 5983,
      "ĠHaku": 5984,
      "ĠBo": 5985,
      "ĠYears": 5986,
      "Ġunits": 5987,
      "Ġspin": 5988,
      "ĠUch": 5989,
      "ellow": 5990,
      "ublic": 5991,
      "Ġmystical": 5992,
      "ashima": 5993,
      "Ġnowhere": 5994,
      "Ġreminis": 5995,
      "Ġlearned": 5996,
      "Ġassault": 5997,
      "ĠXian": 5998,
      "Ġgreater": 5999,
      "Ġcoop": 6000,
      "Ġkiller": 6001,
      "Ġopened": 6002,
      "Ġdelicious": 6003,
      "Ġglass": 6004,
      "Ġputting": 6005,
      "Ġpromoting": 6006,
      "Ġparody": 6007,
      "Ġmotiv": 6008,
      "craft": 6009,
      "Ġmercen": 6010,
      "Ġprepares": 6011,
      "Ġduties": 6012,
      "Ġexams": 6013,
      "Ġpirate": 6014,
      "Ġpirates": 6015,
      "Ġcolorful": 6016,
      "Ġinstruct": 6017,
      "Ġworries": 6018,
      "Ġtimid": 6019,
      "Ġdeceased": 6020,
      "Ġglobal": 6021,
      "Ġgifted": 6022,
      "Ġnurse": 6023,
      "Ġavailable": 6024,
      "ĠAmazon": 6025,
      "IS": 6026,
      "Japan": 6027,
      "Pl": 6028,
      "eg": 6029,
      "fight": 6030,
      "ls": 6031,
      "mind": 6032,
      "sc": 6033,
      "vation": 6034,
      "Ġboun": 6035,
      "esis": 6036,
      "Ġpuzz": 6037,
      "Ġdating": 6038,
      "omu": 6039,
      "ĠSai": 6040,
      "ĠSky": 6041,
      "Ġgained": 6042,
      "ĠMao": 6043,
      "amb": 6044,
      "step": 6045,
      "Ġreplace": 6046,
      "usei": 6047,
      "ĠKoh": 6048,
      "ĠKimi": 6049,
      "ĠRo": 6050,
      "ĠRose": 6051,
      "ĠBook": 6052,
      "Ġtribe": 6053,
      "ĠDuel": 6054,
      "Ġriver": 6055,
      "ĠGroup": 6056,
      "ĠEagle": 6057,
      "ĠJan": 6058,
      "Ġshared": 6059,
      "heng": 6060,
      "uclear": 6061,
      "Ġresort": 6062,
      "Ġdeser": 6063,
      "ventually": 6064,
      "Ġweird": 6065,
      "Ġexpert": 6066,
      "ushima": 6067,
      "Ġvisual": 6068,
      "Ġcoach": 6069,
      "Ġvolleyball": 6070,
      "ĠMiki": 6071,
      "Ġimmense": 6072,
      "Ġtreasures": 6073,
      "ĠMinato": 6074,
      "Ġoccup": 6075,
      "Ġdisappears": 6076,
      "ĠKaori": 6077,
      "Ġsixth": 6078,
      "Ġattends": 6079,
      "Ġwalks": 6080,
      "guard": 6081,
      "Ġsignific": 6082,
      "Ġthousands": 6083,
      "Ġwandering": 6084,
      "Ġscreened": 6085,
      "ĠKasumi": 6086,
      "Ġsurvivors": 6087,
      "Ġentertainment": 6088,
      "Ġtechniques": 6089,
      "Ġchapter": 6090,
      "Ġtrials": 6091,
      "Ġobstacles": 6092,
      "ĠGasshoudan": 6093,
      "NA": 6094,
      "cure": 6095,
      "nan": 6096,
      "tan": 6097,
      "Ġsell": 6098,
      "orim": 6099,
      "itar": 6100,
      "Ġcor": 6101,
      "Ġmedic": 6102,
      "ĠTon": 6103,
      "ĠSect": 6104,
      "Ġgolden": 6105,
      "otte": 6106,
      "unaga": 6107,
      "ĠHere": 6108,
      "ĠBet": 6109,
      "ĠBun": 6110,
      "ĠBear": 6111,
      "ĠNaka": 6112,
      "ifice": 6113,
      "andom": 6114,
      "ĠYur": 6115,
      "Ġyakuza": 6116,
      "ĠPicture": 6117,
      "Ġexter": 6118,
      "usted": 6119,
      "ociation": 6120,
      "Ġadorable": 6121,
      "Ġstrikes": 6122,
      "Ġmean": 6123,
      "ĠAsuka": 6124,
      "Ġusers": 6125,
      "Ġneither": 6126,
      "Ġentry": 6127,
      "asha": 6128,
      "ĠUnable": 6129,
      "Ġlively": 6130,
      "ĠToei": 6131,
      "Ġsuperhero": 6132,
      "Ġthreatened": 6133,
      "Ġ197": 6134,
      "Ġsurviving": 6135,
      "ĠLeague": 6136,
      "ĠKazuki": 6137,
      "Ġvictim": 6138,
      "Ġmurdered": 6139,
      "ĠSouth": 6140,
      "ĠRobot": 6141,
      "Ġresponsibility": 6142,
      "Ġreincarnated": 6143,
      "ĠTakahashi": 6144,
      "Ġsuspicious": 6145,
      "ĠGerman": 6146,
      "Ġprodigy": 6147,
      "yptic": 6148,
      "law": 6149,
      "sm": 6150,
      "shi": 6151,
      "Ġtough": 6152,
      "Ġwip": 6153,
      "itution": 6154,
      "Ġpian": 6155,
      "alk": 6156,
      "icide": 6157,
      "ĠTens": 6158,
      "irt": 6159,
      "ĠApp": 6160,
      "ĠMih": 6161,
      "amon": 6162,
      "Ġbears": 6163,
      "akawa": 6164,
      "ĠHid": 6165,
      "ĠHach": 6166,
      "ĠHai": 6167,
      "ĠKong": 6168,
      "eling": 6169,
      "elest": 6170,
      "ĠCinderella": 6171,
      "Ġalike": 6172,
      "ĠNing": 6173,
      "ĠYum": 6174,
      "ĠEgg": 6175,
      "ĠFant": 6176,
      "ĠPV": 6177,
      "Ġconvers": 6178,
      "Ġwast": 6179,
      "anted": 6180,
      "ortals": 6181,
      "ĠShinn": 6182,
      "ipt": 6183,
      "Ġattitude": 6184,
      "ĠVict": 6185,
      "Ġdram": 6186,
      "Ġqual": 6187,
      "Ġunderw": 6188,
      "ĠTakeru": 6189,
      "ĠSeish": 6190,
      "ĠCla": 6191,
      "Ġtrained": 6192,
      "anny": 6193,
      "ĠShizuka": 6194,
      "Ġregain": 6195,
      "Ġdistance": 6196,
      "Ġkindness": 6197,
      "Ġchanging": 6198,
      "ĠComp": 6199,
      "ĠMonogatari": 6200,
      "injas": 6201,
      "Ġinteresting": 6202,
      "ĠOkin": 6203,
      "Ġcarries": 6204,
      "ĠNaoto": 6205,
      "Ġreunion": 6206,
      "Ġterrorist": 6207,
      "ĠCentury": 6208,
      "Ġadopted": 6209,
      "Ġsomewhere": 6210,
      "Ġfacility": 6211,
      "Ġdigital": 6212,
      "Ġrepeated": 6213,
      "Ġconsequences": 6214,
      "break": 6215,
      "hand": 6216,
      "sl": 6217,
      "Ġtall": 6218,
      "Ġwear": 6219,
      "Ġwrest": 6220,
      "Ġfer": 6221,
      "Ġmortal": 6222,
      "Ġpaper": 6223,
      "Ġdial": 6224,
      "Ġdancing": 6225,
      "asant": 6226,
      "ĠMat": 6227,
      "ams": 6228,
      "cell": 6229,
      "Ġlaun": 6230,
      "idance": 6231,
      "Ġrevel": 6232,
      "Ġstick": 6233,
      "ushing": 6234,
      "ago": 6235,
      "emble": 6236,
      "Ġalter": 6237,
      "ulate": 6238,
      "ĠFate": 6239,
      "ession": 6240,
      "ĠJu": 6241,
      "ĠIns": 6242,
      "Ġnotorious": 6243,
      "Ġtwins": 6244,
      "Ġsoft": 6245,
      "azawa": 6246,
      "Ġquir": 6247,
      "amiya": 6248,
      "ointed": 6249,
      "Ġhappening": 6250,
      "aho": 6251,
      "Ġslight": 6252,
      "Ġtalents": 6253,
      "Ġ196": 6254,
      "stron": 6255,
      "orrow": 6256,
      "ĠMonkey": 6257,
      "ĠSuzuki": 6258,
      "ĠKeiichi": 6259,
      "Ġaccepted": 6260,
      "Ġcurrently": 6261,
      "Ġscreen": 6262,
      "Ġadmir": 6263,
      "Ġcommunity": 6264,
      "Ġdisappearance": 6265,
      "ĠCollabor": 6266,
      "Ġsearches": 6267,
      "AL": 6268,
      "nes": 6269,
      "ynd": 6270,
      "isc": 6271,
      "isu": 6272,
      "Ġdre": 6273,
      "Ġhes": 6274,
      "ĠSn": 6275,
      "ĠSystem": 6276,
      "Ġreject": 6277,
      "urch": 6278,
      "Ġanx": 6279,
      "ĠKent": 6280,
      "ĠKoi": 6281,
      "elve": 6282,
      "ĠCast": 6283,
      "ĠWork": 6284,
      "ĠWitch": 6285,
      "ĠDest": 6286,
      "ieving": 6287,
      "Ġyo": 6288,
      "iking": 6289,
      "ĠLuffy": 6290,
      "Ġuncon": 6291,
      "Ġplaced": 6292,
      "ĠUnd": 6293,
      "izations": 6294,
      "elled": 6295,
      "Ġmanner": 6296,
      "pped": 6297,
      "Ġfeud": 6298,
      "Ġstrive": 6299,
      "Ġoverse": 6300,
      "Ġcrown": 6301,
      "Ġcrowd": 6302,
      "plic": 6303,
      "Ġende": 6304,
      "Ġblind": 6305,
      "Ġteammates": 6306,
      "Ġhappily": 6307,
      "Ġimpr": 6308,
      "Ġguidance": 6309,
      "Ġcreates": 6310,
      "Ġpresents": 6311,
      "Ġthreats": 6312,
      "uriosity": 6313,
      "Ġperforming": 6314,
      "Ġneeded": 6315,
      "Ġrevive": 6316,
      "Ġbiggest": 6317,
      "Ġdeeper": 6318,
      "Ġpurch": 6319,
      "Ġreasons": 6320,
      "Ġcontaining": 6321,
      "Ġobsessed": 6322,
      "Ġcyber": 6323,
      "ĠNaruto": 6324,
      "ĠGalaxy": 6325,
      "Ġneighborhood": 6326,
      "Ġenrolls": 6327,
      "Ġchibi": 6328,
      "ĠKobayashi": 6329,
      "Ġfloating": 6330,
      "ĠAmano": 6331,
      "ĠSquad": 6332,
      "Ġopposite": 6333,
      "AY": 6334,
      "hist": 6335,
      "oard": 6336,
      "pow": 6337,
      "Ġess": 6338,
      "Ġtick": 6339,
      "Ġfame": 6340,
      "Ġbudd": 6341,
      "itement": 6342,
      "Ġcure": 6343,
      "Ġdro": 6344,
      "ĠTod": 6345,
      "ĠSara": 6346,
      "ĠSaint": 6347,
      "ĠMem": 6348,
      "Ġec": 6349,
      "Ġrefer": 6350,
      "oted": 6351,
      "urally": 6352,
      "until": 6353,
      "ĠHappy": 6354,
      "ĠCoc": 6355,
      "ĠRom": 6356,
      "ĠBond": 6357,
      "ĠNam": 6358,
      "ĠYumi": 6359,
      "ĠFifth": 6360,
      "ĠPop": 6361,
      "Ġkara": 6362,
      "Ġintrig": 6363,
      "Ġstra": 6364,
      "ĠCha": 6365,
      "Ġdoom": 6366,
      "obby": 6367,
      "Ġsecurity": 6368,
      "Ġscattered": 6369,
      "iction": 6370,
      "ĠArc": 6371,
      "Ġaccount": 6372,
      "Ġsmile": 6373,
      "ĠFront": 6374,
      "Ġattempting": 6375,
      "ĠTech": 6376,
      "Ġ2017": 6377,
      "Ġpopularity": 6378,
      "Ġrescues": 6379,
      "ĠMasaki": 6380,
      "Ġruled": 6381,
      "Ġhotel": 6382,
      "ĠMizu": 6383,
      "Ġstealing": 6384,
      "Ġvehic": 6385,
      "Ġcommander": 6386,
      "Ġincredibly": 6387,
      "Ġsummary": 6388,
      "Ġawakened": 6389,
      "Ġreluctant": 6390,
      "Ġpredic": 6391,
      "ĠCouncil": 6392,
      "ĠDivision": 6393,
      "ĠAssociation": 6394,
      "ĠRoyal": 6395,
      "Ġvengeance": 6396,
      "Ġconsciousness": 6397,
      "99": 6398,
      "EC": 6399,
      "HE": 6400,
      "OS": 6401,
      "eor": 6402,
      "gen": 6403,
      "sec": 6404,
      "uate": 6405,
      "ĠĠĊ": 6406,
      "Ġsed": 6407,
      "Ġfix": 6408,
      "Ġcool": 6409,
      "edy": 6410,
      "edition": 6411,
      "Ġden": 6412,
      "Ġinev": 6413,
      "ils": 6414,
      "ĠMim": 6415,
      "Ġlabor": 6416,
      "etic": 6417,
      "cho": 6418,
      "igen": 6419,
      "ĠKer": 6420,
      "ĠCre": 6421,
      "ĠRos": 6422,
      "ĠWatch": 6423,
      "ĠDirect": 6424,
      "Ġride": 6425,
      "Ġchasing": 6426,
      "ĠOb": 6427,
      "ĠPap": 6428,
      "ĠLady": 6429,
      "Ġconce": 6430,
      "Ġspy": 6431,
      "Ġshot": 6432,
      "ively": 6433,
      "acked": 6434,
      "ĠAnn": 6435,
      "Ġwhenever": 6436,
      "Ġbride": 6437,
      "ĠHead": 6438,
      "ender": 6439,
      "Ġdrive": 6440,
      "Ġrelax": 6441,
      "Ġremind": 6442,
      "ĠUnit": 6443,
      "Ġinterview": 6444,
      "Ġordered": 6445,
      "Ġseasons": 6446,
      "ĠXuan": 6447,
      "Ġlocation": 6448,
      "ype": 6449,
      "ĠMonster": 6450,
      "Ġexcitement": 6451,
      "ĠDaisuke": 6452,
      "Ġcampus": 6453,
      "Ġimagined": 6454,
      "Ġhostile": 6455,
      "Ġassassins": 6456,
      "Ġ2020": 6457,
      "ĠHeroes": 6458,
      "Ġdragons": 6459,
      "Ġanswers": 6460,
      "Ġinherit": 6461,
      "Ġroutine": 6462,
      "icycle": 6463,
      "ibrary": 6464,
      "Ġapproaching": 6465,
      "ĠGokuu": 6466,
      "Ġtower": 6467,
      "ĠTournament": 6468,
      "Ġsneak": 6469,
      "Ġetc": 6470,
      "Ġhardships": 6471,
      "Be": 6472,
      "fall": 6473,
      "kin": 6474,
      "luck": 6475,
      "yi": 6476,
      "yun": 6477,
      "Ġsides": 6478,
      "reg": 6479,
      "aters": 6480,
      "atives": 6481,
      "org": 6482,
      "Ġhab": 6483,
      "Ġpure": 6484,
      "Ġpush": 6485,
      "ĠMed": 6486,
      "ĠMiddle": 6487,
      "ĠMaya": 6488,
      "amen": 6489,
      "amond": 6490,
      "amune": 6491,
      "Ġlangu": 6492,
      "Ġrend": 6493,
      "olving": 6494,
      "ĠHall": 6495,
      "aints": 6496,
      "ander": 6497,
      "ĠYork": 6498,
      "ĠEast": 6499,
      "ĠFei": 6500,
      "Ġplag": 6501,
      "Ġjealous": 6502,
      "ĠShima": 6503,
      "izuki": 6504,
      "izawa": 6505,
      "Ġfend": 6506,
      "Ġotherwise": 6507,
      "Ġresolves": 6508,
      "Ġhumili": 6509,
      "Ġacadem": 6510,
      "Ġ26": 6511,
      "clusion": 6512,
      "Ġinvitation": 6513,
      "Ġentering": 6514,
      "versal": 6515,
      "Ġperverted": 6516,
      "Ġrecon": 6517,
      "ĠYouku": 6518,
      "Ġpassing": 6519,
      "cape": 6520,
      "Ġsexy": 6521,
      "ĠFriend": 6522,
      "ĠIsh": 6523,
      "Ġcenturies": 6524,
      "Ġbelief": 6525,
      "Ġpossession": 6526,
      "Ġdisciple": 6527,
      "Ġelements": 6528,
      "Ġfocusing": 6529,
      "ĠKeita": 6530,
      "Ġaffect": 6531,
      "Ġclean": 6532,
      "Ġscientific": 6533,
      "Ġspecific": 6534,
      "Ġintroduced": 6535,
      "Ġsalary": 6536,
      "Ġsupposedly": 6537,
      "Ġdouble": 6538,
      "Ġreincarnation": 6539,
      "ĠSayaka": 6540,
      "Ġdeclares": 6541,
      "Ġdepicting": 6542,
      "Ġoverwhelming": 6543,
      "ĠForest": 6544,
      "Ġsplit": 6545,
      "Ġpredicament": 6546,
      "IC": 6547,
      "UT": 6548,
      "lers": 6549,
      "mist": 6550,
      "maid": 6551,
      "po": 6552,
      "Ġfishing": 6553,
      "orph": 6554,
      "anim": 6555,
      "ancial": 6556,
      "Ġcave": 6557,
      "Ġcart": 6558,
      "Ġhours": 6559,
      "omy": 6560,
      "ĠSm": 6561,
      "ĠSnow": 6562,
      "ĠSailor": 6563,
      "Ġgat": 6564,
      "Ġninjas": 6565,
      "ĠMc": 6566,
      "Ġlink": 6567,
      "Ġlatter": 6568,
      "star": 6569,
      "iday": 6570,
      "ros": 6571,
      "ĠBoth": 6572,
      "ĠIrod": 6573,
      "ĠNagi": 6574,
      "ĠDok": 6575,
      "ighth": 6576,
      "Ġworst": 6577,
      "ĠEventually": 6578,
      "ĠPon": 6579,
      "Ġshel": 6580,
      "ĠJo": 6581,
      "Ġabrupt": 6582,
      "Ġaboard": 6583,
      "ishment": 6584,
      "ordin": 6585,
      "lesh": 6586,
      "Ġempty": 6587,
      "Ġambition": 6588,
      "Ġguys": 6589,
      "Ġguests": 6590,
      "Ġcreator": 6591,
      "ĠShinji": 6592,
      "ĠShinobu": 6593,
      "Ġmagician": 6594,
      "ĠBeing": 6595,
      "Ġlegends": 6596,
      "Ġarmor": 6597,
      "ĠGrad": 6598,
      "ĠGrail": 6599,
      "Ġcompetitive": 6600,
      "licts": 6601,
      "ĠGods": 6602,
      "Ġinvestigating": 6603,
      "Ġbroke": 6604,
      "ĠYuuji": 6605,
      "Ġminds": 6606,
      "Ġharm": 6607,
      "ĠZhu": 6608,
      "Ġraise": 6609,
      "Ġearlier": 6610,
      "atrical": 6611,
      "Ġemerges": 6612,
      "Ġremembers": 6613,
      "Ġneighboring": 6614,
      "Ġwriter": 6615,
      "Ġopponent": 6616,
      "ĠGuardians": 6617,
      "Ġmedical": 6618,
      "Ġcommemorate": 6619,
      "Ġsacrifice": 6620,
      "ĠLuckily": 6621,
      "ĠDefense": 6622,
      "orimidori": 6623,
      "ĠIrodorimidori": 6624,
      "VE": 6625,
      "car": 6626,
      "gar": 6627,
      "ja": 6628,
      "Ġsorts": 6629,
      "Ġsyn": 6630,
      "orth": 6631,
      "Ġcuriosity": 6632,
      "Ġham": 6633,
      "Ġhearing": 6634,
      "ĠTM": 6635,
      "ĠSam": 6636,
      "Ġgym": 6637,
      "Ġlad": 6638,
      "eth": 6639,
      "igi": 6640,
      "igami": 6641,
      "ĠHel": 6642,
      "ĠBundled": 6643,
      "ĠIchi": 6644,
      "ĠDec": 6645,
      "ĠGou": 6646,
      "ĠYO": 6647,
      "ĠFun": 6648,
      "ĠPac": 6649,
      "okawa": 6650,
      "ikin": 6651,
      "Ġuncer": 6652,
      "ante": 6653,
      "anting": 6654,
      "ĠSho": 6655,
      "Ġproceed": 6656,
      "aved": 6657,
      "Ġgrim": 6658,
      "ĠChamp": 6659,
      "Ġentity": 6660,
      "ĠYuan": 6661,
      "arium": 6662,
      "Ġdestination": 6663,
      "Ġamb": 6664,
      "from": 6665,
      "Ġboat": 6666,
      "inko": 6667,
      "Ġprotected": 6668,
      "Ġsuperior": 6669,
      "ĠShinichi": 6670,
      "ĠAcc": 6671,
      "duced": 6672,
      "ĠDVDs": 6673,
      "ĠMaria": 6674,
      "Ġsolar": 6675,
      "Ġeffects": 6676,
      "Ġrefuge": 6677,
      "Ġsuccessor": 6678,
      "Ġancest": 6679,
      "ĠKenichi": 6680,
      "ĠImp": 6681,
      "Ġchallenging": 6682,
      "Ġsusp": 6683,
      "Ġwanders": 6684,
      "ĠYoshida": 6685,
      "Ġsounds": 6686,
      "Ġdragged": 6687,
      "Ġchief": 6688,
      "proclaimed": 6689,
      "ĠMadoka": 6690,
      "Ġsurvivor": 6691,
      "Ġexperimental": 6692,
      "Ġgraduate": 6693,
      "warming": 6694,
      "Ġperilous": 6695,
      "Ġcamera": 6696,
      "Ġnightmare": 6697,
      "Ġdelinquent": 6698,
      "Ġisolated": 6699,
      "Ġathletic": 6700,
      "ĠKaito": 6701,
      "ĠPretty": 6702,
      "Ġclumsy": 6703,
      "elestial": 6704,
      "AK": 6705,
      "Based": 6706,
      "ael": 6707,
      "mosp": 6708,
      "ps": 6709,
      "yan": 6710,
      "inated": 6711,
      "Ġbes": 6712,
      "enn": 6713,
      "Ġcas": 6714,
      "Ġhides": 6715,
      "omic": 6716,
      "icon": 6717,
      "ĠTang": 6718,
      "ĠSund": 6719,
      "Ġnuclear": 6720,
      "Ġlaugh": 6721,
      "Ġstuff": 6722,
      "aguchi": 6723,
      "ĠRep": 6724,
      "ember": 6725,
      "ĠNek": 6726,
      "ĠWhether": 6727,
      "ĠWolf": 6728,
      "ĠDel": 6729,
      "Ġran": 6730,
      "ĠGang": 6731,
      "ĠOct": 6732,
      "ĠPers": 6733,
      "ĠLou": 6734,
      "ĠLala": 6735,
      "Ġdeals": 6736,
      "ĠAnother": 6737,
      "ĠAnna": 6738,
      "Ġenorm": 6739,
      "ĠInv": 6740,
      "arem": 6741,
      "Ġfeared": 6742,
      "ocks": 6743,
      "Ġserving": 6744,
      "Ġgrants": 6745,
      "Ġbrink": 6746,
      "Ġaccess": 6747,
      "obe": 6748,
      "Ġknew": 6749,
      "Ġroof": 6750,
      "Ġimperial": 6751,
      "Ġmysteriously": 6752,
      "Ġcharming": 6753,
      "Ġactual": 6754,
      "ĠArmed": 6755,
      "cluding": 6756,
      "Ġrelent": 6757,
      "Ġremn": 6758,
      "Ġplanning": 6759,
      "ĠTokugawa": 6760,
      "ĠBlood": 6761,
      "Ġcontinued": 6762,
      "ĠTsur": 6763,
      "Ġtrains": 6764,
      "Ġstops": 6765,
      "Ġinstantly": 6766,
      "Ġmatches": 6767,
      "Ġterrit": 6768,
      "ĠMarine": 6769,
      "Ġdepths": 6770,
      "ĠOrgan": 6771,
      "ĠGoddess": 6772,
      "Ġcaptiv": 6773,
      "Ġfunny": 6774,
      "Ġdiscip": 6775,
      "Ġmurders": 6776,
      "Ġideas": 6777,
      "ĠNobunaga": 6778,
      "Ġrevealing": 6779,
      "ĠZhang": 6780,
      "Ġreunite": 6781,
      "Ġpoints": 6782,
      "Ġprepared": 6783,
      "Ġacquaint": 6784,
      "ĠMusashi": 6785,
      "Ġdevastated": 6786,
      "Ġphenomenon": 6787,
      "hetic": 6788,
      "ĠNevertheless": 6789,
      "Ġbrilliant": 6790,
      "BD": 6791,
      "LE": 6792,
      "gets": 6793,
      "hime": 6794,
      "iated": 6795,
      "mat": 6796,
      "Ġfool": 6797,
      "Ġflesh": 6798,
      "Ġpull": 6799,
      "alt": 6800,
      "Ġdear": 6801,
      "Ġlines": 6802,
      "Ġlazy": 6803,
      "Ġaside": 6804,
      "Ġasleep": 6805,
      "ĠCal": 6806,
      "ĠCross": 6807,
      "ĠBall": 6808,
      "Ġalche": 6809,
      "ĠWan": 6810,
      "anding": 6811,
      "Ġseas": 6812,
      "Ġseize": 6813,
      "ĠJump": 6814,
      "orthern": 6815,
      "ĠShing": 6816,
      "Ġclues": 6817,
      "ocr": 6818,
      "ibilities": 6819,
      "pisodes": 6820,
      "Ġdriving": 6821,
      "ĠArata": 6822,
      "ĠUnbeknownst": 6823,
      "Ġappearing": 6824,
      "ĠXing": 6825,
      "ĠTooru": 6826,
      "Ġorigins": 6827,
      "Ġobjects": 6828,
      "Ġbandits": 6829,
      "Ġbuy": 6830,
      "Ġwanting": 6831,
      "Ġsubm": 6832,
      "Ġ2018": 6833,
      "Ġpossessed": 6834,
      "ĠOsaka": 6835,
      "Ġrequests": 6836,
      "Ġdesigns": 6837,
      "Ġgrowth": 6838,
      "Ġemotional": 6839,
      "ĠTsukasa": 6840,
      "Ġrumored": 6841,
      "Ġlessons": 6842,
      "ĠSpirits": 6843,
      "Ġmultiple": 6844,
      "Ġsomewhat": 6845,
      "Ġverge": 6846,
      "ĠSentai": 6847,
      "Ġdetermination": 6848,
      "Ġstraight": 6849,
      "ĠSunday": 6850,
      "'m": 6851,
      "AC": 6852,
      "Cl": 6853,
      "RI": 6854,
      "kaido": 6855,
      "Ġil": 6856,
      "Ġtro": 6857,
      "Ġsize": 6858,
      "isen": 6859,
      "Ġpalace": 6860,
      "aly": 6861,
      "ĠSasaki": 6862,
      "ĠSengoku": 6863,
      "Ġgaining": 6864,
      "aming": 6865,
      "enth": 6866,
      "Ġrepl": 6867,
      "uten": 6868,
      "igr": 6869,
      "ĠHide": 6870,
      "ĠIse": 6871,
      "ĠIDOL": 6872,
      "ape": 6873,
      "aph": 6874,
      "ĠNaz": 6875,
      "ĠDuke": 6876,
      "ĠGoku": 6877,
      "ĠOut": 6878,
      "ĠFle": 6879,
      "ĠPir": 6880,
      "ĠPower": 6881,
      "ĠLike": 6882,
      "Ġconven": 6883,
      "Ġunfortunately": 6884,
      "abu": 6885,
      "Ġspect": 6886,
      "uster": 6887,
      "ĠShang": 6888,
      "outube": 6889,
      "outhern": 6890,
      "Ġupside": 6891,
      "Ġalliance": 6892,
      "Ġstrike": 6893,
      "Ġdisease": 6894,
      "Ġagents": 6895,
      "Ġbrief": 6896,
      "ashin": 6897,
      "afia": 6898,
      "Ġarriving": 6899,
      "Ġpromising": 6900,
      "Ġconsisting": 6901,
      "ohan": 6902,
      "Ġvillagers": 6903,
      "Ġcoexist": 6904,
      "Ġsucc": 6905,
      "brid": 6906,
      "ĠTomoe": 6907,
      "Ġhandle": 6908,
      "yuan": 6909,
      "Ġmisad": 6910,
      "ergart": 6911,
      "ĠKyousuke": 6912,
      "piration": 6913,
      "ĠTenchi": 6914,
      "Ġpeacefully": 6915,
      "Ġpursuing": 6916,
      "Ġwonderful": 6917,
      "Ġsuffers": 6918,
      "Ġhomeland": 6919,
      "urban": 6920,
      "ĠGeidai": 6921,
      "ĠWatan": 6922,
      "imson": 6923,
      "Ġoperation": 6924,
      "Ġdistrict": 6925,
      "ĠHokkaido": 6926,
      "ĠTatsuya": 6927,
      "Ġsymbol": 6928,
      "inema": 6929,
      "Ġrapidly": 6930,
      "Ġtaste": 6931,
      "Ġbarely": 6932,
      "Ġprincipal": 6933,
      "Ġilleg": 6934,
      "bits": 6935,
      "han": 6936,
      "hard": 6937,
      "juku": 6938,
      "press": 6939,
      "Ġsuits": 6940,
      "rel": 6941,
      "Ġwizard": 6942,
      "Ġhi": 6943,
      "Ġpictures": 6944,
      "ales": 6945,
      "Ġdull": 6946,
      "asia": 6947,
      "Ġthw": 6948,
      "ĠSatsuki": 6949,
      "Ġnurs": 6950,
      "ĠMing": 6951,
      "ola": 6952,
      "ols": 6953,
      "acter": 6954,
      "ĠCD": 6955,
      "ĠCure": 6956,
      "ĠCao": 6957,
      "ĠRail": 6958,
      "ĠRPG": 6959,
      "ĠBon": 6960,
      "ĠBen": 6961,
      "uls": 6962,
      "Ġtrap": 6963,
      "Ġrough": 6964,
      "that": 6965,
      "Ġchain": 6966,
      "ĠYao": 6967,
      "Ġatmosp": 6968,
      "oken": 6969,
      "Ġune": 6970,
      "ĠJian": 6971,
      "ĠJuly": 6972,
      "ĠJidou": 6973,
      "Ġwaste": 6974,
      "Ġintention": 6975,
      "orted": 6976,
      "asting": 6977,
      "Ġprefecture": 6978,
      "Ġgrave": 6979,
      "ĠThings": 6980,
      "ugo": 6981,
      "Ġeverywhere": 6982,
      "Ġcrashes": 6983,
      "ĠVe": 6984,
      "ĠAlph": 6985,
      "Ġentang": 6986,
      "ĠStage": 6987,
      "ailing": 6988,
      "ĠTaking": 6989,
      "onscious": 6990,
      "Ġevening": 6991,
      "Ġconflicts": 6992,
      "iyama": 6993,
      "Ġexplo": 6994,
      "ĠKurumi": 6995,
      "ĠDece": 6996,
      "ĠOrder": 6997,
      "ĠWikia": 6998,
      "Ġcollaps": 6999,
      "Ġ2011": 7000,
      "ĠMasters": 7001,
      "Ġrevolution": 7002,
      "Ġpossessing": 7003,
      "ĠPlay": 7004,
      "Ġproducer": 7005,
      "ĠExtra": 7006,
      "ĠOsh": 7007,
      "ĠKaguya": 7008,
      "Ġdestructive": 7009,
      "Ġannual": 7010,
      "Ġdemands": 7011,
      "ĠNatsuki": 7012,
      "Ġinternet": 7013,
      "Ġinherited": 7014,
      "Ġsummons": 7015,
      "Ġdevastating": 7016,
      "Ġunfolds": 7017,
      "Ġcowork": 7018,
      "Ġcherry": 7019,
      "ĠContinent": 7020,
      "Ġmythical": 7021,
      "Ġturmo": 7022,
      "Ġsuicide": 7023,
      "ĠHiyori": 7024,
      "Ġharmony": 7025,
      "Ġbounty": 7026,
      "Ġenormous": 7027,
      "UN": 7028,
      "aurs": 7029,
      "bon": 7030,
      "ees": 7031,
      "mark": 7032,
      "nal": 7033,
      "she": 7034,
      "set": 7035,
      "sama": 7036,
      "tarou": 7037,
      "Ġ00": 7038,
      "Ġsick": 7039,
      "Ġwing": 7040,
      "Ġfasc": 7041,
      "itory": 7042,
      "Ġhang": 7043,
      "Ġhorn": 7044,
      "Ġmouse": 7045,
      "Ġpool": 7046,
      "icip": 7047,
      "ĠTiger": 7048,
      "iments": 7049,
      "Ġgarden": 7050,
      "ĠMiss": 7051,
      "ĠMushi": 7052,
      "Ġecon": 7053,
      "otaro": 7054,
      "Ġstir": 7055,
      "agues": 7056,
      "Ġrav": 7057,
      "Ġrice": 7058,
      "Ġrural": 7059,
      "ĠGin": 7060,
      "okes": 7061,
      "Ġitems": 7062,
      "ĠLast": 7063,
      "Ġconclusion": 7064,
      "ĠJean": 7065,
      "Ġabduct": 7066,
      "seen": 7067,
      "Ġprow": 7068,
      "ĠInt": 7069,
      "Ġarch": 7070,
      "ĠThose": 7071,
      "ĠChoc": 7072,
      "azz": 7073,
      "Ġdecades": 7074,
      "Ġcharm": 7075,
      "Ġsupreme": 7076,
      "Ġclassroom": 7077,
      "ĠAkih": 7078,
      "ĠTaku": 7079,
      "aughters": 7080,
      "Ġamidst": 7081,
      "Ġguild": 7082,
      "Ġincom": 7083,
      "ĠChiaki": 7084,
      "ĠChibi": 7085,
      "ĠChizuru": 7086,
      "ĠMikoto": 7087,
      "Ġadvice": 7088,
      "Ġmisfortun": 7089,
      "Ġoccasion": 7090,
      "Ġdogs": 7091,
      "rophe": 7092,
      "Ġdifficulties": 7093,
      "Ġreunited": 7094,
      "Ġconduct": 7095,
      "ĠStraw": 7096,
      "ĠTamaki": 7097,
      "Ġmistake": 7098,
      "Ġunderstanding": 7099,
      "ĠParis": 7100,
      "ĠYoshino": 7101,
      "Ġartifact": 7102,
      "Ġoccurred": 7103,
      "Ġsacred": 7104,
      "Ġadventurers": 7105,
      "sequently": 7106,
      "Ġissue": 7107,
      "Unfortunately": 7108,
      "Ġschemes": 7109,
      "ĠSilver": 7110,
      "ĠHotaru": 7111,
      "ĠHibiki": 7112,
      "ĠOda": 7113,
      "Ġdinosaur": 7114,
      "Ġfrequently": 7115,
      "Ġhigher": 7116,
      "Ġexplosion": 7117,
      "ĠJohn": 7118,
      "Ġsurreal": 7119,
      "Ġmedicine": 7120,
      "Ġturmoil": 7121,
      "AI": 7122,
      "There": 7123,
      "bu": 7124,
      "bel": 7125,
      "fit": 7126,
      "gawa": 7127,
      "ios": 7128,
      "rank": 7129,
      "uable": 7130,
      "ware": 7131,
      "Ġtort": 7132,
      "Ġastron": 7133,
      "Ġsem": 7134,
      "Ġom": 7135,
      "Ġfab": 7136,
      "Ġcoinc": 7137,
      "ouch": 7138,
      "arch": 7139,
      "Ġinner": 7140,
      "ĠSE": 7141,
      "ĠSar": 7142,
      "ĠSousuke": 7143,
      "ĠMary": 7144,
      "ĠMichi": 7145,
      "Ġears": 7146,
      "Ġepic": 7147,
      "othes": 7148,
      "Ġforth": 7149,
      "vey": 7150,
      "eline": 7151,
      "ĠCir": 7152,
      "ĠRet": 7153,
      "ĠBu": 7154,
      "aped": 7155,
      "osaka": 7156,
      "ĠWestern": 7157,
      "ĠDens": 7158,
      "Ġrises": 7159,
      "Ġrandom": 7160,
      "ĠGold": 7161,
      "ĠGint": 7162,
      "ĠGorou": 7163,
      "ĠEvil": 7164,
      "ĠFre": 7165,
      "ĠFang": 7166,
      "ĠFurther": 7167,
      "ĠPat": 7168,
      "ĠPark": 7169,
      "sei": 7170,
      "acks": 7171,
      "acky": 7172,
      "ĠAnt": 7173,
      "Ġpride": 7174,
      "others": 7175,
      "Ġrespect": 7176,
      "appa": 7177,
      "Ġquit": 7178,
      "ĠAlso": 7179,
      "ĠSte": 7180,
      "Ġlovely": 7181,
      "ample": 7182,
      "Ġwars": 7183,
      "fraid": 7184,
      "Ġflowers": 7185,
      "ĠYouko": 7186,
      "Ġguitar": 7187,
      "otsu": 7188,
      "Ġdeaths": 7189,
      "Ġdirectly": 7190,
      "Ġglory": 7191,
      "Ġdeveloping": 7192,
      "Ġeffect": 7193,
      "ĠKaede": 7194,
      "Ġfailure": 7195,
      "kyuu": 7196,
      "ĠKamen": 7197,
      "Ġvirg": 7198,
      "Ġmermaid": 7199,
      "Ġengage": 7200,
      "ĠIchika": 7201,
      "Ġabsurd": 7202,
      "chestr": 7203,
      "ĠEveryone": 7204,
      "ĠKorea": 7205,
      "Ġmirror": 7206,
      "Ġwriting": 7207,
      "Ġangels": 7208,
      "Ġseriously": 7209,
      "ĠTalon": 7210,
      "Ġresurrect": 7211,
      "Ġradio": 7212,
      "Ġbullied": 7213,
      "Ġnavigate": 7214,
      "Ġdreamed": 7215,
      "ĠCastle": 7216,
      "Ġuncertain": 7217,
      "ĠDecember": 7218,
      "And": 7219,
      "Db": 7220,
      "ES": 7221,
      "For": 7222,
      "fly": 7223,
      "fire": 7224,
      "haru": 7225,
      "ias": 7226,
      "uited": 7227,
      "wan": 7228,
      "wide": 7229,
      "wara": 7230,
      "Ġtank": 7231,
      "Ġben": 7232,
      "oriz": 7233,
      "anqu": 7234,
      "Ġpill": 7235,
      "asp": 7236,
      "ĠTre": 7237,
      "ĠAre": 7238,
      "ĠMen": 7239,
      "otes": 7240,
      "Ġstress": 7241,
      "ĠHen": 7242,
      "Ġfrog": 7243,
      "Ġfruit": 7244,
      "Ġasking": 7245,
      "Ġvo": 7246,
      "Ġvia": 7247,
      "umed": 7248,
      "osal": 7249,
      "ĠNational": 7250,
      "Ġtrait": 7251,
      "ĠDeep": 7252,
      "ĠDynasty": 7253,
      "Ġraid": 7254,
      "ĠGan": 7255,
      "ĠGar": 7256,
      "ĠEra": 7257,
      "ĠPin": 7258,
      "Ġcomic": 7259,
      "ĠLo": 7260,
      "ĠLed": 7261,
      "Ġconcept": 7262,
      "ĠJou": 7263,
      "Ġspr": 7264,
      "iously": 7265,
      "izer": 7266,
      "Ġuplo": 7267,
      "ĠInter": 7268,
      "Ġadjust": 7269,
      "Ġagree": 7270,
      "ogane": 7271,
      "Ġprec": 7272,
      "Ġarrest": 7273,
      "Ġ(\"": 7274,
      "ĠVideo": 7275,
      "Ġperhaps": 7276,
      "ĠYuuko": 7277,
      "ĠArth": 7278,
      "Ġrelative": 7279,
      "Ġamazing": 7280,
      "Ġcontinuation": 7281,
      "ĠCloud": 7282,
      "Ġsuperhuman": 7283,
      "eeping": 7284,
      "ĠQi": 7285,
      "Ġconfused": 7286,
      "Ġattacking": 7287,
      "ĠWhy": 7288,
      "Ġinstitution": 7289,
      "usha": 7290,
      "ĠKaname": 7291,
      "ĠDead": 7292,
      "ĠKazuma": 7293,
      "ĠTomoya": 7294,
      "Ġpromotion": 7295,
      "ielding": 7296,
      "Ġparadise": 7297,
      "Ġfailing": 7298,
      "Ġcaring": 7299,
      "ungle": 7300,
      "Ġlimit": 7301,
      "ĠSae": 7302,
      "Ġpoison": 7303,
      "ĠSeries": 7304,
      "Ġviewer": 7305,
      "Ġassistance": 7306,
      "Ġactivity": 7307,
      "Ġdivided": 7308,
      "ĠPrecure": 7309,
      "Ġrecruits": 7310,
      "Ġmistakes": 7311,
      "ĠWataru": 7312,
      "Ġdescendant": 7313,
      "ĠResearch": 7314,
      "ĠBoys": 7315,
      "Ġregarding": 7316,
      "Ġtechnique": 7317,
      "Ġlabel": 7318,
      "ĠMamoru": 7319,
      "Ġswimming": 7320,
      "ĠGakuen": 7321,
      "ĠSociety": 7322,
      "ĠOkinawa": 7323,
      "powered": 7324,
      "Ġlanguage": 7325,
      "Ġmisadventures": 7326,
      "AF": 7327,
      "Tr": 7328,
      "Upon": 7329,
      "col": 7330,
      "hun": 7331,
      "rome": 7332,
      "Ã¼": 7333,
      "Ġing": 7334,
      "Ġtaught": 7335,
      "Ġast": 7336,
      "Ġaunt": 7337,
      "including": 7338,
      "Ġsort": 7339,
      "Ġfund": 7340,
      "Ġbicycle": 7341,
      "onse": 7342,
      "Ġcarn": 7343,
      "Ġcunning": 7344,
      "Ġhole": 7345,
      "Ġtoday": 7346,
      "Ġpoll": 7347,
      "Ġproud": 7348,
      "alg": 7349,
      "Ġdress": 7350,
      "ĠTek": 7351,
      "ĠAct": 7352,
      "ĠAired": 7353,
      "Ġlux": 7354,
      "Ġreclaim": 7355,
      "Ġreached": 7356,
      "uming": 7357,
      "ĠRika": 7358,
      "ĠIss": 7359,
      "Ġtrigg": 7360,
      "ĠWit": 7361,
      "ureau": 7362,
      "Ġroll": 7363,
      "Ġrhythm": 7364,
      "ĠFumi": 7365,
      "ĠPink": 7366,
      "ĠPiece": 7367,
      "Ġaren": 7368,
      "ukan": 7369,
      "Ġloving": 7370,
      "everal": 7371,
      "ĠUp": 7372,
      "ogawa": 7373,
      "ĠVir": 7374,
      "Ġtransfers": 7375,
      "icted": 7376,
      "Ġworked": 7377,
      "icken": 7378,
      "They": 7379,
      "ĠOnline": 7380,
      "ĠXu": 7381,
      "ĠSpring": 7382,
      "ĠRein": 7383,
      "ĠReal": 7384,
      "Ġconfidence": 7385,
      "Ġheroic": 7386,
      "Ġvision": 7387,
      "Ġvisited": 7388,
      "cycle": 7389,
      "Ġphoto": 7390,
      "Ġmeteor": 7391,
      "Ġhunted": 7392,
      "Ġ2015": 7393,
      "Ġinvolve": 7394,
      "Ġcheer": 7395,
      "Ġmighty": 7396,
      "Ġsteals": 7397,
      "ĠMiyu": 7398,
      "Ġbloody": 7399,
      "Ġstreamed": 7400,
      "Ġprofessor": 7401,
      "Ġimportance": 7402,
      "Ġtypes": 7403,
      "Ġlacks": 7404,
      "Ġchampionship": 7405,
      "ĠDigital": 7406,
      "Ġscheme": 7407,
      "Ġwoods": 7408,
      "Ġunleash": 7409,
      "Ġescal": 7410,
      "Ġmotorcycle": 7411,
      "looking": 7412,
      "ĠNozomi": 7413,
      "Ġdocument": 7414,
      "Ġgathered": 7415,
      "Ak": 7416,
      "HO": 7417,
      "OT": 7418,
      "Tw": 7419,
      "cts": 7420,
      "chen": 7421,
      "jiro": 7422,
      "normal": 7423,
      "prit": 7424,
      "sk": 7425,
      "uji": 7426,
      "Ġtorm": 7427,
      "erable": 7428,
      "isingly": 7429,
      "Ġbub": 7430,
      "anashi": 7431,
      "Ġmid": 7432,
      "Ġdire": 7433,
      "ĠAh": 7434,
      "ĠSin": 7435,
      "ĠMit": 7436,
      "ĠMaid": 7437,
      "ĠMina": 7438,
      "Ġeternal": 7439,
      "eta": 7440,
      "uristic": 7441,
      "uni": 7442,
      "ĠHoney": 7443,
      "add": 7444,
      "ouri": 7445,
      "umn": 7446,
      "ĠIb": 7447,
      "hiba": 7448,
      "Ġtranqu": 7449,
      "ĠWars": 7450,
      "ieves": 7451,
      "thr": 7452,
      "ĠPo": 7453,
      "ĠLil": 7454,
      "abel": 7455,
      "Ġdeity": 7456,
      "Ġintends": 7457,
      "acker": 7458,
      "Ġclans": 7459,
      "ĠAnni": 7460,
      "Ġenh": 7461,
      "Ġdisplay": 7462,
      "Ġcompl": 7463,
      "ober": 7464,
      "ensive": 7465,
      "Ġdrug": 7466,
      "Ġbloom": 7467,
      "Ġactors": 7468,
      "Ġreck": 7469,
      "ĠUnion": 7470,
      "Ġintertw": 7471,
      "Ġseemed": 7472,
      "ĠOni": 7473,
      "Ġmostly": 7474,
      "ĠPrivate": 7475,
      "Ġstopped": 7476,
      "Ġartists": 7477,
      "ĠMika": 7478,
      "Ġescaping": 7479,
      "ification": 7480,
      "Ġoccurs": 7481,
      "ropol": 7482,
      "Ġadditional": 7483,
      "Ġshopping": 7484,
      "Ġbattling": 7485,
      "Ġteenagers": 7486,
      "Ġensues": 7487,
      "Ġgenerations": 7488,
      "Ġgathering": 7489,
      "ocalyptic": 7490,
      "Ġflee": 7491,
      "Ġannounces": 7492,
      "Ġwindow": 7493,
      "Ġmirac": 7494,
      "ozen": 7495,
      "ĠKids": 7496,
      "Ġresistance": 7497,
      "Ġintelligent": 7498,
      "Ġambitions": 7499,
      "Ġpressure": 7500,
      "Ġhatred": 7501,
      "ĠCorporation": 7502,
      "ĠCyber": 7503,
      "Ġwatches": 7504,
      "ĠOriginal": 7505,
      "Ġculprit": 7506,
      "Ġnegative": 7507,
      "Ġcorruption": 7508,
      "Ġmethods": 7509,
      "quarters": 7510,
      "ĠIsekai": 7511,
      "Ġatmosphere": 7512,
      ".)": 7513,
      "gi": 7514,
      "hai": 7515,
      "tim": 7516,
      "tale": 7517,
      "uis": 7518,
      "ester": 7519,
      "itual": 7520,
      "Ġcars": 7521,
      "Ġpan": 7522,
      "Ġpink": 7523,
      "Ġdil": 7524,
      "lege": 7525,
      "ĠTao": 7526,
      "Ġgig": 7527,
      "ste": 7528,
      "idge": 7529,
      "etch": 7530,
      "unn": 7531,
      "ĠKousuke": 7532,
      "ayuki": 7533,
      "Ġfright": 7534,
      "umaki": 7535,
      "ĠRub": 7536,
      "ĠBou": 7537,
      "ĠGing": 7538,
      "ĠOm": 7539,
      "oph": 7540,
      "ĠLily": 7541,
      "Ġunst": 7542,
      "Ġjud": 7543,
      "ĠShion": 7544,
      "ĠUm": 7545,
      "Ġstray": 7546,
      "Ġcompos": 7547,
      "ĠCho": 7548,
      "Ġ23": 7549,
      "Ġ27": 7550,
      "Ġanimations": 7551,
      "Ġuser": 7552,
      "Ġuseless": 7553,
      "Ġapprec": 7554,
      "Ġdrif": 7555,
      "Ġdriver": 7556,
      "Ġrealms": 7557,
      "iana": 7558,
      "ĠStation": 7559,
      "Ġactor": 7560,
      "ption": 7561,
      "ĠAraragi": 7562,
      "Ġplane": 7563,
      "ength": 7564,
      "engumi": 7565,
      "ĠTsum": 7566,
      "Ġhopeless": 7567,
      "Ġmonstrous": 7568,
      "Ġconfusion": 7569,
      "Ġ193": 7570,
      "Ġdelight": 7571,
      "ĠCrown": 7572,
      "Ġglimp": 7573,
      "Ġ2014": 7574,
      "Ġencountered": 7575,
      "Ġcombined": 7576,
      "Ġchef": 7577,
      "ĠJunior": 7578,
      "Ġadapted": 7579,
      "Ġproducts": 7580,
      "Ġlimits": 7581,
      "Ġaiming": 7582,
      "Ġstaying": 7583,
      "Ġviewers": 7584,
      "ĠSouma": 7585,
      "Ġscientists": 7586,
      "ĠRobo": 7587,
      "ĠSeiji": 7588,
      "Ġinhabited": 7589,
      "ĠKaras": 7590,
      "ĠDisc": 7591,
      "Ġworthy": 7592,
      "Ġexpectations": 7593,
      "Ġparticularly": 7594,
      "Ġdormitory": 7595,
      "Ġportray": 7596,
      "Ġenlists": 7597,
      "Ġtutor": 7598,
      "Ġdescrib": 7599,
      "Ġextinction": 7600,
      "ĠAsahi": 7601,
      "Ġcatastrophe": 7602,
      "Ġpiano": 7603,
      "ĠShinnosuke": 7604,
      "Ġrepeatedly": 7605,
      "Ġimprison": 7606,
      "Ġshelter": 7607,
      "ĠAccording": 7608,
      "ergarten": 7609,
      "Ġprowess": 7610,
      "ĠFurthermore": 7611,
      "BI": 7612,
      "Dr": 7613,
      "Pr": 7614,
      "RA": 7615,
      "la": 7616,
      "sen": 7617,
      "van": 7618,
      "Ġurban": 7619,
      "Ġafraid": 7620,
      "Ġsle": 7621,
      "Ġsaying": 7622,
      "reced": 7623,
      "isher": 7624,
      "Ġwins": 7625,
      "Ġwinner": 7626,
      "Ġdata": 7627,
      "ĠAst": 7628,
      "ĠAut": 7629,
      "ĠSaku": 7630,
      "Ġgar": 7631,
      "Ġlying": 7632,
      "igata": 7633,
      "usement": 7634,
      "ĠKiz": 7635,
      "eld": 7636,
      "ĠCount": 7637,
      "ĠRope": 7638,
      "ĠBakugan": 7639,
      "ĠNE": 7640,
      "ewhere": 7641,
      "ĠWild": 7642,
      "ĠOo": 7643,
      "ĠFree": 7644,
      "Ġattr": 7645,
      "ĠPil": 7646,
      "ĠLie": 7647,
      "Ġconc": 7648,
      "angel": 7649,
      "ĠJul": 7650,
      "ectives": 7651,
      "ĠShow": 7652,
      "ansha": 7653,
      "Ġclock": 7654,
      "Ġclothes": 7655,
      "Ġarrog": 7656,
      "ĠChit": 7657,
      "Ġsecl": 7658,
      "Ġimages": 7659,
      "endo": 7660,
      "Ġdrown": 7661,
      "Ġcontinuing": 7662,
      "ĠPrism": 7663,
      "Ġmature": 7664,
      "Ġkills": 7665,
      "ĠCryst": 7666,
      "Ġbelieving": 7667,
      "ĠComic": 7668,
      "Ġ2016": 7669,
      "Ġexpedition": 7670,
      "ĠMasamune": 7671,
      "ĠNanase": 7672,
      "ropom": 7673,
      "Ġcolleagues": 7674,
      "Ġdemean": 7675,
      "Ġannih": 7676,
      "ĠBatt": 7677,
      "ĠNatsumi": 7678,
      "shaped": 7679,
      "ĠHello": 7680,
      "ĠAngels": 7681,
      "Ġfinancial": 7682,
      "Ġaccompany": 7683,
      "Ġsilver": 7684,
      "Ġweakness": 7685,
      "ĠIMDb": 7686,
      "Ġheavy": 7687,
      "Ġheavily": 7688,
      "ĠItsuki": 7689,
      "flix": 7690,
      "anguard": 7691,
      "Ġbetrayal": 7692,
      "ĠNetflix": 7693,
      "ĠPororo": 7694,
      "ĠShinsengumi": 7695,
      "ĠMacross": 7696,
      "Ġdubbed": 7697,
      "Ġextermin": 7698,
      "ĠAnniversary": 7699,
      "recedented": 7700,
      "Gr": 7701,
      "Se": 7702,
      "farious": 7703,
      "iSH": 7704,
      "making": 7705,
      "wing": 7706,
      "yles": 7707,
      "Ġtable": 7708,
      "Ġtheaters": 7709,
      "Ġbilibili": 7710,
      "eness": 7711,
      "anormal": 7712,
      "Ġhobby": 7713,
      "Ġmasters": 7714,
      "Ġpatr": 7715,
      "Ġinad": 7716,
      "asm": 7717,
      "ĠTree": 7718,
      "iring": 7719,
      "ĠAD": 7720,
      "imo": 7721,
      "ĠSing": 7722,
      "ĠSch": 7723,
      "ĠMuk": 7724,
      "amaru": 7725,
      "Ġretain": 7726,
      "olic": 7727,
      "ete": 7728,
      "usu": 7729,
      "ĠBer": 7730,
      "ĠBul": 7731,
      "ĠBaby": 7732,
      "ĠIron": 7733,
      "Ġally": 7734,
      "ĠNine": 7735,
      "ĠDoll": 7736,
      "oush": 7737,
      "Ġriding": 7738,
      "ĠEro": 7739,
      "opard": 7740,
      "ĠLaw": 7741,
      "ĠLuna": 7742,
      "Ġunt": 7743,
      "Ġunif": 7744,
      "Ġshares": 7745,
      "ĠShit": 7746,
      "ĠUt": 7747,
      "avors": 7748,
      "ishou": 7749,
      "Ġrealized": 7750,
      "vention": 7751,
      "oster": 7752,
      "Ġassoc": 7753,
      "Ġsmo": 7754,
      "Ġimpending": 7755,
      "Ġdemonstr": 7756,
      "ĠTsun": 7757,
      "ĠTsuki": 7758,
      "Ġsworn": 7759,
      "Ġdetails": 7760,
      "Ġpossibly": 7761,
      "Ġheartwarming": 7762,
      "Ġsolving": 7763,
      "stract": 7764,
      "ĠKazu": 7765,
      "ĠOVAs": 7766,
      "Ġdeeply": 7767,
      "Ġamongst": 7768,
      "Ġvisiting": 7769,
      "Ġfantas": 7770,
      "Ġairing": 7771,
      "Ġpublished": 7772,
      "Ġexperiencing": 7773,
      "ĠYukari": 7774,
      "Ġhostage": 7775,
      "ĠSuzu": 7776,
      "ĠDarkness": 7777,
      "Ġrecruited": 7778,
      "ĠCharl": 7779,
      "ĠFilmworks": 7780,
      "Ġchooses": 7781,
      "Ġannounce": 7782,
      "Ġbitter": 7783,
      "ĠCollege": 7784,
      "Ġhundreds": 7785,
      "Ġutter": 7786,
      "Ġadopt": 7787,
      "Ġfreshman": 7788,
      "Ġboarding": 7789,
      "Ġdrinking": 7790,
      "ĠBaikin": 7791,
      "Ġinteractions": 7792,
      "Ġbullying": 7793,
      "Ġdinosaurs": 7794,
      "Ġventure": 7795,
      "Ġdisguise": 7796,
      "Ġconvinces": 7797,
      "Ġclouds": 7798,
      "ĠImmortal": 7799,
      "Ġshooting": 7800,
      "Ġbreath": 7801,
      "ĠEiji": 7802,
      "Ġhesit": 7803,
      "ĠFriends": 7804,
      "Ġdemeanor": 7805,
      "\")": 7806,
      "'d": 7807,
      "Am": 7808,
      "IR": 7809,
      "IT": 7810,
      "No": 7811,
      "lin": 7812,
      "taro": 7813,
      "zy": 7814,
      "âĻ": 7815,
      "Ġtail": 7816,
      "inct": 7817,
      "isters": 7818,
      "Ġwears": 7819,
      "Ġfond": 7820,
      "Ġfelt": 7821,
      "Ġfirm": 7822,
      "Ġbold": 7823,
      "Ġbank": 7824,
      "atta": 7825,
      "only": 7826,
      "Ġcandy": 7827,
      "arl": 7828,
      "Ġmund": 7829,
      "alog": 7830,
      "ĠTO": 7831,
      "ĠTarou": 7832,
      "irin": 7833,
      "ĠSac": 7834,
      "Ġnaked": 7835,
      "ĠMana": 7836,
      "Ġlib": 7837,
      "Ġreapp": 7838,
      "urious": 7839,
      "ĠHaw": 7840,
      "ĠKr": 7841,
      "elia": 7842,
      "Ġvoc": 7843,
      "ĠCour": 7844,
      "ĠRits": 7845,
      "ĠRiko": 7846,
      "ĠBei": 7847,
      "ĠBureau": 7848,
      "ĠIpp": 7849,
      "apse": 7850,
      "ĠWater": 7851,
      "iller": 7852,
      "Ġroles": 7853,
      "ĠYoutube": 7854,
      "ĠOz": 7855,
      "ĠOur": 7856,
      "ĠFinal": 7857,
      "ĠLion": 7858,
      "ĠLond": 7859,
      "Ġspite": 7860,
      "Ġdeb": 7861,
      "Ġdepr": 7862,
      "acking": 7863,
      "izumi": 7864,
      "eller": 7865,
      "pping": 7866,
      "Ġtea": 7867,
      "Ġdiss": 7868,
      "Ġaggress": 7869,
      "ogami": 7870,
      "try": 7871,
      "urning": 7872,
      "Ġyoungest": 7873,
      "ugu": 7874,
      "Ġrook": 7875,
      "weet": 7876,
      "Ġsched": 7877,
      "arry": 7878,
      "...?": 7879,
      "Ġnefarious": 7880,
      "Ġblock": 7881,
      "ĠStone": 7882,
      "ĠStates": 7883,
      "Ġperpet": 7884,
      "cluded": 7885,
      "Ġembr": 7886,
      "Ġpersist": 7887,
      "ĠSeeing": 7888,
      "enger": 7889,
      "ĠReb": 7890,
      "Ġfuturistic": 7891,
      "Ġheading": 7892,
      "Ġclubs": 7893,
      "aneously": 7894,
      "ĠSakamoto": 7895,
      "Ġtreated": 7896,
      "Ġfoe": 7897,
      "Ġfoes": 7898,
      "ĠCommercial": 7899,
      "Ġsubst": 7900,
      "Ġsubordin": 7901,
      "Ġ2012": 7902,
      "Ġrobotic": 7903,
      "ĠHiromi": 7904,
      "Ġrevived": 7905,
      "ĠMany": 7906,
      "Ġselfish": 7907,
      "ĠAyaka": 7908,
      "ĠMomoko": 7909,
      "Ġengaged": 7910,
      "ĠUshi": 7911,
      "ĠKagura": 7912,
      "Ġproduct": 7913,
      "Ġdemise": 7914,
      "ĠFlower": 7915,
      "Ġpracticing": 7916,
      "Ġabsor": 7917,
      "Ġneighbors": 7918,
      "Ġprovides": 7919,
      "Ġsigns": 7920,
      "Ġmaiden": 7921,
      "Ġemotion": 7922,
      "Ġpositive": 7923,
      "Ġemerg": 7924,
      "Ġattractive": 7925,
      "Ġobtained": 7926,
      "Ġpupp": 7927,
      "Ġmentor": 7928,
      "Ġmental": 7929,
      "ĠDivine": 7930,
      "ĠShibuya": 7931,
      "Ġhighest": 7932,
      "ĠKoyomi": 7933,
      "Ġaccomplish": 7934,
      "ĠUSA": 7935,
      "Ġexhibition": 7936,
      "Ġstrateg": 7937,
      "ĠOlymp": 7938,
      "Ġanthropom": 7939,
      "ĠFrontier": 7940,
      "ĠTMDB": 7941,
      "ĠOctober": 7942,
      "Ġremnants": 7943,
      "ĠOrganization": 7944,
      "Ġinadvert": 7945,
      "En": 7946,
      "ID": 7947,
      "daughter": 7948,
      "eon": 7949,
      "fish": 7950,
      "fits": 7951,
      "gers": 7952,
      "haya": 7953,
      "power": 7954,
      "Ġts": 7955,
      "Ġwrite": 7956,
      "Ġwits": 7957,
      "Ġtoys": 7958,
      "Ġdaughters": 7959,
      "omori": 7960,
      "ĠTong": 7961,
      "ĠTHE": 7962,
      "ĠAqu": 7963,
      "ĠSher": 7964,
      "ĠSouta": 7965,
      "Ġnice": 7966,
      "ĠMal": 7967,
      "ĠMew": 7968,
      "ĠMatsu": 7969,
      "Ġlyr": 7970,
      "ĠKage": 7971,
      "ĠKaren": 7972,
      "Ġvon": 7973,
      "ĠRight": 7974,
      "ĠRuss": 7975,
      "ĠRabbit": 7976,
      "ĠBi": 7977,
      "ulously": 7978,
      "ĠNik": 7979,
      "ĠNina": 7980,
      "ĠWei": 7981,
      "ĠWinter": 7982,
      "ĠGai": 7983,
      "Ġchoc": 7984,
      "ĠOld": 7985,
      "oping": 7986,
      "ĠLam": 7987,
      "ĠLost": 7988,
      "Ġareas": 7989,
      "Ġunaired": 7990,
      "ounts": 7991,
      "hens": 7992,
      "Ġju": 7993,
      "ĠSha": 7994,
      "Ġstrangers": 7995,
      "episod": 7996,
      "Ġsurpass": 7997,
      "Ġweather": 7998,
      "ĠStill": 7999,
      "ĠYuuri": 8000,
      "ĠArm": 8001,
      "ario": 8002,
      "oint": 8003,
      "Ġclasses": 8004,
      "ĠTakuya": 8005,
      "Ġprotection": 8006,
      "Ġexperiments": 8007,
      "ĠAtt": 8008,
      "Ġsexually": 8009,
      "Ġtraveled": 8010,
      "Ġcoff": 8011,
      "Ġsurvived": 8012,
      "Ġerad": 8013,
      "ameshiba": 8014,
      "ception": 8015,
      "Ġgrades": 8016,
      "ĠHiroshima": 8017,
      "Ġruin": 8018,
      "Ġanticip": 8019,
      "ĠKagami": 8020,
      "ĠSanr": 8021,
      "Ġclaiming": 8022,
      "spaper": 8023,
      "Ġreunites": 8024,
      "Ġcovers": 8025,
      "Ġstumble": 8026,
      "Ġacquire": 8027,
      "Ġeldest": 8028,
      "Ġburden": 8029,
      "Ġfloor": 8030,
      "uyoshi": 8031,
      "ĠMetal": 8032,
      "Ġcommitted": 8033,
      "Ġmerely": 8034,
      "Ġmutual": 8035,
      "ĠCorps": 8036,
      "Ġmasked": 8037,
      "Ġunprecedented": 8038,
      "Ġfearsome": 8039,
      "Ġhaunted": 8040,
      "Ġinexplic": 8041,
      "Ġpulled": 8042,
      "ĠWonderland": 8043,
      "Ġunconscious": 8044,
      "Ġrebellion": 8045,
      "ĠKanto": 8046,
      "Ġslightly": 8047,
      "ĠChaos": 8048,
      "ĠIDOLiSH": 8049,
      "ĠArthur": 8050,
      "ĠBaikinman": 8051,
      "Shi": 8052,
      "Will": 8053,
      "bre": 8054,
      "coh": 8055,
      "ivery": 8056,
      "Ġtests": 8057,
      "Ġtheatrical": 8058,
      "Ġsuck": 8059,
      "Ġwacky": 8060,
      "Ġbot": 8061,
      "orter": 8062,
      "Ġhyp": 8063,
      "Ġmarks": 8064,
      "Ġdungeon": 8065,
      "lex": 8066,
      "iragi": 8067,
      "ĠSD": 8068,
      "ĠSor": 8069,
      "ĠSal": 8070,
      "amori": 8071,
      "ids": 8072,
      "Ġreading": 8073,
      "akashi": 8074,
      "unte": 8075,
      "ĠHase": 8076,
      "ads": 8077,
      "Ġvicious": 8078,
      "ums": 8079,
      "umin": 8080,
      "ĠCarr": 8081,
      "ĠRuri": 8082,
      "uled": 8083,
      "ĠNish": 8084,
      "ĠDays": 8085,
      "ĠGohan": 8086,
      "ĠYoko": 8087,
      "Ġworry": 8088,
      "ĠOok": 8089,
      "imeo": 8090,
      "Ġsharing": 8091,
      "Ġlets": 8092,
      "Ġbutler": 8093,
      "Ġdisasters": 8094,
      "Ġgrasp": 8095,
      "onda": 8096,
      "Ġresidence": 8097,
      "Ġrog": 8098,
      "Ġcry": 8099,
      "ĠVimeo": 8100,
      "Ġdecade": 8101,
      "Ġinvaded": 8102,
      "Ġblond": 8103,
      "ference": 8104,
      "Ġmonk": 8105,
      "ĠAkito": 8106,
      "Ġexplain": 8107,
      "ĠBeaut": 8108,
      "Ġcompeting": 8109,
      "ĠTrain": 8110,
      "Ġinspiration": 8111,
      "Ġperformances": 8112,
      "yrie": 8113,
      "ĠSecret": 8114,
      "Ġinvolves": 8115,
      "ĠJunichi": 8116,
      "Ġpursued": 8117,
      "Ġcleaning": 8118,
      "Ġassassination": 8119,
      "Ġreaching": 8120,
      "Ġcelebrating": 8121,
      "Ġwaitress": 8122,
      "Ġguardians": 8123,
      "ĠStudent": 8124,
      "loving": 8125,
      "Ġattracted": 8126,
      "ĠFujiko": 8127,
      "ĠMitsuki": 8128,
      "Ġexceptional": 8129,
      "azinger": 8130,
      "ĠFuture": 8131,
      "ĠFutaba": 8132,
      "ĠSaitou": 8133,
      "Ġsacrific": 8134,
      "ĠFurukawa": 8135,
      "Ġobliv": 8136,
      "Ġcontrolled": 8137,
      "ĠHazuki": 8138,
      "volent": 8139,
      "Ġtensions": 8140,
      "Ġnetwork": 8141,
      "Ġladies": 8142,
      "orizon": 8143,
      "Ġuniform": 8144,
      "Ġsmooth": 8145,
      "Ġinadvertently": 8146,
      "'.": 8147,
      "da": 8148,
      "dou": 8149,
      "gn": 8150,
      "li": 8151,
      "with": 8152,
      "Åį": 8153,
      "Ġiron": 8154,
      "heel": 8155,
      "inations": 8156,
      "Ġsought": 8157,
      "Ġomin": 8158,
      "iscover": 8159,
      "isdom": 8160,
      "Ġwre": 8161,
      "Ġfal": 8162,
      "eshi": 8163,
      "orate": 8164,
      "Ġhates": 8165,
      "lease": 8166,
      "ĠTob": 8167,
      "ĠSad": 8168,
      "ĠMic": 8169,
      "ĠMuch": 8170,
      "Ġlay": 8171,
      "stick": 8172,
      "Ġbew": 8173,
      "unosuke": 8174,
      "Ġvice": 8175,
      "Ġveter": 8176,
      "umaru": 8177,
      "ĠCall": 8178,
      "ĠBaka": 8179,
      "ĠDance": 8180,
      "ĠGate": 8181,
      "ĠGens": 8182,
      "ĠYa": 8183,
      "ĠEpisodes": 8184,
      "ĠPatr": 8185,
      "essing": 8186,
      "ĠLog": 8187,
      "arting": 8188,
      "Ġplots": 8189,
      "Ġplung": 8190,
      "Ġjungle": 8191,
      "ĠShirou": 8192,
      "izen": 8193,
      "Ġnewspaper": 8194,
      "oyo": 8195,
      "avity": 8196,
      "Ġmanif": 8197,
      "Ġstring": 8198,
      "troll": 8199,
      "isha": 8200,
      "Ġcraf": 8201,
      "pla": 8202,
      "rench": 8203,
      "Ġowned": 8204,
      "Ġunderst": 8205,
      "ashita": 8206,
      "Ġperspective": 8207,
      "ĠReiko": 8208,
      "Ġforming": 8209,
      "Ġswall": 8210,
      "Ġlooked": 8211,
      "Ġtalks": 8212,
      "Ġcompleting": 8213,
      "Ġbodyguard": 8214,
      "oshita": 8215,
      "ĠDev": 8216,
      "resident": 8217,
      "ĠForces": 8218,
      "Ġtreacher": 8219,
      "Ġsolution": 8220,
      "Ġ2019": 8221,
      "Ġreflect": 8222,
      "Ġthrilling": 8223,
      "Ġcollecting": 8224,
      "ynam": 8225,
      "Ġsavior": 8226,
      "Ġplotting": 8227,
      "Ġinforms": 8228,
      "Ġcelebration": 8229,
      "Ġsuspect": 8230,
      "ĠSuisei": 8231,
      "Ġtracks": 8232,
      "Ġgathers": 8233,
      "Ġinjury": 8234,
      "ĠKyouko": 8235,
      "Ġsweets": 8236,
      "Ġemerge": 8237,
      "Ġfleet": 8238,
      "Ġvaluable": 8239,
      "Ġdispat": 8240,
      "Ġemployee": 8241,
      "Ġlandscape": 8242,
      "ĠSugimoto": 8243,
      "Ġtroublesome": 8244,
      "Ġheavens": 8245,
      "Ġlegacy": 8246,
      "Ġrecognized": 8247,
      "Ġrespectively": 8248,
      "ĠMeiji": 8249,
      "Ġtrailer": 8250,
      "Ġdismay": 8251,
      "Ġadvertis": 8252,
      "Ġembarrassing": 8253,
      "Ġzombie": 8254,
      "Ġmercenary": 8255,
      "Ġunderwater": 8256,
      "lucky": 8257,
      "Ġacademic": 8258,
      "Ġabruptly": 8259,
      "Ġterritory": 8260,
      "Ġbenef": 8261,
      "ĠEroge": 8262,
      "ĠLondon": 8263,
      "can": 8264,
      "cus": 8265,
      "gal": 8266,
      "mend": 8267,
      "maker": 8268,
      "qi": 8269,
      "qing": 8270,
      "son": 8271,
      "ses": 8272,
      "Ġtag": 8273,
      "erious": 8274,
      "restr": 8275,
      "isan": 8276,
      "Ġwer": 8277,
      "atos": 8278,
      "alian": 8279,
      "ication": 8280,
      "ĠSept": 8281,
      "ĠMaru": 8282,
      "ĠMazinger": 8283,
      "Ġlights": 8284,
      "iders": 8285,
      "otarou": 8286,
      "ĠKub": 8287,
      "ĠKinn": 8288,
      "ĠKyo": 8289,
      "ĠKatsu": 8290,
      "ayoi": 8291,
      "ĠRok": 8292,
      "ĠIro": 8293,
      "ĠNod": 8294,
      "ĠNank": 8295,
      "ĠNipp": 8296,
      "ĠDom": 8297,
      "ĠGot": 8298,
      "ĠYing": 8299,
      "ĠEin": 8300,
      "ĠFum": 8301,
      "ĠFort": 8302,
      "ĠFull": 8303,
      "Ġseed": 8304,
      "ĠLib": 8305,
      "ĠJud": 8306,
      "ukai": 8307,
      "Ġshar": 8308,
      "Ġplant": 8309,
      "ĠUz": 8310,
      "ĠUmi": 8311,
      "Ġclient": 8312,
      "Ġclosed": 8313,
      "Ġstruck": 8314,
      "Ġreserved": 8315,
      "ulture": 8316,
      "Ġdriven": 8317,
      "Ġhelped": 8318,
      "Ġinvading": 8319,
      "Ġrealizing": 8320,
      "ventional": 8321,
      "Ġweight": 8322,
      "Ġundergo": 8323,
      "Ġprotects": 8324,
      "Ġassem": 8325,
      "aughty": 8326,
      "Ġcontinu": 8327,
      "Ġarrang": 8328,
      "ocket": 8329,
      "Ġslaves": 8330,
      "ĠEns": 8331,
      "Ġ194": 8332,
      "ĠFrance": 8333,
      "ĠChika": 8334,
      "ĠKanade": 8335,
      "ĠMarie": 8336,
      "Ġtransformation": 8337,
      "ĠMasato": 8338,
      "Ġpreview": 8339,
      "Ġbigger": 8340,
      "ĠHanako": 8341,
      "Ġharbor": 8342,
      "Ġaimed": 8343,
      "ciless": 8344,
      "Ġclosest": 8345,
      "ĠOkamoto": 8346,
      "ĠGoog": 8347,
      "ĠUsagi": 8348,
      "Ġapproached": 8349,
      "ĠZhao": 8350,
      "Ġsuffered": 8351,
      "ĠTaichi": 8352,
      "ĠOtome": 8353,
      "Ġwitnessing": 8354,
      "Ġassignment": 8355,
      "Ġwander": 8356,
      "Ġconfesses": 8357,
      "ĠHitomi": 8358,
      "Ġalternative": 8359,
      "ĠEleven": 8360,
      "Ġelderly": 8361,
      "Ġsmartphone": 8362,
      "ĠKodansha": 8363,
      "Ġblend": 8364,
      "Ġwasteland": 8365,
      "ĠSeishun": 8366,
      "Ġsalaryman": 8367,
      "Ġentangled": 8368,
      "Ġreckless": 8369,
      "Ġmundane": 8370,
      "Ġominous": 8371,
      "11": 8372,
      "FO": 8373,
      "Re": 8374,
      "bou": 8375,
      "jun": 8376,
      "jong": 8377,
      "math": 8378,
      "made": 8379,
      "master": 8380,
      "ties": 8381,
      "tai": 8382,
      "tachi": 8383,
      "Ġ[": 8384,
      "reet": 8385,
      "Ġbag": 8386,
      "Ġbarr": 8387,
      "itors": 8388,
      "Ġmal": 8389,
      "Ġmast": 8390,
      "Ġmention": 8391,
      "alia": 8392,
      "Ġdressed": 8393,
      "Ġdinner": 8394,
      "omach": 8395,
      "leased": 8396,
      "ĠAp": 8397,
      "ĠAin": 8398,
      "ĠSomet": 8399,
      "Ġgem": 8400,
      "Ġgate": 8401,
      "Ġlots": 8402,
      "Ġstead": 8403,
      "ĠHand": 8404,
      "usagi": 8405,
      "ayo": 8406,
      "Ġwhis": 8407,
      "Ġvig": 8408,
      "ĠBang": 8409,
      "Ġalcoh": 8410,
      "ulating": 8411,
      "ĠNations": 8412,
      "Ġtruck": 8413,
      "ainted": 8414,
      "Ġchronic": 8415,
      "ĠYue": 8416,
      "ĠOl": 8417,
      "ĠOre": 8418,
      "ĠOther": 8419,
      "ĠEye": 8420,
      "ĠPress": 8421,
      "abouts": 8422,
      "Ġlovers": 8423,
      "Ġclients": 8424,
      "oyuki": 8425,
      "Ġschoolgirl": 8426,
      "Ġnote": 8427,
      "Ġstranded": 8428,
      "Ġpremi": 8429,
      "eph": 8430,
      "Ġaftermath": 8431,
      "Ġroam": 8432,
      "ĠHei": 8433,
      "ĠVN": 8434,
      "Ġdecis": 8435,
      "Ġhumankind": 8436,
      "ooded": 8437,
      "Ġtransp": 8438,
      "ords": 8439,
      "Ġnegot": 8440,
      "Ġskin": 8441,
      "ĠWithin": 8442,
      "Ġamnes": 8443,
      "andson": 8444,
      "ĠPrime": 8445,
      "Ġprotector": 8446,
      "Ġpromised": 8447,
      "Ġspirited": 8448,
      "phant": 8449,
      "Ġcov": 8450,
      "Ġdefeats": 8451,
      "ĠEmi": 8452,
      "Ġarmies": 8453,
      "ĠLeo": 8454,
      "ĠKano": 8455,
      "Ġadvances": 8456,
      "ĠMoch": 8457,
      "Ġcheck": 8458,
      "Ġparanormal": 8459,
      "ĠAyumi": 8460,
      "ĠAyumu": 8461,
      "Ġfreely": 8462,
      "Ġfantastic": 8463,
      "Ġrebuild": 8464,
      "Ġstrengt": 8465,
      "Ġmerciless": 8466,
      "ipping": 8467,
      "Ġpresented": 8468,
      "Ġrivalry": 8469,
      "Ġdesigner": 8470,
      "ĠRyouma": 8471,
      "Ġcircle": 8472,
      "ĠPeace": 8473,
      "ĠScience": 8474,
      "ĠWatashi": 8475,
      "ĠAlongside": 8476,
      "Ġcosts": 8477,
      "Ġartifacts": 8478,
      "ĠValley": 8479,
      "ĠCentral": 8480,
      "ĠFeeling": 8481,
      "ĠCheng": 8482,
      "Ġeasier": 8483,
      "ĠKatou": 8484,
      "ĠGunpla": 8485,
      "Ġtreatment": 8486,
      "ĠHeavenly": 8487,
      "ĠHiiragi": 8488,
      "Ġdolls": 8489,
      "classman": 8490,
      "Ġmixed": 8491,
      "Ġelectric": 8492,
      "STER": 8493,
      "Ġcyborgs": 8494,
      "Ġbanished": 8495,
      "Ġsatisfy": 8496,
      "ĠKisaragi": 8497,
      "Ġsuggests": 8498,
      "ĠMobile": 8499,
      "ĠJanuary": 8500,
      "Ġdialogue": 8501,
      "ĠPacific": 8502,
      "restrial": 8503,
      "ĠGoogle": 8504,
      "Con": 8505,
      "HS": 8506,
      "IL": 8507,
      "bage": 8508,
      "called": 8509,
      "kom": 8510,
      "know": 8511,
      "ov": 8512,
      "vi": 8513,
      "vable": 8514,
      "iner": 8515,
      "Ġselling": 8516,
      "isor": 8517,
      "anai": 8518,
      "arc": 8519,
      "Ġdirty": 8520,
      "aser": 8521,
      "ĠAge": 8522,
      "ĠAoba": 8523,
      "iman": 8524,
      "ĠST": 8525,
      "ĠSeveral": 8526,
      "ĠMun": 8527,
      "Ġlibrary": 8528,
      "ĠHous": 8529,
      "agiri": 8530,
      "ĠRiki": 8531,
      "eman": 8532,
      "ĠBak": 8533,
      "ulations": 8534,
      "ĠNaru": 8535,
      "ifies": 8536,
      "ĠWall": 8537,
      "earcher": 8538,
      "ĠGam": 8539,
      "ĠGood": 8540,
      "ĠGeki": 8541,
      "ĠOot": 8542,
      "ĠOcean": 8543,
      "ĠEld": 8544,
      "ĠFinally": 8545,
      "ĠPur": 8546,
      "Ġitem": 8547,
      "uded": 8548,
      "ĠLab": 8549,
      "Ġshell": 8550,
      "Ġkai": 8551,
      "Ġhasn": 8552,
      "Ġunve": 8553,
      "Ġabroad": 8554,
      "Ġspots": 8555,
      "Ġexample": 8556,
      "Ġje": 8557,
      "Ġclay": 8558,
      "Ġclothing": 8559,
      "izou": 8560,
      "Ġprin": 8561,
      "occh": 8562,
      "Ġadvers": 8563,
      "Ġrespected": 8564,
      "Ġ28": 8565,
      "Ġanimator": 8566,
      "aza": 8567,
      "Ġwhereabouts": 8568,
      "ples": 8569,
      "Ġsurf": 8570,
      "Ġcontem": 8571,
      "afu": 8572,
      "type": 8573,
      "Ġslaughter": 8574,
      "Ġdetectives": 8575,
      "Ġheaded": 8576,
      "Ġstopping": 8577,
      "ĠFran": 8578,
      "Ġrepair": 8579,
      "ĠGran": 8580,
      "Ġsitting": 8581,
      "ĠSatomi": 8582,
      "ĠPlan": 8583,
      "ushika": 8584,
      "ĠMiho": 8585,
      "Ġsending": 8586,
      "Ġkidnapping": 8587,
      "Ġsuffer": 8588,
      "Shop": 8589,
      "Ġdefending": 8590,
      "Ġfulfilling": 8591,
      "ĠUniversal": 8592,
      "ĠHinako": 8593,
      "ĠValk": 8594,
      "Ġvalue": 8595,
      "Ġimmortality": 8596,
      "Ġobjective": 8597,
      "worldly": 8598,
      "ĠKokoro": 8599,
      "Ġhousew": 8600,
      "Ġloyalty": 8601,
      "Ġbelongs": 8602,
      "ĠHolmes": 8603,
      "Ġconfronted": 8604,
      "OMAY": 8605,
      "Ġhybrid": 8606,
      "Ġtwisted": 8607,
      "Ġracer": 8608,
      "ĠBandai": 8609,
      "Ġdisturbing": 8610,
      "Ġseverely": 8611,
      "Ġcandidate": 8612,
      "Ġpuzzle": 8613,
      "steps": 8614,
      "ĠVictor": 8615,
      "ĠTechn": 8616,
      "UTOMAY": 8617,
      "Ġtroops": 8618,
      "Ġconvenience": 8619,
      "Ġdilig": 8620,
      "Ġgigantic": 8621,
      "ĠRuby": 8622,
      "ĠGinga": 8623,
      "Ġrookie": 8624,
      "ĠSanrio": 8625,
      "Ġmasturb": 8626,
      "UTOMAYO": 8627,
      "Note": 8628,
      "RO": 8629,
      "box": 8630,
      "feng": 8631,
      "gl": 8632,
      "gant": 8633,
      "his": 8634,
      "lom": 8635,
      "met": 8636,
      "oof": 8637,
      "ran": 8638,
      "run": 8639,
      "Ġavenge": 8640,
      "isaki": 8641,
      "isma": 8642,
      "Ġwalls": 8643,
      "Ġwreak": 8644,
      "Ġfuel": 8645,
      "Ġbent": 8646,
      "onel": 8647,
      "enix": 8648,
      "itan": 8649,
      "oue": 8650,
      "ouji": 8651,
      "Ġhate": 8652,
      "Ġholy": 8653,
      "aron": 8654,
      "Ġmas": 8655,
      "Ġmil": 8656,
      "Ġmedi": 8657,
      "Ġmuseum": 8658,
      "Ġpant": 8659,
      "ĠTab": 8660,
      "ĠAir": 8661,
      "ĠSang": 8662,
      "ĠMut": 8663,
      "ĠMartial": 8664,
      "amble": 8665,
      "story": 8666,
      "Ġrely": 8667,
      "olive": 8668,
      "akami": 8669,
      "Ġangry": 8670,
      "ĠHonda": 8671,
      "Ġvs": 8672,
      "ĠBok": 8673,
      "ĠNem": 8674,
      "ĠWing": 8675,
      "ĠDore": 8676,
      "ivity": 8677,
      "Ġritual": 8678,
      "ĠGon": 8679,
      "ĠYomi": 8680,
      "Ġyen": 8681,
      "uper": 8682,
      "ĠFight": 8683,
      "iker": 8684,
      "âĢĭ": 8685,
      "âĢĵ": 8686,
      "ĠAnne": 8687,
      "ĠInaz": 8688,
      "astically": 8689,
      "Ġnoticed": 8690,
      "ogether": 8691,
      "Ġprequel": 8692,
      "Ġgrandson": 8693,
      "Ġbranch": 8694,
      "ĠThanks": 8695,
      "Ġpeak": 8696,
      "Ġrose": 8697,
      "Ġoffered": 8698,
      "Ġsects": 8699,
      "Ġcrum": 8700,
      "Ġscore": 8701,
      "ĠAlic": 8702,
      "ĠZUTOMAYO": 8703,
      "Ġretire": 8704,
      "Ġcreep": 8705,
      "ĠRev": 8706,
      "Ġcreative": 8707,
      "minent": 8708,
      "ĠDrag": 8709,
      "Ġheadquarters": 8710,
      "Ġexploration": 8711,
      "Ġelf": 8712,
      "Ġterm": 8713,
      "ĠKuro": 8714,
      "Ġopposing": 8715,
      "Ġdevoted": 8716,
      "bruary": 8717,
      "Ġinsects": 8718,
      "Ġtrees": 8719,
      "ĠCrimson": 8720,
      "Ġcollapse": 8721,
      "Ġminor": 8722,
      "Through": 8723,
      "Ġfocused": 8724,
      "Ġprincesses": 8725,
      "Ġmovement": 8726,
      "Ġparticipating": 8727,
      "Ġprofession": 8728,
      "Ġconditions": 8729,
      "Ġconquest": 8730,
      "Ġwitnessed": 8731,
      "Ġ2021": 8732,
      "ĠAzusa": 8733,
      "ĠGalactic": 8734,
      "Ġinternal": 8735,
      "Ġhonest": 8736,
      "ĠTsubaki": 8737,
      "Ġlucky": 8738,
      "Ġsilent": 8739,
      "Ġenrolled": 8740,
      "ĠRanma": 8741,
      "Ġsafely": 8742,
      "Ġfields": 8743,
      "Ġpunishment": 8744,
      "ĠKusanagi": 8745,
      "Ġbetrayed": 8746,
      "Ġphotograph": 8747,
      "Ġautom": 8748,
      "ĠMichael": 8749,
      "Ġburning": 8750,
      "Ġcalam": 8751,
      "Ġintimate": 8752,
      "Ġfragile": 8753,
      "Ġapparently": 8754,
      "ĠfiancÃ©e": 8755,
      "knowing": 8756,
      "ELL": 8757,
      "Ġaspires": 8758,
      "Ġdeserted": 8759,
      "Ġsignificant": 8760,
      "Ġlaunched": 8761,
      "Ġquirky": 8762,
      "Ġcartoon": 8763,
      "Ġillegal": 8764,
      "Ġglimpse": 8765,
      "ĠCrystal": 8766,
      "Ġrogue": 8767,
      "Ġoblivious": 8768,
      "Ġtreacherous": 8769,
      "ĠSeptember": 8770,
      "ĠNippon": 8771,
      "ĠVNDB": 8772,
      "15": 8773,
      "17": 8774,
      "If": 8775,
      "UM": 8776,
      "cient": 8777,
      "eks": 8778,
      "iqu": 8779,
      "lim": 8780,
      "lore": 8781,
      "powers": 8782,
      "right": 8783,
      "Ġsits": 8784,
      "rem": 8785,
      "Ġwave": 8786,
      "Ġfine": 8787,
      "Ġboring": 8788,
      "Ġhall": 8789,
      "Ġhires": 8790,
      "Ġharem": 8791,
      "Ġmap": 8792,
      "Ġmafia": 8793,
      "lement": 8794,
      "ĠTana": 8795,
      "ĠAce": 8796,
      "imination": 8797,
      "Ġgorge": 8798,
      "ĠMask": 8799,
      "Ġling": 8800,
      "Ġrever": 8801,
      "utions": 8802,
      "Ġanger": 8803,
      "ĠHao": 8804,
      "ĠKings": 8805,
      "ĠKoto": 8806,
      "roc": 8807,
      "uments": 8808,
      "ĠCH": 8809,
      "ĠCons": 8810,
      "ĠCosm": 8811,
      "ĠRio": 8812,
      "ĠBird": 8813,
      "ĠNiss": 8814,
      "ĠNico": 8815,
      "Ġrig": 8816,
      "Ġrush": 8817,
      "Ġchose": 8818,
      "Ġchased": 8819,
      "Ġyellow": 8820,
      "ĠEmer": 8821,
      "ĠFighter": 8822,
      "Ġseventh": 8823,
      "iken": 8824,
      "ĠLum": 8825,
      "ĠJim": 8826,
      "inding": 8827,
      "Ġabnormal": 8828,
      "Ġshogun": 8829,
      "Ġexcell": 8830,
      "ĠShind": 8831,
      "astical": 8832,
      "ells": 8833,
      "uber": 8834,
      "awari": 8835,
      "Ġtwelve": 8836,
      "azed": 8837,
      "Ġsecure": 8838,
      "Ġimminent": 8839,
      "Ġhelpl": 8840,
      "ĠVanguard": 8841,
      "ĠVHS": 8842,
      "playing": 8843,
      "ĠZhi": 8844,
      "eking": 8845,
      "Ġmusician": 8846,
      "Ġbliss": 8847,
      "grade": 8848,
      "Ġrecre": 8849,
      "Ġremark": 8850,
      "Ġretreat": 8851,
      "ĠWithout": 8852,
      "ĠUnlike": 8853,
      "ĠXi": 8854,
      "Ġflour": 8855,
      "redict": 8856,
      "Ġ300": 8857,
      "ministr": 8858,
      "Ġedge": 8859,
      "ĠAmuro": 8860,
      "Ġcompleted": 8861,
      "Ġvolunte": 8862,
      "Ġlocked": 8863,
      "ĠLee": 8864,
      "Ġinfinite": 8865,
      "ĠNove": 8866,
      "ĠTomo": 8867,
      "Ġideals": 8868,
      "Ġharass": 8869,
      "Ġharbors": 8870,
      "ĠKeisuke": 8871,
      "ĠKamui": 8872,
      "ĠFlame": 8873,
      "ĠYukimura": 8874,
      "Ġblackm": 8875,
      "ĠSanada": 8876,
      "Ġcontained": 8877,
      "Ġuncovers": 8878,
      "Ġfootsteps": 8879,
      "Ġdivision": 8880,
      "Ġmaids": 8881,
      "ĠHayashi": 8882,
      "ĠKotarou": 8883,
      "Ġproposes": 8884,
      "Ġflees": 8885,
      "Ġsalvation": 8886,
      "ĠColor": 8887,
      "Ġfinish": 8888,
      "Ġboxing": 8889,
      "ĠValent": 8890,
      "Ġmiracle": 8891,
      "ĠCenter": 8892,
      "ĠFebruary": 8893,
      "ĠGuardian": 8894,
      "ĠMelody": 8895,
      "ĠKamiusagi": 8896,
      "Ġmischief": 8897,
      "Ġclimb": 8898,
      "Ġdamage": 8899,
      "Ġtomboy": 8900,
      "Ġconfronts": 8901,
      "Ġhurt": 8902,
      "Ġdrops": 8903,
      "Ġconvinced": 8904,
      "Ġholiday": 8905,
      "Ġinventor": 8906,
      "ĠAtsushi": 8907,
      "ĠGermany": 8908,
      "Ġanxiety": 8909,
      "Ġinevitable": 8910,
      "Ġplagued": 8911,
      "ĠPilot": 8912,
      "ĠChitose": 8913,
      "Ġvocals": 8914,
      "ĠErogeShop": 8915,
      "ĠGekijou": 8916,
      "Ġhelpless": 8917,
      ".'": 8918,
      "21": 8919,
      "His": 8920,
      "Le": 8921,
      "OBI": 8922,
      "dream": 8923,
      "iam": 8924,
      "spir": 8925,
      "vin": 8926,
      "wd": 8927,
      "wielding": 8928,
      "yoshi": 8929,
      "ĠÎ": 8930,
      "Ġtire": 8931,
      "Ġaward": 8932,
      "isible": 8933,
      "Ġfed": 8934,
      "Ġbump": 8935,
      "atte": 8936,
      "enc": 8937,
      "anari": 8938,
      "Ġcosm": 8939,
      "Ġtot": 8940,
      "aling": 8941,
      "along": 8942,
      "omura": 8943,
      "lets": 8944,
      "ĠTar": 8945,
      "ĠAby": 8946,
      "imm": 8947,
      "Ġthieves": 8948,
      "ĠSuk": 8949,
      "ĠSection": 8950,
      "Ġnorm": 8951,
      "ĠMother": 8952,
      "ĠMost": 8953,
      "ĠMami": 8954,
      "ĠMameshiba": 8955,
      "Ġlion": 8956,
      "Ġlake": 8957,
      "olph": 8958,
      "otan": 8959,
      "ĠKor": 8960,
      "ĠKad": 8961,
      "acies": 8962,
      "Ġascend": 8963,
      "agn": 8964,
      "ĠCamp": 8965,
      "ĠCaf": 8966,
      "ĠBest": 8967,
      "ĠIi": 8968,
      "Ġalle": 8969,
      "ulf": 8970,
      "Ġtrick": 8971,
      "Ġrushes": 8972,
      "ĠGarden": 8973,
      "ĠYen": 8974,
      "ĠForm": 8975,
      "ĠFuku": 8976,
      "ĠPC": 8977,
      "ĠPast": 8978,
      "ĠPresident": 8979,
      "oker": 8980,
      "ikuman": 8981,
      "ĠLine": 8982,
      "Ġkar": 8983,
      "Ġunch": 8984,
      "Ġunknowing": 8985,
      "Ġwasn": 8986,
      "ctuary": 8987,
      "ĠShana": 8988,
      "ĠUFO": 8989,
      "ĠInside": 8990,
      "ĠInitial": 8991,
      "ubborn": 8992,
      "assion": 8993,
      "Ġadoles": 8994,
      "Ġprefer": 8995,
      "Ġarise": 8996,
      "perien": 8997,
      "ugen": 8998,
      "ishiro": 8999,
      "ĠItou": 9000,
      "Ġblessed": 9001,
      "Ġanymore": 9002,
      "Ġactive": 9003,
      "awaited": 9004,
      "Ġlongs": 9005,
      "ĠYoukai": 9006,
      "ĠAtl": 9007,
      "ĠAmidst": 9008,
      "Ġphantom": 9009,
      "ĠKanzaki": 9010,
      "Ġmetal": 9011,
      "Ġgoods": 9012,
      "Ġdelicate": 9013,
      "Ġfounded": 9014,
      "ĠHaruto": 9015,
      "ĠKaze": 9016,
      "Ġthrust": 9017,
      "Ġcombine": 9018,
      "oroz": 9019,
      "ĠShortly": 9020,
      "Though": 9021,
      "beat": 9022,
      "Ġvictorious": 9023,
      "Ġcultural": 9024,
      "Ġmotives": 9025,
      "eroom": 9026,
      "Ġfantastical": 9027,
      "ĠKoji": 9028,
      "Ġrequire": 9029,
      "Ġcamping": 9030,
      "Ġimagine": 9031,
      "Ġparticipants": 9032,
      "Ġsurroundings": 9033,
      "Ġabsence": 9034,
      "imiya": 9035,
      "Ġzero": 9036,
      "Ġtemper": 9037,
      "Ġlesson": 9038,
      "Ġ2022": 9039,
      "Ġmurderer": 9040,
      "Ġdomination": 9041,
      "Ġsales": 9042,
      "Ġinnocence": 9043,
      "Ġfortun": 9044,
      "Ġoccurren": 9045,
      "Ġvalues": 9046,
      "Ġemployees": 9047,
      "Ġequally": 9048,
      "Ġinstrument": 9049,
      "Ġdepicted": 9050,
      "Ġhouses": 9051,
      "Ġandroids": 9052,
      "ĠNetwork": 9053,
      "Ġunpredict": 9054,
      "ĠNyan": 9055,
      "Ġimpression": 9056,
      "Ġenthusiastic": 9057,
      "Ġexclusively": 9058,
      "Ġprosperous": 9059,
      "ĠRainbow": 9060,
      "Ġcrystal": 9061,
      "Ġcrystals": 9062,
      "ĠTemple": 9063,
      "ĠService": 9064,
      "Black": 9065,
      "ĠWarrior": 9066,
      "ĠWarriors": 9067,
      "Ġtemporarily": 9068,
      "ĠSenshi": 9069,
      "ĠRoad": 9070,
      "Ġrevelation": 9071,
      "ĠMizuho": 9072,
      "ĠPonk": 9073,
      "Ġcasual": 9074,
      "ĠWatanabe": 9075,
      "ĠKinnikuman": 9076,
      "Ġgorgeous": 9077,
      "OX": 9078,
      "SP": 9079,
      "We": 9080,
      "book": 9081,
      "duce": 9082,
      "fe": 9083,
      "iot": 9084,
      "mir": 9085,
      "pop": 9086,
      "path": 9087,
      "tag": 9088,
      "vest": 9089,
      "zer": 9090,
      "zhou": 9091,
      "Ġtact": 9092,
      "Ġtorn": 9093,
      "Ġsan": 9094,
      "erving": 9095,
      "iser": 9096,
      "Ġwaves": 9097,
      "Ġfare": 9098,
      "Ġbow": 9099,
      "atisf": 9100,
      "enced": 9101,
      "enni": 9102,
      "Ġcos": 9103,
      "Ġcore": 9104,
      "Ġhits": 9105,
      "aria": 9106,
      "Ġmish": 9107,
      "Ġpicks": 9108,
      "Ġdaring": 9109,
      "ĠTori": 9110,
      "ĠTetsu": 9111,
      "ĠAim": 9112,
      "ĠAika": 9113,
      "ĠAiri": 9114,
      "illy": 9115,
      "ĠSim": 9116,
      "Ġge": 9117,
      "ĠMill": 9118,
      "ĠMond": 9119,
      "ĠMitsu": 9120,
      "otome": 9121,
      "etta": 9122,
      "Ġstake": 9123,
      "Ġstubborn": 9124,
      "urry": 9125,
      "igade": 9126,
      "ĠHumans": 9127,
      "terfly": 9128,
      "Ġwhale": 9129,
      "roph": 9130,
      "umon": 9131,
      "ĠRum": 9132,
      "ĠRiku": 9133,
      "ĠRider": 9134,
      "emed": 9135,
      "ĠBad": 9136,
      "ĠBub": 9137,
      "apocalyptic": 9138,
      "osis": 9139,
      "ĠNohara": 9140,
      "ĠWuk": 9141,
      "Ġrail": 9142,
      "ĠGak": 9143,
      "ĠOper": 9144,
      "ĠEight": 9145,
      "ĠPen": 9146,
      "ĠPalace": 9147,
      "Ġcomical": 9148,
      "Ġka": 9149,
      "aveling": 9150,
      "abuki": 9151,
      "abara": 9152,
      "Ġintended": 9153,
      "Ġjewel": 9154,
      "Ġlog": 9155,
      "istocr": 9156,
      "Ġclue": 9157,
      "ĠInoue": 9158,
      "owned": 9159,
      "Ġfeed": 9160,
      "Ġgrab": 9161,
      "Ġotherworldly": 9162,
      "ichiro": 9163,
      "Ġhumor": 9164,
      "ipment": 9165,
      "Ġstoryline": 9166,
      "Ġattached": 9167,
      "ultaneously": 9168,
      "Ġscout": 9169,
      "Ġinvade": 9170,
      "Ġblade": 9171,
      "Ġentities": 9172,
      "Ġunderworld": 9173,
      "aterrestrial": 9174,
      "Ġrecalls": 9175,
      "ĠArk": 9176,
      "ashing": 9177,
      "Ġrelatives": 9178,
      "Ġretelling": 9179,
      "ressing": 9180,
      "Ġpersever": 9181,
      "pecting": 9182,
      "ĠPrincip": 9183,
      "Ġflies": 9184,
      "astern": 9185,
      "Ġswitch": 9186,
      "ĠShiina": 9187,
      "Ġconfident": 9188,
      "Ġseconds": 9189,
      "ohama": 9190,
      "Ġtowns": 9191,
      "ologue": 9192,
      "too": 9193,
      "Ġcentral": 9194,
      "eyed": 9195,
      "Ġerr": 9196,
      "Ġkindergarten": 9197,
      "ĠNoel": 9198,
      "ĠSecurity": 9199,
      "Ġpolar": 9200,
      "Ġ2010": 9201,
      "Ġmastermind": 9202,
      "Ġrefuse": 9203,
      "Ġ40": 9204,
      "Ġthrow": 9205,
      "Ġoccult": 9206,
      "ĠKouichi": 9207,
      "ĠMonsters": 9208,
      "Ġpursues": 9209,
      "ĠAyase": 9210,
      "ĠExc": 9211,
      "ĠAdvent": 9212,
      "Ġrebel": 9213,
      "ĠDemons": 9214,
      "Ġtechnological": 9215,
      "Ġfriendships": 9216,
      "Ġresponse": 9217,
      "Ġcertainly": 9218,
      "ĠZhou": 9219,
      "ĠMiya": 9220,
      "Ġ60": 9221,
      "Ġcycle": 9222,
      "Ġraising": 9223,
      "ployed": 9224,
      "ĠMayu": 9225,
      "ĠAzuma": 9226,
      "ĠErika": 9227,
      "Ġincrease": 9228,
      "ĠDouban": 9229,
      "Ġlevels": 9230,
      "Ġexception": 9231,
      "Ġawakening": 9232,
      "Ġburied": 9233,
      "Ġvillainous": 9234,
      "Ġpatients": 9235,
      "Ġwarmth": 9236,
      "Ġbirds": 9237,
      "Ġrepresentative": 9238,
      "Ġworried": 9239,
      "Ġunwilling": 9240,
      "Ġfolklore": 9241,
      "Ġproperly": 9242,
      "Ġheavenly": 9243,
      "Ġsenses": 9244,
      "ĠRikka": 9245,
      "ĠShizuku": 9246,
      "Ġbullies": 9247,
      "Ġprosperity": 9248,
      "Ġblossoms": 9249,
      "Ġlurking": 9250,
      "ASOBI": 9251,
      "Ġwounded": 9252,
      "Ġridiculous": 9253,
      "Ġextraterrestrial": 9254,
      "Ġnickname": 9255,
      "Ġconstruction": 9256,
      "Ġcritical": 9257,
      "Ġglasses": 9258,
      "Ġmotivation": 9259,
      "Ġconversation": 9260,
      "Ġadmiration": 9261,
      "Ġfeudal": 9262,
      "Ġbudding": 9263,
      "Ġdropped": 9264,
      "Ġvehicle": 9265,
      "ĠMcD": 9266,
      "ĠGraduate": 9267,
      "ĠImpact": 9268,
      "Ġsubmarine": 9269,
      "Ġuploaded": 9270,
      "episode": 9271,
      "ĠEnsemble": 9272,
      "Ġjeopard": 9273,
      "ĠAbyss": 9274,
      "ĠWukong": 9275,
      "27": 9276,
      "50": 9277,
      "AD": 9278,
      "CG": 9279,
      "IP": 9280,
      "Pro": 9281,
      "bad": 9282,
      "bara": 9283,
      "fare": 9284,
      "hoku": 9285,
      "hito": 9286,
      "iates": 9287,
      "lived": 9288,
[...]
